#version: 0.2
d e
e n
Ġ de
e s
o s
Ġ l
Ġ p
c i
Ġ c
Ġ a
e r
a r
a s
o n
Ġ s
o r
Ġ e
a n
a l
a d
Ã ³
t i
Ġl a
Ġ m
u e
en t
i n
r e
Ġ en
u n
Ġ y
q ue
Ã³ n
Ġ t
d i
Ġ es
Ġe l
a ci
Ġ que
Ã Ń
Ġc on
r o
i c
Ã ¡
Ġ un
o m
Ġ n
Ġ h
t a
t e
r a
i s
i d
Ġs e
Ġ f
Ġ in
Ġl os
Ġ E
Ġ o
Ã ©
o l
aci Ã³n
Ġ re
Ġ v
e c
d o
t o
a m
Ġde l
Ġp ar
u l
r es
Ġ C
Ġc om
r i
Ġs u
Ġa l
ad o
Ġl as
Ġ di
Ġ S
ent e
Ġ A
t u
Ġ L
l e
Ġp or
Ġp ro
t er
Ġ g
Ġ d
b i
Ġ P
ÃŃ a
Ġ (
m i
t r
Ġun a
Ġpar a
Ã ±
a c
ci Ã³n
Ġ M
ti c
m p
a b
ti v
on es
u s
ar i
Ġ b
id ad
ent o
Ġn o
Ġm e
ci a
m a
Ã¡ s
t os
Ġp er
i z
q u
Ġ D
Ġc u
l o
ad a
u c
Ġde s
Ã º
t or
al es
ic a
Ġa n
d a
Ġ 1
Ġs i
u r
e l
i t
Ġe x
Ġa c
t en
Ġ i
i a
Ġt ra
Ġcom o
ent es
ad os
i l
f er
Ġ 2
m o
Ġes t
de n
Ġ T
d ad
g o
l a
Ġl o
i ci
Ġ R
Ġh a
i r
Ġ I
Ġm Ã¡s
an te
t es
Ġ ti
u m
ĠE s
er a
Ġ res
g u
i o
i v
s e
u es
Ã¡ n
m e
de s
t ro
ĠL a
i Ã³n
ic o
an do
p o
ĠE n
ÃŃ n
c o
ĠE l
m os
Ġt o
id a
Ġs o
b re
mi ento
Ġ ci
p er
Ġ N
en cia
Ġ "
r an
Ġ F
Ġcom p
t ra
ci d
Ġ H
Ġp re
Ġ G
a j
Ġp ue
c e
c u
Ġ B
Ġa s
Ġs er
Ġp o
m ente
Ġcon s
c a
b l
al iz
id o
aci ones
Ġp aci
Ġ U
or m
or es
Ġ ent
t as
r as
p a
m in
Ġm a
p e
o g
f ec
qu i
Ġme di
u d
Ġa p
0 0
Ġdi s
Ã© n
Ġp res
on al
) (
Ġes ta
r u
c h
i g
Ġm u
b le
c ul
f ic
Ġc a
t ar
Ã± os
Ġo b
Ġp r
am bi
Ġi mp
ti n
d uc
Ġ Ċ
c l
e mp
Ġc ar
d os
o ci
Ġsu s
ent os
tu di
Ġ J
ad as
i m
en e
v i
Ġ V
Ã© s
Ġ O
Ġes te
Ġp a
Ġper s
de r
Ġs on
m er
Ġso bre
Ġc as
Ġin f
Ġen fer
Ġm an
Ġin ter
Ġ r
Ġpaci entes
t al
es ti
Ġes tudi
) .
ti l
er s
m b
am ente
Ġtra ta
en ci
tic a
ĠI n
tiv o
Ġent re
Ġ j
e z
t an
ĠU n
en er
tic o
g un
Ġs al
Ġp os
g n
ÃŃ s
ari o
Ġde b
en s
Ã± o
Ġc l
c on
Ġl e
Ãº n
Ġ or
ol og
ĠS e
Ġa r
Ġ 3
Ġp ri
ic os
u er
Ġs in
c es
or a
bi l
ar a
en do
p l
in a
Ġm o
tr os
) ,
ter i
uc h
p or
Ġt e
ci al
ec es
ci ones
Ġpue de
c er
Ġa d
p on
i e
Ġpers on
Ġma y
t ri
p os
Ġh ac
v en
Ġc or
g a
j e
n a
di c
ambi Ã©n
Ã³ g
Ġa Ã±os
p ec
Ġenfer me
ic as
f ici
Ġ u
Ġf or
l an
ari a
m as
ĠL os
Ġin v
ent a
Ġc ol
Ġre aliz
ĠC on
ci p
j er
tiv a
Ġ bi
l os
Ġtrata miento
h e
Ġm Ã©
ÃŃ as
an a
Ġme j
t ados
is te
ro l
v e
Ġper o
Ġo f
Ġn i
b aj
olog ÃŃa
Ġ -
is mo
e b
Ġ us
g an
Ġe v
ida des
er o
ar on
Ġd os
Ġ Â
ul ar
Ġ ri
Ġ2 0
f es
Ġs ol
ue v
Ġh an
ti s
Ġ qu
Ġ 4
pa Ã±
Ġm en
ari os
n o
Ġa u
Ġre c
b a
Ġsal ud
Ġl i
esti g
g ra
Ġmay or
Ġn e
Ġt ambiÃ©n
r en
z a
j o
Ġin s
p i
Ġtra baj
re c
i ones
Ġf un
d as
Ġa b
Ġmu y
Ġ 5
er v
ci on
Ġes pe
Ġm uch
Ġs an
Ġt en
l as
p it
Ġn eces
Ġh e
Ġy a
Ġd ur
tr as
da des
Ġl le
ol Ã³g
Ġc al
Ġh i
ar rol
c ar
d r
l ic
Ġre l
Ġpos i
Ġt an
Ġc re
Ã© r
id os
Ġn ues
p ar
Ġm i
ĠR e
ti r
g ar
g r
t om
Ã³ s
Ġ1 9
al mente
Ġfor ma
ti tu
am os
t ado
ĠA l
Ġd a
l es
Ġf ue
Ġestudi o
tiv os
Ġh ab
Ġmej or
tu ra
Ġres ul
g en
Ġperson as
Ġdes arrol
Ġimp or
v is
Ġc o
Ġest Ã¡
Ġp as
â Ģ
g Ãºn
os pit
orm aciÃ³n
u y
Ġ Y
an o
Ġn uev
d u
tor es
Ġinv estig
r os
m Ã¡s
i on
Ġenferme dad
p res
Ġdi fer
tic as
Ġe mp
ĠM e
ad ores
Ġin cl
c ri
Ġpro fes
ad or
t ante
Ġre g
Ġha y
enci as
an tes
as ta
Ġt ras
Ġu til
Ġto do
" ,
on a
qui er
Ġp e
Ġpue den
l ar
Ġdur ante
ab le
z o
bil idad
Ġg ener
Ġn os
Ġv er
ĠD e
ĠC om
f ica
Ġc ada
tic os
ĠL as
Ġri es
m an
Ġdi a
ec h
Ġg ran
Ġa de
Ġ 6
Ġti ene
l i
Ġpro duc
Ġal gun
Ġcu ando
Ġt u
ar se
Ġ2 00
Ġf in
Ġdes de
aci onal
o c
Ġe fec
Ġv ida
gu i
ĠP or
Ġcu al
am i
Ġ20 1
iv ers
Ġv al
Ġg ru
t aciÃ³n
g os
Ġpar te
Ġt ran
Ġpaci ente
p ues
Ġ do
Ġcl ÃŃn
Ġp i
Ġdia gn
Ġutil iz
Ġe mb
g i
ĠA s
Ã¡ l
u ro
e m
Ã© c
Ġm ar
is ten
Ãº l
ÃŃ an
ĠA n
Ġ âĢ
p aci
Ġo tros
v er
ci r
Ġpres ent
Ġh asta
Ġp u
Ġd on
in cip
" .
aci on
Ġc er
ĠD E
Ġries go
iv el
Ġc ent
Ġti emp
Ġtran s
c re
u ciÃ³n
Ġac tiv
m ac
a y
Ġ Ã¡
di o
u en
ospit al
Ġes tos
am il
Ġto dos
f i
l am
e a
ĠS an
ten ciÃ³n
Ġpro ble
er on
Ġb as
Ġpr incip
ĠS al
mi entos
en en
Ġn ivel
Ã³ lo
ti on
ĠN o
tu r
in g
Ġas ÃŃ
Ġv is
Ġre ci
c as
p ia
Ġpri mer
p u
Ãºl ti
Ġde n
s o
Ġc an
Ġl es
Ġ w
Ġs iste
ar es
Ġan d
n os
i de
g res
Ġtiemp o
Ġa y
Ã© l
v o
ar go
Ġcas os
Ġac tu
E N
i b
Ġs ÃŃn
Ġob s
ami ento
ci o
Ġc r
Ġti po
Ġespe cial
Ġt he
Ġbi en
Ġca us
Ġcas o
Ġsu per
Ġex per
C I
Ġhac er
ce p
Ġf ac
Ġmu jer
te c
Ġf uer
Ġob je
E S
Ġcom un
t h
Ġm is
Ġtan to
Ġdeb e
Ġpar ti
Ġa Ã±o
Ġ 7
re cu
Ġa fec
is is
Ġl u
E R
p en
x i
ces o
Ġv ez
ÃŃ cul
Ġm es
ĠS i
c an
Ġcon tro
Ġp es
tiv as
ue l
t re
b er
Ġa um
Ġdon de
Ġf amil
om a
Ġ ra
os a
Ġc ambi
den cia
ĠEs paÃ±
di co
i ta
g ÃŃa
Ġg r
is t
Ġpri m
Ġtrabaj o
Ġan ti
Ġt er
j a
Ġcomp le
Ġper mi
un to
un que
ĠM ar
a v
Ã³s tico
Ġes c
tor ia
O S
Ġ 8
v ers
Ġb aj
ĠÂ ¿
aci a
O N
Ġa gu
Ġf recu
Ã¡ c
Ġmen os
Ġcon tra
ari as
Ġd ÃŃa
al u
ĠUn ivers
u al
is ta
Ġser v
tr uc
Ġ K
Ã¡n cer
Ġd ol
Ġp ol
i os
Ġas oci
ol a
e d
ici o
Ġt ener
Ġest Ã¡n
in o
Ġun o
Ġm un
Ġsi gn
Ġ 9
Ġc am
Ġdi rec
Ġ W
Ġ qui
Ġf u
Ġg en
Ã©c n
Ġex pl
teri or
ĠP ro
or d
an os
Ġin fec
Ġhac e
Ġ ro
pu Ã©s
Ġresul tados
Ġb uen
v an
A R
di a
y ec
ĠSal ud
Ġa m
Ġgru po
Ġinf ormaciÃ³n
Ġo tras
ten s
g ur
ĠC ar
Ġc ab
Ãº bl
ci s
Ġpor que
l u
Ġal im
Ġni Ã±os
ter a
ĠC u
ul a
e t
Ã³ r
Ġ1 0
ab a
Ġ Q
m ent
Ġti enen
Ġpo dr
min is
Ġ Ãºlti
Ġc os
Ġh um
Ġ 0
al idad
un d
ti fic
ac ter
ar Ã¡
A S
ĠP ara
Ã¡ r
Ġg ra
Ġpo bl
bl es
Ġor gan
Ġsiste ma
Ġpa ÃŃs
ci na
i as
Ġc Ã¡ncer
Ġdo c
Ġus o
Ġm ismo
Ġimpor tante
ch a
h a
Ġpro gra
Ġe dad
Ġf orm
Ġse c
Ġrec om
Ġda tos
Ã³ m
ul as
i fic
Ġin di
Ġestudi os
Ġp lan
ec e
Ġmedi c
id as
Ġm as
ab e
Ġp s
Ġt era
Ġlle v
Ġdol or
en o
e o
ti do
Ġde f
Ġmujer es
ab les
it ar
ter min
aj e
ch o
Ġt Ã©cn
Ġsi tu
Ġe j
i ciÃ³n
Ġs ido
Ġm al
Ġp l
g re
Ã¡l isis
Ġa tenciÃ³n
ab or
iz aciÃ³n
Ġo p
Ġdesarrol lo
Ġt om
Ġpu bl
Ġen con
ci as
e dad
z ar
Ġe t
I C
Ġinvestig aciÃ³n
Ġm il
Ġh er
ven ciÃ³n
Ġenferme dades
cul ar
tor io
j os
ĠD es
Ġdiagn Ã³stico
Ġparti cip
ol es
ent al
Ġest as
i den
Ġh om
Ġe qui
Ġdes puÃ©s
en d
Ġso ci
o y
ech o
ion ales
Ġse gÃºn
Ġap lic
Ġsan it
Ġf al
Ġ er
Ġv e
i or
bi er
Ã© u
re a
Ã± a
Ġm om
c ur
Ġm or
p s
Ġtra v
Ġcon oci
p ro
Ġcon f
ĠmÃ© dico
Ġn a
cu ent
ci onal
g e
Ġm ues
Ġse gu
Ġdifer entes
Ġlu gar
Ġde termin
Ġsu b
Ġ Ã
mer o
Ġv ari
Ġtrav Ã©s
Ġp ues
Ġan tes
om in
ent ÃŃ
Ġcontro l
tri b
2 0
Ġman era
t on
b r
emp re
Ġev alu
Ġnues tro
mi a
ici os
Ġcal idad
Ġp la
Ġ z
ar c
ta mente
tan cia
Ġcar acter
ĠM Ã©
Ãº s
Ġen cuent
as e
Ġo tro
Ġobs erv
Ġsol o
Ġgener al
t Ã³
ĠS u
O R
Ġt res
Ġsi gui
i en
us iÃ³n
Ġcu enta
Ġs en
Ġf r
ĠsÃŃn tom
us o
ci do
e ta
Ġn Ãº
ĠEs te
Ġcomp ar
Ġc Ã©l
Ġes to
Ġm in
Ġf ar
Ġd ÃŃas
Ġpobl aciÃ³n
Ġval or
Ġcon tin
er os
Ġa unque
i onal
Ġmedi ante
Ġprofes ionales
Ġv ol
Ġespe ci
Ġv i
ĠA de
en a
Ã³ mo
m un
que l
du cir
paci dad
Ġre vis
1 0
Ġcons i
Ġal ter
ĠEspaÃ± a
minis tr
Ġemb argo
Ġmedic am
Ġres pon
Ġrel acion
Ġproble mas
Ġh or
Ġre f
Ġc h
ĠC h
Ġin te
Ġes ti
A L
Ġfuer on
ĠL e
di ca
v al
Ġade mÃ¡s
Ġsi empre
Ġcon o
Ġprim era
os o
Ġla b
Ġn orm
ĠA r
i fica
am a
Ġt r
m is
Ġpubl ic
Ġpro p
ĠH ospital
Ġse a
e mos
c om
ĠAde mÃ¡s
Ġp on
ĠUnivers idad
v as
Ġmes es
Ġencon tr
Ġmuch o
Ġa h
A D
Ġv iv
Ġc e
Ġalgun os
t ÃŃcul
Ġf ÃŃs
Ġest ado
t ologÃŃa
Ġrel aciÃ³n
Ġse x
ĠâĢ ĵ
u da
ten er
ĠsÃŃntom as
m Ã¡
g ue
n e
Ġap ar
ĠS in
dic os
d ro
ĠEs ta
Ġin dic
ci miento
Ġto tal
1 2
Ġpro te
Ġ [
Ġmom ento
Ġp Ãºbl
Ġap ro
ta c
tin a
Ġr ad
Ġci entÃŃ
Ġel e
u tri
Ġfac tores
v a
ul ta
Ġposi ble
m ento
A N
ĠcÃ©l ulas
g as
Ġay ud
Ġpo co
ĠS oci
Ġpr ue
m on
c ent
Ġv a
Ġactiv idad
Ġpr Ã¡c
Ġest ar
Ġs ue
Ġto das
Ġt emp
Ġpro ceso
isten cia
Ġci ru
Ġel lo
Ġv ac
Ġincl uy
pec to
ent ar
Ġ1 5
in e
ul o
Ġa f
pues ta
ec er
in as
Ã© tica
ĠMe di
an cia
Ġl lam
Ġes pec
y o
Ġsign ifica
tan tes
Ġobje tivo
aci as
Ġan te
Ġcu er
Ġse Ã±
Ġej emp
Ġperson a
Ġcu r
ÃŃ o
t ad
Ġdis tin
Ġj u
Ġh echo
Ġhi per
ez a
Ġs Ã³lo
Ġpro ce
v id
ĠnÃº mero
er n
Ġmun do
Ġpro yec
Ġi den
ĠR es
r g
ĠD i
Ġv eces
Ġcer eb
is tas
b o
Ġse gun
Ġ1 8
Ġi r
Ġpi el
Ġc ul
Ġrealiz ar
Ġa quel
Ġc ri
Ġel ec
Ġ era
Ġcual quier
. ,
b res
u mo
duc ciÃ³n
Ġcon se
ĠC ol
Ġm on
ĠM a
u ir
u dad
i ble
Ġto da
en es
v il
ec u
ad r
ĠE x
te d
Ġo tra
Ġre con
di da
ĠIn s
Ġpe que
ci l
00 0
Ġade cu
Ġe jer
teri al
Ġqu Ã©
Ġel los
Ġv en
m or
Ġefec tos
Ġs ens
Ġ1 2
c os
Ġt al
tur al
r al
t Ã¡n
Ġh is
Ġdis min
Ġr en
Ġlo c
olÃ³g ico
ĠC a
l ec
Ġequi po
Ġ os
ic aciÃ³n
ĠUn a
Ġa po
Ġpers onal
al a
Ġnues tra
Ġcon di
Ġt ar
t s
Ġ19 9
d on
ra c
g ia
ĠclÃŃn ica
Ġmuch os
er te
Ġcontin u
Ġde tec
Ġso cial
Ġci er
Ġs ab
Ġg u
Ġv ir
Ġp ul
Ġmedi o
Ġ on
ul aciÃ³n
aliz aciÃ³n
ĠIn ter
Ġb ene
Ġdes cri
Ġes e
Ġm ie
Ġh ospital
i to
ĠâĢ ¢
Ġdos is
Ġha bi
Ġ ur
ci n
ri l
Ġin ici
di do
Ġci ento
f ÃŃa
ĠR o
Ġ Ã©
Ġconsi der
Ġre cu
Ġnuev o
Ġsin o
ĠN e
Ġt um
Ġp un
Ġde cir
ti dad
1 9
Ġan Ã¡lisis
f or
ol uciÃ³n
s os
Ġcuer po
Ġfun d
Ġre pres
Ġe vi
ĠÂ «
Ġor ig
Ġtras tor
ĠN acional
ĠP a
om e
t ada
Ġsu f
Ġad ministr
f ico
Ġc Ã³mo
Ġes o
Ġpo der
ent aciÃ³n
Ġejemp lo
i ar
g ado
Ġrec ur
Ġprogra ma
Ġm ad
ent ras
Ġun os
f a
Ġde j
Ġserv icios
Ġdi f
Ġde re
Ġbene fici
Ġd ar
Ã¡r mac
ĠP ar
Ġcu an
Ġex tra
iv a
Ġrecom end
di s
ĠC ent
Ġa mp
Ġa van
ĠC l
p le
ĠEn fer
r on
ic al
Ġproble ma
ĠV al
Ġp al
Ġar tÃŃcul
I N
Ġa mb
ta b
Ġmo de
Ġ Ã³
ĠT o
Ġe duc
Ġmayor ÃŃa
Ġfar mac
Ġa g
Ġdeb er
p as
b as
Ġ X
c or
er e
tera pia
Ã³ l
Ã© m
Ġcr Ã³n
ri g
os is
ue go
Ġal go
b e
Ġ '
ĠC i
gu al
ec n
Ġinf orm
v es
ic ro
Ġ3 0
c en
gur idad
Â »
Ġmedicam entos
Ġf i
abe tes
Ġm os
Ġexper i
ĠmÃ© to
em bre
Ġ Ãºn
bi r
olÃ³g ica
ĠmÃ© dicos
Ġs a
Ġbaj o
tu ras
Ġhor as
I I
ĠT ambiÃ©n
on as
z Ã³n
Ġf Ã¡rmac
Ġemb ara
Ġman i
Ġf ormaciÃ³n
Ġl ÃŃ
Ġvac un
Ġdef in
dro me
t aciones
Ġn in
Ġs ÃŃ
I S
s a
esti Ã³n
Ġfun ciÃ³n
Ġdis pon
Ġg l
Ġden tro
adr id
Ġac e
an za
1 5
Ġsi endo
e x
Ġejer ci
Ġiden tific
or al
Ġprofes ional
Ġciru gÃŃa
Ġin mun
Ġnivel es
de z
Ġmuch as
Ġdi se
Ġre fer
ri r
d ÃŃa
Ġdeb en
Ġindi vid
ab an
g er
Ġ Z
Ġmejor ar
av or
tiv amente
ÃŃs ticas
Ġv as
Ġes paÃ±
Ġde pen
Ã¡ g
Ġes p
Ġcaus a
I D
pos iciÃ³n
Ġl argo
Ġes per
Ġsitu aciÃ³n
Ġemp le
o p
Ġpes o
Ġci udad
Ġespec ÃŃ
Ġ is
Ġh acia
mer ÃŃa
Ġagu a
ĠE uro
pa t
Ġg as
Ġgru pos
Ġmis ma
ĠA c
Ġan aliz
ĠL A
Ġsan gre
ĠM an
E C
f un
Ġin cre
Ġfun cion
Ġf aci
f il
qu il
Ġinter n
ir m
u ra
Ġo cas
T A
Ġi de
dos e
ĠO r
ĠD is
Ġdi vers
ĠC as
ĠP re
O M
Ġcomp lic
1 1
ĠL o
Ġb us
Ġaum ento
ĠIns titu
Ġci r
Ġal ta
Ġb eb
y a
Ġau tor
ĠM adrid
Ġmi entras
Ġpres encia
u t
Ġpar tir
Ġcent ro
ĠMedi cina
Ġres puesta
Ġefec to
Ġpol ÃŃ
ente mente
Ġcar dio
fic os
f e
pres iÃ³n
tu d
Ġper io
Ġre la
Ġof re
Ġp el
Ġp ens
Ġincl uso
Ġm ul
tr an
Ġfr ente
Ġm us
Ġp ad
Ġemp res
ĠP ero
E M
Ġev itar
i endo
Ġde mos
ÃŃ m
Ġcons ide
Ġcu mp
Ġap or
f o
Ġf avor
Ġn utri
ar an
ĠpaÃŃs es
g es
Ġse m
ta miento
Ġe con
Ġn om
olÃ³g icos
Ġcons umo
Ġac uer
Ġactiv idades
Ġfund am
Ġele v
di al
Ã¡ p
ri m
Ġneces ario
Ġmil l
Ġtrata mientos
e as
Ġad ul
Ġmen or
Ãº rg
Ġest ra
d an
ci den
Ġm g
Ġfamil ia
Ġpodr ÃŃa
Ġcol abor
tu al
res pon
Ġalgun as
Ġse lec
c el
cid os
gres o
b an
Ġinte gr
Ġes a
h i
g io
Ġmay ores
p Ã©u
Ġprincip al
Ġa se
ĠS erv
la z
ĠE N
j as
Ġ1 4
ĠG u
Ġcomp ro
a tro
ic amente
Ġal can
iden te
Ġexpl ic
Ġmues tra
Ġdemos tr
de mos
min a
ci os
A C
Ġh oy
Ġah ora
EN T
Ġe di
Ġqu ir
Ġ k
o d
Ġt ecn
ĠD r
Ġinter es
Ġcom er
di r
i al
iv o
Ġpro por
1 4
Ġdi abetes
x im
Ġpa p
Ġps ic
Ġdeb ido
Ġcon duc
Ġcon ten
Ġg an
) :
i bilidad
Ġproduc tos
1 3
Ġpermi te
Ġesta ble
Ġet c
Ġcons ecu
h o
lo b
ĠCom o
Ġay uda
Ġca pacidad
fici encia
Ġes tr
Ġorgan iz
Ġalim entos
Ġpo ten
Ġres pecto
Ã¡ tica
Ġnuev a
Ġes cri
bi Ã³
Ġcon v
Ġ Ã©s
Ġpre gun
Ġinfec ciÃ³n
Ġ2 5
Ġci n
Ġsigui entes
Ġproce di
Ġtra tar
Ġcambi os
Ġau to
Ġpa t
Ġy o
ĠCon s
b in
Ġes truc
Ġbas e
ĠU N
Ġdesarrol l
ĠC o
cl us
Ġ5 0
ad amente
ol o
d or
o bier
m bi
Ġfrecu encia
ular es
ol u
por te
A M
ĠÃ ģ
Ġ1 3
Ġcomp a
ter io
ĠH e
Ġpro ces
Ġacuer do
Ġgr acias
Ġte j
Ġre ac
i mo
Ã¡ m
l er
Ġp unto
U E
Ġm ec
Ġcons titu
Ġo cur
Ġap ren
pi ra
Ġca p
Ġcar di
ĠP e
Ġhab er
Ġcor respon
w w
ĠprÃ¡c tica
x ico
Ġhab ÃŃa
Ġcab o
por t
ac a
ĠJ os
Ġesti m
it ario
Ġse guridad
tal idad
Ġ1 6
g l
ent an
Ġm ol
ĠJ u
Ġinvestig adores
ue la
Ġt or
Ġexperi encia
ti a
Ġreg is
Ġmie mb
Ġcu idad
Ġin de
Ġtera pÃ©u
Ġcon j
Ġm Ãºs
Ġf ib
Ġh al
Ġm er
Ġi gual
Ġna tural
Ġpre ven
Ġpr Ã³
Ġhis toria
ti ene
tor a
tiv idad
Ġab s
ï ¿
ï¿ ½
Ġest ad
Ġb o
Ġqui en
bil idades
Ġpro v
tens iÃ³n
Ġg ras
ĠG ener
es t
in f
t t
ĠIn v
Ġmill ones
Ġmedi a
Ġprincip ales
r ic
Ġin t
Ġayud ar
ec en
Ã± as
Ġb lo
ĠO b
Ġimpor tancia
Ġan im
Ġg us
Ġcaracter ÃŃsticas
Ġcono cer
Ġmos tr
Ġindivid u
Ġal to
Ġgra ve
Ġquir Ãºrg
Ġt ri
ĠT ra
Ġv ent
p re
Ġproyec to
Ġel i
Ġse man
i tos
ĠtÃ©cn ica
Ã¡ tico
Ġv arios
Ġnuev os
tin o
r ar
mi lar
Ġpar e
Ġan terior
% )
Ġlo gr
olog ÃŃas
Ġli mi
Ġm icro
Ġgran des
ĠCu ando
ĠE S
ĠAs ÃŃ
p ciÃ³n
s on
ad ora
Ġz ona
Ġpres enta
Ġcas i
Ġl ado
n i
Ġm Ã¡
Ġcuan to
d ar
Ġc el
Ġcambi o
Ġne uro
i des
Ġmu erte
di endo
Ġe p
ac e
quier e
Ġr Ã¡p
ĠC an
Ġfal ta
Ġprote ÃŃn
ÃŃ t
ac o
Ġfin al
Ġ2 4
Ġpro du
1 6
Ġcent ros
Ġex iste
ĠP R
p ir
ord in
or ma
y s
CI ON
t adas
v el
Ġserv icio
E s
cul ares
Ġma ter
ific aciÃ³n
Ġe pi
Ġf o
ĠartÃŃcul o
Ġpre par
ĠEs to
Ġpre venciÃ³n
T I
di fic
Ġvir us
Ġneces idad
ĠtÃ©cn icas
T R
z as
Ġ1 7
Ġsem ana
obier no
ar o
Ġre co
ĠseÃ± al
Ġs os
c al
Ġun ivers
Ġen s
Ġe mo
t ando
oles c
uy e
g or
te l
Ġser Ã¡
i ma
Ġecon Ã³m
Ġpas ado
Ġcons ul
ĠInstitu to
Ġbuen a
ĠCent ro
ch e
b ar
ĠA d
Ġtom ar
ĠsÃŃn drome
Ġcu id
Ġprue bas
Ġgr ado
ĠC or
ter o
Ġn ada
ĠInv estig
Ġcan tidad
Ġam bi
Ġin tra
as a
Ġinter venciÃ³n
p h
Ġsen tido
Ġb a
Ġes paci
Ġcu atro
cu p
fic as
Ġins titu
Ġdiagn os
Ġi ma
Ġcor rec
e mia
E D
tr ÃŃa
tor ios
u ma
Ġp Ã©r
Ġhom bres
1 8
1 7
it h
ul os
Ġdi rig
Ġcl as
Ġpres ente
Ġnuev as
Ġles iones
Ġce le
Ġse gui
di ente
i cia
it y
Ġcon tac
Ġh ospit
ĠfÃ¡rmac os
Ġni Ã±o
i tis
Ġl ec
Ġnues tros
Ġcor re
! !
f r
Ġespecial mente
Ġsi milar
ĠP res
Ġbi o
Ġcondi ciones
Ġhi po
Ġn aci
Ġpap el
ĠI N
Ġsec und
Ġejerci cio
Ġj unto
Ġinf lam
da p
pues to
Ġcon trib
Ġmedi das
Ġl ÃŃn
on o
Ġo l
gu ir
Ġli b
ĠE L
Ġser ie
Ġ %
Ġin ci
Ġdi eta
re z
Ġ Ã©l
Ġresul tado
p ti
Ġsab er
acion ales
Ġnorm al
Ġt ro
ĠEspaÃ± ola
Ġt ab
per aciÃ³n
Ġsi mp
ĠÃºlti mos
O L
Ġsoci ales
re as
ĠL u
Ġman tener
ac teri
qu ÃŃ
Ġcardio vas
ac to
Ġf is
mi o
Ġpres iÃ³n
Ġcom bin
Ġsegu ir
ĠT he
gu ra
Ġpr on
is mos
Ġob ten
Ã©r ica
Ġde cis
tu s
in al
Ġh id
ĠM in
Ġpro mo
Ġsuper ior
bi a
Ġcomp ren
Ġcon cent
Ġa Ãºn
Ġconoci miento
Ġdi fic
Ġc la
Ġad olesc
ĠÃºlti mo
pl as
Ġmode lo
Ġpes ar
um en
Ġtera pia
c ado
Ġe fic
ĠM un
Ġh u
co h
Ġ1 00
Ġencuent ra
Ġdes cu
olÃ³g icas
Ġac u
og ra
t ÃŃn
ent ales
Ġapo yo
tic ular
Ġhe mos
Ġman e
Ġob es
Ġmedi da
t Ã¡
2 7
Ġseman as
om as
Ġde ri
Ġfac tor
Ġin fer
Ġproduc e
Ġcos as
Ġmo do
de ra
v ar
i bles
Ġexper im
Ġre ducir
Ġcompa Ã±
Ġv ÃŃa
pec tos
cul o
Ġren al
Ġp an
ĠJ o
Ġmor talidad
z os
Ġa dap
Ġen c
ens a
z ada
f ac
Ġfrecu ente
Ġdoc um
tr Ã³n
Ġdes a
ĠCl ÃŃn
Ġcereb ro
ĠP er
Ġcom Ãºn
Ġtrastor nos
Ã© tico
ĠCom un
ĠGener al
Ġel em
Ġdesarrol lar
Ġeli min
i ares
Ġpre val
L a
Ġestra te
Ġpre cis
Ġtr ad
Ġconside ra
ĠclÃŃn ico
ĠF ran
Ġrealiz ado
pos i
ĠÃ¡ mbi
teri os
Ġ ru
Ġex isten
Ġ4 0
Ġesta bl
Ġevalu aciÃ³n
Ġin tens
Ġpad res
Ġpa de
Ġsi g
Ġalgun a
Ġcon te
r in
Ġel la
Ġap ari
Ġembara zo
Ġcon ta
Ġun as
Ã ĵ
ĠJos Ã©
Ġaplic aciÃ³n
Ġac er
l la
Ġac om
mi r
Ġne ga
Ġimpor tantes
Ġaquel los
Ġan al
fici ente
tor ias
2 00
Ġcu ales
Ã ĥ
ĠfÃŃs ica
Ġh ora
z ado
Ġmin u
t ales
ĠF und
ĠEn tre
ac h
Ġlle gar
Ġsu pon
ĠCon se
Ġmedi cina
Ġus u
Ġal gÃºn
Ġrecur sos
ca pacidad
Ġte ma
truc ciÃ³n
Ġsoci edad
Ġpar ece
is o
Ġv an
it al
Ġref le
ĠSe gÃºn
xi mo
Ġmad re
ene mos
Ġqu er
Ġprue ba
Ġpos terior
ĠÃ¡ rea
Ġrespon s
Ġw ith
ĠAs oci
ĠC ON
tes is
Ġsegui miento
d omin
Ġ1 1
Ġcomplic aciones
f orm
or n
Ġ Ã³r
ie dad
a g
ĠV I
ul s
di Ã³
ĠclÃŃn icos
Ġdi cho
t ÃŃ
u ales
Ã© ticos
Ġa ten
es ta
ĠMÃ© xico
ĠP s
Ġev oluciÃ³n
ri o
Ġti pos
Ġmo der
di os
ĠInter n
Ġpo demos
ĠpÃ©r dida
Ġfarmac Ã©u
ĠQ u
ĠSan idad
Ã³lo go
i Ã³
or me
Ġadul tos
Ġsegun do
Ġb ar
Ġa mi
Ġres pira
v iv
Ġas pectos
Ġdifer encias
Ġ Ãº
Ġins u
ĠSoci edad
ĠA unque
ĠT ras
iz o
Ġamb os
Ġin d
Ġllev ar
Ġac ceso
Ġ =
Ġpro gres
ĠEs tados
Ġpresent an
t Ã³n
el l
Ġens ay
Ġt a
3 0
x to
Ġdes ta
Ġ ÃŃn
al th
Ġrealiz Ã³
Ġar terial
ĠEs tudi
Ġal coh
Ġcol or
par ta
ra mi
or te
Ġre al
Ġmo vi
ens iÃ³n
pat ÃŃa
Ġcom en
Ġme tab
gi as
ĠUn idos
it aria
Ġrad io
Ġf lu
Ġnom bre
Ġo c
ĠM i
tr ica
Ġinfec ciones
gra fÃŃa
Ġf Ã¡
Ġconcent r
Ġadministr aciÃ³n
i te
Ġex tre
iv os
Ġorig en
tu ro
Ġcon cep
an til
Ġfaci l
ĠDes de
Ġsol ici
port un
Ġpro tec
Ġle g
ci ales
Ġpre v
ul tad
Ġen er
ĠmÃ© dica
t Ã©
us tri
tan cias
Ġor i
Ġcre cimiento
Ġsu r
ig n
l ica
Ġcons ulta
ĠD ur
vi er
Ġinde pen
Ġde m
Ġval ores
Ġel las
Ġbaj a
Ġdoc tor
den tes
Ġac ciÃ³n
Ġv ar
Ġcomun icaciÃ³n
ti tis
Ġace p
ÃŃs tica
Ġacom paÃ±
in ar
Ġin cor
Ġfu era
Ġpro b
Ġper man
Ġes f
ent ado
ĠDi rec
ĠS E
ĠM on
di entes
Ġa z
Ġcas a
Ġb lan
ic e
ic h
ic ar
Ġb Ã¡s
ri a
Ġmec an
/ /
ven es
Ã¡n dose
Ġreci b
A P
aliz ada
Ġdif ÃŃ
Ġmo dific
Ġpla zo
r Ã¡
pi as
Ġprimer os
Ġpropor cion
Ġmej ora
Ġsu je
c ol
Ġcin co
Ġdiagnos tic
ĠJu an
me dia
ĠServ icio
ĠR ec
tom ÃŃa
ĠA m
Ġre alidad
arc ÃŃa
tic amente
I L
an as
i ente
Ġf e
r ada
Ġincl u
ch os
an ci
r era
ur os
er as
Ġher rami
un ca
l y
ĠmÃ©to do
Ġcon cl
Ġpl ante
Ġde ci
er vi
Ã³ venes
Ġactu al
ar d
Ġca te
Ġo portun
Ġde r
ti o
Ġo bl
ĠcrÃ³n ica
Ġpas o
ĠEs tos
Ġl uego
ar ra
g el
un ta
ur as
Ġman ten
Ġex pres
tr ic
Ġencontr ar
ĠP o
u do
Ġm Ãºlti
Ã¡n d
Ġt Ã©r
Ġt enemos
Ġcomp on
iz a
Ġneces idades
: //
Ġdis trib
Ġl ig
ta ble
Ġv arias
Ġpo d
ĠpÃºbl ica
ent as
Ġ19 8
Ġinci dencia
Ġmul ti
on ces
Ġvari ables
it as
Ġapari ciÃ³n
Ġel abor
R A
Ġs es
Ġrealiz a
Ġv ita
_ _
Ġhum ano
Ġutiliz ar
m en
Ġter min
Ġcon cre
h er
Ġa t
aliz ar
Ġpul mon
Ġor den
Ġhac en
tur ales
g Ã©n
Ġb acteri
Ġpre vi
Ãºbl ica
Ġdes e
Ġrecon oci
Ġten dr
m ar
Ġpro fun
Ġsegun da
arc el
Ġase gur
Ġmej ores
Ġf il
is ti
Ġj Ã³venes
E l
Ġf ase
b ra
i er
Ġbenefici os
ĠF ac
ĠMin is
ĠÃ³r gan
Ġcaus as
Ġproces os
ÃŃt ulo
Ġpon er
Ġde dic
ĠG arcÃŃa
Ġsue Ã±o
g ada
Ġl ar
Ġres to
Ġcomp or
Ġli ber
Ġan tic
Ġpres idente
Ġg aran
Ġcon ci
Ġn acional
Ġh tt
ern Ã¡n
j u
Ġdere cho
a t
Ġp Ã¡g
e ci
de mi
p an
Ġpue da
Ġproduc ciÃ³n
5 0
Ġau tores
Ġsex ual
esti on
Ġt h
l or
Ġalter aciones
Ġefic acia
ĠFund aciÃ³n
Ġcele br
Ġv ia
ac es
Ġsanit ario
Ġe ta
ti dos
ĠM o
Ġg estiÃ³n
d al
ĠN av
cul os
k e
Ġcontac to
Ġcon tr
in os
ĠÃ¡mbi to
Ġsigui ente
Ġes tu
ien da
Ġn ervi
Ġ6 0
arcel ona
Ġc og
7 2
Ġprogra mas
T E
Ġsanit arios
ĠAsoci aciÃ³n
Ġlab ora
v ir
Ġt ama
Ġpues to
Ġtum or
Ġnin gÃºn
Ġobl ig
Ġeduc aciÃ³n
Ġin tes
Ġan s
Ġdes con
Ġcri terios
Ġpal ab
ĠC al
. -
p es
Ġj un
Ġur g
Ġin icia
ora zÃ³n
ĠH ay
Ġcon fi
ĠDur ante
Ġinter Ã©s
Ġgl uc
ĠC ir
Ġminu tos
i re
ernÃ¡n dez
aliz ado
Ġconse guir
Ġmani fes
Ãº a
Ġcomp e
ĠM or
pues tas
I M
Ġimp lan
v enci
Ġh Ã¡
Ġevi dencia
Ġin gres
Ġobes idad
Ġcolabor aciÃ³n
gen es
ech a
de dor
den te
Ġfamil iares
Ġencuent ran
vis ta
Ġ iz
Ġcuidad os
Ġent onces
ĠT e
Ġesf uer
is l
ĠEuro pe
Ġocas iones
Ġest re
Ġsuper fici
Ġpro vo
T O
i le
Ġre ducciÃ³n
tin g
Ġal l
Ġg ente
Ġhum anos
j us
Ġsa tis
Â ¿
Ġderi v
ĠA tenciÃ³n
ci da
ĠG ran
f al
Ġhay a
mis iÃ³n
I A
Ãĵ N
Ġer r
Ġpa tologÃŃa
Ġimp lic
j ar
Ġpos t
Ġer an
ĠtÃ©r min
ici dad
Ġesta ba
ĠG r
Ġconstitu y
2 5
Ġdes tac
Ġhi jos
Ġalcoh ol
Ġla c
Ġde por
Ġpor cent
Ġnin gun
Ġre cep
ĠS o
qu is
Ġapro xim
el a
) ;
Ġw eb
Ġin tro
ol e
Ġperio do
6 8
ĠfÃ¡ cil
di z
ĠP al
ĠP ue
parta mento
b ado
Ġl en
Ġcam po
Ġfin anci
tiv e
Ġf ru
ti z
Ġestr Ã©s
Ġcuid ado
Ġpreval encia
ĠmÃ©to dos
ar Ã¡n
Ġne u
Ġiz quier
Ġv ig
Ġs abe
Ã³ p
Ġsiste mas
2 4
g on
Ġo fici
ĠMar tÃŃn
ĠEnfer merÃŃa
Ġorgan ismo
U L
Ġtrastor no
Ġexpl ica
Ġn unca
ĠJ a
Ġima gen
Ġv uel
ĠB arcelona
Ġten go
Ġrefer encia
Ġs ome
ec ciÃ³n
Ġm ÃŃn
ĠB o
Ġpre o
Ġre un
di ce
en os
Ġm ental
Ġposi bilidad
Ġm ens
Ġobje tivos
il l
Ġtama Ã±o
ĠhÃ¡ bi
gr Ã¡
Ġa di
Ġse an
bil it
ĠMar ÃŃa
Ġv ers
ĠIn f
Ġt oma
Ġpreven ir
iz ar
Ġfrecu entes
3 3
ĠÃ© xi
ru po
Ġqui enes
Ġg lob
Ġen ti
Ġj us
Ġdirec tor
Ġamp li
O C
Ġin h
Ġimp acto
Ġle y
Ġ )
Ġd in
Ġt us
Ġob tener
Ġent or
vis iÃ³n
Ġnos o
tr um
Ġco ordin
Ġin icio
Ġh orm
im ismo
m entos
Ġ /
Ġfamil iar
Ġfu turo
Ġcor por
Ġrelacion ados
Ġmedi os
Ġasoci aciÃ³n
ĠlÃŃn ea
Ġdistin tos
ens o
Ġcab eza
an d
Ġlab or
ĠF e
ĠÃ¡ reas
ĠQ UE
Ġcom ien
Ġre d
ĠI I
ĠCu ba
Ġpri v
teri ores
Ġex posiciÃ³n
Ġpar ticular
ci pl
Ġesc uch
enci al
aj es
Ġac on
Ġvis ta
Ġmis mos
Ġpl ac
Ġtej ido
Ġd ado
is iÃ³n
Ġv o
Ġdej ar
Ġpun tos
qu es
Ġex am
tion s
Ġpro ducir
ĠA u
gue z
tar on
ĠN a
Ġdifer encia
Ġn um
Ġparticip aciÃ³n
ĠC am
cid as
ĠdifÃŃ cil
un a
tis mo
Ġdiagn Ã³s
Ġalim entaciÃ³n
Ġmane jo
ĠlÃŃ qu
Ġad vers
l ante
Ġent en
Ġsue le
i es
Ã³lo gos
Ġproduc to
Ġper ÃŃo
on e
Ã± ad
Ġal er
. )
no v
Ġcur so
Ġcom ent
Ġform as
gu a
Ġrevis iÃ³n
Ġhi jo
il la
ĠB ar
Ġprim aria
Ġv ÃŃ
Ġvi ol
Ġdis posi
tu almente
ĠF ar
ĠclÃŃn icas
re dedor
Ġsex o
en de
r is
Ġlu z
Ġpue dan
Ġre le
Ġhe mo
Ġde presiÃ³n
Ġsec tor
il ar
Ġcomun idad
c lo
Ġprop io
Ġb an
Ġsanit aria
Ġcu b
Ġde cl
clus iones
Ġenfer merÃŃa
ĠEnfer me
Ġo x
Ġsitu aciones
Ġmiemb ros
Ġop in
l l
Ġexper tos
Ġf ra
Ġse cre
Ġg ri
Ġmen ores
Ġconten ido
un ci
ĠG obierno
ĠB i
dic as
ĠpÃºbl ico
Ġo per
Ġamp l
Ġc orazÃ³n
Ġemp ez
Ġespaci o
Ġselec cion
tar se
Ġinsu ficiencia
ĠCar los
me dio
Ġma gn
Ġm io
ĠA D
fer encia
Ġcomp ues
Ġprocedi miento
Ġnoso tros
Ġreg iÃ³n
ĠInvestig aciÃ³n
Ġfundam ental
Ġincor por
Ġdemostr ado
Ġalter na
os as
Â Ń
Ġdi ce
Ġtum ores
tr ico
Ġafec ta
ĠA L
Ġg Ã©n
ĠMun dial
v ÃŃa
Ġpro pia
Ġa us
Ġli bre
Ġal um
Ġab or
om ÃŃa
ĠS on
b ol
Ġal e
Ġ2 2
Ġrel aciones
ĠMinis terio
se Ã±
Ġles iÃ³n
Ġa quÃŃ
ĠEuro pa
ĠCir u
ol ar
Ġanim ales
% ,
Ġsimp le
Ġpulmon ar
ĠS er
cion ales
Ġinf lu
I R
ÃŃ tica
Ġca pa
Ġposi bles
on z
Ġadolesc entes
Ġcon ver
le z
Ġtras pl
Ġconj unto
Ġs om
E P
Ġneces ita
Ġdismin uciÃ³n
ĠÃº til
Ġind ustri
Ġinf antil
vi eron
Ġintern acional
Ġque d
Ġcump l
ĠH a
ps ia
7 0
Ġmedicam ento
e ar
Ġactu alidad
ĠP rim
Ġ2 8
Ġd Ã©
ĠD ÃŃa
ĠÃºn ico
ĠfÃŃs ico
ĠÃ©xi to
Ġrad i
Ġen do
i miento
âĢ ĵ
Ġcardiovas cular
' ,
? ?
Ġes os
Ġespecial ista
Ġin media
Ġh aci
ĠespaÃ± ol
Ġs uel
A U
Ġinter ac
me tros
ĠP ol
Ġ2 6
gu ÃŃn
Ġans iedad
Ġcons erv
Ġ2 3
s i
Ġf um
Ġser ÃŃa
Ġpublic ado
Ġex ter
Ġ2 1
Ġsus titu
Ġde tal
al l
ent s
gen o
ĠÃ¡ cido
Ġcor on
Ġhom bre
Ġdi jo
ĠOr gan
ĠcientÃŃ fica
ar lo
Ġestudi antes
ĠP AR
Ġres pec
ici p
o x
Ġcla ve
Ġa Ã±ad
ĠVI H
ci endo
Ġz onas
2 2
pl es
Ġpre co
Ġf rac
p ren
Ġor al
Ġpr os
ist entes
Ġar tic
Ġhab lar
mÃ¡ tica
Ġprimer o
Ġas isten
ist ente
Ã ¼
t ario
ul io
ĠR a
ti onal
Ġpodr ÃŃan
Ġcent ral
ĠD eb
ci dad
Ġdis capacidad
ĠproteÃŃn as
Ġrealiz aciÃ³n
Ġgra ves
Ġs ac
Ġins trum
Ġdur aciÃ³n
Ġse is
Ġinf l
Ġcereb ral
Ġevalu ar
3 8
Ġofre ce
ĠAl gun
Ġpro to
i entes
er en
te o
Ġre duc
Ġrevis ta
Ġten ido
ic ana
r ero
Ġlab oral
it an
Ġdistin tas
ar to
Ġsol u
enci on
Ġa bier
Ġesta mos
ir ma
i f
Ġ8 0
i mos
ti enen
Ġre pro
Ġsig lo
Ġcate gor
cep ciÃ³n
quil ib
ĠClÃŃn ica
Ġac ciden
es ter
Ġm ama
Ã į
Ġne ur
Ġal rededor
Ġhal laz
Ġlib ro
im er
ĠA le
Ġma terial
Ġinfer ior
ri Ã³
ĠG onz
ti Ã³
Ġdi cha
Ġe uro
Ġ #
Ġ ul
p ara
e os
ĠE v
i ores
Ġf a
Ġprob able
Ġcol e
Ġten ÃŃa
ĠUn idad
Ã §
pe z
m acia
Ġa tra
Q u
C A
Ġl uch
iste ma
D A
l on
am er
cul a
Ġmo tivo
ĠcientÃŃ ficos
ĠConse jo
Ġd omin
en ce
Ġporcent aje
tr al
Ġpoten cial
Ġden omin
Ġa ta
Ġte le
ĠÃ³ se
Ġincluy e
ĠÃºlti ma
Ġdetermin ar
ĠP r
E L
or o
Ġas istencia
Ġus ted
Ġadecu ada
Ġcu ad
Ġte mas
gra ma
ch as
Ġrecon o
Ġhospit ales
Ġdivers os
Ġaum entar
Ġt asa
Ġcier to
Ġentor no
dr ÃŃ
Ã £
Ġpresent ar
Ġconf irm
7 6
a u
Ġex cel
til la
Ġvis iÃ³n
Ġrecom ienda
Ġeduc a
P S
Ġl inf
Ġm am
Ġsatis fac
Ġener gÃŃa
Ġman os
Ġde mÃ¡s
ĠT i
Ġexpl or
venci ones
Ġd Ã©c
ĠRes ul
Ġsol uciÃ³n
n as
Ġadecu ado
Ġp rac
Ġa jus
ĠLe y
titu d
Ġf en
Ġcol ec
Ġac ciones
Ġparticip antes
Ġvol un
ĠÂ ¡
Ġcl aro
Ġanti biÃ³
cri pciÃ³n
Ġllev a
Ġcar dÃŃa
Ġe uros
Ġempres a
ĠUnivers itario
tu bre
Ġcomun ic
tom a
ĠA C
ĠCiru gÃŃa
Ġ201 0
Ġmar cha
Ġins tal
Ġs enci
Ġcog ni
Ġsi gue
r ido
Ġprotec ciÃ³n
Ġ <
Ġep iso
Ġre du
Ġries gos
Ġju g
ĠAs imismo
Ġsan guÃŃn
iz ado
Ġcol on
Ġacer ca
4 0
Ġent ren
Ġelem entos
ogra fÃŃa
Ã£ o
Ġh ist
Ġsu gi
Ġdescu b
gu en
Ġhiper tensiÃ³n
k in
Ġper ten
Ġconsecu encia
uy en
ĠP lan
Ġfun cional
Ġtemp era
Ġp ie
Ġ quier
en ti
ĠI s
tor ial
Ġorgan izaciÃ³n
ĠperÃŃo do
ĠLu is
CI ÃĵN
il a
Ġti t
Ġtu vo
Ġestruc tura
Ġprov oc
Ã©m ica
Ġt es
ĠH ab
Ġins ul
p era
ador as
Ġobs tante
Ġprincip almente
Ġrepres ent
ĠRe g
Ġespecial istas
Ġh izo
Ġempres as
t aria
Ġda Ã±o
k s
ran a
ĠY o
Ġfamil ias
Ġpat ologÃŃas
Ġman o
ĠS a
A T
g in
ĠCol om
Ġe co
Ġh o
Ġdes car
Ġg o
Ġen car
ĠEs c
Ġimp res
Ġproyec tos
ĠSoci al
2 3
ĠEs tado
Ġtrabaj ar
er ra
di miento
Ġreci bir
Ġapo y
Ġtar de
Ġpue des
Ġhe p
Ġcer ca
Ġlle g
Ġpas ar
Ġrec ord
Ġm it
Ġter ri
u ido
Ã¡c ter
Ġcorpor al
Ġcar a
Ġgras a
Ġas es
Ġidentific ar
ues tra
Ġg es
Ġen seÃ±
Ġpo p
Ġ201 2
fica z
Ġestabl ecer
Ġre fi
ĠC OM
Ġest Ã©
ĠmÃºlti ples
Ġhab l
Ġrespons able
a te
Ġeuro pe
Ġp las
Ġpreco z
Ã¡ ticos
Ġfun ciones
Ġten ÃŃan
Ã¡ lez
l las
Ġpeque Ã±os
i tor
Ġdise Ã±
z Ã³
Ġ9 0
Ġdis f
Ġpermi tir
Ġconoci mientos
Ġd ro
Ġcr isis
Ġsuper viv
Ġprincip io
ec re
ÃŃcul a
Ġtecn ologÃŃa
id ores
Ġelec tro
ti que
ter al
ĠM u
ĠR u
ĠN uev
Ġblo que
drÃŃ guez
Ġ7 0
Ġdetec ciÃ³n
Ã© is
2 1
Ġlabora torio
Ġper fec
ami entos
Ġesto y
I B
ol er
ĠP os
Ġu b
Ġprov in
Ġrecomend aciones
Ġrepres enta
Ġloc al
Ġincre mento
Ġcar Ã¡cter
Ġagu da
tin al
ĠM uch
Ġinter pre
Ġver dad
Ġelec trÃ³n
ĠAn ton
Ġj ue
I O
Ġcir c
Ġus ar
mer g
Ġindi ca
Ġutiliz aciÃ³n
Ġprop ie
Ġcam paÃ±
Ġide a
ici ones
to d
Ġmar c
ĠEs tas
I T
Ġ â
ĠA g
C R
IC A
ce dentes
aj a
ti da
Ã³ pez
E n
M S
Ġ200 9
Ġ2 7
Ġhab ÃŃan
g aciÃ³n
Ġrecu er
Ġre quiere
ari z
Ġp en
U N
xi ma
Ġci f
% .
U R
Ġmovi miento
ĠG rupo
ĠP Ãºblica
Ġglob al
Ġcon ven
Ġpar tes
ĠCon greso
Ġbien es
Ġsuel en
Ġningun a
Ġhabi tual
qui era
Ġenfer mer
ues ta
Ġactu almente
Ġvacun a
Ġdivers as
Ġa gra
Ġe ficaz
Ġ201 1
2 6
Ġdi g
Ġedi ciÃ³n
aj o
Ġper fil
Ġ q
Ġpro lon
Ġresul ta
Ġmu er
ĠIntern acional
U S
Ã©r g
ĠE duc
Ġres istencia
g al
pi os
Ġqu ÃŃm
uer ra
Ġsupon e
tu ales
ĠM Ã¡s
bl io
Ġter cer
Ġin yec
ulta des
Ġ3 5
Ġpresent aciÃ³n
Ġdecl ar
Ġaum enta
am po
Ġin nov
Ġpel ig
Ġdefin i
Ġtro mb
d om
Ġpas a
Ġdi ci
Ġutiliz a
ĠGonz Ã¡lez
Ġa isl
Ġpreo cup
Ġpro ba
di eron
ĠartÃŃcul os
Ġ200 8
Ġt ales
pe cial
Ġcons iste
el lo
ĠS istema
aliz ados
Ġenfer mos
ĠV er
Ġposi ciÃ³n
2 8
Ġvalor aciÃ³n
Ġd om
ĠRo drÃŃguez
mÃ¡ genes
Ġob ra
Ġpos e
ha bilit
Ġcomple ta
ĠB uen
b lo
Ġlogr ar
Ġa ire
Ġ201 3
ĠO n
Ġf l
Ġli mp
Ġinv as
rol Ã³g
minis tra
o f
Ġmani fi
Ġres pe
Ġhaci endo
h id
Ġobje to
ĠQ ue
Ġde man
ar as
Ġmay o
Ġinici al
3 6
j an
ĠD oc
es e
ĠI II
qu er
Ġpre ten
mi te
Ġcal or
Ġnues tras
Ġprofes or
Ġinf orme
Ġj e
Ġf on
Ġsi r
ÃŃn a
Ġcompar aciÃ³n
v ent
Ġf el
Ġra z
Ġvita mina
diz aje
ĠL i
di Ã¡
Ġcontro lar
Ġj o
Ġaproxim adamente
Ġhe pa
Ġ ran
or k
c era
Ġcon tiene
ĠÃºn ica
Ġme mor
Ġinter ior
Ġregis tr
mis o
Ġo jos
n al
ĠResul tados
Ġh ig
il lo
Ġpeque Ã±o
Ġhtt p
Ġun idad
de mia
ĠÃ³rgan os
Ġpa ti
M A
Ġre ce
Ġequi pos
ĠL Ã³pez
n es
Ġasoci ados
Ġe qu
ĠPrim aria
ta gon
ĠEstudi o
Ġd uda
] .
Ġrespon sa
olog y
Ġpare ja
Ġmit ad
Ġestrate gias
ĠCol e
Ġfuer za
Ġmiemb ro
Ġsu ficiente
Ġlec he
Ġcre o
Ġrelacion adas
Ġen ero
Ġas pecto
Ġtrabaj os
en as
tÃ¡n ea
Ġre por
ĠpolÃŃ tica
vi embre
c ciÃ³n
ĠhÃ¡bi tos
Ġeta pa
Ġra zÃ³n
g ran
Ġdici embre
ĠÃŃn dice
Ġcardi aca
ar e
Ġex p
Ġsus tancias
qu ia
Ġnum eros
gr ado
Ġincluy en
ĠfÃ¡rmac o
Ġproduc en
Ġdes emp
Ġsuperfici e
Ġ2 9
Ġcons um
ĠG al
Ġmues tras
Ġi l
Ġhum ana
Ġb e
Ġs ist
Ġhe mor
Ġtoda vÃŃa
Ã©m ico
8 2
Ġd or
Ġpalab ras
an ce
Ġf echa
Ġdisf ru
Ġprocedi mientos
Ġ201 5
Ġf er
Ġcon tar
Ġ200 7
Ġfuncion amiento
7 9
Ġen fr
r ado
Ġepi demi
Ġinflam aciÃ³n
Ġf em
Ġex ig
Ġre v
Ġma teri
8 6
de l
ĠD el
Ġj orn
Ġab domin
Ġmer cado
Ġi mÃ¡genes
Ġtej idos
Ġno che
Ġjun io
ĠÃ© po
ĠOb je
Ġ200 6
ĠDE L
Ġincre ment
Ġsos pec
Ġ201 4
Ġusu arios
Ġmater ia
Ġbas tante
Ġalim ent
pti embre
Ġa do
Ġsuperviv encia
Ġvol umen
Ġcono ce
Ġbeb Ã©
Ġac um
I V
Ġcompor tamiento
Ġdere chos
Ġinter venciones
ĠColom bia
i ado
Ġmun dial
ĠT h
Ġh ues
ros is
Ã© rez
ÃŃs tico
t y
gl Ã©s
Ġdistrib uciÃ³n
Ġt Ã³
Ġex istencia
Ġb ra
Ġm encion
u re
Ġf eb
ti m
ĠcientÃŃ fico
Ġb al
k a
Ġespeci es
Ġensay os
Ġsen tir
olu cion
Ġsign os
t Ã¡s
Ã± ana
tri z
Ġ quiere
Ġocur re
Ġtra tados
Ġmetab ol
Ġesfuer zo
min aciÃ³n
for ma
Ġe quilib
Ġbuen o
Ġdecis iones
to x
ĠP h
Ġdirec tamente
Ġinh ib
Ġcu estion
Ġl on
Ġp in
z adas
ĠA h
ĠI mp
Ġmuch a
tar ÃŃa
c r
me tro
Ġcel ular
ĠComun idad
O D
in s
Ġele g
Ġambi ente
Ġten ga
Ġsignifica tiva
8 5
Ġm m
es tes
Ġmues tran
Ġre par
Ġh ÃŃ
Ġv in
Ġen ci
ĠCi encias
ĠNe uro
Ġcompe ten
ĠAnton io
ti cia
z an
ĠproteÃŃn a
tro l
Ġre pe
% ),
Ġb or
ĠNav arra
Ġsegu ro
b u
Ġl l
Ġci encia
he imer
Ġas i
Ġfo to
2 9
Ġde mas
Ġc ru
Ġcre a
Ġoc tubre
Ġcu yo
Ġtras l
Ġesti lo
Ġaum ent
Ġemo cional
Ġs or
gui en
ĠI C
ĠMartÃŃn ez
bi o
ĠD er
Ġmun icip
Ġsu ce
Ġcomp os
Ġdetec tar
om Ã©
o k
c le
ĠF in
ie bre
Ġse par
uc le
Ġam or
Ġa gres
Ġcom ba
ĠgÃ©n ero
Ġca pit
Ġf ab
ĠT or
Ġso cio
Ġpul m
pues tos
ÃŃ amos
Ġtemp or
Ġsu p
ch ez
Ġd an
Ġdes p
Ġfuer te
Ġcomple to
Ãºs que
E T
tis ta
it Ã©
n er
u b
6 0
eb o
z heimer
g ro
Ġaquel las
Ġun idades
Ġcre ar
Ġt ur
ÃŃ do
Ġtrabaj adores
ci Ã³
Ġar ri
Ġdifer ente
ac er
Ġmus cular
Ġtab aco
tr icos
Ġconte xto
Ġcomun es
Ġreg res
Ġes as
Ġ Ã¡n
Ġin con
ĠO s
Ġmar zo
ĠB a
8 0
ĠDes puÃ©s
ud as
Ġdirec ciÃ³n
ur al
it ro
Ġcontr ario
Ãº car
Ġdebe mos
Ġcombin aciÃ³n
or ÃŃa
Ġofre cer
u p
N A
ĠGr acias
Ġpropie dades
Ġcirc un
Ġdise Ã±o
Ġmecan ismos
Ġ200 5
Ġconoci do
Ġsi m
Ġen fo
Ġmas a
Ġp uer
Ġb ol
Ġconsecu encias
ĠS us
Ġto x
Ġprimer as
Ġabs or
Ġencon tra
ĠmÃ¡ ximo
ĠDe partamento
i p
utri ciÃ³n
8 1
ĠD a
ĠPro grama
Ġincluy endo
m s
Ġen vi
Ġapren dizaje
ĠT er
ĠP Ã©rez
car di
Ġne go
Ġes cas
ampo co
Ġsimilar es
Ġsuje tos
Ġca paci
Ġcons tr
ĠP aci
Ġmode los
Ġ201 6
Ġsecund arios
Qu Ã©
Ġesp era
Ġanaliz ar
Ġprac tic
ĠA b
Ġpron Ã³stico
Ġci clo
je cimiento
baj o
Ġesc ala
Ġab ril
Ġsens ibilidad
ww w
Ġf as
Ġestrate gia
ĠFe der
Ġdes tin
Ġin glÃ©s
Ã³g eno
ti zar
Ġgen es
l lo
Ġh in
Ġindividu os
Ġrecu per
Ġ *
ig a
cl eros
Ġin greso
com o
Ġcu ya
Ġcl ase
Ġre vel
Ġ9 5
Ġaf irm
ro m
ENT E
v era
Ġpar to
z ol
ĠOrgan izaciÃ³n
on ales
ĠA mer
Ġno viembre
Ġconcentr aciÃ³n
Ġpregun tas
e tas
Ġt el
oci tos
tri tis
Ġb ron
m es
Ġse ptiembre
Ġenten der
di dos
Ġapar ece
Ġcontinu aciÃ³n
ci ente
Ġmar co
Ġev entos
ĠMe d
Ġblo g
os os
ĠN O
Ġb Ãºsque
lo gÃŃa
u mir
Ġt est
Ġcol ester
is tir
ĠmÃºs ica
habilit aciÃ³n
Ġevi den
Ġcolester ol
O P
Ġdismin uir
Ġtrad ici
al e
Ġma Ã±ana
R E
Ġcar rera
ĠTo dos
uel lo
Ġinvestig aciones
Ġl an
Ã¡n ica
Ġcump li
Ġutiliz ado
Ġantic uer
ÃŃ p
Ġaus encia
Ġop ciÃ³n
Ġreg ular
Ġli tera
ĠCa tal
ĠH um
Ġinstitu ciones
Ã© p
Ġex presiÃ³n
Ġrec or
3 5
ari amente
Ġcapa z
ĠespaÃ± ola
Ġv ÃŃas
Ġaz Ãºcar
r Ã³
ĠL in
I n
Ġpre dic
7 1
Ġfis io
Ġmemor ia
- -
Ġamb as
Ġh on
Ã©n dose
Ġm ac
Ġpro pon
di das
Ġrele v
ĠPro fes
it arios
ĠEurope a
Ġac tiva
Ġherrami enta
Ġpermi ten
Ġdi ab
Ġa gr
ol ver
Ã¡n chez
Ġal guien
Ġasoci ado
p ens
d in
re g
b aciÃ³n
y os
Ġten iendo
ĠF amil
ĠÃ©s te
Ġac ab
ĠAl zheimer
c us
Ġdeber ÃŃa
Â ¡
Ġre almente
Ġasoci ada
da je
Ġcomple ment
Ġcre aciÃ³n
ic an
Ġpri or
ad ie
3 4
Ġ4 5
Ġ x
Ġneces aria
Ġ >
Ġ +
Ġrecu peraciÃ³n
Ġo cup
Ġinsul ina
Ġhe ma
ĠMe dic
Ġdesemp e
Ġdifer enci
Ġpens ar
qu ir
Ġbus car
Ġemple o
ide o
Ġah ÃŃ
Ġdesarroll ado
Ġcar b
den a
Ġti enes
Ġpo cos
Ġprincip ios
ĠEnferme dades
Ġpi er
Ġps i
Ġab an
ÃŃ tico
Ġafec tados
cleros is
Ġme z
Ġmen udo
ĠÃ©po ca
ech os
Ġps ico
u ta
Ġcambi ar
Ã© ticas
Ġaplic ar
m ens
Ġan teriores
Ġent rada
Ġopin iÃ³n
Ġtempera tura
e p
Ġbacteri as
Ġb en
Ġvol ver
ĠprÃ¡c ticas
Ġab ord
Ġabdomin al
Ġgener almente
U C
ĠR ad
ÃŃ os
Ġtraspl ante
Ġap re
Ġre des
ĠH er
Ġj ulio
Â» .
Ġsen ti
al o
a p
Ġsalud able
in ec
ĠHe alth
ĠG o
Ġf ran
ta ur
Ġde fec
ĠquirÃºrg ica
Ġmis mas
ĠPAR A
Ġ200 0
Ġdific ultades
ta mos
og rÃ¡
ĠC re
Ġvis to
Ġgran de
ĠM ig
ĠRe al
Ġdes en
Ġhallaz gos
Ġsi tio
r ad
Ġalcan zar
om o
Ġo v
Ġpad re
Ġf iebre
Ġg er
l ig
ĠY a
Ġme tod
Ġn orma
Ã¡ ticas
s es
Ġde terior
Ġelimin ar
Ġque da
ĠA na
Ġutiliz ando
Ġllam ado
Ġcompro miso
Ã³l ico
k i
ģ Ħ
Ġimp le
iv as
A B
de ro
v ia
Ġen ve
ĠF ernÃ¡ndez
â ģĦ
Ġdecis iÃ³n
Ġreac ciones
Ġinv ers
Ġco in
as as
Ġmie do
Ġinicia tiva
Ġfen Ã³m
Ġg obierno
Ġc uello
Ġ200 4
Ġinflam a
ĠA R
Ġace ite
Ġinf orma
Ġcondi ciÃ³n
tu vo
Ġreci Ã©n
ĠbÃºsque da
Ġcomp r
ĠrÃ¡p ida
ue las
Ġadvers os
Ġcomun idades
l ine
Ġ ).
Ġau di
Ġin ges
Ġtra uma
ĠFran cis
ĠServ icios
0 5
ĠC ada
Ġm Ã³
ĠpolÃŃ ticas
Ġexam en
ÃŃ r
ar ÃŃa
Ġoportun idad
ĠCl in
Ġen z
ĠcampaÃ± a
Ġdo ble
Ġviv ir
Ġinv ol
Ġorig in
Ã³m ica
h t
Ġver da
Ġpun tu
Ġag entes
ĠMan uel
Ġconfi anza
Ġex ces
Ġasisten cial
Ġb y
i lo
m era
Ġna turales
Ġm ir
id amente
Ġser Ã¡n
ĠA S
ĠS ur
ti endo
Ġj uego
Ġcor te
Ġrespec tivamente
Ġbo ca
Ġtrans misiÃ³n
p ol
ha t
V I
D O
h n
ĠS Ã¡nchez
Ġmo tiv
Ġse cu
Ã³s ito
Ġex cl
Ġsens aciÃ³n
ĠP u
Ġpla ta
Ġherrami entas
c usiÃ³n
ĠB io
Ġhacer lo
ĠFac ultad
en da
Ġconcep to
r ales
Ġres iden
ĠP ers
ri que
D E
ab ora
Ġcar ga
Ġac ces
ĠT en
Ġex clus
Ġfu ente
jer o
ĠEv alu
b al
Ġqui mio
Ġcos te
ĠEduc aciÃ³n
ĠÃ ī
Ġacon se
ĠM ay
Ġsuf rir
Ġselec ciÃ³n
Ġdi aria
Ġ201 7
Ġre quer
Ġpodr Ã¡
ĠA N
Ġante cedentes
e te
Ġ6 5
ĠRe v
Ġpati ents
es a
ĠespaÃ± oles
% ).
Ġl in
c la
ĠlÃŃqu ido
i ra
Ġ &
ĠpÃ¡g inas
Ġpar Ã¡
Ġde p
t arios
Ġlen gu
ĠCon clusiones
Ġbienes tar
Ġnatural eza
ĠCh ile
Ġm ic
ĠR E
Ġcons tante
Ġpu di
Ġdis fun
Ġad ministra
p al
Ġlitera tura
Ġcam ino
C u
Ġintegr al
Ġviol encia
Ġplan tas
Ġflu jo
dis cipl
re mos
9 5
Ġap ara
c Ã³p
ter ia
t Ãºa
Ġal tas
Ġcom ida
tr Ã¡s
Ġmom entos
ĠprÃ³ ximo
e dades
ĠD ios
Ġcompon entes
l le
Ġhid ra
Ġpers pec
Ġneu rolÃ³g
Ġconduc ta
7 5
er al
Ġvers iÃ³n
ĠA P
r ÃŃa
Ġa gre
Ġrealiz an
Ġinges ta
ĠH ola
Ġse mi
Ġex ten
g les
Ġfeb rero
Ġincl uir
m ad
Ġ ]
ĠhÃŃ gado
Ġau ton
ĠIn cl
tud y
Ġn orte
ment aciÃ³n
tific aciÃ³n
ĠC D
Ġreci bi
ĠAd ministr
Ġenti dades
Ġposi tivo
tis tas
ĠP as
T ER
cur so
Ġor g
ĠS ol
ĠR am
ĠterapÃ©u tica
Ã ¯
Ġjo ven
i eza
Ġb ro
ĠSan ta
Ġavan ces
Ġri t
Ġg al
Ġdesa par
ic ano
Ġe merg
Ġgen Ã©tica
s al
Ġten dencia
Ġcompren de
Ġ200 3
Ġado p
ĠcompaÃ± ÃŃa
Ġpe dia
n ea
Ġsign ific
Ġcuad ro
Ġac ce
ĠP la
Ġre tras
ĠUN A
Ġal iv
4 5
ĠJ es
ac k
Ġcl ar
ĠantibiÃ³ ticos
f on
tia go
co pia
Ġpeque Ã±as
Ġon c
Ġhum an
Ġder ma
Ġos teo
u tas
Ġ ic
Ġo jo
Ġcul tura
ue ve
Ġen tidad
Ġpeque Ã±a
Ġizquier da
ĠE mp
Ġmon itor
ric ular
Ġf le
ĠH i
in es
Ġplan ta
Ġdi ges
ĠI M
l aciÃ³n
Ġac tivo
Ġespeci e
iv e
ĠAh ora
Ġpregun ta
Ġso y
Ġresponsa bilidad
Ġinvestig ador
Ġmo vil
ĠMig uel
Ġpre fer
ÃŃcul o
Ġre per
ru p
Ġv ul
Ġdific ultad
Ġ3 1
ĠCar di
Ġreci ente
Ã³r m
ĠquirÃºrg ico
I P
Ġall Ã¡
til idad
ĠAlgun os
Ġpro medio
Ġpue do
Ġex pon
pir aciÃ³n
Ġcon ec
g ados
Ġvacun as
t ones
is i
Ġg e
Ġposi bilidades
8 7
Ġdescri p
Ġdirec ta
ĠA y
ĠEs pecial
ta ta
Ġcons trucciÃ³n
ĠPue de
Ġm uc
Ġas ma
Ġbenefici o
Ġhi er
y n
L E
Ġclas ific
ĠH is
Ġre cl
es te
Ġor ina
Ġenci ma
Ġconcre to
Ġdi o
ĠÃ©s ta
ĠF ue
ĠCi udad
Ġurg encias
Ġami gos
Ġrecib ido
Ġdi ez
ĠpÃ¡g ina
ĠS ÃŃn
ĠH oy
Ġw as
Ġencuent ro
Ġtera pias
Ġc osa
f as
Ġobten idos
ĠÃ³se a
de o
ĠtÃ©rmin o
b en
Ġconstituy e
L A
Ġ ),
Ġmol ec
Ġdro gas
Ġfem en
Ġcol oc
ĠV ir
Ġc erv
C O
ĠL OS
cas t
Ġprovo car
ci mientos
Ġalum nos
Ãº an
Ġdisposi tivo
iv amente
Ġten gan
Ġaban don
Ġfal le
3 2
Ġvis ita
Ġvalor ar
Ġutil idad
Â» ,
Ġtrans mi
Ġcardiovas culares
um on
Ġt ÃŃtulo
Ġan ci
Ġcircun s
ĠP ri
aj as
ĠFrancis co
im as
ber cul
Ġapro v
Ġensay o
Ġintes tinal
3 1
w s
ĠCom isiÃ³n
Ġesta ban
ĠSan tiago
ĠEx isten
Ġhi p
Ġti ro
Ġm ig
Ġmateri ales
TI V
ĠEsc uela
ĠtÃ©rmin os
Ġreac ciÃ³n
Ġlon gi
Ġex ceso
Ġv amos
Ã ģ
ar la
Ġafec tar
Ġcar go
Ġprovin cia
w e
Ġre tir
Ġac ad
Ġprev ia
ici l
Ġpro pios
Ġutiliz an
Ġpe or
Ġap un
Ġac to
Ġelev ada
Ġregis tro
Ġtendr Ã¡
Ġsignifica tivas
Ġtotal mente
Ġgu ar
Ġalter aciÃ³n
Ġper der
Ġur in
Ġnervi oso
Ġau tÃ³n
Ġpe diÃ¡
Ġindustri a
ĠeconÃ³m ica
Ġn adie
Ġve lo
ĠPe dia
ti ble
Ġmedic aciÃ³n
an g
Ġcol o
ĠAm Ã©rica
Ġg ol
Ġme ta
am entos
Ġmecan ismo
Ã³r ico
Ġpresent ado
Ġobserv a
ĠX X
Ġrefle x
me z
Ġagu do
Ġpre cio
ĠI V
Ġev ento
Ġintens idad
Ġdi vi
Ġgluc osa
Ġ ras
Ġcon tras
car dio
Ġdepen de
r Ã¡n
Ġfor tal
ul aciones
Ġc Ã¡l
Ġme mb
ĠP OR
Ġconoci da
IC O
ĠAD N
gos to
Ġsec ciÃ³n
er an
Ġ Î
Ġhab la
ĠE P
Ġvas cular
c olo
Ġpromo ciÃ³n
an to
Ġcir cul
Ã ī
Ġmater na
Ġimp uls
Ġespecial idad
Ġlle ga
C on
Ġreconoci miento
i mi
Ġvi ene
Ġmar ca
Ġ3 6
Ġcapit al
Ġdin ero
Ġh as
Ġllam ada
ĠE E
Ġpres entes
vi e
Ġreco g
Ġbi blio
Ġparticip ar
c k
9 4
Ġdispon ibles
ĠTo do
Ġexperi encias
cion ar
Ġdispon ible
id or
Ġcal cio
Ġprev io
Ġ7 5
Ġdi ario
ĠespecÃŃ ficos
ra g
aliz a
Ġindivid ual
for me
Ġcaus ar
Ġelec ciÃ³n
Ġgas tro
Ġpon e
ri miento
erv a
__ __
Ġneces itan
Ġactu aciÃ³n
Ġha bilidades
9 0
ĠSu per
U M
I G
Ġvari able
qu en
Ġfar macia
Ġrelacion ado
Ġmol Ã©
ĠC r
qui lo
il ancia
Ġt ampoco
Ġvin cul
Ġapar ecen
n ia
ig ue
Ġle er
S A
Ġapren der
Ġsos ten
Ġb re
ĠseÃ± ala
Ġintern acionales
s an
op era
8 8
ec a
Ġide as
Ġconsider ar
Ġres puestas
Ġ200 2
Ġde porte
Ġdemas iado
el la
Ġne o
Ġl ista
Ġt asas
Ġel Ã©c
Ġen v
ti ma
ri os
Ġub ic
Ġfacil itar
Ġre quier
Ġ201 8
ĠHab ana
f ia
Ġd udas
Ġgus ta
Ġl um
Ġcl Ã¡s
Ġciru j
gen tina
Ġinflu encia
Ġconf lic
co p
Ġh ici
min o
Ġneces arios
Ġir ri
AD O
Ġjorn ada
Ġgri pe
Ã§ Ã£o
ĠâĢ Ķ
Ġf om
ĠM il
Ġdeterior o
Ġanticuer pos
ĠMÃ© to
Ġreduc e
ĠPs ic
or g
Ġc ro
d Ã³n
Ġfi gura
ĠAc tualmente
Ġes pon
ĠT ran
ues tro
Ġqu in
Ġpel ÃŃcula
Ġsu puesto
Ġpres u
mÃ¡ ticas
Ġestudi ar
Ġagra de
Ġocas ion
Ġconsul tas
or gan
Ġan a
e y
fici al
Ġc oci
Ġcor to
Ġparti do
Ġperson ales
Ġnorm ales
Ġgr ad
ĠDirec ciÃ³n
Ġa trib
Ġhid ro
Ġob ras
Ġn as
Ġlongi tud
Ġdere cha
Ġciudad anos
Ġinf arto
Ġprovo ca
t bol
Ġejerci cios
Ġinteres ante
Ġposterior mente
ĠE M
pl ic
Ġex cep
Ġdocum ento
ĠVal encia
qu ÃŃm
Ġgener ales
3 9
Ġgu ÃŃa
Ġh og
ĠmÃŃn imo
ĠmÃºs culos
Ġabs olu
ĠIn tro
Ġmanten imiento
ic ular
Ġelev ado
Ġop ciones
Ã³n ica
Ġdi entes
vi erte
Ġper ci
Ġdesta ca
arrol lo
Ġ19 5
Ġgas to
ĠM as
fici t
Ġrespons ables
Ġsom os
Ġasoci adas
Ġcompar tir
Ġv Ã¡l
Ġtecn ologÃŃas
ar te
4 4
aci o
min as
Ġen d
Ġes encial
ul ado
on g
Ġbuen os
Ġbus c
tos is
. ]
Ġafec tan
ru z
ĠrÃ¡p ido
vas cular
ĠR os
f f
so cia
Ġ bil
i an
Ġinmun o
Ġconver tir
Ġinter na
Â ®
ĠP an
Ġpublic aciÃ³n
f t
Ġfu entes
Ġ ï
ĠM er
Ġbus ca
Ġexcel ente
Ġle uc
x il
Ġtiemp os
ĠN i
Ġal ea
ĠCole gio
ĠdÃ©c ada
Ġgrave dad
Ġhepa titis
ĠÂ ±
Ġconte mp
Ġcap aces
v in
ĠLe Ã³n
12 1
i eron
Ġsal ir
en den
ri endo
Ġampl ia
Ġpresent Ã³
Ġcomple jo
ĠMÃ© dico
Ġprevi amente
Ġc m
Ġrealiz ada
cin oma
ÃŃ da
ĠA M
i ene
Ġsu ple
Ġper if
ĠP A
Ġlac tancia
Ġpre domin
N o
Ġinf ancia
Ġactu ales
Ġmal a
o cia
Ġdeber Ã¡
e di
z ca
Ġcorrec ta
Ġnutri ciÃ³n
Ġmin is
Ġluch a
Ġcumpl ir
c to
ci to
Ġesc uela
tr icas
ue lo
Ġimp os
Ġsuf ren
Ġan estes
Ġlugar es
Ġasoci aciones
Ġfis i
Ġre ca
Ġnutri cional
Ġno ve
ic ales
Ġcier tos
g ina
ul tura
Ġemp e
3 7
Ġrefi ere
Ġprepar aciÃ³n
Ġvacun aciÃ³n
ĠH o
O G
Ġlengu aje
Ġpresent aron
Ġre cha
ĠparÃ¡ metros
Ġllam a
Ã³l ica
Ġimp lica
Ġpro tagon
es to
P A
il d
Ġb rin
Ġsignifica tivamente
us ia
Ġconten idos
Ġgener aciÃ³n
Ġbas es
Ġa ur
Ġpue blo
Ġd u
E A
Ġelem ento
hi bi
Ġposi tiva
m ol
iz ada
og Ã©n
tro p
Ġo tor
Ġ200 1
Ġdi Ã¡
Ġj ur
h or
j es
Ġgener ar
Ã³ di
Ġses iones
ur nal
ĠCas tilla
Ġenfer mera
ĠAn te
Ġde ja
Ġenve jecimiento
ĠB er
Ġcan dida
ĠlÃŃn eas
Ġcomer ci
ĠG er
ĠO l
s u
ĠterapÃ©u tico
Ġrecur r
Ġ19 6
Ġextre m
Ġcu Ã¡n
ti po
ĠE tique
Ġsi l
ĠeconÃ³m ico
f usiÃ³n
Ã³ mez
p us
ĠdiagnÃ³s ticos
Ġvis ual
Ġri Ã±
ĠCom itÃ©
ĠB e
Ġr os
Ġje fe
Ġgras as
tr aciÃ³n
Ġv es
S e
ber to
ig na
Ġse g
ĠC Ã¡ncer
t ment
Ġrelacion ada
Ġhemor ra
ent almente
ri as
Ġen l
Ġev it
Ġterri torio
uc ÃŃa
Ġver ano
plas tia
Ġsan idad
ĠV ic
ĠD ia
ĠP ed
Ġsegu ra
Ġexplic ar
Ġenfo que
Ġaprov ech
ĠA p
Ġm ente
in dic
ĠNuev a
Ġf ol
Ġpres cri
Ġcon gÃ©n
ĠE C
Ġform ar
ID AD
th er
Ġcompos iciÃ³n
Ġmad res
Ġenfer mo
a de
ĠTra tamiento
s te
Ġqu iz
Ġ |
Ġt oler
Ã¡m ica
ran e
Ġrealiz ados
tu re
ÃŃ geno
. "
Ġsex uales
ĠF er
A CION
it ales
Ġa den
Ġa gosto
ĠD o
Ġcan cer
ĠmÃ© dicas
Ġmunicip io
Ġf Ã³rm
d ula
Ġusu ario
ĠJes Ãºs
ĠpÃºbl icos
di dad
Ġpe lo
pes o
Ġdisfun ciÃ³n
Ġapar ecer
Ġau tom
Ġexplor aciÃ³n
Ġs ent
Ġin ten
Ġenfermer as
Ġter cera
hid ra
ĠD ra
Ġcif ras
ĠmÃ¡ xima
i dencia
Ġade lante
Ġprogra m
Ġle ve
Ġpro puesta
Ġte xto
Ġmio cardio
per o
uy endo
Ġconj un
Ġo peraciÃ³n
Ġde c
Ġestruc turas
ĠespecÃŃ fico
ĠM al
Ġpulm Ã³n
Ġsi ete
Ġgaran tizar
ĠIn fec
Ġ4 8
ar t
Ġquimio terapia
am ento
Ġhe alth
Ġas ocia
ĠA ca
ĠE di
Ġcompro me
Ġconsi gui
Ġinter ven
Ġabor daje
ol id
tic al
ĠÃģ n
Ġre habilitaciÃ³n
Ġencontr Ã³
Ġpreten de
Ġper iÃ³
Ġrit mo
vo ca
s iÃ³n
Ġinte lig
tor i
Ġpodr Ã¡n
Ġal tos
I F
Ġad her
ĠcrÃ³n icas
Ġf irm
ti das
Ġal mac
ĠTran s
i el
Ġ Ì
Ġt os
Ġsalud ables
I ENT
ay a
Ġhu bo
Ġpar cial
Ġindividu o
Ġm l
Ġconse jos
Ġe m
Ġmovi mientos
Ġ3 4
Ġdisposi tivos
d s
vil la
L os
u g
Ġreg iones
Ġren dimiento
Ġequ iv
x ia
Ġcon lle
Ġizquier do
ic es
ter os
ĠJ e
Ġper ju
Ġmas cul
Ġproba bilidad
Ġepiso dios
Ġorganiz aciones
Ġsanit arias
bercul osis
Ġcol um
ir se
Ġconf orm
Ġv ideo
Ġinvol uc
Ġdeb ajo
Ġhu bi
Ġda Ã±
Ġci ne
ĠT al
P R
Ġe ti
Ġsol a
ĠÃºlti mas
Ġide al
g Ã³
p to
d ra
Ġpol i
un iden
Ġhay an
Ġrecep tores
t adores
Ġf rom
ĠV i
Ġgen era
Ġvas os
Ġmanifes taciones
Ġreci entemente
Ġper cepciÃ³n
ĠT ri
tas is
Ġdesta car
Ġdirig ido
Ã³g enos
Ġsatisfac ciÃ³n
m l
Ġtab la
mon io
Ġcon ce
ĠC ur
Ġidentific aciÃ³n
Ġencontr ado
ti dades
Ã³ b
Ġcategor ÃŃa
icro bi
Ġac re
Ġt ensiÃ³n
Ġcumpli miento
Ġvar ones
Ġn acionales
ĠFar mac
f in
Ġrespira toria
ĠMÃ© dica
Ġen can
Ġraz ones
im en
Ġp ic
Ġpre vis
Ġmon o
Ġposi tivos
ĠIntro ducciÃ³n
ĠC os
Ġal Ã©rg
Ġm ÃŃ
iz ados
ber n
Ġ ÃŃ
Ġprote ger
Ġsuper iores
Ġcu estiÃ³n
ĠH ernÃ¡ndez
Ġol vid
ĠcrÃ³n ico
fici o
Ġentre vista
fici entes
ĠespecÃŃ fica
Ġt hat
Ġloc ales
Ġb uc
Ġe dades
Ġd ura
c ambi
Ġar te
Ġrel ig
ĠfarmacÃ©u tico
Ġso porte
ĠG Ã³mez
Ġg a
Ġsecund aria
Ġlar ga
Ġexplic ado
ĠAdministr aciÃ³n
Ġs tudy
ter n
Ġres oluciÃ³n
Ġprobable mente
i bil
Ġalterna tiva
Ġl is
ÃŃ z
am an
Ġal ar
lam a
Ġsue lo
7 4
rec en
t ol
qu Ã©
Ġreun iÃ³n
Ġprofes iÃ³n
Ġdi ri
Ġall ÃŃ
ĠD ie
Ġte orÃŃa
ID A
Ġtal ler
Ġreg ul
Ġesc olar
ez as
ĠM E
ĠcardÃŃa ca
ĠObje tivo
S E
f os
Ġclas ificaciÃ³n
ar do
mi as
Ġci ca
ĠÃģn gel
ona to
Ġpr Ã³s
Ġa un
ĠUn o
Ġpro pias
Ġefec tu
tr Ã³
g et
ri eron
ĠO tros
ci ar
Ġp ene
Ġex ac
Ġpelig ros
EM A
an s
Ġvas o
Ġtrans vers
pos o
Ã³m ico
Ġo cho
ĠmÃºs culo
Ġtemp ran
Ġfin ales
ĠC ab
Ġc ari
me di
Ġme l
Ġexper to
Ġform an
Ã¡ us
Ġcab ello
Ġavan zada
Ġtu vieron
Ġdi ar
Ġcier tas
Ġpre ma
ma to
Ġan gio
ĠInter na
Ġhep Ã¡tica
b ro
Ġrequier en
Ġsolu ciones
Ġest Ã©tica
Ġg uerra
ĠF u
g um
tr ones
ĠprÃ³ tesis
Ġindic ado
Ġro di
ĠIntern et
s ion
de d
ĠT a
Ġden tal
D L
r y
Ġvelo cidad
ti di
ĠO MS
Ġte x
Ġtrans porte
Ġsi guen
ĠAr gentina
g Ã¼
Ġdepen dencia
de ma
Ġconci encia
4 8
Ġutiliz ados
Ġp echo
Ġlib ros
r er
Ġafec taciÃ³n
Ġe mi
Ġman tiene
ĠC er
Ġest Ã©n
ĠF is
Ġquer emos
am o
Ġestu vo
om al
Ġaf ron
Ġanti gu
Ġ- -
Ã¡ les
Ġw ere
Ġpade cer
Ġox ÃŃgeno
ĠT u
ĠespecÃŃ ficas
Ġam ena
Ġrecon s
Ġsol amente
Ġe c
l ado
ĠS U
ĠcientÃŃ ficas
lar es
tal m
Ġmejor ÃŃa
Ã¡s er
t ente
es iÃ³n
Ġingres os
Ġno ta
Ġentren amiento
Ġesc al
ĠMuch as
ĠvÃŃ c
tal la
Ġcontrib uir
ĠPed ro
i ro
Ġpropor ciÃ³n
ĠDes arrollo
ĠdÃ© ficit
ÃŃ ticos
Ġpar ed
Ã³n ico
' .
Ġconv enci
Ġcor ri
Ġs Ã©
Ġtar eas
4 6
Ġmostr Ã³
Ġconcentr aciones
Ġfr on
pec tivo
ti cias
enci ales
Ġcomien za
Ġo fer
Ġen f
Ã¡ ci
am e
ĠterapÃ©u ticas
ĠestÃ¡n dar
Ġi gu
b us
Ġrecep tor
u Ã±a
ĠJo urnal
j ado
Ġse ver
Ġcer c
Ġaf irma
Ġinter val
ig ur
t ador
Ġtradici onal
Ġa Ã±a
ĠÂ ·
ĠCi entÃŃ
Ġvo z
ĠJa vier
k er
Ġactu ar
ĠPaci entes
7 3
Ġpa trÃ³n
Ġsus tancia
Ġobserv Ã³
Ġser es
Ġdescri to
C H
ĠA ut
Ġtor no
Ġde mo
' s
Ġproto colo
Ġhabi tantes
t ÃŃa
Ġincl usiÃ³n
Ġco ber
Ġequilib rio
19 9
Ġcaracter iza
ĠmÃ³ vil
Ġllev ado
ĠSÃŃn drome
Ġres olver
Ġr is
Ġses iÃ³n
ĠfarmacÃ©u tica
ĠFeder aciÃ³n
Ġan ual
Ġt ÃŃp
Ġpi es
ĠOn c
cul as
Ġampl io
4 2
cin di
Ġinform ado
k o
Ġ3 2
ĠCa p
Ġelimin aciÃ³n
es is
Ġnaci miento
ĠÃ³rgan o
Ġpromo ver
cu pa
Ġcon tienen
Ġempez ar
ĠR ES
Ġbuen as
ĠB ras
Ġar teri
Ġdi v
II I
ĠUn iÃ³n
Ġmuer tes
Ġmetabol ismo
m enta
Ġcompues to
Ġefec tividad
ĠprÃ³s tata
ĠJ unta
Ġcl ara
con s
Ġej ecu
Ġ[ .]
Ġdeman da
Ġcons ta
ĠL ib
tÃ© ter
Ġacce der
ĠfenÃ³m eno
Ġtrabaj ando
plas ia
Ġcomen zÃ³
uy Ã³
ĠDÃŃa z
ĠS ch
Ġdes c
Ġ" .
Ġestad ÃŃs
Ġdis posiciÃ³n
ÃŃ ticas
Ġma es
ic anos
or ge
Ġle van
Ġw ww
Ġindepen diente
Ġl ic
Ġv enta
ĠRad io
ĠF ern
Ġneces arias
Ġacre di
Ġautor idades
Ġres id
Ġaplic aciones
Ġinstitu ciÃ³n
an t
Ġbas ado
gi os
Ġbas ada
Ġac el
ra x
ĠB al
Ġpr ensa
un o
Ġespeci ales
Ġpo dido
ĠS ecre
ĠO c
Ġsu ici
Ġd ando
Ġpop ular
ch ar
Ġorig inal
Ġcorrespon diente
Ġinici ar
Ġrealiz aron
Ġdis tancia
Ġ3 3
Ġcontinu a
Ġestado uniden
Ġhtt ps
Ġconsul tar
Ġcuestion ario
u almente
Ġa dic
idad os
Ġpro ve
Ġanim al
am p
Ġextre mo
Ġperspec tiva
Ġdes can
Ġplac ebo
Ġperman ente
Ġdis cipl
ĠH asta
5 6
Ġ rol
Ġro de
Ġembara zadas
ĠB ol
ĠSe guridad
oc en
c y
ti ciÃ³n
d uras
w n
il aciÃ³n
Ġmo tivos
ĠB en
ĠE pi
Ġconv ir
Ġsobre peso
Ġan unci
Ġenc uesta
ĠV e
Ġac lar
ru mp
Ġar tritis
Ġp le
Ġindic an
Ġcol om
ab la
ĠM ol
Ġn ucle
Q U
CI A
Ġtrasl ad
Ġacu dir
Ġsospec ha
Ġfib ro
Ġprop Ã³sito
Ġdoc tora
Ġqui ero
Ġl un
Ġfin almente
ti ga
esti ones
Ġerr ores
Ġint entar
Ġescuch ar
Ġbaj as
Ġpobl aciones
mi os
lan d
f ar
Ã© g
7 8
Ġtra to
ĠE j
Ġcur sos
Ġex pec
Ġar ro
vi ene
ĠT ecn
Ġvari edad
te gr
Ġv oc
ĠFin almente
ĠT Ã©cn
Ġinstrum ento
ĠF o
Ġfon do
Ġcu ra
Ġex tensiÃ³n
mÃ¡ tico
Ġmulti discipl
ĠO N
Ġgra tu
Ġdisfru tar
Ġres taur
Ġinstal aciones
Ġfab ric
er ÃŃa
Ġprogres iÃ³n
I Z
ĠO tro
til aciÃ³n
Ġnorm as
Ġcual quiera
es o
Ġcu ar
li ta
ide z
Ġdesarrol la
p in
gen era
1 00
mi l
Ġtempor ada
Ġdesp laz
Ġce fal
Ġcre e
4 9
Ġb om
t ent
ĠM us
ent ro
Ġderiv ados
Ġsimple mente
Ġemo ciones
p r
ti ro
Ġca dena
Ġacciden te
Ġan orm
Ġv ital
ĠRe y
P or
g lob
ĠT R
c oles
Ġsugi ere
Ġpersonal idad
ĠRe d
Ġt re
g us
Ġbeb idas
Ġimpres cindi
ĠY ork
ĠT om
ĠrÃ¡p idamente
tr u
ĠEtique tas
Ġener g
p ul
Ġesti ma
ĠMÃ© dicos
y ch
Ġapara to
Ġre quis
ĠÃ¡ r
Ġ5 5
Ġfum ar
Ġalgun o
Ġnutri entes
8 3
Ġfundam entalmente
Ã©g imen
Ã©n d
ĠAn dal
Ġcolec tivo
ĠN utriciÃ³n
pat ÃŃas
Ġci to
ĠTras tor
Ġac titud
Ã¡m ara
Ġpre ci
Ġases or
mer os
ĠenseÃ± anza
ĠcompaÃ± eros
Ġblan co
Ġeta pas
Ġcu tÃ¡n
Ġelabor aciÃ³n
Ġsim ul
Ġesc en
fic amente
Ġapor ta
ĠAut Ã³n
Ġc Ã¡
Ġepiso dio
ĠS h
kin son
Ġcontro les
Ġsu ger
Ġase gura
ma go
ĠM ur
Ġar gum
Ġestabl ece
que z
Ġtr Ã¡
4 1
Ġfas es
it arias
Ġic tus
Ġrecibi eron
ĠW il
Ġencontr aron
Ġti erra
Ġcon vers
Ġdesen ca
Ġintes tino
Ġcan tidades
Ġalim ento
el le
Ġdeb ate
Ġmol esti
Ġesper ar
Ġayud an
Ġci ta
Ġesp al
al gia
Ġis qu
Ġlle van
Ã ĳ
T C
3 121
Ġfru tas
ĠAn d
Ġpron to
Ġpo bre
es tre
Ġestable cido
Ġpalab ra
Ġinter cambi
Ġve h
Ġf ir
I EN
Ġapro pi
Ġad quir
Ġci vil
an da
fer a
Ġtemp rana
4 3
ĠL AS
xi mos
rea tment
Ġca tÃ©ter
ĠD ol
ĠÃ¡n imo
Ġfra g
man ia
ici na
ĠDia gn
Ġinclu idos
Ġden s
Ġcompon ente
ci ne
di entemente
Ġcoment arios
m ana
Ġme x
jer on
ĠB as
Ã¡n ico
Ġsal ida
Ġnumeros os
Ġpres cripciÃ³n
ec uciÃ³n
Ġvent ajas
br al
ĠR om
ar y
p Ãºblica
Ġhier ro
AD A
Ġcoron aria
Ġinterac ciÃ³n
Ġa mino
Ġes co
Ġhospital aria
Ġ199 9
Ġpade cen
Ġencontra mos
Ġoblig a
ĠmÃºlti ple
Ã³ mi
Ġcomple tamente
Ġrealiz adas
U D
pe ci
Ġdismin uye
ĠdÃ©c adas
Ġfra cas
Ġindic adores
Ġcl in
Ġf res
Ġor to
Ġan emia
Ġbas a
aliz adas
Ã³di go
e mb
Ġfin es
Ġcon voca
ĠG re
ĠAndal ucÃŃa
ĠO R
ĠAg encia
tar Ã¡
ec on
u a
Ġcompren der
Ġtu berculosis
ĠPres idente
i x
Ġdol ores
ĠÃºn icamente
bi os
Ġas ign
ĠV as
Ġbaj os
Ġcomba tir
ĠS ci
C Ã³mo
til las
Ġmedi r
tran s
Ġdescon oci
Ġ3 7
Ġefec tiva
ent er
Ġapro b
Ġrecono cer
Ġest ados
y ac
ox id
Ġobserv ar
Ġentre vis
Ġe f
Ġemb ri
Ġpublic ados
Ġconsider ado
Ġbeb Ã©s
Ã©r ico
ci pa
z ando
Ã¡s tica
ab lo
ĠEstudi os
qu ismo
Ġresiden tes
Ġh uev
ĠA B
or i
Ġcorrec to
ĠÃ³ pti
Ġadul to
Ġsabe mos
Ġab und
dis mo
Ġhip Ã³
0 1
Ġme tros
Ġ" ,
tos a
f ÃŃas
Ġsus cep
Ġbio psia
Ġmoder ada
ĠJ im
ĠP l
on ancia
Ġconse gu
Ġins er
ific ar
Ġdirec to
e go
Ġdef ensa
ĠM A
Ġgl Ã¡nd
Ġt Ãº
Ġdor mir
Ġ ido
ĠGran ada
Ġtrans form
r ados
ĠC ruz
Ġme tas
Ġjug adores
Ġg inec
Ġal o
Ġca v
R e
ĠG ra
Ġnega tivo
Ġimplan taciÃ³n
Ġcal le
Ġpos to
ra mos
ĠE X
Ġdig ital
Ġcul tural
Ġcober tura
ĠF or
Ġar teria
Ġobserv ado
Ġconside ran
Ġvent ricular
Ġcompues tos
Ġavan ce
Ġesc ol
Ġcul tivo
Ġhig iene
Ġviv o
in tes
t un
Ġcolum na
Ġdestac ado
li tus
mi tes
ĠU rg
le o
Ġac tivos
t res
Ġsu m
Ġtemp oral
Ġsignifica tivo
Ġpres iden
Ġtar ea
ent en
Ġen laz
6 5
til es
Ġl Ã¡ser
Ġcircuns tancias
Ġenc ues
ĠP on
ÃŃ l
ern as
Ġex pan
r eras
Ġmo d
C L
Ġag ente
um ab
Ġcarb ono
ti bles
Ġb eta
uc e
Ġcomen zar
ĠG en
Ġvis it
tu des
ch es
4 7
ĠFran cia
Ġest Ã³
Ġad qui
oc k
Ġesper anza
ĠcÃ©l ula
il las
bier to
Ġex tran
Ġrespira torias
Ã³r ica
Ġinte lec
Ġinnov aciÃ³n
S S
Ġhues o
ĠG ar
Ġantic on
Ġ3 8
Ġal tura
Ġrepro duc
Ġ3 9
Ġah or
qui Ã¡
Ġre mo
ĠB lan
Ġesfuer zos
Ġ5 00
Ġespecial idades
ue gos
te li
S O
Ġs Ã³l
Ġprodu cido
Ġloc alizaciÃ³n
Ġofici al
Ġadap taciÃ³n
Ġpo dÃŃa
ic k
Ġmo tor
lo go
Ġllev Ã³
Ġconstituy en
pro te
ĠEnferme dad
ĠCal i
Ġde partamento
Ġaten der
Ġinfer iores
Ġabier to
z uela
Ġap enas
Ġfinanci aciÃ³n
ĠDis pon
ĠBras il
6 9
x is
Ġcier ta
ti d
s en
Ġfacil it
Ġdirig ida
r or
ĠS il
Ã³n de
m ano
Ġrecib en
Ġespaci os
Ġcri terio
Ġacciden tes
ĠestÃ³ mago
Ġanterior mente
Ġest ÃŃm
Ġde pres
ĠPsic ologÃŃa
jer ÃŃa
ĠÃ¡ cidos
amer icana
Ġanestes ia
Ġ Ãºl
Ġen dos
Ġentre ga
00 1
Ġescri to
Ġre to
ĠAl im
Ġcom e
ĠCardi ologÃŃa
Ġcircul aciÃ³n
Ġar ti
ĠmÃ© dula
Ġni Ã±as
ĠelectrÃ³n ico
Ġcoordin aciÃ³n
ĠLin ks
in mun
Ġestim ulaciÃ³n
Ġposto pera
Ġmu taciones
Ġdis co
s or
Ġrecord ar
Ġhog ar
Ġco tidi
Ġerr or
ĠJ orn
Ġsuje to
Ġproporcion ar
Ġdefini tiva
Ġfrecu entemente
am b
ti mas
Ġci cl
om en
Ġcorrespon de
til lo
Ġus a
es truc
y as
O B
Ġk il
Ġ @
Ġes que
Ġconduc tas
Ġev olucion
Ã©n ez
Ġdi chos
Ġgu ÃŃas
Ġcogni tivo
Ġgen Ã©tico
Ġcompeten cias
f ro
pos iciones
Ġnorm almente
ĠC U
ti fica
Ġes qu
um e
Ġcan al
Ġv Ã³mi
Ġex terior
Ġpod cast
man os
Ġne ona
vir us
Ġdetermin ados
Ġfaci al
ear ch
l in
ĠCon trol
Ġviv en
Ġpo cas
Ġdetermin ado
Ġcomunic ado
Ġdi cen
ĠÃģ l
Ġlimi taciones
ĠN os
yec to
p y
titu des
Ġvita minas
Ġocas iÃ³n
Ġdem encia
ĠS ta
AL ES
ĠB ur
Ã³lo ga
tific ar
A l
ys is
Ġcons umir
Ġintegr aciÃ³n
f ormaciÃ³n
Ġform ado
cl usiÃ³n
u dades
Ġfundam entales
Ġcorre o
I ON
Ġun iÃ³n
ta tivas
ĠtÃ©cn ico
Ġproto col
Ġmostr aron
Ġha ga
ĠH ar
Ġalterna tivas
tec ciÃ³n
ĠSo bre
Ġpose e
ĠH u
ci les
Ġalmac en
ĠaÃ±a de
Ġest ancia
ĠSe villa
Ġn ec
ĠJo hn
ĠD an
Ġsor pren
Ġdi c
Ġcereb rales
ĠnÃº cle
k g
inf lama
ĠseÃ±al ado
Ġestad io
Ġmolec ular
Ġpu do
Ġse gur
Ġrecomend able
Ġproporcion a
ti os
ĠT era
Ġrela j
ĠtÃ³ x
Ġcolom bi
Ġcoin ci
Ġnaci do
ĠPedia trÃŃa
Ġmicro organ
Ġtrabaj a
f Ã©
Ġtele visiÃ³n
Ġpas os
ĠTra bajo
V A
tra to
ern es
z ados
ĠMi entras
tico ag
ĠM en
Ġv oy
Ġtra tado
Ġinteres es
in c
Ġ um
Ġl ine
ĠEs tÃ¡
Ġv s
Ġdeber ÃŃan
ĠG e
Ġreg ulaciÃ³n
tric es
fr ica
t Ãºan
g inal
Ġrespe to
Ġpre mio
Ġafec tadas
Ġcontinu ar
Ġest an
Ġprevi os
Ġreci be
in ter
Ġra tones
tr on
Ġf ras
ĠO tra
Ġnaci dos
v ado
Ġse de
ĠDi abetes
ÃŃcul as
Ġinhib idores
ĠRe pÃºblica
Ġespal da
Ġpublic aciones
Ġ199 8
ĠHis toria
Ġimp ar
Ġab dom
Ġtran quil
ĠRe ci
Ġespeci alizada
tin as
Ġa re
om os
Ġ201 9
Ġlen gua
Ġanci anos
Ġdef en
tÃŃcul as
Ġinv it
Ġaz ul
Ġen orme
Ġsoci edades
ĠSoci ales
7 7
ĠB ra
Ġfi j
aba quismo
Ġpues ta
Ġhi ja
Ġnega tivos
Ġvig ilancia
ĠFern ando
us e
gran tes
Ġlleg Ã³
R C
enti miento
Ġanti oxid
Ġcomp ra
ÃŃt ulos
Ġr Ã©gimen
d f
ĠP ues
Ġrespon der
ĠpÃºbl icas
Ġserv ir
Ġdi mens
Ġvia je
w it
Ġsoci os
Ġcu estiones
ti mi
E G
ĠfÃ³rm ula
Ġin gre
te m
ĠM c
Ġdi la
u ria
ic ha
Ġperten eci
ĠEvalu aciÃ³n
Ġver de
Ġda Ã±os
Ġclas es
Ġdem uestra
Ġcon ex
Ġac og
Ġju gar
ĠS N
lo p
ĠD av
Ġre uma
id aciÃ³n
Ġex tens
Ġh echos
Ġes ter
Ġplata forma
Ġmostr ado
Ġquier en
Ġhues os
ĠB r
Ġreci biÃ³
ĠA t
IN A
Ġan o
Ġin gen
Ġindepen dientemente
Ġcon clusiones
Ġver te
5 5
ar nos
Ġmanifi esto
dr Ã¡
Ã©m icos
Ġenlaz an
d ri
Ġdefin iciÃ³n
b el
tin encia
Ġque dar
Ġf an
ĠL uego
Ġexp lo
Ġreci entes
Ġpi ernas
Ġhici eron
Ġcategor ÃŃas
Ġme lan
Ã³m icas
Ġ id
ĠPre mio
w are
ĠEx per
Ġ4 6
Ġent rar
Ġdoc ente
ĠM ari
Ġtom ando
ĠG as
Ġradi aciÃ³n
ĠA gu
Ġmes a
Ġtransvers al
ĠV ene
Ġcal cul
ĠAlgun as
Ġprecis a
Ġata que
U U
Ġre tros
Ġpro puestas
Ġhemorra gia
Ġro mp
tro fia
Ġin du
Ã©r icos
f en
f re
toma tologÃŃa
Ġlec tura
Ġapor te
Ġmovil idad
Ġdirec tora
Ġo cul
ĠDE S
Ġcomp rim
Ġcompr ensiÃ³n
p ra
Ġran go
ĠUn ido
Ġeleg ir
us a
Ġob tuvo
ĠB an
Ġbre ve
Ġau tismo
Ġdiar rea
ER M
ĠG uerra
ĠAmer ican
Ġdes eo
den cias
ĠH ol
ĠSan itaria
Ġsol id
ter ÃŃa
Ġres al
Ġci udades
i mp
ĠO tras
Ġdispon e
me j
Ġcompro bar
Ġhacer se
b or
- ,
ĠUrg encias
Ġori ent
Ġliber tad
ĠC e
x ido
Ġhospital ario
Ġs ta
Ġmemb rana
Ġg Ã¡s
Ġmon ta
il es
k ing
Ġs abor
quia trÃŃa
ÃŃcul os
ĠAn tes
ĠO ri
Ġexplic Ã³
IENT O
Ġ it
tific ado
L O
Ġindic aciÃ³n
27 33
Ġb ur
Ġas isti
Ġ3 00
Ġdef ine
d l
Ġhe ter
ĠmolÃ© culas
ariz aciÃ³n
Ġinstrum entos
Ġd ue
a ve
Ġop era
Ġprofes ores
Ġutiliz Ã³
ĠVal l
tu ros
Ġtel Ã©
ĠAca demia
Ġdeb es
Ġintra ven
Ġrecuer da
? .
Ġsir ve
le y
!! !
Ġa pe
Ġsegu ido
Ġapor tar
Ġfib ra
ĠE con
Ġne umon
Ġsan os
ĠPu bl
Ġprogres iva
ar ca
ĠMu jer
ĠC O
Ġcorre laciÃ³n
Ã©r m
ĠAn Ã¡lisis
Ġcro mos
Ġpe dir
Ġcar cinoma
ĠRe ino
Ġdesenca den
Ġcu Ã¡l
Ġobje tos
Ġescri bir
ĠD M
Ġmor f
do c
Ġnumeros as
Ġp h
Ġps icos
Ġcar ne
Ġfuncion a
me dios
grÃ¡ fica
Ġac os
Ġpelig ro
Ġsugi eren
Ġve get
Ġparticip ado
Ġhabi tualmente
Ġdescrip tivo
Ġli bres
ĠDoc tor
tri monio
ĠbÃ¡s icos
E F
ĠDeb ido
Ġjue gos
Ġsu rg
ĠHi per
Ġan ticoag
ps is
Ġof recen
Ġm ales
Ġsuf re
un tos
truc ciones
Ġrelev antes
Ġefec tivo
ĠD on
Ġcom idas
Ġes ca
ĠP uer
Ġpens amiento
Ġfa tiga
f ono
ter rÃ¡n
tÃ¡s tasis
Ġho jas
Ġan omal
Ġin ciden
Ġmel litus
g Ã©s
Ġa Ã©
is a
is h
it es
Ġdif usiÃ³n
m al
Ġorgan ismos
Ġconcep tos
ĠseÃ±al Ã³
able mente
tic s
Ġdesta can
Ġhospit alizaciÃ³n
Ġan tÃŃ
te os
Ġm entales
cios as
Ġplan es
8 9
ti ende
ĠÌ ģ
Ã³ tica
Ġil us
Ġconta min
Ġmetod ologÃŃa
Ġfin alidad
Ġpermi tido
Ã± ez
Ġam ari
Ġdel e
cÃ³p ica
Ġindi s
tÃ© g
ĠP ablo
Ġinyec ciÃ³n
ĠDirec tor
Ġas pir
Ġdesarrol lan
Ġadi cional
ĠDav id
27 38
fer encias
ĠÃ©s tos
te ca
Ġmil es
Ġfle xi
Ġter ren
Ġes enciales
Ġg lu
ĠNe w
ĠA mb
ta ba
Ġcele bra
Ġexter na
Ġcompeten cia
Ãį A
Ġgus tarÃŃa
b os
Ġse vera
ĠCatal uÃ±a
Ġhorm onas
Ġcuid ar
y e
ĠInf ormaciÃ³n
Ġd Ã³nde
ĠA G
Ġabsor ciÃ³n
ti go
Ġdepen diendo
ĠprÃ¡c ticamente
Ġestim ul
ĠF i
Ġex istentes
Ġdeb a
ĠS te
Ġpar ecen
l en
Ġbas al
ĠÃ³ p
Ġmostr ar
Ġf oc
Ġciruj ano
T IC
Ġt reatment
Ġadministr ar
s in
Ġv ie
ĠestadÃŃs ticamente
Ġintro du
ĠlÃŃqu idos
de pen
Ġcorrec tamente
Ġvis itas
Ġdetermin adas
ĠM ED
ed or
Ġvi ernes
x o
Ġju icio
gr ad
ĠL on
Ġcos tes
cer as
Ġefic aces
m us
Ãº tbol
pe dia
Ġcre ado
C S
g adas
tra te
T OR
var ez
Ġempe or
Ġimprescindi ble
Ġacel er
Ġlabor ales
Ġhabi tuales
Ġafec tada
Ġve j
Ġ4 2
Ġevi dente
Ġpo ca
ias is
Ġpsic olÃ³gico
Ġf amos
Ġindic aciones
ogra ma
Ġrevis tas
Ġtrabaj an
Ġn erv
Ġdi as
Ġpos teriores
ĠC ris
ĠM ac
ĠÂ »
Ġliber aciÃ³n
Ġparti cipa
jer os
ĠsÃŃntom a
terior mente
Ġhubi era
ener aciÃ³n
Ġcompor ta
ĠRa fa
Ġrealiz arse
Ġsol ar
ĠF el
Ġï Ģ
Ġsub ra
ĠF A
Ġo cular
Ġin e
Ġdetermin aciÃ³n
Ġdescri be
tar a
an e
ĠD ecre
vie w
ed ores
Ġmens aje
ti eron
end an
Ġactiv aciÃ³n
Ġli der
ĠL le
Ġpres ti
ĠMÃ©to dos
Ġl Ã³g
er ales
Ġbron qui
i ana
Ġconta minaciÃ³n
P E
ar ro
ĠFar macia
i ano
s as
Ġsu ma
el os
Ġes pi
C E
fil a
Ġges taciÃ³n
Ġmedi ciÃ³n
ti pos
ĠMa terial
en das
Ġacon te
Ġcon vierte
tor y
ĠC AR
Ġrequis itos
ec tomÃŃa
Ġt on
ber t
ĠsanguÃŃn eo
ĠC R
c Ã³
Ġo don
Ġdise ase
Ã³ tico
ĠD os
Ġdescon o
Ġrela tivamente
p ora
ĠN orte
Ã¡m enes
Ġmez cla
Ġw h
mÃ¡ ticos
ĠL abora
ĠRam Ã³n
ĠB el
ĠC H
Ãº bi
Ġaler gia
ph y
Ġcif ra
ten osis
Ġf os
ĠD entro
Ġpuntu aciÃ³n
Ġdefin ir
Ġcorre g
Ġcons igue
ĠCent ral
Ġin com
ĠhipÃ³ tesis
âĢ Ķ
Ġradio terapia
Ġsal a
Ġt abaquismo
Ġtit ular
ta bles
tu mb
ide l
ĠAle mania
ril lo
Ġdesc enso
Ġdem ues
tri cia
Ġimp ul
Ġqui Ã©n
o peraciÃ³n
Ġdes cen
z can
ĠPre venciÃ³n
Ġin au
ĠÃºtil es
Ġp ec
gu ar
Ġcondi cion
et y
ĠprÃ³ ximos
Ġver duras
Ġser o
Ġsenti mientos
Ġutiliz ada
Ġquier es
b un
Ġcl ima
g li
ĠM uy
der os
Ġsenci llo
tal ia
Ġhab rÃ¡
Ġnego cio
Ġin tenciÃ³n
ad Ã¡
ĠIn tegr
Ġfuer zas
I CI
Ġb on
Ġobten ido
h am
Ġgastro intes
Ġdocum entos
ĠJim Ã©nez
mi algia
P H
Ġcomer cial
Ġrodi lla
in d
ita t
Ġcalor ÃŃas
ade cu
ĠDecre to
co c
ac as
Ġsospec h
en se
an ÃŃa
i me
tab an
f ol
icil io
Ġneur onas
Ġdes per
Ġap lica
Ġcu Ã¡les
fic aciÃ³n
Ġal tamente
Ġartic ulaciones
Ġpre de
b ido
Ġpla que
Ġimp lante
u de
Ġdis cri
Ġsin tom
Ġsac ar
D e
Ġm ara
Ġafec tado
ci tos
ÃŃ das
Ġ199 7
Ġnega tiva
Ġtor Ã¡ci
Ġpermi ta
Ġlle gado
Ġest Ã¡s
ĠseÃ± ales
Ġban da
Ġsuper ar
ĠK a
Ġno vel
Ġrece ta
Ġp ena
ĠCu idados
ĠpolÃŃ ticos
Ġg estion
ĠdiagnÃ³s tica
. ).
Ġr eno
ĠRu iz
r adas
ĠtÃ©cn icos
er to
Ġres erv
duc e
Ġalcan ce
Ġsuce de
Ġreg ional
Ġasegur ar
ici on
Ġad quis
Ġsan grado
Ġenl ace
Ġhorm ona
Ġreconoci do
* *
Ġamb ula
ĠConse jerÃŃa
Ġclar amente
Ġpas ando
Ġa mer
AD OS
ĠRe vista
Ġrelev ante
Ġpre dis
Ġauton omÃŃa
P C
Ġabier ta
Ġg ar
Ġconsidera ble
Ġref or
Ġconcl uye
Ġcomien zo
Ġdeber Ã¡n
Ġinvers iÃ³n
Ġnom br
Ġbloque o
Ġint ent
Ġrepres entan
ĠbÃ¡s ica
Ġac or
Ġre mi
Ġemple ados
b ina
Ġdi ver
Â ±
Ġcu entan
ien es
Ġtr on
ĠM Ã¡
Ã ¨
Ġleg al
Ġso dio
T U
Ġcoment ario
Ġad ulta
Ġve ge
Ġabdom en
5 3
tin ales
am ble
Ġinmun e
ĠI g
u mi
Ġeco grafÃŃa
Ġprecis iÃ³n
Ġconver tido
Ġcono cidos
ĠMe j
5 8
ĠEpi demi
Ã©r icas
Ġdiagnostic ados
grÃ¡ ficas
Ġest arÃ¡
Ġpro li
Ġpermitir Ã¡
Ġfrac turas
ru pciÃ³n
Ġpsi quiÃ¡
ĠV il
Ġin hibi
Ġpa trones
tu m
Ġconvenci onal
Ġmolesti as
ĠfarmacÃ©u ticos
Ġori entaciÃ³n
lam ento
gen os
ĠTi ene
ter as
Ġ15 0
Ġna ve
Ġami go
qui tec
vi Ã³
Ġraz on
Ġarteri as
Ġcerv ical
Ġinmedia tamente
ĠeconÃ³m icos
id ado
Ġpre cios
Ġv idas
ĠCom ple
Ġenfermer os
ol os
Ġembara zada
Ġcomp rar
in gi
ÃŃs imo
in tom
ĠH ace
Ġab rir
Ġent ra
Ġinform ar
Ġdi chas
9 9
Ġdens idad
ĠR M
Ġsens ibil
Ġno table
esti ma
Ġrealiz ando
Ġjur ÃŃ
gr os
Ġme tÃ¡stasis
di as
Ġsu ces
Ġca dera
ĠfÃŃs icas
OM S
Ġpreocup aciÃ³n
por osis
ĠF un
Ġsome tidos
Ġsobre viv
Ġcer can
Ġimple ment
Ġinf ra
Ġe ficiencia
Ġau t
ĠA T
ul ada
Ġorganiz a
Ġ ciÃ³n
Ġpa utas
Ġenfr ent
Ġfrac tura
Ġadher encia
Ġorganiz ado
Ġindividu ales
Ġus ando
Ġdesempe Ã±
b ana
am Ã©rica
Ġla teral
Ġcapaci dades
ĠsÃŃn tesis
ĠEs o
Ġintro ducciÃ³n
Ġ4 4
Ġde v
p il
Ġcam pos
Ġcons entimiento
Ġanal gÃ©s
Ġeviden cias
Ġvuel ve
Ġinmedia to
te ms
ĠR el
Ġconsegu ido
Ġe dema
Ġcomp ara
ĠJ orge
k y
R S
Ġambi entales
Ġinterpre taciÃ³n
Ġtu bo
Ġdi et
L as
6 6
Ġpsic ologÃŃa
Ġhal l
tiz aciÃ³n
Ġti n
Ġcual ita
Ġnervi os
Ġan at
ĠAn ti
qu in
Ġ4 1
Ġ8 5
ĠA us
Ġca tal
Ġâ ī
i i
Ġgr ados
? ,
Ġin adecu
gi Ã³
ĠM el
Ġs ana
ĠFamil ia
ĠC L
Ġcorrespon dientes
ĠReg is
Ã¡ ce
j era
Ġcr ÃŃtica
Ġcier re
ĠpolÃŃ tico
il i
am in
Ġbi om
Ġabord ar
Ġconlle va
ca paci
ri to
ĠmÃ¡ qu
ĠSuper ior
un g
der s
Ġop timi
Ġconcl usiÃ³n
Ġmedi cin
Ġprotocol os
Ġimplan tes
de res
re d
Ġres tric
Ġal i
ĠvÃ³mi tos
Ġmic ros
Ġpriv ada
Ġlle gada
om er
Ġlle gan
Ġdi Ã¡lisis
Ġh os
ig en
ĠBuen os
gl uc
um in
Ġrecuper ar
gles ia
Ã©m icas
Ġrepresent antes
Ġcomp res
ĠlÃŃ mites
j idad
Â °
u ciones
id al
Ġmicro bi
Ġno ticias
Ġperio dis
Ã³ ticos
Ġhallaz go
Ġcuidad ores
Ġon line
iz an
Ġnerv io
Ġre tos
Ġre tro
b ular
Ġpla zas
Ġcos to
Ġc es
Ġfavor ecer
Ġpro xim
ĠP i
Ġemp ren
ĠOb s
Ġdis cu
Ġpa gar
Ġal cal
ĠCar men
Ġres umen
R O
on s
EMA IL
Ġdemostr ar
i gual
on ia
Ġprofun didad
Ġcar e
Ġpermi tan
Ġpreci so
Ġmig ra
Ġavan zado
Ġher idas
Ġmez cl
Ġleg isl
Ġdom icilio
Ġmi el
Ġmus culares
h ib
Ġalea tor
Ġhis torias
Ġeduca tivo
Ġin cu
Ġ5 6
Ġadolesc encia
Ã¡c tica
ĠaÃ±ad ir
Ġcor ta
Ġelev aciÃ³n
Ġdes n
ĠF a
Ġimpos ible
Ġcol a
ber g
ĠfÃ¡cil mente
ĠlÃŃ mite
ĠM ental
Ġpri ma
Ġv aria
ĠF oral
Ġdar le
ren al
r aciÃ³n
Ġdiges tivo
Ġapro bado
ĠCOM P
Ġ4 3
Ġdimens iones
Ġrepro ducciÃ³n
Ġinterval o
ĠAutÃ³n oma
Ġretras o
Ġintern et
g amos
Ġsenci lla
Ġpar ecer
Ġpun ta
Ġor ales
Ġunivers idad
par os
Ġra ÃŃz
Ġer es
Ġinfl uen
tu vieron
H C
Ġmis iÃ³n
Ġlo gra
t ul
Ġarri ba
Ġcons ci
ĠE r
Ġtox icidad
ech as
U n
Ġfemen ino
Ġa trÃ¡s
Ġj er
Ġv esti
Ġmin erales
Ġoportun idades
Ġconse jo
Ġanticon cep
Ġdef ens
Ġadecu adamente
ĠPa ÃŃs
Ġte m
Ġprofun da
Ġcol ores
ĠCh ina
ĠsanguÃŃn eos
ĠW eb
ent re
Ġ199 6
Ġgan ar
ne y
ĠC ha
h u
m acias
ĠV ol
ĠOnc ologÃŃa
Ġr aras
Ġcontras te
Ġplan ificaciÃ³n
Ġci encias
lo w
ĠCi encia
Ġt ambi
Ġad mi
ar los
ÃŃs ica
ĠS ue
Ġe je
Ġex pe
uev es
Ġespec tro
Ġaliv iar
tÃ³ lica
ĠRafa el
Ġ4 9
tico ides
Ġfuncion ales
Ġman ual
Ġrecono ce
Ġinf il
ĠG R
Ġpro m
Ġsigui endo
Ġac tÃºa
Ġunivers al
el as
Ġafec ciÃ³n
Ġsin tomatologÃŃa
Ġsi tios
fici os
Ġobserv aciÃ³n
ĠfÃŃs icos
Ġarri t
Ġlabora torios
or as
ic en
Ġdiv ul
s ar
ĠEn rique
ĠriÃ± Ã³n
Ġb acter
ĠP ER
cre as
Ġi ba
8 4
Ġd ren
Ġrele van
ft ware
ti za
Ġtr iste
Ġpa is
Ġi di
Ġplante a
r ÃŃculo
Ġvis u
ÃŃ ri
Ġecon omÃŃa
Ġp Ã¡r
Ġinvestig adora
Ġreco ge
Ġlimp ieza
Ġvul ner
, .
am ina
Ġas intom
Ġcre ciente
le psia
Ġre emp
Ġmec Ã¡nica
Ġinten so
Ġactu aciones
Ġpres taciÃ³n
Ġaur icular
oso tros
Ġimp er
Ġin mi
Ġmuc osa
ĠG estiÃ³n
Ġequiv al
ĠVene zuela
Ġprim ario
p p
ĠPos teriormente
tera pe
Ġar t
Ġser ies
ĠL ic
Ġcolo car
Ġh arÃ¡
ĠT ur
Ġde trÃ¡s
6 4
don cia
t Ã©tica
Ġfib ras
y u
d ÃŃ
un as
Ġd ul
Ġcam a
ĠFarmac Ã©u
ĠÃ¡mbi tos
Ġfaci lita
Ġcons enso
Ġadecu ados
Ġe tique
. :
ĠDispon ible
Ġeurope os
Ġplan o
Ġparticip an
Ġcontin Ãºa
Ġcon ducir
ma il
Ġpl Ã¡s
Ġinau gur
Ġv ic
ĠvÃ¡l v
Ġcomple jidad
Ġeti ologÃŃa
Ġconf igur
Ġinh al
ion ar
ĠT RA
em ent
Ġplas ma
H A
Ġdefec tos
cri to
ĠC A
socia tion
Ġverda dera
Ġse d
Ġfr ÃŃo
Ġca fÃ©
Ġr ue
ĠEx iste
Ġle jos
bi endo
to do
Ġdi gn
Ġcab e
ĠC Ã¡
Ġres onancia
Ġmarc adores
( .)
Ġcu arto
Ġhace mos
o pa
aci ona
Ġca ÃŃda
pen ia
ĠN uestro
Ġatra c
ĠMor eno
Ġsuf rido
Ġin jer
Ã³l icas
Ġauto inmun
Ġdis tal
I X
Ġdoc entes
Ġpas Ã³
T S
Ġex Ã¡menes
v os
c ord
Ġh ar
I OS
cri p
Ġcu yos
Ġinmedia ta
Ġconv iv
Ġestr ic
Ġnorma tiva
Ġre in
Ġtum oral
Ġpresu puesto
ĠMuch os
Ġamino Ã¡
ĠG a
Ġ5 2
Ġa per
Ġcontra indic
Ġintelec tual
Ġdiab Ã©ticos
ĠlÃŃ der
Ġa vis
Ġoper aciones
Ġsi ente
Ġforma to
t Ã¡l
ten cia
Ġapar tado
Ã©r cito
ID O
Ġr on
Ġs Ã¡
ĠB or
olog ical
gu es
Ġincrement ar
ĠdiÃ¡ metro
aci Ãĥ
Ġr ÃŃo
Ġof talm
Ġconvoca toria
Ġdes ign
gra fÃŃas
ĠbÃ¡s icas
Ġregis tros
fa to
Ġpre ca
Ġsolici tar
Ġsub s
Ġcom or
ur s
ĠC I
Ġaum entan
Ġes clerosis
Ġsecu encia
5 4
Ġimplic ados
ĠJ ulio
ĠT C
Ġv ice
t z
eci Ã³
Ġprecis amente
Ġcl ientes
Ġinclu ido
Ġmani p
Ġdon aciÃ³n
Ã ł
Ġch ild
ter ona
Ġf ec
s ens
m Ã¡n
Ġlun es
5 1
Ġn ueve
Ġus an
Ġcaracter ÃŃstica
ÃŃs ticos
Ġsu ave
6 1
Ġn ar
Ġmor bilidad
Ġrespira torio
Ġdiagnostic ar
ĠÃģ frica
Ġs ul
tiv al
Ġsu erte
ma tologÃŃa
dr ÃŃa
or aciÃ³n
Ġco h
Ġlo g
Ġalim enti
Ġbra zo
ĠvÃŃc timas
Ġque dan
0 2
Ġmales tar
Ġo ÃŃdo
S i
Ġasisten ciales
Ġpas an
ab el
Ġmodific ar
Ġcon greso
Ġar ch
ĠC alidad
Ġpubl ica
Ġindi rec
Ġne gro
Ġk g
ĠcÃ¡ ps
ĠÃģ rea
ĠC ri
lo g
ues tros
B A
Ġurg encia
Ġconci enci
Ġmedi as
Ġva ginal
Ġfe to
Ġproce dentes
Ġincorpor aciÃ³n
Ġfarmac olÃ³gico
Ġgras os
h an
ĠB ro
ĠInvestig adores
Ġpoten cia
0 7
Ġsal vo
Ġsegur os
ĠI D
Ġ199 5
Ġcar bo
Ġtra cto
Ġcos tos
Ġcompar ar
Ġpar tÃŃculas
Ġl uc
Ġfum adores
Ġr ara
Ġab uso
Ġs ar
Ġob tenciÃ³n
ĠRes pecto
Ġauto estima
Ġpro pa
p Ã³n
ĠM ad
Ġviv e
ĠEP OC
ta vo
Ġm oles
ĠPs ych
Ġadquis iciÃ³n
om n
ĠI S
U ES
Ġe d
ĠE fec
Ġmicroorgan ismos
Ġc Ã¡mara
Ġa val
Ġpotencial mente
Ġocur rir
ÃŃ c
Ġimple mentaciÃ³n
5 2
b acteri
Ġambi ental
Ġfom entar
ĠPs i
ĠTo das
Ġextra cciÃ³n
pl an
Ġgr Ã¡
tor as
ti ta
Ġres piraciÃ³n
ac tividad
Ġro pa
ĠC la
cional mente
P ro
Ġinter no
ĠS olo
ri tis
Ġparticular mente
ĠD ig
Ġconvertir se
Ġsab en
l ÃŃn
Ġro jo
Ġbra zos
Ġagu as
Ġac tos
Ġafron tar
ru g
amble a
Ġpade ce
Ġimp ac
Ġfar macias
Ġ4 7
ĠW e
Ġsus pen
Ġmagn Ã©tica
Ġ4 00
Ġcump le
b ur
Ġher edi
Ġartic ulaciÃ³n
z amiento
elle za
ĠC M
is tan
Ġdi go
ac ciÃ³n
Ġco ag
Ġestudi ado
ĠÃº tero
Ġcul turales
tr y
bl as
ĠJ us
z aron
Ġanti inflama
Ġfon dos
ĠMedic amentos
Ġdeci dir
Ġten d
Ġrecomend aciÃ³n
Ġhab rÃŃa
ren ia
er se
Ġfuer tes
ier ra
Ġa Ã³r
ĠautÃ³n omas
Ġno ticia
un cia
Ġpre fi
Ġmu taciÃ³n
Ġl Ã¡
i ti
Ġcla ves
Ġinform es
ĠOr den
Ġth is
T OS
Ġpol ic
Ġanaliz aron
der Ã¡
ĠS Ã³lo
Ġpriv ado
Ġap unta
Ġdi etas
ĠAn dr
Ġau dios
Ġbi olÃ³gicos
Ġcomple jos
Ġindepen dencia
ide a
b ras
Ġdif un
ĠCap ÃŃtulo
Ġofer ta
Ġesqu izo
Ġper it
ĠD u
ol as
Ã³n imo
Ġemerg encia
ĠDiagn Ã³stico
l ÃŃ
ĠE cu
Ġa bre
i di
Ġneumon ÃŃa
Ġex istir
Ġlinf ocitos
ĠClÃŃn ico
Ġtra yec
ĠP op
ĠU CI
ĠR ÃŃo
Ġcontrib uye
Ġren ales
Ġaliment aria
ĠM is
Ġobs trucciÃ³n
Ġcardi aco
Ġcre ma
Ġci gar
Ġsan o
Ġ7 2
x a
6 7
ĠquÃŃm icos
Ġin cen
Ġtendr Ã¡n
Ġinicia tivas
ĠMur cia
Ġd Ã³
ce fal
Ġdedic ado
Ġadqui rir
Ġpol vo
in t
Ġdescri bir
ĠDol or
j ec
Ġtrans par
Ġfab r
Ġau xil
ĠÃģl varez
b amos
Ġf ren
Ġexclus ivamente
Ġf Ãºtbol
G R
ter ales
Ġapoy ar
an im
Ã³m icos
Ġch ar
Ġvolun tad
Ġrepres entaciÃ³n
Ġiden tidad
Ġi gn
5 00
Ġj ueves
ĠBo go
is e
Ġafec ciones
Ġb os
c tur
Ġcri bado
ic ultura
Ġge ogrÃ¡
Ġref uer
r us
ĠTrastor nos
Ġbi la
Ġparti dos
Ġincluy eron
Ġsolici tud
Ġprepar ar
ez ca
Ġaquel la
Ġma te
Ã³r icos
5 9
e lo
Ġprop iedad
Ġre tina
ĠS ER
Ġde cre
Ġros tro
Ġdemostr Ã³
Ġpropon e
Ġcons olid
ĠnÃºcle o
Ġcerc ano
Ġv aya
Ġar m
Ġcomplic aciÃ³n
Ġmanifi esta
iz on
Ġac aba
Ã© di
Ġgen Ã©ticos
Ġaument ando
Ġven tilaciÃ³n
Ġosteo porosis
pl Ã¡s
ĠN orm
Ġlogr ado
Ġins ec
0 3
ĠN or
Ã³l icos
Ġveget ales
Ġbusc ando
ĠPro vin
Ġn or
Ġcav idad
Ġpresent aban
Ġin m
ĠCar dio
ĠPar kinson
Ġus e
Ġir re
Ġdes in
Ġoc ciden
Ġdetal les
Ġpa go
Ġb et
lan o
Ġcica triz
era py
Ġrev olucion
v ida
ĠObje tivos
Ĥ ¬
Ġgol pe
Ġpues tos
6 2
ĠF OR
Ġhac ÃŃa
Ġingre dientes
tur aciÃ³n
Ġelabor ado
Ġaum entado
Ġperif Ã©rica
Ġrelevan cia
Ġapro baciÃ³n
Ġdes tr
Ġde dos
Ġpro me
de pres
re o
ĠF ormaciÃ³n
Ġdetermin ada
Ġcomp ut
o b
Ġsi ento
ĠS ec
ĠV ar
Ġpon en
Ġresul tar
z co
ĠmÃŃn ima
Ġestra tÃ©g
Ġpi lo
ĠdiseÃ± ado
ara go
ĠGu ÃŃa
Ġgus to
Ġpudi era
ĠO f
b ano
e amente
Ġemp ieza
we en
Ġidentific ado
ĠquirÃºrg icas
Ġsegun dos
ĠV an
ec ÃŃa
Ġej ecuciÃ³n
Ġcel ulares
i res
Ġay er
d ado
tr ar
tÃ¡n eo
to p
Ġn Ã¡us
Ġest ando
Ġhabl amos
ĠC Ã³mo
Ġpare jas
de m
Ġsiste mÃ¡tica
Ġdemues tran
ĠL or
Ġhum or
M e
Ġmodific aciÃ³n
de ras
ier ÃŃa
mi go
Ġpuer ta
Ġpl aca
el es
Ġad ver
Ġconflic to
o den
Ġres idencia
Ġrecl am
uy eron
Ġdescub rir
Ġescol ares
ĠÃ©s tas
Ġb u
Ġapre ci
Ġmultidiscipl inar
gu ay
Ġra yos
Ġcaus ada
Ġh el
Ġtoler ancia
c ados
ab ras
Ġcap ÃŃtulo
Ġpu diendo
Ġmascul ino
Ġce pas
Ġanti m
t Ã³logo
Ġno ctur
ĠDis e
ir Ã¡
Ġcardio patÃŃa
Ġunivers idades
Ġrecur so
ĠtÃ³ rax
Ġau dio
Ġn ie
ig ht
Ġfe tal
di ces
Ġdesa f
0 9
wit ter
aliz aciones
ĠCas tro
ru gas
bl aciÃ³n
Ġin capacidad
Ġul tras
Ġir reg
Ã¡ is
Ġintelig encia
Ġsig las
ĠAr ch
M O
g estiÃ³n
Ġt Ã³p
Ġper dido
Ġn ariz
Ġanorm al
Ġproba bilidades
c Ã©s
Ġ6 4
Ġurin aria
Ġpresiden ta
Ġcontra to
Ġre ales
ic ciÃ³n
Ġag rup
Ġinici Ã³
6 3
truc tiva
Ġres pal
Ġmal o
Ġdi ur
Ġen e
ri tÃ¡n
Ġcub rir
Ġfibro mialgia
Ġcelebr aciÃ³n
pl ica
Ġres uel
Ġfavor ece
Ġent ero
Ġp uso
ĠMe x
Ġdivers idad
ĠB us
Ġespeci alizado
Ġesta bilidad
Ġinter rump
Ġinflama toria
Ġconse jero
Ã³ f
Ġmin imi
P O
Ġru tina
oci al
ti bilidad
ĠtelÃ© fono
ter s
H e
Ġv ÃŃn
ĠU S
Ġcur aciÃ³n
Ġexperim ental
Ġdistrib u
ici li
Ġtermin ar
ĠEl ec
ĠAl on
e v
Ġsecund ario
Ġa go
Ġb ul
Ġextra ordin
Ġelev ados
A n
Ġor o
om bre
Ġs h
Ġdes vi
ĠD IS
ÃŃn s
CION ES
Ġt rim
ĠPor que
Ġcu bier
as h
cu ra
ĠÎ ¼
Ġningun o
Ġdescar tar
Ġtom an
ps ic
ir man
u ri
Ġbio quÃŃm
Ġsens ible
tr ado
Ġobserv aron
9 2
Ġnas al
A CIÃĵN
ĠMedi cine
ĠT abla
Ġis la
e cido
Ġcon tes
ĠM ie
ĠquÃŃm ica
ĠcÃ¡ncer es
um ento
ĠCon o
es per
i tud
Ġseleccion ados
ĠC E
t olÃ³gica
Ġmor tal
ĠT anto
ĠaÃ±ad ido
la ga
Ġu ter
Ġpre mios
Ġre p
ĠCons titu
glob ina
Ġinv er
ĠpediÃ¡ trica
Ġsec tores
Ġadecu adas
Ġdetal l
P ER
arago za
i endan
Ġesc uelas
Ġdescu bierto
Ġni Ã±a
Ġloc alidad
ĠSi empre
Ġcul pa
ter ol
Ġeco cardi
Ġmedi ana
AC E
ida de
Ġar ticular
ĠA quÃŃ
ĠM S
Ġrefer ente
do ba
Ġpoten ciales
Ġso por
Ġconv uls
Ġexpec tativas
Ġpa z
di cial
Ġopin iones
Ġconstr uir
di rec
. ),
ĠPer Ãº
Ġar quitec
ĠterapÃ©u ticos
Ġfisio terapia
?? ??
Ġdeci diÃ³
ĠPar ti
Ġs eno
Ġin ger
ĠC las
Ġayud as
di Ã¡lisis
Ġd ra
ĠAlon so
Ġde ficiencia
coc cus
Ġenz ima
ad ura
pa tologÃŃa
Ġsu ero
Ġfracas o
Ġmor ir
F A
Ġparticip aron
ĠIncl uido
Ġpor ciÃ³n
tan o
cop io
Ġpan cre
ĠespecÃŃ ficamente
Ġcaracter izado
Ġintercambi o
ue ba
Ġin esta
Ġquiz Ã¡s
Ġris k
Ġestad ÃŃstico
tero ides
Ġint oler
Ġgen Ã©ticas
Ġvej iga
ĠSu b
for nia
Ġescen ario
Ġtaller es
oso fÃŃa
ĠPR O
Ġima gin
ĠCan cer
Ġin qui
Ġplan eta
ril aciÃ³n
Ġsecre ciÃ³n
w o
s er
Ġdesempe Ã±o
Ġcuer pos
dad or
ĠI gual
quil la
Ġrecha zo
Ġba Ã±o
Ġ199 4
Ġt esti
Ġtra um
ĠI talia
il los
Ġtempran o
Ġpes cado
v io
Ġen rique
Ġp is
Ġan e
Ġb elleza
Ġv eo
Ġcos m
Ġcorri ente
Ã©r coles
rag Ã³n
ĠM I
Ġproli fer
de x
Ġgas tos
p ica
ĠT ierra
ad i
Ġt Ã©
Ġhiper tens
Ġestad ÃŃstica
Ġdi eron
Ġinici almente
Ġdefec to
ci ru
Ġaconse j
ug h
ĠV illa
T ES
Ġdes pren
Ġp il
Ġre poso
c Ã¡r
Ġform ul
ic s
Ġin tr
ĠRes earch
Ġmotiv aciÃ³n
Ġac titudes
Ġcub ana
Ġgan as
Ġrecom iendan
Ġmul tic
g ulo
Ġlum bar
Ġd ada
uma tologÃŃa
ebo ok
ĠLa tino
ti mos
ĠF al
ĠvÃŃ deo
Ġcorre l
ĠC S
Ġhon or
Ġtromb o
ĠU r
5 7
Ġolvid ar
Ġemp i
Ġdifer encial
Ġpermi tiÃ³
ĠVir gen
Ġexces iva
C P
ĠInvestig aciones
l d
C D
u os
a tion
Ġrepar aciÃ³n
Ġvas culares
Ġev olu
Ġpres erv
Ġjus to
0 4
Ġvir al
Ġrecog ida
Ġreg ula
v ador
Ġes tenosis
ol d
Ġep id
Ġclin ical
it aciÃ³n
ĠSe Ã±
Ġblan ca
enci ana
f aci
Ġeurope o
ĠA z
tri a
Ġdel ante
Ġfel iz
vi era
ĠX V
Ġinterac ciones
ac ho
Ġinfec ci
Ġ5 1
Ġden tales
Ġcam inar
ĠP en
Ġfacil idad
tas io
m m
Ġenz imas
p ado
Ġtambi en
Ġher manos
ĠL es
Ġestadouniden se
ur is
c ada
Ġob tiene
ĠR osa
Ġdenomin ado
Ġ199 0
Ġres pir
Ġintro ducir
er amente
Ġcompe ti
Ġtotal idad
ĠantibiÃ³ tico
Ġes til
Ġ5 4
ĠLa tina
Ã©l v
t arias
ĠAl berto
Ġvuel ta
Ġautor izaciÃ³n
) -
Ġdepor tiva
Ġcicl os
Ġdes igual
Ġso ftware
ĠI r
ĠC Ã³r
ĠdÃ³ lares
Ġcent r
Ġve in
ĠE d
Ġneces it
Ġacad Ã©mico
Ã¡n creas
T EN
Ġsens ibles
Ġu re
ĠPa z
ti fi
Ġesper o
Ġinvas iva
iv er
Ġcl ub
ĠB os
Ġval idez
Ġpar Ã¡s
Ã³ metros
cri bir
Ġcolabor adores
Ġv itro
Ġpi ezas
Ġadolesc ente
Ġprote g
Ġdispon ibilidad
Ġtransmi tir
ĠelÃ©c trica
Ġef fec
Ġfru ta
Ġrefle ja
ĠG inec
Ġactu alizaciÃ³n
Ġin n
Ġsu ficientes
Ġre y
ĠS A
ĠeconÃ³m icas
Ãº m
Ġin tox
al quilo
Ġperson ajes
ĠelectrÃ³n ica
a z
ĠZ aragoza
tec n
Ġdon ante
Ġs ho
ĠT ro
tÃŃcul o
g ando
Ġvolun tarios
Ġurg ente
Ġcu adr
Ġescas a
Ġvaria bilidad
Ġt ono
ĠbÃ¡s ico
Ġe ficiente
Ġcu tÃ¡nea
que mia
ĠcardÃŃa co
Ġin vier
Ġdi bu
Ġcr is
Ġseg mento
emp o
Ġre don
Ġbal ance
ro up
ĠJ ul
Ġsal e
Ġinf usiÃ³n
tom as
ĠPro duc
Ġincluy Ã³
ĠEs p
Ġpel ÃŃculas
ĠO ficial
Ġgrad u
i k
Ġfo tos
den as
Ġsignific ado
Ġesta bil
Ġsuple mentos
Ġredu cido
Ġsist Ã©mica
Ġcole gio
Ġv ino
ĠSe gun
ĠespaÃ±ol as
I ER
ÃŃ gen
Ġher ida
ĠF uer
ĠS EC
Ġquer ido
Ġacum ulaciÃ³n
ĠS el
Ġtradici onales
Ġbaj ar
Ġcelebr ado
ĠC ro
ĠN uestra
Ġanomal ÃŃas
Ġmens ajes
Ġjun tos
Ġab ra
Ġlegisl aciÃ³n
am bre
Ġfib rosis
f renia
ĠP P
Ã³ d
ĠP od
an zas
Ġutiliz adas
ĠMan cha
cu par
Ġv ena
Ġdesarroll ados
Ġinici ales
Ġres tos
Ġinfluen za
ĠF re
Ġanticoag ul
Ġacab ar
ac os
Ġref rac
Ġajus te
Ġdis pens
Ã³s itos
Ġman tienen
an al
Ġespi ri
tor no
ĠCali fornia
olog ia
Ġc Ã³digo
Ġcam pe
icar dia
Ġestudi ante
Ġadi cionales
Ġsocio econ
ĠÃºl ceras
Ġagu ja
cu tÃ¡nea
ĠIn d
DA H
Ġsome ter
Ġepi lepsia
Ġg ana
ĠCo ordin
Ġtrayec toria
Ġbacteri ana
ĠPh ar
Ġal fa
ĠU s
Ġ5 3
Ġev al
one al
ĠPaci ente
Ġpublic ada
ĠPers onas
Ġconex iÃ³n
Ġdes tino
Ġaler ta
Ġgratu ita
Ġun i
ĠdifÃŃ ciles
ĠseÃ±al an
Ġmetab Ã³lico
ĠhÃ¡bi to
Ġarti ficial
un tamiento
Ġmodific aciones
Ġevit ando
ĠF on
Ġsi quiera
C T
tor al
Ġtar d
Ġinvestig ar
Ġhin cha
Ġdispon er
Ġal b
f is
ĠEs tad
Ġpedia tra
Ġatrib u
Ġpose en
ear s
or iasis
Ġpsic olÃ³gica
Ġcar ta
Ġmen opa
Ġdescub rimiento
ĠC ari
Ġli po
Ã ª
Ġemo cionales
ĠBogo tÃ¡
Ġc ha
ter na
Ġf irma
ĠV is
iv idad
Ġconven iente
Ġhuev os
Ġaper tura
Ġab og
Ġb ril
Ã¡g ico
Ġcomprim idos
Ġdepen diente
v ante
Ġex itos
Ġtor n
uc ciÃ³n
ĠR en
ingi tis
Ġejemp los
Ġcons ciente
Ġt ens
Ġalcan za
Ġmejor as
ĠPR ES
Ġher mano
Ġfabr icaciÃ³n
ĠPro yecto
aci Ã³
ĠNa tional
Ġmi Ã©rcoles
Ġrespon de
Ġintens a
ĠMun icip
Ġprodu jo
ĠtrÃ¡ fico
m g
Ġpar ad
Ã¡n eo
Ġindic ar
ĠTor res
Ġl Ã¡c
Ġla paros
Ġcomple ja
g is
Ġex istente
om ina
Ġconserv aciÃ³n
ĠU til
ĠPr incip
bil ity
Ġp ion
Ġrec ol
Ġvent aja
Ġayud arÃ¡
d ing
ĠCre o
ĠD omin
an Ã¡lisis
Ġconsider ada
tu rias
Ġmoder ado
ĠCh ar
Ġinfec ciosas
Ġadvers as
ĠC V
d res
ĠÃ ĵ
Ġampli amente
Ġcomer cio
Ġreci di
Ġ Ã©tica
Ġcontinu o
Ġbacter ia
Ġregres iÃ³n
Ġman chas
ĠPal abras
Ġexcel encia
Ġpublic Ã³
Ġpulm ones
ĠInf antil
pos a
e e
nes s
Ġcr ÃŃtico
e to
ĠJe fe
tic ulares
ĠS AL
Ġvent rÃŃculo
ĠD ic
Ġmi to
Ġfru tos
Ġs Ãºbi
ĠMedic al
vi enen
Ġcab al
ĠnÃ¡us eas
Ġgener an
ĠFis io
H O
ĠRegis tro
Ġconven io
Ġpro bar
Ġli dera
Ġll en
Ġbuc al
TA M
w a
Ġp Ã¡ncreas
Ġdiscipl ina
Ġex tir
Ġcorreg ir
Ġcul tivos
m ÃŃn
____ ____
Ġdes com
olÃ³g icamente
Ġint ento
ĠAs sociation
Ġcomer ciales
ĠCom er
ĠG il
Ġin vi
Ġantioxid antes
ĠCons ul
Ġdis cre
Ġacep taciÃ³n
Ġdej ado
P P
uev a
ĠH el
Ġcr on
Ġl im
Ġ5 9
Ġplac er
Ġjug ador
gu era
Ġimp ues
ari al
Ġtrans i
Ġfir me
Ġcomerci alizaciÃ³n
oc om
pl ante
ĠCos ta
Ġf eno
Ġh y
Ġsec uelas
Ġus ado
Ġgo bern
ome tri
Ġpes e
Ġcub ano
fila xis
Ġquiz Ã¡
Ġmus ical
G O
is tido
Ġas igna
Ġagr ad
Ġtrans por
Ġantim icrobi
Ġder ro
Ġbi olÃ³gico
Ġa ro
Ġtrans formaciÃ³n
gres os
Ġtromb osis
Ġdon antes
ĠcÃ¡l culo
0 6
Ġcuad ros
Ġcon ocen
C C
Ġcomple mento
Ġbet ween
ĠE du
ĠI b
Ġve mos
Ġasegur Ã³
Ġextrem idades
ĠCent ros
Ġmil itar
Ġter cio
ĠJ M
Ġpal ia
Ġley es
AN TE
dro mes
Ġincre menta
r ente
z go
ing ton
Ġreflex iÃ³n
ĠA V
ome trÃŃa
Ġven osa
ide os
Ġtempera turas
Ġco operaciÃ³n
Ġpro ven
ĠseÃ± or
ĠJ un
pl icar
. ;
Ġhabl ando
per s
ĠAndr Ã©s
Ġrealiz arÃ¡
Ġterren o
Ġo cupa
Ġign or
aman ca
Ġa er
ĠS T
tin ina
Ġden unci
Ġcre cer
Ġretros pectivo
ton ina
ĠdiagnÃ³s ticas
Ġrel aciona
Ġo ut
E V
ic aciones
ÃŃ g
Ġp ig
Ġnutri cionales
Ġmenopa usia
Ġfue go
Ġconf un
Ġacep tar
ĠE p
Ġconflic tos
an cias
Ġsil enci
eci endo
Ġprolon gada
Ġnom bres
Ġcon vier
Ġtri un
Ġpro puesto
Ġingres ados
ĠR io
Ġtrans cur
Ġcer e
t Ã©s
Ġme d
Ġcir cu
omÃ© dica
Ġcon ferencia
ul l
Ġsemi llas
b ida
ti cidad
Ġexter no
Ġsus tan
mad ura
p df
Ġbro tes
Ġa ci
Ġdestac Ã³
man n
ist ÃŃa
rane al
Ġllam adas
Ġhon gos
Ġrela tiva
Ġcre en
Ġespeci alizados
Ġexam in
ĠCOM O
Ġverda dero
tros is
Ġpo tasio
Ġaten didos
h ospital
bun al
ĠS ecciÃ³n
ton ces
Ġejer cer
Ġdis cusiÃ³n
Ġis quemia
ĠCom par
ĠL O
ĠAs amblea
Ġdescri pciÃ³n
ĠEspecial ista
Ġcomp ens
Ġdi arias
Ġqued Ã³
Ġde fi
ĠF lor
ĠF ÃŃsica
Ġ1 20
ĠQu in
amer icano
Ġprovoc an
hid ro
Ġhospital arios
Ġur ban
Ġa bajo
Ġigu almente
Ġf ig
san cio
ĠJ A
ĠCur so
Ġconfirm ar
Ġjorn adas
ĠB l
ĠF il
Ġrecuer do
ĠPres s
A r
D R
Ã¡m ico
don os
Ġap os
i dismo
Ġata ques
Ã± imiento
ig nos
Ġade lan
ĠM ir
Ġviv os
Ġul tra
ĠIM C
ÃŃ dos
Ġsub je
Ġhemo din
Ġdescan so
ula tion
in cl
ĠRec op
or ÃŃas
Ġcal ific
gu ro
ĠprÃ³ xima
ĠB ern
Ġconsider arse
Ġpulmon ares
cis iÃ³n
Ġin mo
ĠC ultura
v aciÃ³n
og le
M C
Ġac us
Ġden omina
Ġvar ÃŃa
p aciÃ³n
fici dad
Ġmo ver
ĠM y
Ġhorm onal
Ġbeb er
Ġ199 3
Ġno t
ĠU so
Ġprevis to
ĠN ic
ĠP Ãºbl
c Ã³mo
ĠI gn
Ġaden o
g ma
Ġavan zar
fici entemente
ig no
9 3
Ġestable cimiento
Ġexperim ent
Ġh eces
or e
Ġad h
Ġmonitor izaciÃ³n
ĠN Ãº
Ġcan ales
Ġt rig
Ġrevis iones
ti to
Ġex puestos
Ġhist Ã³rico
ĠdÃ© bil
Ġr ica
ĠS im
ĠM os
ĠT V
Ġpar Ã¡lisis
Ġintraven osa
Ġpubl icidad
ĠIn tens
s t
Ġconvir tiÃ³
ĠC el
Ġcontra c
Ġinmuno de
fa go
Ã¡ z
, ,
Ġper fusiÃ³n
Ġsus p
ĠPro ce
Ġve ci
ay o
ĠCar acter
ĠMÃ© dicas
Ġde bilidad
Ġnega tivas
Ġcaus an
Ġha gan
ĠEurope o
f eno
Ġcono cidas
iz aciones
ĠP CR
Ġtrans ferencia
Ġnaci Ã³
ĠSal amanca
gli os
ol encia
ĠI ma
ĠacompaÃ± ado
j unto
Ġlimi taciÃ³n
Ġf Ã³s
Ġex cre
or ld
ĠcompaÃ± ÃŃas
ĠO don
Ġse den
ĠÃŃn dices
Ġ5 7
dad as
TR A
ĠAl b
r Ã³n
Ġcontinu idad
hi per
Ġr icos
ĠAs turias
Ġpe da
tra c
u tr
Ġci s
Ġdis par
ĠMÃ¡ laga
ĠD ec
Ġfal lo
Ġexpl icaciÃ³n
Ġbas ados
Ġpsic olÃ³gicos
Ġrevis ar
ĠTera pia
Ġasegur ado
Ġmar tes
ĠQ uir
ĠIN F
ces a
ĠGu ti
Ġmane jar
U B
Ġ5 8
Ġin tu
der aciÃ³n
Ġvari aciones
Ġinfl uyen
la uc
gr ÃŃa
A s
ÃŃ qu
car ga
Ġdirig idas
Ġvac aciones
ĠPres ent
Ġconf irma
t enta
esti m
Ġanaliz a
gi onal
Ġa j
Ġevi ta
pl icaciÃ³n
Ġrelig ios
Ġcon curso
Ġda to
Ġindepen dientes
Ġsustitu ido
Ġcomporta mientos
Ġpens amientos
Ġâī ¥
Ġasesor amiento
ÃŃ fico
Ġ za
to ide
Ġmara vil
tab ria
Ã±o z
ĠBi blio
ustri a
tiro idismo
ĠS ÃŃ
Ġres ca
ĠÃ¡ tom
al ud
ĠO fici
ĠRecop ilaciÃ³n
in i
Ġa ves
Ġfavor able
Ġ6 8
Ġver se
ĠR ies
Ġperio dos
in ario
Ġmar cas
est Ã©s
ÃŃri tu
Ġconsum idores
Ġexplo taciÃ³n
ĠaminoÃ¡ cidos
D I
Ġinv esti
grÃ¡ fico
Ġsubra y
Ġa or
Ġprofun do
ve lop
ĠPro mo
e jo
Ġco pa
Ġanti depres
9 1
ĠMie mb
9 6
Ġp Ã©lv
ven il
Ġtra tan
Ġh uel
ĠT an
ĠCas a
ĠcrÃ³n icos
o o
i osa
uc a
Ġlogr Ã³
Ġcoloc aciÃ³n
ĠclÃŃn icamente
ĠEspaÃ± ol
Ġsu minis
Ġnuev amente
ĠMe dio
Ġres istentes
Ġcomple tar
Ġdesarroll ando
Ġmi x
ci eron
IN E
Ġcoordin ador
Ġconsider Ã³
Ġcomplic ado
ĠC ual
ĠPuer to
Ġval v
Ġfac ulta
Ġcon cur
Ġsuf rimiento
Ġal em
ĠDeb e
Ġnorm alidad
Ġpa to
Ġhum anas
ha us
ĠX IX
ĠI L
Ġtiro ides
Ġgan glios
Ġpractic ar
Ġb ritÃ¡n
ĠtÃ³x icos
Ġdetal le
Ã©r rez
Ġcal ci
Ġdej an
Ġexcep to
iste mas
f u
es or
Ġpresent arse
ĠIn mun
Ġcomun itaria
Ġobserv acional
Ġch o
Ġcan sancio
Ġcogni tiva
ĠC ul
ĠD om
Ġdeclar aciÃ³n
ĠVal enciana
ĠA cu
ĠA ires
Ġapor tan
omn io
ing e
Ġpoten ciar
Ġti s
lu b
ĠH or
Ġdes pe
J E
Ġfl ores
i Ã©n
Ġrecomend ado
Ġemple ado
um bre
ur ales
Ġutiliz arse
ĠC he
Ġas umir
Ġan uales
fec ciÃ³n
Ġdocum entaciÃ³n
ĠCÃ³r doba
Ġfin alizar
P L
Ġlu pus
Ġins trucciones
Ġcorrespon dencia
am ma
Ġdes ay
ĠEmp res
ĠMÃ©to do
ke ting
Ġtom ado
Ġesquizo frenia
en z
t entes
Ġsignifica tivos
Ġprodu cida
Ġeurope a
ĠM ul
20 94
os e
Ġter ror
ĠIn nov
Ġdomin go
ĠVal le
Ġp ru
Ġcal end
Ġneces itar
Ġn acer
S N
ĠGal icia
ĠEn tonces
Ġ6 2
ĠO B
Ġnove dos
ÃŃ fer
ĠV iv
Ġpos tura
ĠsanguÃŃn ea
Ġcl iente
n cia
Ġcoron ario
Ġelev adas
Ġli ter
Ġconf orme
Ġle ves
Ġperson aje
Ġas unto
ĠNeuro logÃŃa
ĠVic ente
ta bilidad
ĠPre ven
ĠF l
Ġestudi ados
ĠParti cip
Ġlig eramente
Ġigual dad
ĠA mbi
ĠN ie
Ġdej Ã³
gluc emia
Ġafirm Ã³
Ġeduca tiva
ĠPe diÃ¡
Ġas istentes
Ġsuici dio
enci ado
Ġfu turos
Ġdom icili
ĠcampaÃ± as
ti mo
Ġestre Ã±imiento
Ġutiliz aron
ĠS I
Ġquer ÃŃa
ĠH emos
ĠFac tores
Ġe mis
!! !!
Ġf Ã©r
ĠReg iÃ³n
Ġdin Ã¡mica
Ġcu entas
fon so
Ġperfec to
i pe
Ġdo p
ul ina
Ġref orma
ĠCas tel
Ġdirig idos
Ġmar gen
Ġperfec tamente
Ġaisl amiento
Ġigu ales
Ġs ys
tÃ¡n eamente
ĠES T
Ġtrim estre
ĠA ra
ĠTra baj
Ã¡n icos
Ġcompro b
Ġpros pectivo
Ã¡z quez
Ġedi ficio
vi endo
uch a
Ġpar as
9 8
Ġa v
Ġ199 2
Ġsur ge
ĠCon tra
S T
ĠS en
tor s
Ġpi ensa
ĠLabora torio
Ġcos ta
Ġtron co
Ġestable cidos
ĠJorn ada
f ord
Ġprevi as
Ġsu dor
Ġd arse
Ġpi eza
Ġ om
ĠFamil iar
e u
Ġfortal ecer
Ġcom entar
Ã¡s ica
ĠUnivers ity
ĠPers onal
Ġv Ã©r
Ġent er
ĠT ener
f us
ĠE vi
qui to
ĠJos e
Ġreun iones
ĠSal vador
Ġex cepciÃ³n
Ġjue ga
Ġse psis
Ġestil os
ĠquirÃºrg icos
C M
w ard
Ġvi enen
Ġelec ciones
Ġ6 6
Ġac tÃºan
Ġllam ados
Ġtrad u
Ġempez Ã³
Ġespeci ficidad
ĠS am
vent ud
b es
H S
Ġpar al
ĠC P
Ġus te
ĠestÃŃm ulos
Ġchild ren
ĠH an
ent ario
Ġun e
me d
Ġgen o
ĠProfes or
ĠPol ic
gra m
Ġv ay
] ,
Ġcom entado
ĠÃŃ tems
Ġal quilo
ĠInterna tional
Ġisqu Ã©mica
ĠfenÃ³m enos
ran o
ĠP ad
Ġcris tal
Ġcre encias
y mp
z e
Ġperman ecer
Ġre a
ĠD en
Ġan tagon
' '
ac tiv
lauc oma
Ġhor ario
Ġtraspl antes
Ġsentir se
ĠIs abel
grÃ¡ ficos
ĠS omos
Ġhid r
es tival
0 8
Ġsi enten
Ġinter fer
ĠvÃ¡lv ula
ĠsÃ¡ bado
Ġfru to
Ġlimi tada
Ġentrevis tas
Ġson ido
ĠseÃ±al ar
Ġmir ada
den es
Ġposible mente
IB ER
ĠCan tabria
w er
ĠE F
ĠEsto y
Ġexpres a
Ġest and
L o
ĠClin ical
Ġtumor ales
Ġrepe tir
or ia
qu ÃŃa
Ġmill Ã³n
Ġbro te
Ġfer tilidad
Ġdesarroll Ã³
ĠDie go
Ġla bios
Ġf lor
Ġg uer
Ġtratar se
Ġtal la
min ar
Ġse ca
Ġhe mb
Ġllam ar
Ġjus ticia
Ġpi ens
y l
Ġcur va
Ġd uro
ari ado
Ġcl im
ler ÃŃa
iz adas
Ġpan talla
Ġca fe
p la
Ġantigu o
Ġtar je
ĠRev oluciÃ³n
Ġg obier
Ġplac as
Ġob tuvieron
G A
Ġ6 3
Ġcor ticoides
Ġma dera
le d
G EN
Ġdes pi
ĠcutÃ¡n eas
Ġles ion
Ġhemo diÃ¡lisis
Ġcoci na
me trÃŃa
p un
Ġdif fer
Ġdomin io
Ġanaliz ado
Ġultras on
Ġdej ando
Ġte atro
Ġexcl usiÃ³n
ĠriÃ± ones
ĠEx cel
Ġunivers o
Ġin o
Ġas cen
Ġdeci de
ĠDe termin
es io
Ġreper cusiÃ³n
Ã³b ulos
ĠAus tral
ĠEs e
Ġrevel a
Ġdescri ben
ĠpÃ©r didas
Ġcandida tos
Ġpostopera torio
Ġgen oma
ĠEx tre
Ġman eras
Ġestim ular
Ġrecons trucciÃ³n
Ġvis itar
Ġov ario
ĠPop ular
Ġi le
Ġdetermin a
lob al
Ġrece tas
Ġj am
ĠTen go
Ġse l
Ġcorte za
form aciones
Ġdi m
Ġp H
Ġser ÃŃan
Ġunivers itarios
h is
l s
Ġin se
Ġperten ece
ce dente
Ġimp ro
ter ra
n ing
Ġeleg ido
Ġras gos
gan ta
Ġfib rilaciÃ³n
ment al
Ġpres tar
e da
Ġleuc emia
Ġpier de
Ġf la
Ġcontrol ada
v ol
Ġenf oc
ari zada
Ġop io
Ġli p
ses s
Ġr ural
th od
ĠAle jan
Ġde g
Ġequi p
Ġten dencias
il idad
Ġr ar
Ġfel ici
Ġcerebro vascular
Ġend ometri
Ġexces ivo
ĠC lub
Ġcontrib uyen
Ġindustri al
Ġmagn itud
ĠT DAH
Ġinqui e
Ġbas adas
Ġr in
Ġan trop
ĠmolÃ© cula
Ġmal ign
Ġofici na
Ġindic Ã³
Ġvice pres
ĠLon dres
ĠMu Ã±oz
recu encia
ĠV ac
ĠEs trate
ia bilidad
Ġveh ÃŃculos
Ġposi tivas
Ġbus can
cion a
Ġinvier no
ð Ł
Ġaler gias
Ġnove dades
v ido
Ġampli ar
Ġprede cir
Ġbar rera
ĠM IR
ur aciÃ³n
Ġminu to
Ġbila teral
Ġp us
n Ã©
ĠPro tecciÃ³n
t he
ĠSoci ety
Ġinteres antes
Ġcl or
Ġmo da
Ġra za
ĠVas co
Ġepi demia
ĠAy untamiento
ĠIn forme
ĠN in
ar me
Ġdi visiÃ³n
cin as
Ġan gus
ĠI den
Ġi m
dos is
Ġp lu
tad ora
Ġhor izon
te la
9 7
ĠPue des
ĠIncl uso
Ġcomunic aciones
Ġgan ado
Ġespeci fic
Ġvig or
ĠDer echo
ĠH en
ĠglÃ¡nd ulas
Ġmelan oma
Ġre view
ĠEdu ardo
gor it
Ġde fici
Ġnec rosis
ĠÃ ļ
Ġdom Ã©s
Ġrecor rido
ĠRec om
ĠHum an
Ġsu bir
Ġmolec ulares
ĠT AC
ĠTecn ologÃŃa
Ġcon com
Ġhep Ã¡tico
Ġins omnio
Ġuste des
i encia
Ġci en
Ġal quil
Ġbor de
l ga
Ġpresent aba
Ġplaque tas
ĠM icrobi
ĠEs per
Ġcambi a
Ġhemo globina
ĠG ab
sens ibilidad
Ġneona tal
der ÃŃa
Ġtermin al
i ero
Ġex isti
ĠGuti Ã©rrez
Ã ¶
ĠSan tos
Ġe cu
tas a
tel io
ĠglÃ¡nd ula
Ġper for
Ġconsider ados
Ġtrans mis
ĠMan ual
ĠIgn acio
Ġgr ues
ĠComun itaria
Ġpl ena
Ã± Ã³n
Ġexp uls
Ġpes os
le t
ĠDan iel
Ġa ma
Ġhepa to
Ġelabor ar
Ġpoten ci
Ġy og
Ġar mas
ez can
Ġdepor tistas
ĠI gu
Ġn av
amer icanos
Ġdis puesto
t n
Ġg ig
Ġf re
ĠNav arro
Ġpregun tar
o ta
Ġp se
Ġpodr Ã¡s
Ġa vi
Ġb ru
isi era
Ġse mej
Ġtom ografÃŃa
Ġindic ador
Ġsusp ensiÃ³n
Ġh Ãº
Ġres istente
sal ud
Ġdenomin ada
mor talidad
Ġinfra estruc
Ġimplic aciÃ³n
Ġper ros
ĠSecre tarÃŃa
or ra
Ã¡g ica
ĠD ar
Ġkil Ã³metros
Ġsign o
Ġdepen dientes
ĠD iv
Ġimp ide
Ġra ma
Ġdim ensiÃ³n
Ġac tores
ĠPsi quiatrÃŃa
Ġglu ten
ĠA pro
ĠPol ÃŃtica
Ġprepar ado
J O
ĠV ida
Ġsitu ado
quir Ãºrg
vas culares
ĠPar tido
g rupo
Ġestruc tur
ĠComun icaciÃ³n
tan a
ĠCar e
ĠCon tin
ca p
pi dez
OL OG
Ġcu esta
ĠcuÃ¡n do
ĠA ragÃ³n
ER A
Ġdes ea
Ġcol Ã¡
ĠD A
Ġprofes ora
ti zado
Ġnovel a
Ġdren aje
Ġinflu ir
ĠL an
Ġcoh orte
Ġinform Ã³
dr Ã¡n
Ġtes is
t Ã³logos
cel ular
ĠA F
Ġta qu
f le
20 12
tom e
f Ã¡l
Ãº r
Ġquir Ã³f
venci on
Ġprolon gado
Ġcent ra
ĠPar ÃŃs
ĠGr ado
Ġubic ado
Ġamena za
Ġhemor r
Ġmor al
socia ted
ol ina
Ġprolifer aciÃ³n
ĠQ U
Ġexter nos
Ġrecur rir
Ġemple a
tu aciÃ³n
Ġreemp la
es tas
Ġpare des
Ġc he
Ġac ord
ĠÃ į
ri le
Ġrad ical
Ġconsider aciÃ³n
Ã¡ rez
te in
Ġl istas
Ġps oriasis
i ada
os u
Ġpobre za
ĠH on
Ġgas es
Ġtex tos
ĠDe pen
ĠN utri
m ica
He alth
% ;
ca ÃŃna
Ġcon ducciÃ³n
Ġincorpor ar
Ġpuer tas
al im
Ġk m
Ġqued ado
de mo
Ġasoci an
Ġ6 1
ĠQ uer
f isi
Ġleg ales
Ġacos tumb
Ġpres taciones
Ġconte x
Ġres erva
Ġacces ibilidad
ĠP in
ĠAmer icana
Ġexplic an
Ġv ec
ĠCan adÃ¡
Ġcar re
di ciÃ³n
Ġcefal ea
Ġal m
Ġprotec tor
C N
Ġme tal
cion amiento
aliz an
ĠCas tillo
Ġsu ficientemente
plas ias
ril los
Ġti enden
Ġconf usiÃ³n
Ġconsci entes
ĠH A
Ġdi os
Ġpas e
Ġ9 9
ĠMar tin
ĠRec uer
Ġgar ganta
ac u
Ġconcom it
Ġal u
IS T
Ġanti gua
Ġciru g
pi Ã©
ĠCons umo
Ã³ xido
Ġarrit mias
AD OR
ENT ES
Ġro bo
is tes
li am
de a
Ġfel icidad
ĠR iv
ĠAl fonso
Ġcoci n
Ġv io
ĠCari be
Ġhuman idad
en fer
era bilidad
ĠOb ste
ĠalÃ©rg ica
Ġcambi ado
Ġmas aje
ĠPue den
Ġm ari
Ġtan tos
Ġciruj anos
E E
Ġres ecciÃ³n
Ġ Ã¡l
d ares
Ġpo tente
u x
Ġexpan siÃ³n
Ġinmun itario
Ġcom enta
Ġprepar ados
Ġcoag ulaciÃ³n
ĠDa tos
Ġenti ende
Ġsecre tario
ĠFac ebook
b ros
Ġco dific
ĠAr te
Ġfran cÃ©s
g la
Ġdific ul
bl os
Ġsens or
ĠÃ¡r bol
Ġmor bi
Ġpudi eran
Ġinhib idor
Ġmal os
Ġacum ul
Ġadop tar
ciru gÃŃa
Ġmejor ando
Ġ25 0
aliz Ã³
mon ar
n is
Ġsub yac
Ġaconte cimientos
Ġresul tÃ³
Ġre tenciÃ³n
OS I
tre o
Ġt ÃŃtulos
Ġpriv ados
Ġdistin ta
m u
Ġexac tamente
Ġconta mos
Ġfu tbol
Ġsi tÃºa
mad uras
Ġdescono ce
Ġvir tual
Ġda ta
Ġcri tic
Ġindis pens
Ġrelaj aciÃ³n
Ġdiri ge
Ġtera pe
ĠB re
Ġparticip Ã³
Ġa vent
ru pos
rec tal
in go
Ġon da
TIV O
Ġretir ada
Ġho ja
Ġgra mos
S P
la go
ĠIgual dad
Ġtro p
icil ina
Ġman da
te les
Ġcre er
Ġar tes
Ġprodu ciendo
il ler
Ġaprovech ar
Ġbi olÃ³gica
M P
Ġmod alidad
Ġcon du
Ġc Ã³r
ĠaÃ© rea
tin os
Ġ199 1
ĠGo ogle
Ġ6 7
Ġsupon en
g ri
Ġestadouniden ses
Ġcontrol ado
Ġcu yas
TI L
Ġcapaci taciÃ³n
Ġrela tivo
ro logÃŃa
Ġcuar ta
Ġesp inal
ĠM AR
ĠRe gional
ĠSal a
Ġverte bral
Ġimp e
ar idad
Ġcorrec ciÃ³n
Ġsex os
Ġven as
Ġ6 9
Ġno ci
Ġg ir
Ġnego ci
Ġcul tiv
ĠacompaÃ± a
Ġinjer to
Ġac o
ĠcongÃ©n ita
Ġade lga
xim as
ĠBuen o
Â ©
Ġform ada
Ġpla za
t ÃŃas
ig ilancia
an ti
gi eron
Ġex haus
Ġpr ena
i der
as is
Ġan illo
Ġrecord ado
ul itis
Q UE
Ġcur ar
Ġnecesita mos
or ar
Ġcole gi
Ġreco ger
Ġmanifes taciÃ³n
Ġan estÃ©s
ing Ã¼
20 10
Ġescal as
Ġinteres ados
pe d
ĠH ospit
Ġh umo
re l
Ġinser ciÃ³n
Ġirreg ular
ue los
Ġima g
Ġre medio
ĠBlan co
Ġpor tal
Ġpron unci
Ġresid uos
h al
i go
am ida
ĠC AP
Ġon das
ĠnÃº meros
ĠIntegr al
Ġlimi tado
Ġluch ar
Ġproxim al
l ando
Ġindic ada
ĠInnov aciÃ³n
Ġorden ador
ER O
di fica
ĠJa pÃ³n
j al
ĠD ado
Ãį N
Ġcon den
Ġinter s
Ġcomple jas
Ġso bres
ec as
Ġadic ciÃ³n
ici pios
Ġprior idad
ien das
ĠAlejan dro
Ġper i
Ġinstal aciÃ³n
ĠQu iz
Ġde ten
Ġdo ce
ĠDirec tiva
Ġins cripciÃ³n
ĠMÃ¡s ter
ta tion
Ġcontinu ada
Ġresul tan
Ġagrade cer
oc al
di la
Ġperio don
Ġgastrointes tinal
Ġfisio terape
ord s
ec ular
Ġfu turas
Ġpor tadores
ĠmÃ³ d
ol ismo
Ġer ite
Ġconv oc
Ġdoc encia
ĠaÃ±ad iÃ³
ĠaÃ³r tica
ĠÃ Ĥ
Ġana tomÃŃa
Ġre pas
xi lo
Ġen ga
Ġlleg ando
Ġconsigui ente
ĠMus eo
Ġelectro cardi
Ġaquel lo
cion ado
c ari
Ġpun ciÃ³n
Ġpos icion
Ġeviden ci
es c
ÃŃn ica
Ġse co
ĠW al
Ġobten ida
Ġenvi ar
ded ores
Ġobserv an
Ġcorrespon den
du ra
ĠE mb
Ġcar o
ĠF orm
Ġtu ve
ĠK o
Ġcontrol ados
e j
ĠES TA
ta tiva
Ġautor a
Ġal ma
Ġbol sa
Ġmer ece
Ġpol im
Ġdeclar aciones
Ġofici ales
i ales
ic ado
um er
Ġbi ologÃŃa
Ġproducir se
Ġcon gel
gen ia
Ġqu itar
Ġocur ren
Ġmio cÃ¡r
Ġps ÃŃqu
Ġdesn utriciÃ³n
Ġinclu idas
ĠEs tÃ©tica
b um
Ġex puesto
Ġaliv io
Ġam ong
ĠM D
Ġfemen ina
Ġd as
Ġlar gos
og en
S M
Ġr ico
Ġcr ÃŃticos
Ġbar reras
lic ante
ĠM ic
b ran
Ġson da
Ġpermi tiendo
ĠNe ws
Ġcu char
Ġintegr ado
Ġval e
ĠRom ero
IC OS
Ġra tas
teli al
Ġre qui
Ġexclus iva
Ġas istir
Ġsal v
paÃ± a
Ġpers istente
ĠTe le
Ġcol i
Ġmaravil los
pl om
u ter
Ġcalend ario
ĠB ienes
ĠC lar
Ġvari antes
Ġcomplement arias
g ica
di mos
E Z
ĠTo da
ĠEurope an
Ġex tiende
uy a
ĠW ash
ace te
Ġhorm onales
Ġcoin ciden
ĠEj ecu
Ġinfl uye
ig h
Ġmil it
E x
Ġg el
Ġpo bres
vers iÃ³n
Ġefec tivos
ec k
Ġinfec tados
Ġsegu ida
Ġpod ÃŃan
Ġinhibi ciÃ³n
ĠmÃ³vil es
T H
Ġest res
vas cul
ĠCon clusiÃ³n
Ġcan ciones
am es
Ã³ fago
z i
Ġencontra ba
ĠDe por
p idos
Ġcuan tita
Ġcarbo hidra
Ġdefin ido
Ġenfer mero
Ġderma titis
Ġdefen der
Ġvari aciÃ³n
ĠRey es
mp li
n et
ĠIgu almente
Ġv itales
Ġconduc to
or io
Ġcolec tivos
Ġpsi quia
10 8
Ġdetec tado
Ġin ex
Ġexper ta
Ġcr isti
Ġparti da
EN CIA
Ġfig uras
p ina
Ġu Ã±as
Ġpas ada
Ġabund ante
Ġmedi terrÃ¡n
Ġhom bro
Ġer itro
ĠInstitu te
Ġman io
ĠTor re
Ġex ista
ĠsÃºbi ta
Ġcan ciÃ³n
f lu
Ġch oc
Ġde do
ĠP D
Ġevalu Ã³
Ġexig e
Ġdi arios
Ġcal cula
Ġestad ios
te x
Ġfr us
Ġlle gue
bil i
Ġsimp les
g Ã³g
Ġconj unta
Ġrecomend ada
ĠS ab
ĠB on
Ġdistin to
Ġrecom iendo
Ġg ama
Ġ7 4
ĠPor tu
en ces
Ġeli mina
ĠcongÃ©n itas
Ġder ra
Ġproces amiento
Ġs tent
Ġpare cido
ĠIn form
g y
ĠNuev o
Ã± ar
or den
Ġru ido
Ġdef orm
Ġdistin guir
-- --
Ġtan ta
Ġincon s
Ġcaus ado
Ġradio grafÃŃa
ĠS P
tu a
Ġhidra taciÃ³n
re tro
Ġre medios
ĠneurolÃ³g ica
ĠS oy
Ġrec to
Ġab us
Ġinmun osu
Ġjus tific
Ġcole gios
Ġcr Ã©di
Ġenfr entar
ĠS EM
Ġha ve
Ġser io
Ġcol s
Ġdiagnostic ado
Ġinfantil es
d ados
E B
Ġcol ecciÃ³n
S I
Ġerr ad
Ġpi de
Ġpriv adas
Ġimpor ta
Ġdi d
Ġ6 00
Ġblan cos
ad al
Ġca tara
Ġcolabor ar
Ġ ital
TR O
Ġpa que
v ero
UL AR
cho ol
el d
Ġconjun tamente
ĠW a
Ġl enta
Ġpier na
Ġcere ales
Ġla ment
Ġh ambre
Ġcor rer
gar se
vil a
Ġprogres ivo
g ular
us al
Ġun ido
Ġdes hidra
Ġti er
Ã³r icas
Ġimplic aciones
Ġiden tifica
f lo
Ġponer se
ti ra
ĠÃ³se o
Ġinsu ficiente
ps ias
Ġcom itÃ©
Ġac a
Ġpens ando
Ġfund aciÃ³n
ĠR icar
ĠWash ington
G F
i j
ĠF R
Ġreuma toide
Ġalcan zado
Ġcompro bado
Ġprofun di
Ġca er
Ġrefer encias
fil ia
ĠC ambi
ĠP ul
ĠJo an
Ġsab es
Ġpreven tivas
Ġrepresent ante
ĠH TA
is la
Ġsist Ã³lica
ĠDe f
Ġpar o
ĠB ajo
li te
ĠcÃ¡l culos
Ã¡nd olo
Ġ( "
Ġidi oma
p el
ĠSi erra
ĠcolÃ¡ geno
i um
Ġfil osofÃŃa
Ġcuidad or
Ġtrad iciÃ³n
ĠC iv
ĠÃ³ v
Ġ 000
Ġrespira torios
Ġj a
Ġmin eral
Ġequilib rada
ĠestÃ¡n dares
Ġba talla
Ġhidr Ã³geno
Ġp ne
Ġdepen den
Ġmagn esio
Ġcole gas
Ġlongitud inal
le tas
Ġanal ysis
in ta
ĠM ill
ĠM AN
Ġape tito
Ġg est
hi p
Ġm ach
Ġtan tas
ĠE R
Ġtrabaj ador
Ġi dio
ĠS M
ie d
Ġha bilidad
Ġinmun olÃ³gico
Ġfle x
ĠZ a
Ġesque ma
ĠP L
Ġrefor zar
Ġsatis fec
Ġoblig aciÃ³n
CI AS
Ġdepor tes
ĠGinec ologÃŃa
ĠU R
Ġc eb
Ġhum edad
Ġsuper vis
Ġacer car
tis mos
Ġpros pec
Ġagrad able
Ġhig h
Ġgra b
Ġthe ir
Ġsexual idad
gla terra
Ġaut Ã©n
ĠMedi ante
ent aria
Ġne umo
ta je
Ġminis tra
e fec
Ġemp ÃŃr
de os
ĠA ma
Ġcons truc
Ġincon tinencia
qu era
Ġprop ens
Ġderiv ado
Ġderiv adas
Ġw omen
a unque
Ġcas as
Ġqui era
Ġviv ienda
Ġaconse ja
Ġcerc ana
id ina
ab o
am or
ĠAR N
Ġha go
Ġedi torial
ĠWil liam
Ġdoc tores
Ġb rus
Ġaf ter
di mens
Ġbiom arc
Ġpobl acional
ex ia
Ġwh ich
Ġn Ã³d
Ġabor to
ĠestÃŃm ulo
ĠE merg
Ġcompres iÃ³n
Ġs yn
Ġins pir
Ġline al
ĠA f
Ġperteneci entes
Ġcu ento
tro cin
Ġextra c
Ġre Ãºn
ĠCON S
ĠMor ales
Ġesp ÃŃritu
ch er
Ġseleccion ado
ĠHe mo
Ġal gorit
Ġdis curso
Ġre pi
Ġinclu ida
Ġsu av
Ġconv encion
aci dad
ĠAc tiv
tun adamente
Ġdes trucciÃ³n
Ġvig ente
Ġsupon er
Ġre iv
ĠsÃŃn dromes
fi b
A A
Ġasisti da
Ġn ace
ĠvÃŃc tima
Ġerite ma
Ġsuminis tro
n ab
Ġperson alizada
Ġint enta
Ġos te
Ġcomp et
Ġa ver
Ġve ter
F i
Ġra pidez
Ġcombin ado
Ġcal iente
U T
lic Ã©r
Ġan tir
ris a
Ġsal udo
Ġconvencion ales
i ologÃŃa
Ġpilo to
Ġmaes tro
ĠUn idades
tri to
Ġsin dica
Ġf us
ci pe
ĠCar ta
ĠCris tina
Ġcrea tinina
Ġnucle ar
Ġ7 3
g em
p ri
tos o
Ġgestion ar
ĠEn c
Ġpuntu aciones
CI AL
Ġdis nea
ĠAs ia
ÃŃ ces
ĠM ario
Ġ7 1
Ġes posa
ĠSan t
Ġse min
ĠF ib
Ġne fro
Ġcate dr
Ġres tr
ges ia
ĠPla ta
ĠclÃ¡s ico
Ġcari es
Ġexpres ar
ron ic
ĠT witter
ĠperÃŃo dos
ven ida
Ġpredomin io
M ar
Ġc en
i fi
C V
Ġfras e
Ġace ites
20 11
Ġlimi ta
Ġmal formaciones
Ġvideo j
Ġar tistas
Ġperiodis ta
Ġo posiciÃ³n
Ġextre mos
Ġp ur
tic e
ĠIn gen
s ta
Ġform ando
Ġdec ÃŃa
Ġplan tilla
Ġg laucoma
cu ro
ĠU l
Ġy ears
Ġreduc en
Ġgobier nos
ĠB lo
ĠS O
Ã¡n icas
ĠPo demos
G E
Ġol or
Ġimpul so
Ġcon oc
Ġeduca tivos
Ġlinf oma
Ġmedi co
ĠFi gura
Ġle ma
Ġas imismo
Ġco e
Ġapari encia
Ġfrac ciÃ³n
Ġmal aria
Ġmarc ador
Ġreg al
Ġveh ÃŃculo
tÃŃ p
V EN
in ado
Ġsec os
Ġmejor an
Ġre cip
ivers ario
Ġch icos
AN DO
uc ar
Ġinmi grantes
de ll
Ġins taur
ĠBienes tar
z on
Ġde je
Ġcompues ta
i que
Ġol iva
og ene
Ġev ent
Ġcomba te
b on
Ġsepar aciÃ³n
Ġsensibil izaciÃ³n
Ġsir ven
Ġra mas
p olar
Ġre pu
ĠIN TER
Ġ ome
ĠCan arias
Ġestad ÃŃsticas
Ġintoler ancia
trib uciÃ³n
ola te
Ġdefini tivo
Ġsh ock
ĠA po
x ina
Ġorg ul
ĠEvalu ar
Ġte Ã³rico
ĠB ea
Ġcir cula
ĠTer esa
Ġse p
ĠU E
u ida
Ġcontr ad
Ġsal var
S H
Ġpue blos
Ġap uesta
Ġneces ariamente
Ġreg las
cer tid
i ter
Ġllev ando
ĠL E
Ġcomun icar
Ġfe der
Ġw e
licÃ©r idos
Ġurin ario
Ġdetermin antes
cus iones
p Ã¡tica
ĠU U
Ġsa tur
Ġinter nos
Ġcarbohidra tos
un da
Ġconfirm ado
Ġdesarroll ada
ĠEdi torial
Ġqu al
f ri
Ġestre cha
Ġa ter
pon e
Ã³g ra
Ġcent rado
ĠI l
Ġdiscri minaciÃ³n
Ġmetas tÃ¡s
ĠSci ence
ĠPresent amos
Ġexter nas
Ġinn eces
Ġfan tas
t te
P V
Ġdis capaci
er tos
p Ã©
j ada
Ġpro greso
Ġestable cimientos
Ġes con
Ġhab ido
ĠIn glaterra
ĠCa te
ĠPe Ã±a
ĠXX I
Ġvent as
Ġpl en
Ġpar ticulares
ĠQu Ã©
Ġri gi
Ġexperim entar
ĠL uc
Ġper cep
ĠLe e
p ari
Ġcirug ÃŃas
Ġtendr ÃŃa
Ġdepor tivo
Ġger ente
ĠI B
Ġsolu cionar
qu ÃŃn
Ġincl us
Ġser ia
Ġemerg encias
Ġan un
Ġmantener se
Ã©n trico
Ġmun icipios
z aciÃ³n
ĠA par
Ġl lor
lan tes
Ġf lo
Ġlac tantes
ent eral
ĠN aciones
ie lo
ĠantÃŃ geno
de lo
Ġo culares
vers ible
v ada
ĠComple jo
v ez
ĠT B
D ay
Ġparad ig
b oles
Ġno tific
Ġcumpl en
Ġane uris
Ġar re
Ġabsolu to
ve d
Ġaplic ado
ĠB u
ĠP ilar
Ġvar Ã³n
g ras
o terapia
Ġimpuls ar
Ġcol abora
Ġmos tra
Ġpre cip
ĠcompaÃ± ero
ing s
ĠBi ologÃŃa
Ġalum no
Ġl lu
Ġproce de
Ġden gue
Ġaor ta
Ġm ent
ÃŃs ima
Ġtrauma tismo
ĠCh i
Ġro tura
Ã µ
ĠEl ena
Ġbrin dar
Ġahor ro
Ġr acional
ĠM ara
Ġe u
Ġfo co
Ġca u
Ġex tin
ec o
Ġcon tÃ³
ĠgÃ¡s trico
ĠJorn adas
Ġconsider ando
Ġcomien zan
Ġ8 4
Ġacuer dos
Ġper me
Ġbom ba
ec era
Ġconcep ciÃ³n
i tores
Ġdis per
Ġf ri
Ġos cur
Ġsan as
Ġimp re
Ġorganiz ada
Ġinsec tos
ĠA licante
Ġdetec ta
Ġrecurr ente
Ġne gra
ĠDis capacidad
Ġbil iar
Ġencues tados
ĠanalgÃ©s icos
ĠhÃº me
ĠT res
Ġper ro
ĠI R
ĠIn dia
Ġsin te
n idad
Ġarro z
Ġinf recu
ĠAustral ia
Ġrespon den
ĠTri bunal
Ġdese quilib
ĠC IBER
Ġlider ado
Ġcent rales
Ġd arÃ¡
ĠB ay
Ġhema to
Ġrespir ar
Ġmoder na
Ġsosten ibilidad
ĠplÃ¡s tico
Ġtras cen
ÃŃ metros
ĠS OL
ĠRes pon
Ġran dom
ĠR amos
oci n
Ġsig los
T o
Ġco her
Ġadap tar
ĠneurolÃ³g icas
Ġju z
pl er
tr en
ĠelectrÃ³n icos
ĠC C
Ġautor idad
Ġprovoc ando
ĠR EC
Ġsuscep tibles
ole do
ĠEpidemi ologÃŃa
Ġfirm ado
Ã©n dez
Ġpresti gio
te mp
ĠM Ãºlti
Ġminimi zar
gun a
Ġvia jes
Ġp ico
Ġr aro
Ġpro filaxis
Ġll eno
ÃŃgen as
Ġpedia tras
ĠC abe
Ġto bil
ĠMiemb ro
ĠvÃŃn culo
Ġ7 8
Ġpro vis
ĠAnd alu
Ġbar rio
Ġvege tal
C om
Ġte orÃŃas
pro duc
Ġlidera zgo
ĠlÃŃ pidos
Ġextra Ã±o
ĠGas tro
ĠT OD
Ġequival ente
ĠUn idas
ud ar
Ġos ci
Ġapara tos
Ġextra er
ĠProfes ional
Ġpro f
Ġemple ar
Ġan or
Ġdestin ado
as te
Ġh ol
ĠA gr
Ġabandon o
ĠB il
Ġavan zadas
200 9
for o
ĠPs ico
Ã³l isis
b y
p lo
200 6
Ġcaracter izada
Ġanticoncep tivos
Ġmu Ã±
200 7
el ec
Ġacu de
Ġan tiv
ĠC N
Ġciudad anÃŃa
Ġmar cado
Ġocasion ar
Ġpa uta
Ġdomin ante
ĠMay or
Ġpie dra
ri t
Ġdeman das
Ġcal i
Ġproporcion an
uen a
Ġcab el
Ġespon tÃ¡nea
Ã©p tico
Ġtrans iciÃ³n
Ġagu das
Ġcan s
ĠE dad
mi th
Ġa ti
Ġcon ferencias
Ġru p
Ġinteres a
Ġpresti gi
Ġhin ch
Ġsi lla
Ġv el
Ġcotidi ana
Ġfactor s
Ġacep table
fil os
ÃŃl ico
Ġ7 6
as es
Ġlic encia
ÃŃ cl
ur g
Ġepidemi olÃ³gicos
Ġedi ficios
in idad
Ġll ena
Ġimp on
Ġvulner ables
Ġgluc emia
Ġinstitu cional
ĠÃ³pti mo
H ay
Ġpul s
Ġencar gado
Ġpublic ar
Ġredu cida
Ġca pas
v enta
Ġl entes
fas is
Ġofici nas
ĠSN S
ĠV PH
is on
Ġa x
Ġes Ã³fago
Ġf echas
Ġcontrib uciÃ³n
dic aciÃ³n
es pec
aj aj
Ġvis uales
Ġanal ÃŃtica
Ġter mina
Ġ9 6
Ġcre Ã³
ent ada
Ġto car
Ġregistr ado
Ġman tuvo
Ġref u
g s
Ġprote ge
ÃŃ rez
ĠprÃ¡c tico
Ġin certid
20 13
is co
Ġis o
Ġlle vo
Ġsign ificaciÃ³n
Ġsenti miento
Ġqu era
Ġ9 8
Ġpl eno
Ġpen diente
Ġas c
Ġconduc e
Ġmi de
Ã¡nd ole
Ġdi e
ĠH D
Ġref orm
ĠRec ur
Ġcom bus
ĠMon te
Ġgaran tiz
ĠAn al
ĠEcon omÃŃa
Ġsustitu ciÃ³n
Ġti ende
anim aciÃ³n
ĠD I
Ġma trimonio
ĠProvin cial
Ġv osotros
ĠLib er
Ġn aran
Ġa ero
Ġestre ch
Ġencues tas
Ġvi endo
Ġpa trocin
Ġgr is
ĠSi mp
ĠmÃ¡qu inas
Ġabsolu ta
ĠA van
Ġlig era
Ġdila taciÃ³n
Ġb ara
p ados
Ġl ento
Ġgan gl
ĠE D
ĠEntre vista
ĠTÃ©cn ica
Ġ ðŁ
que o
ĠT um
Ġgener aciones
Ġrigi dez
Ġra ÃŃces
Ġvis ible
Health Day
ĠCiv il
ent amente
ĠH y
Ġdi jeron
ĠenseÃ± ar
Ġreg la
Ġes por
ĠK ar
l Ã¡n
Ġapar te
iv al
Ġtra tando
ĠRe habilitaciÃ³n
Ġantidepres ivos
Ġrecomend ar
Ġsustan cial
de genera
Ġsu ministr
Ġcon cord
l Ã³n
o per
Ġ Ã©n
ĠR A
Ġla vado
in aria
Ġanti cip
Ġocciden tal
Ġincon ven
ĠIn t
Ġque de
Ġac tor
on arios
ĠVall ad
ĠAlb acete
Ġde genera
Ġci entos
Ġpre opera
Ġpar es
Ġre misiÃ³n
AM A
Ġpresent ados
Ġprotagon ista
r ando
ĠdiseÃ± ar
Ġconvuls iones
ĠV en
ific ado
Ġescri tor
doc rin
Ġher pes
u idos
Ġsor pres
ol la
Ġc ÃŃr
Ġar trosis
or di
Ġpse udo
Ġj ard
Ġrec al
ĠRicar do
Ġmencion ado
Ġdedic ada
Ġfi esta
al s
Ġapun tÃ³
Ġmanip ulaciÃ³n
Ġ7 7
Ġencontr arse
ĠS AN
Ġcon tado
mus cular
p ÃŃa
Ġparcial mente
Ġmul tiv
Ġaplic ada
N F
a ger
Ġins pec
ci tis
Ġpre li
. (
ĠCa pit
Ġestre llas
Ġmemb ran
par to
Ġub icaciÃ³n
D es
Ġprodu zca
ĠI glesia
Ġhuev o
ĠÃ³p tica
Ġw ork
ual idad
h os
ĠMun do
P I
ĠE qui
ĠlÃ¡c teos
% :
ĠP el
m ico
j ano
ĠEC G
Ã© ase
ĠT ampoco
tr ada
ĠCon ferencia
ul d
ĠF AR
Ġdi al
un ciÃ³n
hi bir
m uy
Ġi mi
ĠPrim era
Ġmunicip al
Ġab er
ĠÃ©n fasis
ĠF DA
Ġac nÃ©
Ġestable ciÃ³
Ġbeb ida
Ġr enta
Ãºm enes
Ġpedia trÃŃa
Ġsi ga
in do
Ġr um
Ġperit oneal
Ġri gur
Ġestruc tural
ĠF ra
Ġanaliz ados
Ġreal ice
res is
Ġdi ariamente
Ġa cid
Ġdeci dido
S an
ÃŃn as
Ġob tienen
ĠEs a
Ġobs tÃ¡
Ãµ es
ĠCual quier
ĠT A
Ġmanten iendo
quÃŃm ica
l ac
Ġesta tal
Ġdeb ida
t olÃ³gicas
Ġcompar ado
p ue
Ġajus tar
ri e
ĠO PS
id ar
ĠE f
ĠAmb os
Ġpreo cupa
ĠÃ¡n gulo
Ġs tudi
ĠT ab
Ġn ico
tec tomÃŃa
Ġtom Ã³
Ġvul n
Ġveci nos
Ġdro ga
200 8
Ġsuperfici al
Ġro jos
Ġhospit alizados
oc or
ĠEN F
Ġabor da
Ġprena tal
ĠE u
ĠEn docrin
Ġque maduras
Ġpreca uciÃ³n
Ġdese mb
ÃŃ mp
Ġf ues
Ġapor taciÃ³n
ĠJus ticia
Ġexperim entos
Ġt ren
Ġmejor ado
Ġbenefici oso
Ġtra tadas
es tan
Ġtab las
Ġbi ci
Ġdesvi aciÃ³n
Ġhom en
ĠPre val
Ġcub anos
Ġla tino
er g
Ġin gles
Ġher mos
ĠEsta mos
ĠG ir
T abla
Ġdiferenci ar
gra mas
Ġm ando
Ġme tÃ¡l
Ġincor pora
Ġtom e
Ġza pa
Ġju bil
gen da
at ÃŃa
ĠMay o
z ep
M a
ĠpediÃ¡ tricos
Ġcl aras
Ġpu dieron
Ġma triz
ĠW orld
Ġcontro vers
biÃ³ ticos
Ġproble mÃ¡tica
Ġesper mato
Ġpro gen
Ġ8 2
ĠÃ¡r boles
l los
Ġmi tral
Ġmedi ados
ĠC OR
cula tura
Ġmencion ar
Ġsobre carga
Ġintens ivos
Ġh ue
Ġfij aciÃ³n
Ġb is
Ġvers us
Ġpat Ã³genos
Ġ8 3
ĠPla za
or f
ĠOc tubre
Ġtrig licÃ©ridos
Ġdirec tivos
ĠDe porte
Ġflu ido
J A
Ġcon me
Ġca ÃŃdas
Ġn on
Ġprop ici
Ġma tr
Ġar rugas
Ġinici ado
ĠS IN
Ġestruc turales
Ġdes ac
Ġesper an
Ġsuper visiÃ³n
Ġreper cu
Ġempi ez
ĠG lobal
ab sor
ĠT emp
Ã©p tido
tin ib
Ġt ol
Ġpod amos
Ġpos iciones
Ġen g
Ġinte grantes
Ġde pos
Ġtraspl an
ta g
faci al
ĠDes cu
ĠPri mer
Ġas sociated
Ġpsic Ã³logo
Ġconta gi
ĠÃ¡l bum
Ġhabi taciÃ³n
Ġnombr ado
AS A
Ġex ci
Ġin duc
vi amente
Ġpe le
Ġdirig ir
it s
Ġacredi taciÃ³n
Ġcas e
Ġde jo
fac ciÃ³n
i mientos
ĠSe x
Ġsever idad
Ġtaqu icardia
Ġdefin ida
Ġpre mi
ĠHum anos
S in
C o
Ġrelacion an
Ġdeb ÃŃa
Ġp y
Ã³n icas
Ġdemo cr
t ula
Ġp ez
Ġcontra tos
Ġrev oluciÃ³n
Ġviv iendas
Ġcomp u
c rin
ĠT ex
ĠautÃ³n oma
Ġinfecci osa
ĠT ea
ĠT ar
Ġinte gra
Ġperteneci ente
ED AD
ĠDo wn
ĠlÃŃ deres
Ġcab ecera
ad ar
et ÃŃn
tab la
Ġsome tido
ĠHe art
Ġconcl uir
Ġintes tinales
Ġneo plasias
di ciales
Ġpro tes
Ġrel l
Ġ198 9
Ġfuncion arios
Ġpredomin ante
le ge
Ī Ĵ
Ġmo dal
ĠEs peci
Ġinvesti ga
O T
ent amiento
h y
bi eron
Ġte mor
ĠDis cusiÃ³n
Ġmens tr
ĠT re
Ġestar ÃŃa
Ġtra tada
ĠS ar
Ġleg isla
Ġel as
Ã¡n s
Ġimpe dir
ĠC uer
Ġenc amin
ĠE A
ĠSE G
Ġcre ce
retro vir
ĠO ro
Ġalimenti cios
Ġes cl
cardi tis
Ġexcel entes
tera pÃ©u
Ġembara zos
Ġcigar rillos
ĠR oc
Ġan Ã¡
Ġobes os
ĠPa tologÃŃa
Ġn u
F C
c ra
Ġpar que
tori ales
P M
Ġperfil es
pon er
Ġfuer an
Ġtur no
EN D
ĠcomÃºn mente
Ġde tener
im nas
Ġcogni tivas
Ġde grad
Ġhincha zÃ³n
Ġacu den
Ġtrasl ado
ĠC in
Ġpap il
m eno
tro mb
ĠLe on
ĠS US
ĠAu tor
Ġconstante mente
f l
Ġretir ar
ĠT oledo
UL O
Ġperfec ta
ĠBuen as
Ġdul ce
ĠOf talm
Ġan gina
ĠCent er
Ġbal Ã³n
Ġdi ente
Ġminis tro
Ġrecurr encia
Ġdestin ados
S C
gÃ©n esis
Ġgaran tiza
Ġirri taciÃ³n
ĠAsoci aciones
Ġmedi ciones
f avor
Ġeduca tivas
ĠEjecu tivo
ĠC Ã©s
te ga
Ġcoment Ã³
Ġin ducciÃ³n
Es te
u ficiencia
Ġcorpor ales
que dad
bil ita
Ġinterpre tar
Ġar reg
Ġhipo tensiÃ³n
Ġru tin
Ġro taciÃ³n
Ġbiblio grafÃŃa
Ġsec ciones
tÃ¡n dose
un t
Ġanaliz Ã³
Ġpop ulares
ĠazÃºcar es
Ġt y
Ġrefle jo
Ġs ales
Ġestre lla
Ġencan ta
Ġ %)
Ġsegura mente
ĠGu ar
Ġn ano
Ġcr ÃŃticas
am en
ĠF M
i Ã¡
gen a
Ġhaber se
Ġcaus adas
Ġ8 8
er do
Ġcelebr arÃ¡
Ġdescri tos
ĠVallad olid
Ġdesay uno
ĠR oma
re us
um an
ĠE le
Ġlimp iar
h acer
ĠRecom end
Ġaclar ar
Ġevalu ados
cor e
Ġoptimi zar
ĠE co
Ġ8 1
ĠN eces
Ġcal les
Ġexplor ar
Ġdeber se
x aci
Ġmen ingitis
I AL
Ġul cer
ĠclÃ¡s ica
ĠON G
am ino
Ġcon tener
Ġher nia
b la
Ġcom bina
Ġhi al
Ġneo plasia
es pecial
Ġcu ero
Ġderiv aciÃ³n
Ġalmacen amiento
Ġtrans fer
Ġevalu ado
ĠPar que
Ġces Ã¡
Ġfuncion ar
Ġref res
t Ãº
Ġcon cer
Ġmito con
ĠquÃŃm icas
Ġorigin ales
ĠS C
Ġsustitu ir
r ico
Ġc ero
Ġest aciÃ³n
ĠE U
Ġpreven tiva
den t
Ġemb ol
Ġcap ilar
Ġex acer
Ġimpor tan
v aro
Ġdesplaz amiento
Ġgener alizada
ĠFel ipe
Ġcr Ã¡neo
Ġdi fi
Ġtele f
Ġplante ar
Ġcre emos
Ġale grÃŃa
Ġorganiz ar
ĠI AM
ĠEs pero
Ġhidra tos
ĠS L
ĠRe ina
Ġus os
ĠJ er
IC AS
u den
Ġgener ado
Ġgl omer
Ġf ich
Ġdetermin Ã³
Ġrepe ti
Ġhog ares
ĠF E
iz ando
Ġej Ã©rcito
Ã¡c tico
ĠFarmacÃ©u ticos
ĠEs clerosis
ĠAl cal
ĠsÃŃ mb
Ġprote in
ĠRo dri
Ġfuncion an
Ġcor ro
Ġ198 0
ĠCal le
ĠAc tividad
Ġconcre ta
Ġp ac
Ġe cos
ĠMar ta
ĠOb es
Ġvia jar
Ġaument Ã³
Ġalcan zÃ³
Ġadministr aciones
Ġequ idad
ĠBan co
Ġnego cios
ues tion
Ġcandida to
fi lo
Ġsue Ã±os
Ġga fas
b ola
ĠRo berto
Ġextrem adamente
Ġocur r
Ġgl Ã³bulos
Ġto ca
Ġvuel to
gÃ©n icos
an es
Ġtrans mite
Ġcompa tible
Ġgest acional
Ġpa tri
um bres
UM EN
Ġri que
Ġpu ra
Ġpalia tivos
Ġde cor
Ġobs tructiva
Ġreconoci da
ĠM C
Ġhis to
ces os
umon ia
N I
d Ã³
ri mir
e pi
m Ã©
Ġci tado
Ġdesapar ecer
Ġv it
F E
ĠOdon tologÃŃa
ad ro
ĠHospital ario
ten se
Ġv uestra
ĠAc ciÃ³n
Ġmam ÃŃfer
Ġhemorra gias
Ã© ro
Ġemp u
Ġvari ar
Ġori entar
Ġprogram aciÃ³n
Ġmir ar
Ġg ros
A V
Ġqu isiera
ĠquirÃ³f ano
ĠPar te
Ġdel gado
ĠE ra
g lic
Ġv uestro
Ġquer er
Ġtier ras
ex o
ĠR ico
Ġerr Ã³n
ĠP UE
Ġexpon e
Ġmas as
i ka
Ġbi olÃ³gicas
20 15
ĠG uer
Ġtrabaj ado
Ġsocio demo
Ġconstitu ido
Ġcolor rectal
ĠEx tra
Ġdi ana
Ġ7 9
ĠFu ente
ĠAle x
Ġman ag
P T
Ã ²
cu al
Ġen cefal
Ġe misiÃ³n
ĠRam ÃŃrez
ue bles
ĠL am
ĠR aras
Ġocur riÃ³
ĠAc tu
erva torio
Ġre vascul
arc oma
ac en
Ġestabl ecen
ĠAn gel
Ġtriste za
c ara
Ġo este
ing er
ĠacompaÃ± ada
ĠdiÃ¡ logo
Ġfor o
Ġsitu ada
ĠExtre madura
isti Ã³
Ġfl ora
Ġen fa
ĠC OL
Ġcap ÃŃtulos
Ġhac es
- (
ĠCl ara
Ġconcomit ante
con trol
c ro
Ġc Ã¡r
oci ales
Ġo to
Ġtri ple
Ġrue das
cre en
Ġprodu cidas
Ġlimi tar
ĠDi pu
Ġradio f
ar re
Ġindispens able
ĠS r
Ġ9 7
M E
Ġdepor tivas
lu jo
ĠPortu gal
ci ca
co co
Ġro ja
Ġpati ent
Ġhomen aje
ad uras
Ġestim aciÃ³n
Ġdiscipl inas
vi de
ĠB R
Ġreiv indic
Ġporcent ajes
ĠNe fro
ĠEcu ador
R o
ĠU ri
iz Ã³
ĠEstrate gia
Ġno tas
Ġcor tes
Ġderi va
ĠFisio terapia
Ġenl aces
ĠDer matologÃŃa
Ġcu ri
tor ÃŃa
Ġenfer ma
Ã¡ bamos
Ġten gas
Ġpresent aciones
Ġpe ticiÃ³n
Ġad vierte
Ġestu vieron
Ġsometer se
velop ment
xi al
Ġcar tera
Ġcir rosis
Ġcar tÃŃ
Ġqued arse
Ġ198 8
ĠReci entemente
Ġgo tas
Ġasoci Ã³
Ġcontemp or
Ġobten idas
urs ing
Ġcontra taciÃ³n
gÃ©n ico
cu idado
Ġvac ÃŃo
Ġdedic aciÃ³n
Ġextran jero
ĠTi empo
ros a
Ġdocum ental
Ġaliment arios
ok ies
Ġth erapy
H B
Ġpon iendo
Ġper tin
ĠS tre
en za
Ġpre para
parta mentos
ĠS ud
Ġlo gro
Ġno ches
Ġf iabilidad
Ġru ta
ril la
Ġel ig
Ġperman ece
Ġincre ÃŃ
Ġ8 6
ĠA Ãºn
Ġexperim entado
Ġalo j
Ġcas tel
Ġcuestion arios
Ġhab lan
Ġintox icaciÃ³n
Ġle vel
Ġprovin cias
cil la
ĠG ol
N O
ĠÎ¼ g
Ã ļ
er ta
Ġrecomend amos
ĠAr tes
uc o
ĠTrastor no
ĠObste tricia
sess ment
Ġestar Ã¡n
ĠQu ÃŃm
ĠCono cer
Ġpar enteral
Ġdiab Ã©tica
ĠV ie
gi endo
Ġcontac tos
Ġg ene
Ġinvas iÃ³n
ĠE V
Ġapropi ado
Ġpan or
Ġimpres iÃ³n
Ġagr icultura
ĠM EN
bi as
Ġap nea
tan os
Ġpsic olÃ³gicas
ĠPal acio
\ ,
Ġunivers itario
D OS
Ġt able
ĠO x
Ġseleccion ar
Ġpue das
Ġval idaciÃ³n
Ġdiferenci aciÃ³n
Ġsosten ible
Ġcica trices
A c
" )
ted ra
ĠmÃ¡qu ina
form as
Ġfron tal
Ġuter ino
ĠCol lege
Ġo cio
Ġhist Ã³rica
ĠMar tÃŃ
Ġprima vera
ĠProduc tos
ri el
Ġal ber
Ġllev aron
Ġest oma
Ġubic ada
Ġadap tarse
Ġmal as
Ġven der
Ġestim ula
ĠS IDA
Ġante cedente
Ġag ru
Ġacer c
Ã¡c ticas
ĠCu bana
Ã©p ticos
Ġar tista
Ġcam as
Ġh ice
Ġsom n
ĠC Ã³digo
T he
Ġabandon ar
ĠF oro
cu tÃ¡neo
ĠL DL
Ġcomun ica
Ġrequer ir
Ġsup ra
Ġop tar
ens is
200 2
Ġdig estiÃ³n
en zo
Ġsens i
Ġaplic Ã³
Ġmodal idades
ĠRes umen
Ġox ida
Ġespermato zo
ĠP M
ĠMa es
ĠS p
oci miento
Ġmigra Ã±a
Ġmi ra
Ġintegr ada
20 14
Ġfi estas
Ġanticuer po
Ġj ab
ĠclÃ¡s icos
ĠEnc uesta
qui tos
Ġvol viÃ³
I OR
ci encia
Ġprofesional idad
Ġres idente
Ġcromos oma
Ġcer rar
Ġdes as
Ġcons ens
ĠT E
Ġcolombi ano
Ġdismin uyendo
f ig
Ġfrecu encias
par ina
Ġar que
Ãº de
Ġmuer to
Ġi glesia
Ġpe dido
B L
ra el
ios o
e jas
Ġorg Ã¡nica
Ġpor tavo
ĠL en
Ġ9 3
Ġextra cto
y endo
ĠDer echos
Ġform ulaciÃ³n
is s
ig an
Ġopio ides
Ġresponsa bilidades
Ġsu pera
Ġleuc ocitos
ĠM Ãºs
Ġqu it
Ġgaran tÃŃa
ĠEs tim
Ġde dica
ĠG l
eci eron
Ġb ras
Ġlinf Ã¡ticos
Ġfu i
Ġprob ado
ĠCh ild
Ġescen arios
Ġprema turo
Ġcol g
Ġhom eo
ible mente
am pl
ĠFeder al
ĠR ich
Ġcons umen
Ġex por
ĠalÃ©rg icas
Ġch icas
o v
Ġvas cul
Ġph ys
Ġaisl ados
Ã³ vil
Ġin jus
Ġar co
Ġ9 1
Ġag encia
Ġredu ciendo
Ġvein te
ĠS tan
A F
C ar
Ġtal ento
ĠDig es
Ġapor taciones
Ġtercer os
Ġsecund arias
Ġno tar
ĠBiblio teca
Ġ8 7
ĠH aci
Ġad ju
Ġabra zo
ĠJo a
Ġf usiÃ³n
ĠV a
Ġperspec tivas
Ġconoce mos
car e
Ġaf irman
ĠAu to
Ġlleg aron
Ġmac ro
Ġconsiderable mente
Ġanci ano
Ġsal as
Ġau reus
Ġantigu os
Ġen vas
oci to
Ġfavor ecen
Ġalem Ã¡n
Ġa tiende
Ġos curo
Ġkil os
ĠENF ERM
ĠtorÃ¡ci co
Ġcon gresos
Ġar mon
Ġcre mas
z ano
Ġe ch
Ġver bal
Ġenerg Ã©tico
Ã³ metro
y Ã³
200 5
iz ed
gÃ©n ica
Ġneces itas
Ġobs es
p ha
Ġformul ario
ce ta
Ġpresent ando
Ġincertid umbre
Ġco che
Ġepidemi ologÃŃa
ĠLib ro
ÃŃn g
Ġco br
Ġconcre tas
Ġnervi osas
Ġexten der
Ġdes gr
vi le
Ġconcre tamente
Ġacad Ã©mica
Ġsal en
Ġtox inas
ĠRe un
Ġmus culatura
Ġadap tado
Ġindu cida
ĠSegun da
ĠN ivel
Ġcent en
Ġhiper sensibilidad
Ġprim arios
Ġentor nos
t olÃ³gico
Ġ9 2
ce d
th y
Ġdiagnos tico
ĠH al
Ġesta tinas
ti lo
Ġejer ce
Ġd r
OD UC
Ġa ge
P ara
Ġesc ena
Ġg on
Ġan tis
Ġg ira
in io
Ġfi ja
ĠÃ³pti ma
Ġdi ciendo
Ġl lan
Ġas untos
Ġcam p
qu ina
ĠF estival
ĠMol ecular
Ġsist Ã©mico
ĠK ey
ĠUs ted
F ig
Ġpec ul
j Ã³
vi mos
Ġimplement ar
Ġangus tia
Ã¡ ez
ĠRe pres
Ġen de
ĠSur g
Ġempres arial
ĠMa gn
I AS
Â¡ Â¡
u th
Ġsac ri
Ġc aja
Ġal ine
EN TA
Ġlogr os
ĠneurolÃ³g ico
Ġdismin uyen
Ġpresent en
is m
pl u
Ġprogres ivamente
Ġprove edor
gÃ¼ edad
ĠM J
ĠfarmacÃ©u ticas
Ġdesconoci do
Ġanaliz an
Ġdirec trices
Cu Ã¡l
H g
ĠRio ja
Ġch an
ud os
Ġban das
v it
Ġsolici tudes
Ġar ran
Ġten ia
Ġtranquil idad
Ġavan zados
Ġcons istencia
Ġtempran as
Ġtra te
ĠSe guro
ĠComer cio
ĠOfici na
Ġcontac tar
Ġdiab Ã©tico
Ġconsigui Ã³
Ġcre ada
ĠDic ho
teli ales
Ġju ventud
Ġdig itales
Ġrode a
Ġpop ulation
coles terol
iz antes
Ġtarje ta
Ġtr ic
is iones
Ġestudi a
d y
Ġha z
Ġevalu aron
a pro
Ġestable cida
Ġtra er
ĠJ uegos
ĠRies go
dic amente
Ġrad icales
Ġrepres entar
te z
Ġaproxim aciÃ³n
ĠPer io
Ġmateri as
b s
Ġpsic Ã³logos
ĠHiper tensiÃ³n
og lob
ĠJ unto
Ġjam Ã¡s
Ġdes pues
ric ulares
Ġescuch a
Ġen se
ĠW ar
Ġmilit ares
Ġflexi ble
Ġprovoc ado
Ġocur rido
Ġcompar ten
ĠP AS
Ġcons istente
Ġmor e
Ġesta tu
Ġre ver
Ġfuncional idad
ĠV Ã¡zquez
Ġmetab Ã³lica
ĠlÃ³g ica
Ġcomor bilidad
ĠOr tega
H E
Ġenc ab
P D
Ġo ver
ib er
ĠHer rera
Ġtar dÃŃa
ĠBi omÃ©dica
R ES
Ġorig ina
Ġlec tores
Ġju venil
r ica
dia gn
Ġdesconoci da
un ya
Ġdecre to
ĠT el
Ġaten dido
Ġred ac
ĠDe fin
ĠP S
e duc
ĠMÃºlti ple
ĠCon fe
Ġlar gas
Ġtom aron
Ġm enci
Ġsi mb
Ġmo dos
Ġentre gar
Ġg amma
Ġdivul gaciÃ³n
Ġintegr idad
Ġpi enso
Ġsent encia
Ġmater no
ĠM U
Ġr urales
Ġus ados
pa ta
Ġdeg eneraciÃ³n
Ġmanten ido
od y
ĠN E
Ġescri biÃ³
Ġimpres ion
ĠSan itarios
Ġg ro
T e
b is
ĠCo ch
Ġ $
pat olÃ³gico
ĠAna tomÃŃa
Ġa gar
mi li
ogrÃ¡ fico
ENT O
Ġinterval os
C h
vent ricular
Ġsab ÃŃa
Ġvalv ular
ĠM esa
a a
ĠPh ys
j un
Ġcon viene
Ġevalu aciones
Ġsur gen
ĠMunicip al
t aliz
Ġdescri ta
ri z
Ġhin chas
Ġgran ul
ĠÃºl cera
ĠA pren
Ġer u
ic anas
cep to
Ġbron co
Ġestr Ã³genos
Ġchoc olate
Ġcolo ca
ĠcÃ¡ps ula
Ġsens aciones
iti es
Ġbiomarc adores
ĠV ari
Ġinter vienen
Ġneuro degenera
Ġpod remos
Ġpla ya
Ġher mana
ie ve
Ġco hor
Ġdefici encias
cri tos
Ġinmun idad
Ġre tra
tos terona
ĠN uestros
Ġau tos
Ġ198 7
jer as
Ġprom ueve
a to
Ġa tre
Ġecon om
Ġespaci al
Ġmetab Ã³licas
Ġre um
Ġtr Ã¡ns
bier an
ĠTea tro
und aciÃ³n
Ġdur ing
s ul
Ġform al
l ace
ĠPa ul
Ġemple an
. [
aj os
Ġfamos o
Ġcombin ada
Ġvolun taria
Ġanunci ado
IL L
Ġin ducir
ĠL ac
me til
Ġ198 6
Ġinter medi
te gra
Ġapo ya
Ġl ados
ĠM aria
ĠA ten
tr ina
Ġil umin
Ġtecn olÃ³gicos
r Ã©
Ġu ro
as ia
Ġar ma
ĠPar ece
n y
lo ide
aj al
Ġvari ante
ĠEE UU
Ġdes gas
Ġd uer
Ġlec tor
Ġcar cin
Ġli pos
Ġva gina
UL T
Ġconta gio
ue ven
Ġsuperfici es
Ġmed ular
Ġincor rec
ĠSan to
di bular
ĠRa Ãºl
Ġvuel ven
P OR
ĠÃį n
Ġlan zamiento
ĠcÃ³r nea
AR A
tecn ologÃŃa
Ġsen os
Ġmarc ada
ec ÃŃan
ĠÃ¡tom os
ĠDel gado
ĠMe tab
Ġsecu encias
Ġantiinflama torios
Ġextran jeros
ĠP OL
ĠÃģngel es
ĠSe mana
Ġsi enta
ĠL una
Ġespec ta
ĠAu di
w in
Ġd amos
me dad
C a
ros s
m arc
Ġendo cr
Ġcan nab
Ġgen ital
ĠCol abor
Ġobserv aciones
Ġgras o
ĠSer gio
Ġvay an
Ġpne umonia
Ġproce der
ĠRecur sos
ĠAr m
Ġcomen z
el ler
Ġequiv oc
ĠmediterrÃ¡n ea
Ġmul titud
Ġil usiÃ³n
Ġpsi quiatrÃŃa
Ġca denas
i fe
Ġinesta bilidad
ĠperiÃ³ dico
Ġla v
Ġmal trato
ĠC AM
ĠHospit ales
Ġmar ido
â Ĥ¬
Ġaf ric
Ġpron Ã³s
ĠJ ur
Ġvolun t
Ġescas o
p uer
Ġap r
Ġvicepres idente
Ġres isten
mi gos
plas ma
Ġsolid aridad
Ġrup tura
ĠL ima
fon os
b acter
Ġpri vile
y entes
en di
ul ados
Ġestudi Ã³
Ġobje tiva
ĠAC TIV
Ġgastrointes tinales
ĠGener almente
Ġtit ulado
ĠIn ici
Ġv ib
Ġver tical
ĠN I
Ġlim Ã³n
Ġanal gesia
p rim
Ġresul ts
Ġoblig aciones
Ġan cho
ĠCas i
ĠC T
Ġfu tura
Ġcomen zaron
Ġ8 9
Ġes pl
ĠAlim entaciÃ³n
Ġcom isiÃ³n
Ġ9 4
ĠS tudy
Ġrequer imientos
ĠtorÃ¡ci ca
Ġmas iva
Ġdetermin an
Ġidentific aron
Ġcontra cciÃ³n
tori amente
Ġp eces
fa gia
Ġargum entos
ĠH om
ĠNa tural
pa in
AN O
cÃ³p ico
u til
Ġrecl u
Ã± ado
Ġexcep cional
ĠPediÃ¡ trica
po y
Ġciudad ano
Ġprotagon istas
Ġtem bl
Ġhu mil
Ġcal cular
Ġson risa
Ġagu dos
ĠPod cast
ĠtrÃ¡ns ito
Ġci ego
yu vante
Ġpredis posiciÃ³n
iz ante
ĠJ L
amp iÃ³n
ÃŃ genes
Ġes pas
Ġvers iones
u o
Ġambula toria
Ġven oso
Ġinteres ado
Ġvo to
tr ales
Ġa ra
ĠEsta tal
Ġle tras
R I
Ġo cupar
Ġhep Ã¡ticas
no w
Ġfal l
Ġar ras
Ġmar keting
ĠC orazÃ³n
om an
Ġma pa
Ġcin tura
Ġman z
G T
Ġg imnas
ĠP C
ĠfÃ³rm ulas
Ġcer rado
Ġpla tos
Ġsecre to
ĠO ral
Ġrecibi endo
vier an
Ġempiez an
ĠB ien
Ġpro hib
ĠIs la
or res
ĠCatal unya
Ġque m
ĠMej or
te a
uy entes
Ġcu rios
or cio
Ġne w
ĠEj Ã©rcito
Ġsed aciÃ³n
Ġmuer tos
Ġcontin ente
Ġclar idad
ĠL ar
Ġcer tificado
Ġle v
icos is
Ġdese os
Ġome ga
Ġprove edores
Ġdesa pari
Ġclim Ã¡tico
Ġesper ando
de za
ĠbÃ¡s icamente
enci aciÃ³n
ac tivo
Ġju go
ĠG roup
Ġdiagnostic ada
ĠV o
Ġpodr ÃŃamos
Ġexperim entales
Ġdesarroll aron
ĠCole gios
Ġextens a
Ġllev arÃ¡
Ġinter ro
ĠCaracter ÃŃsticas
Ġcre ciendo
Ġsuple mento
Ġreg eneraciÃ³n
ĠComun idades
Ġproce dente
Ġo ther
ĠNi Ã±os
Ġan iversario
Ġâ Ĥ¬
ĠEs co
idos is
Ġmedicin ales
Ġm Ã¡r
pu ra
ĠMar co
Ġro b
ĠcutÃ¡n eo
Ġapun tan
Ġ198 5
Ġcons tantes
Ġco caÃŃna
er es
ti es
Ġestudi aron
Ġag on
ĠP rac
Ġau toma
Ġhipertens os
Ġquier an
Ġconvier ten
Ġmo tores
Ġd rug
Ġrefi eren
Ġepidemi olÃ³gica
Ġre tar
Ġvig il
Ġconsi guen
ĠLa ura
Ġmens tru
Ġbi os
li x
V ES
Ġmorbi mortalidad
ĠSan itario
Ġado pciÃ³n
ĠP ese
). -
Ġescas os
gan tes
ĠNi Ã±o
ĠU su
Ġesti gma
Ġtrauma tismos
j ados
Ġid Ã©n
ĠGre gor
Ġdepen derÃ¡
so bre
in ga
ta in
Ġa blaciÃ³n
Ġcaracter izan
Ġinter mi
Ã©rg icos
ĠsÃ³l idos
Ġdis or
vi miento
Ġmembran as
Ġson idos
Ġcom a
Ġay uden
Ġacces ible
Ġre tin
Ġden uncia
Ġdi pu
Ġdescub ri
Ġperten ecen
Ġbiblio grÃ¡fica
Ġin icios
ĠV ÃŃc
Ġpreocup aciones
ĠS ys
Ġbrin da
Ġad s
Ġexpres an
h ora
PS S
le to
or ro
200 3
ĠCom plu
ci ta
Ġsyn drome
Ġplante an
Ġdifun dir
U RA
Ġpas ta
uc es
Ġdi lu
Ġce p
ĠA fec
Ġpas tillas
fic ar
Ġdesper tar
G u
for tunadamente
Ġra tio
Ġaconsej able
ÃŃn guez
mon ios
Ġpla to
Ġen ro
Ã³n icos
Ġdeb o
us as
Ġbas ales
Ġlog ÃŃstica
ĠPo co
Ġl Ãº
Ġvar ÃŃan
Ġdeshidra taciÃ³n
tom o
im amente
Ġnervi osa
ĠComplu tense
Ã³ ticas
ÃŃ fica
Ġre tino
Ġn arra
ĠIn dic
ĠM AS
Ġs Ã³
c encia
Ġhom ogÃ©n
Ġ 00
Ġproduc tividad
Ġdign idad
ĠPromo ciÃ³n
Ġc Ã¡n
Ġclar os
Ġcar reras
Ġrestr ing
ven a
Ġcircu ito
Ġinflama torias
Ġcar gos
ter no
Ġflexi bilidad
p Ã¡tico
ĠEN TR
Ġmam Ã¡
Ġp iso
ĠGu iller
ĠF ab
Ġcubier ta
Ġhial ur
e cimiento
h ay
Ġdetermin ante
ti zada
ri les
Ġmanag ement
Ġpre cur
Ġl ente
Ġfal sos
Ġfol low
ĠCientÃŃ fico
Ġpro cur
Ġefec tivas
Ġestudi ada
Ġaisl ada
Ġdiagn osis
Ġit s
Ġvoc al
Ġmencion ados
ĠNav idad
Ġextre ma
Ġpolic ÃŃa
Ġfoto grafÃŃa
ĠR ib
ter es
ĠVic toria
Ġcre ando
yec ciÃ³n
Ġa qu
Ġreproduc tiva
Ġconse jera
ca piÃ©
AR IO
Ġconcl uyÃ³
di ales
e mo
es ÃŃa
Ġrepor tado
Ġg em
ĠS ig
Ġsol ares
ĠquÃŃm ico
ble mas
Ġay ude
Ã¡m icas
am as
Ġch il
Ġpri mi
Ġdor sal
R es
Ġin tim
Ġhis p
or os
Ġpres i
M ed
it ra
ĠcuÃ¡n to
ED ER
i ol
Ġperiodis tas
Ġtecn olÃ³gica
Ġdolor osa
ĠIma gen
u k
Ġprodu cidos
Ġanor exia
V E
Ã¡n do
ĠT enemos
Ġredu jo
c ales
Ġpro viene
Ġtra e
Ġpiel es
Ġcelebr Ã³
Ġpa in
Ġd uelo
ĠT IEN
Ġgen ial
Ġe os
Ġtrombo emb
Ġinvoluc rados
lo gos
ĠConfe deraciÃ³n
w ay
Ġportavo z
Ġes teroides
Ġju gue
Ġtrad uce
Ġcon tigo
ĠC AS
Ġes encia
ĠcÃ¡ps ulas
ĠC Y
Ġaco pl
ĠparÃ¡s itos
ĠTi po
ĠTra umatologÃŃa
Ġgan Ã³
Ġch arla
Ġl entamente
Ġplan e
tern et
Ġd ud
Ġincom ple
Ġalter ar
creen ing
Ġcas es
Ġconserv ar
Ġdescar ga
Ġsem estre
Ġimpues tos
Ġav iÃ³n
Ġdel an
Ġcor ne
ĠRES UMEN
Ġdispon en
Ġan ualmente
Ġneu tro
Ġbril lante
d ol
ĠM M
ĠCons ider
Ġrique za
ĠProce dimiento
Ġrefer ido
Ġconcienci ar
Ġencuent re
Ġci elo
Ġfaci ales
Ġconci li
ĠmÃŃn imos
Ġex istÃŃa
Ġabsolu tamente
Ġci tas
n ado
ol v
Ġquin to
ĠS ha
ĠPsych ia
um ologÃŃa
Ġgener ando
ĠOri ente
Ġenti endo
Ġbi polar
Ġch ronic
l ing
r ina
Ġas umi
R M
Ġespec tÃ¡
Ġmultic Ã©ntrico
Ġhin capiÃ©
Ġcolombi anos
Ġme tro
Ġpas iÃ³n
Ġacep tado
ĠAl lÃŃ
Ã³ li
ĠAnte cedentes
Ġs p
Ġluc ro
Ġinger ir
u ada
Ġsepar ado
Ġle ÃŃdo
gu in
Ã© ticamente
Ġconsum idor
Ġprema turos
Ġte mÃ¡tica
ĠMujer es
ĠPar lamento
Ġre lo
Ġesti ra
ĠÃºn icos
Ġdific ulta
ĠgeogrÃ¡ fica
Ġes cu
Ġembri ones
Ġanunci Ã³
Ġre bel
Ġsol os
AN A
ĠL is
or re
Ġrecuer dos
Ġestim ado
Ġrelig iÃ³n
Ġrela tivos
Ġpin tura
Ġven ir
us s
Ġtranspar encia
Ġcontemp la
TAM IENTO
Ġcon ces
Ġdefini tivamente
f rag
ĠM ana
Ġafirm ar
Ġr ÃŃos
ĠCu enta
Ġfoto grafÃŃas
ĠG L
B I
Ġven ido
Ġbici cle
w ork
ve y
di um
Ġamari llo
Ġcomput arizada
or t
Ġdis li
Ġins a
M adrid
S u
Ã¡m icos
ĠneurolÃ³g icos
Ġsolu cion
ĠAn n
Ġfun dador
ĠP ens
Ġcam pes
Ġref lujo
Ġstudi es
Ã©n ico
Ġsomn olencia
AM ENTE
Ġ" Â¿
Ġestudi adas
ĠEn cuent
ĠÃ© ticos
ĠS tar
Ġrefle jan
L e
ĠSAL UD
i aciÃ³n
Ġex ager
b ula
Ġse vero
Ġnaran ja
Ġconfirm aciÃ³n
n ica
te ma
Ġher encia
Ġz inc
Ġapre cia
Ġgri ego
Ġtecn olÃ³gico
te za
Ġir rad
os idad
am Ã¡
ĠFran k
Ġprev Ã©
ĠAn estes
enci ada
ri es
Ġto tales
ĠRo bert
ĠantÃŃ genos
Ġsuspen der
Ġdesaf ÃŃo
dimens ional
Ġesc la
ĠC ine
Ġres e
T P
Ġestim ar
Ġaplic ando
m el
ĠOc ciden
Ġre port
ĠmiocÃ¡r dica
Ġv ea
cion ista
Ġmu riÃ³
Ġinter rupciÃ³n
Ġloc alizado
U na
Ġsal iÃ³
Ġderra me
erv aciÃ³n
IS A
Ġpul so
Ġrevel Ã³
Ġcorrel acion
den cial
ĠSe bas
Ġsatisfac er
Ġclasific ar
Ġsilenci o
ĠV ia
ĠNorm almente
Ġadquir ida
Ġvic toria
Ġvideoj uegos
Ġllam an
Ġcor tos
Ġinadecu ada
ĠCo pa
ĠM ora
ĠH IV
" ;
ĠL abor
Ġcabel lu
Ġfues e
Ġalar ma
ĠT rad
ĠCer eb
Ġme dal
Ġhor arios
Ġfis cal
Ġace til
ĠM icro
pas os
Ġdescar gar
Ġconform an
Ġlis tado
ta t
car cinoma
min g
Ġtrabaj Ã³
ti f
Ġ8 00
ĠD ental
is ion
ĠIns uficiencia
Ġidentific ados
Ġexperim ento
ĠE RC
ĠH os
Ġintelig ente
200 4
Ġmam aria
ine mia
ĠGastro enter
Ġtis ular
Ġacu pun
us to
e ja
ĠProfes ionales
ĠA ran
g ador
Ġfalle cimiento
Ġantir retrovir
flo xaci
ĠRe vis
Ãº mina
Ġgen itales
Ġex ce
Ġo clusiÃ³n
ĠMol ina
Ġra to
ĠPal ma
ĠCa tÃ³lica
Ġestable cidas
Ġcicatriz aciÃ³n
Ġdiges tiva
Ġcomor bilidades
Ġab arca
Ġtes tosterona
Ġconsi go
man as
ĠÎ ²
Ġreco gen
Ġvuln erabilidad
h r
Ġinterven ir
Ġp p
ĠNe u
Ġqu istes
Ġencontr ados
Ġadquir ido
Ġabier tas
Ġor din
Ġben zo
Ġtercer o
ĠJ ames
ĠMe dia
Ġlig ero
ĠM Ãī
Ġhabl ado
Ġcri min
r ador
Ġocas ional
Ġid Ã³n
ci ende
Ġf igur
Ġinflama torio
Ġcan tante
Ġdirec tos
Ġefectu ar
mis os
Ġretros pec
ic ela
Ġple ural
Ġemp atÃŃa
ĠC erv
ac tiva
renal ina
Ġunivers itaria
Ġtriun fo
ĠM es
Ġinmunosu pres
Ġper se
Ġn ÃŃ
ĠVal oraciÃ³n
ĠE mil
iden ta
ĠAl ter
Ġseg mentos
Ġmuch ÃŃsimo
Ġva por
Ġ% ,
Ġdetall ada
Ġrecor tes
ĠPro te
ĠGeneral itat
Ġse quedad
Ġg lic
Ġcru cial
Fi gura
Ġa trofia
Ġeurope as
en io
tri cidad
Ġsegu idos
r ÃŃ
o C
Ġres tantes
Ġdemostr aron
Ġmaes tros
Ġro ck
ĠR ica
ĠU rologÃŃa
Ġdel ic
ĠM L
Ġval ora
AD AS
Ġrecog idos
ĠLatino amÃ©rica
ĠOr to
Ġest Ã©tico
Ġf es
ri torial
Ġal f
e de
Ġred acciÃ³n
ĠTom Ã¡s
Ġcor rupciÃ³n
ĠFl ores
Ġcual idades
Ġmuc osas
Ġesper amos
Ġconvers aciÃ³n
iza tion
Ġconsidera mos
Ġonc ologÃŃa
ĠC F
Ġhe tero
Ġcogni tivos
Ã§ Ãµes
t olÃ³gicos
ta tivo
ĠgÃ¡s trica
um os
ĠAm Ã©ricas
Ġcer tific
Ġantioxid ante
Ġlip ÃŃ
Ġprofundi zar
ion s
Ġdep Ã³sitos
ID OS
Ġa mo
Ġcoron arias
Ġinvas ivo
Ġmex icanos
Ãª ncia
os tic
Ġagres iÃ³n
3 00
Ġpl ie
Ġblan que
Ġasegur an
Ġrad ica
Ġespiri tual
ÃŃ metro
xim adamente
Ġmater nidad
Ġth an
ĠAlim entos
Ġtex tura
ĠB A
Ġarti fici
ĠGuiller mo
Ġoblig ado
Ġexam inar
Ġcu bre
or ios
Ġinmuno terapia
Ġpan tal
Ġgo ta
hibi ciÃ³n
ĠR usia
qu inas
Ġescri ta
Ġna tur
Ġmad rile
Ġobje tiv
ig encia
Ġjue gan
ta mina
Ġlo go
Ġa fici
ĠP las
Ġmex icano
Ġacor de
Ġn omin
ĠÌ Ī
ta mbi
Ġampli aciÃ³n
Ġrestric ciÃ³n
Ġprescri p
on i
Ã¡n donos
el y
Ġlimp ia
Ġes cul
Ġcor dÃ³n
AR IA
Ġme as
ĠR i
Ġgaran tÃŃas
ĠMe mor
Ġcaus al
Ġa qui
Ġbeneficios os
Ġconcre tos
Ġcabellu do
ist Ã³
ĠAl fre
D M
Ġa zar
Ġinmo vil
pa titis
tÃŃcul os
ev alu
e k
Ġma quin
ĠV in
Ġdesapari ciÃ³n
ĠBol iv
Ġmo tora
Ġas piraciÃ³n
ĠEs cri
Ġfarmac ocin
Ġsobreviv ir
Ã¡rmac os
g il
ĠVe ga
Ġinfraestruc tura
Ġprome ted
y er
Ġdesaf ÃŃos
Ġcomplement aria
xim ab
Ġrefer entes
Ġman dÃŃ
ĠD NA
Ġcon migo
Ġa teros
posi tivo
d ÃŃan
ĠRe visiÃ³n
Ġesp ir
Ġmanifi estan
Ġrecu ento
ĠPre mios
Ġregistr aron
Ġpancre a
ĠB ell
ĠCro hn
Ġint entos
Ġlevan tar
or rea
ĠPos t
Ġafirm ado
Ġencontra ban
ĠÂ ®
Ġactiv as
Ġalcan zan
guar dia
Ġn es
ent ados
Ġma tar
Ġum bral
Ġasigna tura
Ġb le
tens ina
Ġov Ã¡r
paci ente
Ġa genda
ba o
ĠActiv idades
Ġneur onal
ĠV II
Ġra mi
Ġv id
Ġb el
Ġpres iones
Ġpat olÃ³gica
Ġhospital arias
Ġdes favor
d L
Ġprefer encias
ĠReun iÃ³n
or s
Ġtre inta
Ġb l
Ġpi diÃ³
ES T
Ġju dicial
Ġdep Ã³sito
m Ã³s
Ġcafe ÃŃna
Ġcari Ã±o
Ġinfec tadas
Ġregres o
Ġarquitec tura
Ġ14 0
Ġpres ta
Ġexplic aciones
Ġli fe
ĠG us
Ġcelebr ar
Ġh ielo
ĠSebas ti
er io
Ġtrans curso
Ġhemb ras
U A
ĠD IA
ues tras
Ġdescub riÃ³
B N
ĠR N
ĠA di
ĠTÃ©cn icas
Ġendo crin
Ġac triz
ĠT EN
Ġcompon en
Ġcarre tera
Ġre iter
Ġrevascul arizaciÃ³n
Ġdiagnos tica
Ġconsum e
ĠRo jas
ĠIN S
ĠDomin go
Ġconcord ancia
Ġrela to
ol eta
Ġrealiz amos
Ġloc alizada
Ġtobil lo
ĠK e
Ġâ ĪĴ
ha vi
tr ados
ĠT EA
ol i
Ġres fri
Ġfr ÃŃa
ĠEl lo
Ġme thod
v asta
ran tes
Ġinform Ã¡tica
Ġconsider adas
h en
ÃŃn cipe
ĠRe medio
Ġatra ves
Ġinfrecu ente
tan der
Ġeval Ãºa
fic acia
Ġviv iendo
e ma
ĠAl i
fo bia
m ante
ti la
ĠCardio vascular
form es
gles ias
s able
ĠF C
Ġexperim entan
2 108
te cas
Ġus arse
Ġpecul iar
Ġconci erto
ĠH id
ist ad
Ġintegr ar
ĠIn depen
ĠN unca
Ã¡m aras
ĠpÃ©lv ico
fa gos
ĠL ES
Ġmedio ambi
ĠacompaÃ± ar
ĠMan ejo
ĠU I
CI O
UL A
Ġcomun itario
Ġdesigual dades
ĠL iga
ĠfÃ¡ ciles
u to
Ġapar eciÃ³
Ġplas mÃ¡ticas
ĠH ig
O E
Ġti enda
ĠcartÃŃ lago
e le
cu rio
Ġenv ase
e ga
ĠB ale
ĠE T
Ġr aci
bil ical
Ġpresent ada
Ġoportun o
Ġrecep ciÃ³n
Ġpen dientes
Ġens al
Ġcontro la
Ġaz ucar
tr Ã³geno
Ġpel vis
Ġintra c
Ġprac tica
Ġromp er
Ġcardi acas
Ġent us
u rez
Ġrecon ocen
ĠM AT
tar ismo
Ġdefens as
Ġtorn eo
ĠEsc ala
paci o
ĠOr tiz
teri ales
Ġcompren dido
ĠYo u
Ġrue da
Ġmar eos
Ġesp in
phy lo
ĠU SA
Ġepi telio
ĠT est
Ġfarmac olÃ³gicas
Ġparadig ma
Ġvincul ados
ĠPri mero
Ġantiv ir
h asta
Ġinmunode ficiencia
Ġc ran
Ġfi able
ĠDom ÃŃnguez
u ci
Ġanticoagul antes
Ġautoinmun e
U G
ĠmamÃŃfer os
Ġpiens an
Ġremo del
Ġver des
Ġ1 000
uer te
Ġcardi ologÃŃa
Ġesta bles
ĠRes oluciÃ³n
Ġinters ti
Ġ1 10
Ġepi der
ÃŃc ola
Ġadh esiÃ³n
Ġex posiciones
Ġta tu
ĠjurÃŃ dica
Ġpredic tivo
H eb
cios os
Ġexpl os
Ġingen ierÃŃa
Ġsero tonina
ĠEx pl
Ġsocios an
Ġconj u
Ġlac tante
Ġcrea tividad
ĠD ro
Ġpar ada
Ġsho w
Ġdol encias
f amil
ĠMe tod
Ġcar nes
Ġpa trimonio
Ġfal la
ĠB ene
b ut
Ġdismin uido
ĠRos ario
Ġconfigur aciÃ³n
Ġd aba
Ġfinanci ado
Ġac aban
ĠPan americana
Ġemp a
ĠJ C
Ġam ar
Ġpeda gÃ³g
12 3
oy a
Ġneu tr
Ġrecurr entes
Ġrodi llas
Ġinfec tion
i ki
Ġle tra
ĠfÃ³s foro
ĠprÃ³ ximas
Ġges tantes
Ġcon qu
ĠÃī l
g aron
Ġmus icales
Ġproyec ciÃ³n
pul monar
iz ador
Ġs am
ĠF idel
ĠcardÃŃa cas
ĠAd ul
Ġembri on
ĠCons ulta
r ÃŃan
Ġaplic an
Ġresid ual
ĠS EN
pti dos
Ġvie jo
Ġmascul ina
Ġaver i
ti Ã©ndose
ĠlÃ³g ico
Ġsar ampiÃ³n
Ġpresent amos
Ġcel ulitis
Ġtur ismo
o t
Ġprema tura
Ġlaparos cÃ³pica
ĠN utr
ĠA gra
ĠT r
Ġne gros
Ġdise min
Ġexten dido
ĠG EN
Ġop tim
Ġconfirm Ã³
Ã³g ena
Ġus ing
ĠCoch rane
prote ÃŃnas
an gio
Ġf Ã³lico
ĠD in
ĠOftalm ologÃŃa
Ġviv a
Ġme te
Ġenv ÃŃo
Ġacad Ã©micos
tor n
ĠEl la
man es
Ġcur s
i anos
Ġpu ente
Ġtox ina
ĠI F
ĠH M
Ġencab ez
br ales
Ġ zo
Ġce guera
ES O
Ġvi al
Ġcoinci de
ĠV ill
Ġimpor te
ĠClas ificaciÃ³n
Ġactiv amente
Ġocup acional
ION ES
Ġapar entemente
ĠLu z
Ãģ N
icha el
Ġcul p
Ġaisl ado
Ġprofun das
Ġvent ana
Ġnico tina
ĠprÃ¡c ticos
ios is
kin s
ĠAl ta
Ġtele vis
Ġrecidi va
all ero
AC T
Ġpanor ama
bern am
Ġme to
Ġvis ibilidad
ĠtÃŃp ica
ĠObs ervatorio
ĠM T
Ġcam is
s ional
ĠM ich
Ġcaracter ÃŃstico
ĠU ru
Ġis las
Ġviv ido
ĠelÃ©c trico
Ġdel imi
V al
ĠNefro logÃŃa
Ġv uelo
plic aciones
Ġresca te
ĠS mith
ĠI z
Ġtar des
blo que
Ġpe ores
ĠAmbi ente
Ġde partamentos
Ġb eca
r aciones
ĠHospital aria
Ġdestac ados
ĠvÃŃ deos
Ġreg ionales
Ġbas an
P o
tic aria
Ġar terio
Ġpod Ã©is
Ġambi entes
mi cina
ĠPro to
Ġh ola
ur ÃŃa
ĠCas o
bl ecer
enci almente
Ġrepe ticiÃ³n
ix a
Ġdes fib
ĠN et
Ġcomplic ada
Ġc ad
Ġempeor amiento
ĠJoa quÃŃn
Ġin gestiÃ³n
ce mos
Ġocasion a
ones a
Ġlin fo
Ġfren ar
Ġemo ciÃ³n
con tin
ci no
Ġcaus ante
Ġco co
ĠGu an
Ġases ina
ĠA A
Ġlac tosa
c Ã³n
Ġhiper actividad
h ar
ĠHaci enda
as t
Ġeru pciÃ³n
Ġespeci alizadas
G N
Ġonc olÃ³gicos
Ġsos tiene
Ġdispens aciÃ³n
Ġsorpres a
Ġvalor ado
cal e
Ġs ida
Ġmono cl
ĠFon do
Ġf ina
Ġbol sas
t ter
EC A
ĠIN D
m ala
Ġsimul tÃ¡neamente
Ġterri torios
ĠcesÃ¡ rea
Ġg ala
Ġleg umbres
ĠSil va
Ġj ud
In ternet
C G
ĠJos ep
ĠReg lamento
Ã§ a
Ġmex icana
2 000
ino plastia
Ġauto cuidado
Ġintent ando
Ġdue le
Ġlab ores
tÃ¡ logo
Ġafec tando
Ġal tera
Ġï Ĥ
z ina
Ġemp o
ÃŃm enes
ĠConstitu ciÃ³n
Ġcontra er
Ġlle ve
Ġespeci alizaciÃ³n
m Ã³n
bi al
Ġres ta
dir se
Ġfel ices
n orm
E X
N e
br id
ĠtÃŃp ico
Ġsen tidos
Ġcercan os
ens or
Ġperson alizado
Ġinfer tilidad
Ġtrad ucciÃ³n
ĠÃ³r denes
ĠPhar mac
ĠTh is
ĠN acionales
ĠTRA TAMIENTO
eb ra
i Ã©ndose
I ÃĵN
Ġblan cas
Ġbe en
Ġreflex ionar
O H
fal o
Ġcelebr ada
Ġplas mÃ¡tica
ĠDeb emos
Ġaleator izado
Ġregistr ados
ter Ã¡p
ĠP SO
ĠInfec ciones
tambi Ã©n
Ġami ga
Ġinter vencion
ĠVÃŃc tor
D S
Ġta za
ĠEndocrin ologÃŃa
ĠFOR MA
p so
ĠSu Ã¡rez
Ġapren dido
ĠgÃ©n ica
ĠEp iso
ĠD C
Ġinmi gr
Ġad yac
U P
Ġa pa
ĠC Ã¡mara
col as
var d
Ġta x
Ġcombin ar
Ġepidemi olÃ³gico
tel la
Ġcontamin antes
Ġinter discipl
EC T
Ġtend remos
Ġcl oro
ĠÃ³v ulos
Ġderi var
j ando
olar ing
Ġhy per
ĠJa ime
ĠP rin
Ġres earch
Ġco un
tr Ã³p
Ġgus tado
Ġexac ta
D i
tÃ³ l
Ġcombin aciones
dad ores
Ġisqu Ã©mico
ma y
Ġr ÃŃg
Ġ18 0
Ġcho que
Ġrespe tar
ĠG ene
ĠPA CI
Ġsubra ya
Ġintro duce
ĠCris to
Ġme ter
Ġcoe ficiente
aliz ando
Ġcontin Ãºan
b ac
and ante
Ġex puestas
Ġ* *
l ada
Ġun en
ĠAr tÃŃculo
Ã¡nd ola
cl ÃŃn
Ġfa tal
it ariamente
Ġcap taciÃ³n
R ed
Ġh il
Ġto que
Ġpaci encia
ĠAB S
ur t
U ER
ĠDise Ã±o
Ġnotable mente
Ġab ar
Ġvari edades
ĠRe umatologÃŃa
ĠUri be
Ġren unci
ĠH b
Ġv ene
reas t
Ġs Ã©rica
Ġco okies
Ġautoinmun es
Ġop cionalmente
Ġincrement ado
ĠPol it
ĠCon f
ĠSo fÃŃa
Ġar ena
Ġguar dia
Ġinyec ciones
Ġquin ce
ĠÃ³p tico
ĠCor on
Ġplante ado
Ġban co
Ġresisten cias
Ġat mÃ³s
Ġagres iones
Ġrecol ec
Ġvir tud
Ġpers istencia
ĠÃ ł
a Ã±os
Ġs tan
ĠQuÃŃm ica
Ġescri tura
ĠV el
ĠPl Ã¡stica
Ġpro pi
Ã Ĥ
ch i
ĠEmp leo
Ġmu eren
Ġcuan tos
Ġtra mi
Ġcomp lica
ri tos
Ġheter ogÃ©n
ĠDoc ente
ĠA un
Ġabs tinencia
ĠDetermin ar
Ġretras ar
Ġd ados
Ġvuel va
ĠPSO E
g ener
Ġt am
Ġyo do
ĠÃįn dice
Ġinter fi
Ġfarmac olÃ³gica
ĠU C
Ġcre encia
Ġpens amos
par aciÃ³n
F R
Ġw ords
Ġter res
Ġsol edad
Ġpsiquia tra
ĠAs istencia
Ġfer ro
Ġest ro
Ġinflama torios
Ġobserv ada
ra m
Ġespermatozo ides
ĠAg us
ĠincreÃŃ ble
Ġdesconoci miento
Ġperju dic
Ġrespal do
Ġco opera
H ospital
x el
Ġobs tÃ©
Ġvo ces
Ġantagon istas
ac tivos
ten ia
Ġconcienci aciÃ³n
er y
Ġbio psias
endo za
Ġconviv encia
ĠP I
ER S
Ġester eo
Ġelev ar
rin olaring
ĠO br
ĠS istemas
ĠP ac
p Ã³
Ġcaus ando
ĠDiv isiÃ³n
re y
ĠIngen ierÃŃa
Ġeso f
Ġten gamos
omÃ© tricas
Ġcompar aron
tr aciones
ĠMÃºs ica
Ġce pa
IM C
Ġsuscep tibilidad
Ġcircuns tancia
Ġus ed
Ġhipo glucemia
Ġdes l
cons ul
Ġins tancia
Ġhiper trofia
Ġcumpl im
Ġencar ga
Ġaten diendo
Ġconsul te
Ġme til
M ENTE
Ġpre di
Ġin cis
Ġhal la
Ġpil ares
ila del
Ġt ec
Ġal ve
ĠM ichael
Ġest Ã©ticos
Ġam able
Ġfres co
ĠNa ture
pi ro
am inas
ĠRo ja
ĠA plicar
ĠMa g
Ġprior idades
EM PS
ĠTal ler
Ġon e
Ġalu cin
Ġdes esper
fos f
w ell
an der
Ġac oso
qui al
ĠRiv era
Ġenfr entan
ĠH un
Ġcorri entes
Ġn al
Ġmas cari
Ġapoy an
Ġbronqui al
T M
Ġacon di
Ġpaque te
ĠMicrobi ologÃŃa
Ġhac ÃŃan
Ġexpl ora
uch o
ti al
Ġrecol ecciÃ³n
ton ÃŃa
Ġcul turas
Ġexpon er
Ġmorf ologÃŃa
Ġe mer
Ġdon aciones
Ġn aciÃ³n
Ġayud ado
Ġdese an
P a
Ġg lo
Ġsup rar
Ġocup aciÃ³n
x ic
Ġc ena
ĠG ri
Ġcambi ando
ĠBale ares
Ġin espec
ĠmÃŃn imamente
Ġsi go
Ġentre ten
Ġpens ado
co pe
ĠL il
und amente
Ġmos quitos
Ġnega tivamente
ĠUnivers itat
di ciones
Ġindustri ales
ia trÃŃa
ĠOs car
M an
Ġfisi olÃ³gico
Ġadministr ado
Ġla terales
Ġsubyac ente
ogene idad
ĠEl i
Ġabdomin ales
Ġejemp lares
ĠC y
Ġmanifes tado
Ġ198 4
Ġcon t
ĠPa ulo
ĠDirec tora
Ġdestr uir
Ġpuer to
Ġadministra tiva
Ġre pen
Ġvis cer
Ġcolon os
Ġartic ulo
ĠdaÃ± ar
v idad
Ġfem oral
Ġprecis an
Ġa tac
tin e
c tion
m icos
ĠS S
ĠH B
Ġth ro
ĠPÃºbl ico
ic ul
Ġdispon emos
uy an
Ġcontar Ã¡
Ġbol s
Ġtom as
Ġmonta Ã±a
Ġdej amos
Ġbron ce
- .
Ġadministr arse
Ġfrag mentos
Ġanorm ales
Ġapar ente
Ġneuro trans
per it
Ġc em
ĠC AL
Ġsub si
ific ados
Ã©rm enes
ĠCY P
tu ar
tox icidad
ĠEfec tos
Ġintegr ales
Ġrestaur aciÃ³n
Ġi ban
pro tec
Ġent radas
Ġayudar Ã¡n
Ġmi tos
ĠÃ³se as
Ġreco p
ĠtÃ³ xico
Ġmortal ity
Ġencuent ros
hiper tens
Ġadecu aciÃ³n
ĠGregor io
Ġhor mi
Ġmostr ando
ĠP E
Ġte Ã³ricos
Ġconstitu ciÃ³n
ens es
Ġap pro
Ġfras es
Ġafec to
Ġuni forme
ĠB eb
Ã©p tica
ĠAn alizar
Ġseman al
Ġv era
Ġdefin en
Ġcoordin ado
Ġper dida
Ġdescri tas
Ġestudi ando
Ġdul ces
Ġvir ales
ĠBlan ca
Ġcer teza
Ġagres ivo
Ġan g
ter mia
des de
Ġreg lam
es quel
Ġjug ando
Ġpa tr
ul e
Ġcomen zado
Ġbacteri anas
Ġqued ando
IC E
Ġrela tivas
ĠCÃ©s ar
Ġtempor ales
Ġmar car
Ġine vi
or y
ĠLor enzo
Ġposi tivamente
bi ta
Ġpar ecÃŃa
ĠR eb
Ġrecom en
tÃ³ pica
ĠSan tander
Ġves ical
ol las
Ġdetec tÃ³
tres s
Ġper ina
Ġcla us
Ġri gor
Ġma gis
Ġpros t
vir on
Ġley endo
Ġpeligros o
Ġdesapar ece
ĠparÃ¡s ito
Ġfl uc
ĠR T
ĠMo delo
ĠH DL
Ġra tÃ³n
th a
an ta
Ġcre an
Ġgl Ãº
ĠCientÃŃ ficas
Ġconsider aciones
Ġs pp
Ġfac ultades
ĠDec lar
Ġun der
Ġde cen
Ġmarca pasos
ĠEmerg encias
ĠV III
Ġmie dos
Ġsimp li
ĠCientÃŃ fica
Ġrepro du
Ġfarmac olÃ³gicos
Ġf icciÃ³n
Ġpier den
Ġab o
Ġhabi endo
Ġdolor oso
Ġmal igno
Ġacupun tura
ĠDi ario
Ġenc ÃŃas
ĠpsiquiÃ¡ tricos
Ġpropon er
Ġg or
tes t
fic aciones
uel ve
Ġmer can
Ġaqu Ã©l
C U
Ġinform aciones
Ġconstitu ir
oles cent
prote ÃŃna
ĠA se
b idos
Ġescri tos
z h
Ġlo w
Ġintra o
Ġb asta
Ġimplan tar
ma gn
ĠDef ensa
Ġvar icela
ĠI m
Ġenz im
Ġcannab is
Ġv enen
Ġtrata ba
se d
ĠCom pos
Ġescri be
Ġcatara tas
ĠS OB
ĠB M
Ġinv is
ĠGuer rero
Ġdiur Ã©ticos
Ġfacil itan
Ġpapil oma
Ġpneumonia e
o ides
Ġden tista
ĠFOR M
Ġcontrad ic
ĠSecre tario
Ġcol itis
Ġene migo
ĠC ien
Ġpresu pues
Ġorg Ã¡nicos
ion a
Ġma ÃŃz
Ġproven ientes
Ġth ese
Ġvis ibles
Ġdestin ada
g rupos
ĠIn di
Ġvi ento
Ġdesarroll adas
Ġrecono cidos
Ġexac titud
ĠEs pec
ÃŃs imas
is to
ici onal
Ġgu itar
re e
ĠAl l
Ġbos ques
Ġh arÃ¡n
Ġembri Ã³n
ĠnÃ³d ulos
ĠES TE
Ġfron tera
Ġch i
Ġreno vaciÃ³n
ĠPolic ÃŃa
Ġpreca uciones
Ġmenstru aciÃ³n
Ġg Ã©rmenes
ĠSan z
Ġatra vi
br ica
ĠMar cos
trÃ³ fica
Ġaro ma
ĠP ere
Ġsu presiÃ³n
ĠÃģ vila
Ġpan el
Ġbor des
ĠCha gas
ĠBil bao
Ġand ar
Ġc aca
Ġform ados
Ġes pu
b ul
Ġm ur
ĠTen iendo
Ġconex iones
es en
Ġc Ã¡maras
Ġmig raciÃ³n
D r
Ġar gen
mun ity
Ġofre ciendo
Ġrode an
Ġh echa
Ġnas ales
Ġrazon able
M IN
Ġapre ciar
Ġsys tem
ĠCarta gena
di mientos
ĠA E
aliz amos
Ġdur ar
Ġpu ber
ĠSta phylo
Ġes tero
ĠK en
Ġanti gÃ¼edad
Ġtom arse
Ġinver tir
Ġsalud os
Ġcr ist
Ġpat olÃ³gicos
Ġanti bio
Ġcastel lano
Ġcos tumb
d amiento
ĠNo bel
Ġseden tarismo
Ġin capaci
r ent
g encia
tr uir
ĠÃ©po cas
ist ÃŃan
Ġhu Ã©s
Ġintr ÃŃns
Ġsobres al
ĠPreval encia
Ġobten iendo
h ÃŃ
Ġar bi
Ġtri al
ĠD ivers
Ġres ec
Ġaspir ina
v ene
Ġcri a
qu ero
ace p
ĠPre gun
" :
g le
fil is
Ġco pia
ĠRecuer da
Ġt wo
pe cia
Ġne f
Ġflu idos
Ã³gra fo
ci oso
Ġsuf riÃ³
h el
ab uena
ON A
Ġplan os
Ġpa Ã±
Ġind ÃŃgenas
ĠUru guay
an des
ĠDe le
Ġresal tar
Ġactu alizada
Ġinfil traciÃ³n
Ġdis cos
Ġb aci
Ġele va
op pler
Ġviv imos
ar le
Ã¡ce os
ĠC le
Ġn g
Ġpsico terapia
ac y
ĠCab rera
Î ±
ĠNo ticias
Ġdis pu
go v
Ġcons umi
Ġprim or
Ġconsolid aciÃ³n
d ores
Ġ13 0
Es to
Ġvia bilidad
Ġcatedr Ã¡tico
ĠcÃŃr culo
om iel
Ġur bano
Ġhis torial
Ġde ficiente
Ġincl in
Ġsolici ta
adÃ¡ ver
Ġdu oden
ĠHum ana
Ġd orm
ĠT it
es ia
Ġaplic arse
ĠEqui po
ac ciones
re la
Ġcomo didad
Ġdepres ivos
Ġplata formas
Ġpropon en
O X
ĠA quel
ĠFu entes
ĠB ru
ic ulares
Ġle p
ĠA ce
Ġsigui Ã³
Ġcardi acos
Ġ20 20
ĠA cep
Ã©cn ica
Ġcerv eza
Ġextrem idad
Ġreempla zo
ĠR an
ĠAl go
ĠH ist
Ġver ificar
ĠAd ministra
ĠAl to
Ġpo tentes
Ġconcl uido
ĠGran de
Ġmm Hg
ĠC AN
Ġaudi ciÃ³n
ĠL og
Ġabier tos
Ġsal iva
Ġad quiere
Ġdel i
Ġdefin idos
Ġgros or
ĠP es
Ġme t
Ġrespec ta
ĠsÃ³l ida
ĠXV III
Ġmo difica
Q ue
ogra fÃŃas
Ġrel ieve
Ġw ho
ĠRoc ÃŃo
Ġp Ã©
ĠC ajal
ĠE CA
Ġprevi ene
Ġhe mi
ĠEf fec
lan a
ĠH g
tas ia
Ġep il
Ġme tales
ĠVal de
ĠQ T
Ġmad uraciÃ³n
ÃŃns ula
th o
pro ducciÃ³n
Ġni trÃ³geno
vasta tina
ĠDise ase
Ġoxida tivo
Ġincorpor ado
le ta
ĠÃ³ xido
ĠGen Ã©tica
ĠP ra
20 16
tern idad
Ġre torno
ĠH ER
Ġro ta
Ġtri go
Ġun idos
ĠLuis a
ech n
ĠPubl ic
pat olÃ³gicos
Ġgen Ã©ricos
Ġpreven tivo
fic ado
Ġequip amiento
p Ã¡us
fi gura
cu ando
Ġco bre
Ġlo gran
ĠCOM PR
Ġgener alizado
ĠMedi terrÃ¡n
C an
ĠPR IM
Ġpropens os
AS E
ĠNe ona
Ġperif Ã©rico
ĠR oy
Ġaprob ada
cÃ³ cica
Ġperci bir
ĠmandÃŃ bula
ĠCD C
Ġester il
d nis
ĠEn do
ĠV ita
Ġev acu
Ġintro duc
Ġsegu idores
ĠL ance
Ġ19 70
ĠV HC
Ġcaus ados
ila teral
Ġpre ferencia
ĠS PSS
Ġblan dos
Ġmalign as
Ġpubl ici
ĠDer ma
1 20
Ġh ad
Ġesper ado
ent ando
Ġmes as
Ã©nd olo
d ole
Ġpro cl
ci ble
Ġllam Ã³
Ġreco gieron
v Ã¡n
cu enta
para to
Ġin gi
ampl ona
Ġamp u
Y C
Ġpar tos
ce des
ĠSeÃ± or
u ar
ĠgÃ©n eros
aci os
ÃŃ colas
Ġneces ite
Ġsub cutÃ¡nea
Ġver ti
jal Ã¡
Ġlinf Ã¡tico
Ġ% .
Ġcent rada
Ġexperim enta
Ġsorpren dente
ĠB log
Ġer os
ht ml
S alud
ĠL l
Ġonc olÃ³gico
ĠatmÃ³s fera
Ġent ran
Ã³b ulo
Ġpri va
ĠIs rael
Ġdias tÃ³lica
i tivo
Ġh ero
Ġpens aba
Ġacep ta
ĠO rg
ĠRe alizar
ĠS pain
ren a
Ġpublic adas
ci Ãĥ
ĠF an
Ġmas co
a bilidad
ĠS ON
Ġout com
ĠS ac
Ġnom bra
lor i
ĠR ay
Ġmu tu
a th
Ġdeclar ado
ad illa
Ġfaculta tivos
ĠR ol
Ġum bilical
Ġsal ido
Ġhe mis
Ġhialur Ã³nico
ĠQuir Ã³n
Ġconvers iÃ³n
Ġdes ech
Ġpersonal mente
ĠM Ã¡r
Ġdiagnostic adas
Ġaudi tiva
Ġsu puestos
Ġdesa grad
Ġmer cados
ĠR S
ĠH ombre
ĠÂ °
Ġben igna
ĠRes pira
gr ados
Ġgrad ual
R R
Ġvi eron
Ġc raneal
tad ura
Ġpor quÃ©
Ġpre ce
ĠCh an
ĠCS IC
j ala
Ġin esper
Ġli qu
Ġoper ar
Ġd ad
Ġc adÃ¡ver
Ġantimicrobi anos
ĠmÃ³d ulo
Ġdesarrollar se
Ġurin arias
ten a
Ġpreserv ar
ter ÃŃas
Ġarch ivos
m ic
Ġllev aba
Cu ando
ĠCol um
Ġaer Ã³b
ĠV ER
ĠHar vard
Ġorto doncia
f ina
ĠAca dem
Ġin cisiÃ³n
Ġdi plom
ĠAc ad
Ġcontex tos
d am
Ġcar encia
NA E
Ġcent ÃŃmetros
pro fes
Ġl la
in er
Ã³di gos
Ġsurg ir
ar ly
ĠGe orge
Ġol vi
Ġcomprim ido
v ing
qu esta
Ġmac ular
Ġco pias
Ġoto Ã±o
ĠMar ina
Ġo li
ĠIn tel
cop ÃŃa
Ġcal ma
Ġsenci llas
ĠS or
Ġfib rin
Ġgig antes
Ġbicicle ta
ĠAd ri
Ġexig encias
ĠnÃºcle os
Ġdestin adas
Ġdeclar Ã³
Ġanat Ã³mica
B ar
Ġmono terapia
ĠB ul
Ġqu eso
Ġrecib ida
Ã¡s ico
Ġconduc tos
Ġsensor ial
Ġadic ciones
Ġcam in
Ġdesempe Ã±a
Ġgal ard
Ġimplic adas
ĠRich ard
Ġreper cusiones
Heb ron
Ġpsicos is
ome di
ac al
Ġqual ity
Ġsecre ciones
Ġad vir
Ġsta tus
k et
es of
ta Ã±a
Ġfisioterape uta
a gre
ĠAs isten
ĠW o
Ġvol Ãºmenes
Ġcancer osas
Ġre animaciÃ³n
i ados
Ġman us
ĠPre cis
cion ada
ĠPR OC
mar ca
Ġvoc aciÃ³n
Ġpic or
ĠO cho
ĠIs las
Ġtranspar ente
Ġregis tra
Ġp uro
i adas
Ġn ue
Ġcin ta
n s
pe u
Ġg roup
ros o
d Ã©s
ÃŃ v
Ġacum ula
Ġap as
Ã©c til
Ġand alu
ci clo
Ġper cutÃ¡nea
Ġco Ã¡g
le go
Ġcompar ti
ti Ã³n
ĠS tu
Ġdis ecciÃ³n
EN O
Ġplen amente
us iones
ĠRel aciones
gra mos
Ġos cil
Ġconcent ra
Ġdivi de
p ico
Ġinmun oglob
Ġsegui mos
Ġperman entes
Ġsu mar
IP O
il ares
pa to
Ġmal ignos
ol in
ĠN osotros
F ES
ÃŃa ca
ĠD or
Ġsuper aciÃ³n
Ġcaracter izaciÃ³n
Ġconserv ador
ĠGu adal
du re
Ġv aci
Ġpsicos ocial
C ON
Ġdol encia
Ġmaquin aria
Ġreal icen
Ġinvers iones
Ġli ti
ĠClÃŃn ic
Ġdi ga
er ia
Ġesco ger
x ilar
Ġpre ju
Ġsimul tÃ¡nea
vi al
Ã©n ica
Ġafron tamiento
Ġfinanci era
tr Ã©s
ĠS ara
Ã³r icamente
Ġentus ias
Ġadh es
Ġalum nado
Ġfavor ables
Ġafici on
Ġen gros
tudi o
Ġplac enta
Ġcu ch
Ġam istad
N R
Ġpredic ciÃ³n
Ġcardio patÃŃas
Ġsenci llos
ĠMic ros
ĠP Ã¡g
Ġin mer
ĠSe gura
Ġu p
Ġobserv ados
Ġtro pas
to dos
Ġlan zado
os io
Ġprimor dial
pro feno
Ġregular mente
Ġpsicos ociales
ĠE jer
ĠMed ina
ban as
Ġfrag ilidad
Ġpropa gaciÃ³n
Ġencar gada
Ġt Ãºn
ĠJ ack
Ġc Ã³n
olu ciones
ĠIntens ivos
ĠVil lar
Ġhu bieran
Ġpres erva
Ġgastro enter
Ġhist Ã³ricos
ĠCam pe
Ġaprob Ã³
Ġnos ocom
Ġfi jar
Es paÃ±a
Ġper f
Ġv ideos
v ÃŃ
56 1
ĠSN C
Ġ198 2
Ġemple ada
Ġva gin
ĠPa tricia
Ġca e
Ġ198 3
Ġdi je
ĠSoci edades
ĠF rente
Ġdomicili aria
ĠStaphylo coccus
t ti
ĠSi gui
Ġidi omas
Ġartifici ales
Ġati enden
ĠBos ton
pra zol
Ġreg ener
Ġterape uta
Ġso ja
Ġdop amina
Ġmenstr ual
Ġhipo tiroidismo
Ġrecip iente
idel ines
Ġadministra tivo
Ġde x
Ġs entado
ic Ã¡r
Ġf icha
Ġecocardi ografÃŃa
ĠC og
ĠObes idad
ĠobstÃ¡ culos
Ġforma tivo
ĠV arios
Ġmoder no
Ġsudor aciÃ³n
Ġcontrib uido
ph p
Ġdese ado
Ġde bilit
Ġor ÃŃgenes
Ġde ca
Ġsatisfac toria
Ġvincul ado
4 00
Ġh ones
Ġestre cho
s h
Ġayudar te
Ġenfo ques
Z A
n utriciÃ³n
Ġsus t
Ġmodific ado
tiv itis
vie do
C as
Ġgran os
Ġepid ural
es col
ĠU V
Ġconsecu tivos
gu ero
Ġhig iÃ©n
e tina
Ġbos que
Ġrefuer zo
d ada
ĠES PE
ĠEpiso dio
Ġconta ba
Ġre ju
Ġon ce
Ġmedicin as
g aciones
Ġas s
Ġpreo cupar
ta men
Ġrecom bin
Ġmode l
Ġestr en
Ġrever tir
Ġapropi ada
Ġdesgas te
se ud
Ġintern as
Ġemple ando
Es ta
Ġrin itis
Ġger iÃ¡
Ġosci la
ĠIg G
Ġinterrump ir
pa z
Ġescas ez
ĠM IS
tum bre
Ġti endas
ĠL M
Ġli tros
Ġtu viera
ĠMo vimiento
ir ru
Ġescuch ado
Ġsin cer
Ġcar as
Ġadul tas
Ġgratu ito
Ġpar lam
Ġbras ile
ĠS chool
Ġconfi dencial
Ġt ac
N a
der son
Ġl ingÃ¼
P re
Ġsuper ado
wo od
ĠSue cia
Ġi on
ĠPe ter
l amos
Ġexplor aciones
ĠMas s
er ador
Ġpor tu
Ġotor ga
mos is
Ġperman ecen
Ġinhib e
meno pÃ¡us
Ġcostumb res
IN O
Ġhe parina
Ġenfr enta
Ġmor tales
ĠP ET
Ġauxil iares
Ġmicro bio
Ġcomple mentos
Ġcap tur
Ġchar las
ĠUnivers itaria
gal ia
Ġyog a
Ġgen Ã©ticamente
Ġfisi olÃ³gicos
pu bl
Ġinvers a
ĠMer cedes
Ġreg alo
ra te
Ġpa pa
Ġreca ÃŃda
Ġin ca
ĠSer rano
ĠS t
ĠT ol
Ġexpon en
Ġalgorit mo
ĠS os
Ġfil tro
ĠL y
Ġper miso
Ġpene traciÃ³n
200 1
Cu Ã¡les
ĠTÃ©cn ico
gu er
Ġsobre pas
Ġabund antes
ĠLance t
s us
Ġdra ma
Ġactiv ar
medi cina
Ġcromos omas
Ġrecomen dadas
Ġab ur
Ġcer tificaciÃ³n
Ġtermin Ã³
ĠSebasti Ã¡n
ent arios
Ġfr Ã¡g
Ġselec tiva
ĠT am
Ġag encias
Ġendos cÃ³pica
la v
ĠAs esor
Ġreac tiva
ĠUn i
t adoras
Ġeffec ts
Ġc recen
Ġprofes iones
Ġactiv ity
Ġconstitu ida
Ġquin ta
U CI
Ġcontinu amente
di l
Ã© ramos
ĠM endoza
Ġayud ando
Ġso br
Ġrestaur antes
of ar
ĠFis cal
pe da
Ġer Ã©ctil
Ġinte gran
Ġsur giÃ³
ĠEs tÃ¡n
Ġdi ces
H D
Ġl ech
ĠTo tal
Ġofrece mos
Ġpl Ã¡stica
tom y
B E
ĠP amplona
Ġac ent
Ġsenti mos
mp a
Ġco do
Ġatrac tivo
ĠMetod ologÃŃa
Ġhi jas
ĠLo u
Ġidio pÃ¡tica
Y o
gÃ¼ enza
Ġagre gÃ³
ci encias
Ġse pa
Ġin duce
ĠF ri
Ġnove dad
ĠI T
Ġarch ivo
ent Ã³
Ġactu alizar
Ġcontempor Ã¡n
Ġsol dados
Ġvisu alizaciÃ³n
Ġsab ido
Ġdia frag
ĠdiseÃ± ados
Ġintermi tente
ĠÃī tica
in dex
Ġho tel
ĠA parato
Ġ19 60
Ġfran cesa
m n
id ney
Ġexpl ÃŃ
Ġm ueve
ac t
ine te
Ġtermin ado
colesterol emia
ĠD R
Ġabog ado
Ġmach os
in ing
Ġa xial
ĠS ens
Ġconstr uido
hor abuena
Ġmos t
z umab
Ġprefer entemente
ton e
Ġti me
Ġata car
ĠN aciÃ³
d ras
Ġin cur
Ġadelga zar
ĠJ an
Ġade mas
Ġanti hipertens
IDAD ES
Ġaleator izados
Ġavan za
Ġhacer le
Ġvari ada
Ġterri torial
ĠHi po
ĠPr Ã¡ctica
Ġse llo
Ġterren os
Ġhemodin Ã¡mica
qui ma
Ġsemej ante
Ġcolec tiva
ĠJ J
Ġpancrea titis
Ġox igen
Ġo u
tÃ³ x
ĠAlfre do
Ġur bana
EN A
ĠÃ© tico
Ġmul tin
Ġtrans fus
Ġt acto
Ġagres ividad
Ġc Ã³
Ġde cid
ĠR ock
ĠNe umologÃŃa
Ġdepen der
ul t
Ġestrech amente
Ġen amor
ĠjurÃŃ dico
AR IOS
Ġpat olÃ³gico
ĠEstad ÃŃstica
Ġa jo
Ġidentific Ã³
Ġdetec tan
O r
Ġmovil izaciÃ³n
ĠEn s
Ġas istente
Ġcompet ente
ĠAu ton
Ġmues treo
Ġinforma tiva
ĠAgu ilar
ĠperiÃ³ dicos
pto coccus
ĠCh ica
Ġves ÃŃcula
Ġprof undamente
E mb
Ġcabal lo
T u
ĠIb ero
k es
Ġmedi ano
Ġguar dar
Ġsobre todo
ĠCam p
H R
of f
it z
ĠT rump
a zol
Ġsocioecon Ã³mico
min ente
por que
Ġcal ificaciÃ³n
Ġdis puestos
CL US
Ġdetec taron
Ġultra vi
tic uer
Ġgu bernam
ĠreÃºn e
ĠC ic
Ġindirec ta
Ġmayor itariamente
ĠPara guay
Ġconf irman
y en
Ġtiro idea
Ġestim aciones
Ġcontinu Ã³
Ġpsic Ã³loga
Ġver emos
Ġfalle ciÃ³
g ol
Ġendo carditis
ĠmuÃ± eca
Ġdem ora
Ġtranscur rido
ta mientos
gui mos
Ġneurotrans mis
Ġz umo
Ġmam as
Ġenvi ado
Ġa fi
Ġpro fil
ĠCom pe
ĠV igilancia
Ġper diendo
Ġj unta
Ġha bilit
ĠV AL
Ġanaliz adas
ĠIn icio
ur y
ĠFran co
Ġty pe
mpli miento
Ġcal zado
ĠMul ti
Ġs peci
Ġperju dicial
Ġqu iste
Ġcor tis
T ra
Ġdestac ando
Ġcualita tiva
Ġdesequilib rio
ĠNie to
Ġinvit ados
Ġpu ri
ĠÎ ±
h l
ĠFo to
p ino
. ?
Ġefec tivamente
Ġextir paciÃ³n
Ġtom o
Ġr osa
ĠFuer on
Ġaplic able
ĠRu b
Ġvisu alizar
Ġdedic ados
f an
Ġdepor tivos
Ġinvit ado
Ġheredi taria
ĠpediÃ¡ trico
Ġma quilla
uy ente
Ġdenomin aciÃ³n
Ġpade cimiento
Ġagu jas
Ġcohor tes
Ġfac ultad
fer entes
Ġcompara tivo
ĠEmil io
Ġcosm Ã©ticos
tra tamiento
OLOG ÃįA
Ġpropor ciones
Ġtrans fusiÃ³n
ĠM ach
ĠJ ordi
Ġde uda
tir Ã¡
Ġmanio bras
ĠPro blemas
Ġba terÃŃa
ĠMex icana
Ġori ficio
aliz arse
Ġfortal ecimiento
Ġbiblio teca
ĠL ec
Ġalb Ãºmina
ing res
Ġcor tar
ĠL ab
Ġpobl ado
Ġcoordin adora
Ġtu ber
Ġori ental
Ġcontraindic aciones
Ġur ticaria
ĠES PA
Ġdirec tiva
Ġultrason ido
Ġelectrocardi ograma
onal d
Ġalgo dÃ³n
Ã¡nd olos
it ado
Ġaliment arias
ĠC ama
ĠMedic amento
Ġra p
Ġdes vent
Ġmolesti a
ac ea
ĠA Ã±o
ĠNÃº Ã±ez
Ġun ir
in cu
Ġpas aj
Ġplan ificar
Ġhubi ese
ĠestadÃŃs ticos
no ut
Ġir Ã¡
Ġrevel an
Ġperit on
Ġcar gas
ĠHe matologÃŃa
Ġas ume
ĠPan amÃ¡
Ġcorro bor
b anos
ĠD icha
ĠAu tismo
ha bi
Ġre porte
ĠMe xico
ĠElec tro
Ġinnov adores
Ġsin t
Ġaceler ar
ĠO viedo
Ġsub grupo
Ġenro jecimiento
Ġenfrent arse
Ġnor mo
Ġov arios
Ġ ï¿½
Ġacog ida
ve mos
Ġmus culo
Ġmanz ana
Ġdes pre
Ġco ex
Ġdep rim
ĠC Ã¡r
ĠR og
ac Ã¡r
Ġreun ir
ĠF L
Ġcontrovers ia
?? ?
Ġimpul sos
tu be
Ġrec tal
Ġse di
Ġar ren
Ġfr uc
Ġinter medio
Ġconserv a
Ġref rig
ale lo
Ġcar ece
Ġes quel
ĠAutÃ³n omas
Ġagre gar
z z
EP AR
Ġinf in
ĠÃºn icas
VEN CION
Ġcar tas
ĠD rug
c m
ĠT rin
Ġcir cular
b ach
Ġjer inga
Ã© imer
Ġperio d
Ġsim ulaciÃ³n
Ġsin gular
Ġin us
r um
in arios
Ġcontro ver
Ġtri p
bi mos
Ġdepor tista
O CI
Ġamb ul
Ġneuro psic
ĠGu ate
Ġsolici tado
Ġglob ales
zh Ã©imer
lan os
le x
ĠSOB RE
et ts
Ġcate ter
mej or
14 2
ĠpÃ¡r pados
Ġne um
Ġp ir
ogÃ©n ico
Ġhorizon tal
ĠmetastÃ¡s ico
Ġro jas
ion ado
Ġllev amos
Ġpion ero
Ġbeb e
199 9
ĠD Ã©
ĠEv itar
Ġregistr Ã³
ĠsÃŃmb olo
er Ã¡
P N
Ġin hibir
Ġencuent ren
Ã© trica
Ġprop uso
Ġregres ar
ĠPres entaciÃ³n
ĠOB JE
M Ã©
Ġr al
ĠcardÃŃa cos
z ones
Ġmetab Ã³licos
ĠAy uda
ud al
V D
Ġalter n
Ġrad ial
B S
Ġconsider aron
Ġasign aciÃ³n
TA C
ar tos
Ġad quier
a Ã±o
Ġseguir Ã¡
Ġcompren den
Ġat mos
Ġperju diciales
g ement
Ġsin usal
Ġconduc tuales
Ġapun tado
Ġfisi ologÃŃa
ĠS D
Ġe cl
hospital aria
A G
uc os
Ġje fa
blas toma
Ġedi ciones
Ġdetal lado
Ġcualita tivo
er aciÃ³n
Ġsi gan
Ġloc alizar
Ġacu te
al ia
ĠA mp
Ġfeno tipo
Ġamer icano
Ġmad urez
ĠSan itarias
idas a
form ina
Ġauxil iar
Ġrevolucion ario
ĠX VI
Ġreserv as
ĠPhar ma
Ġno tificaciÃ³n
Ġs creening
ĠEncuent ro
Ġcon tando
Ġre habilit
fle x
Ġhinch ada
Ġcatal og
Ġca ps
w an
Es tados
ĠQuiz Ã¡s
Ġa ri
Ġses go
T AS
ĠperiÃ³ dica
uch as
Ġs aci
Ġo pi
Ġtri bu
ĠT ER
Ġrecog ido
Ġcolon ias
Ġasintom Ã¡ticos
Ġpr isiÃ³n
ĠacompaÃ± an
Ġte Ã³rica
Ġcam inos
g ales
Ġcaus antes
ĠL oc
Ġhi lo
Ġchar acter
Ġasintom Ã¡tica
Ġllev ada
UR L
h as
Ġpat ente
Ġradiof recuencia
Ġg ing
b aciones
Ġin her
cre tamente
ĠÃ©xi tos
ul osa
Ġparticip ante
Ġ198 1
Ġinmo bili
Ġdel ito
Ġti bia
ĠAr ri
ĠNic ol
ĠsÃ³l ido
Ġfinanci ero
Ġtu bular
o tas
ĠInfec ciÃ³n
Ġprescri bir
ĠA e
ĠCri terios
Ġangio tensina
Ġen cu
Ġampli tud
Ġtu tor
co cos
ĠGab riel
Ġbuc oden
ĠAmb as
xilo facial
Ġanterior idad
Ġfuerte mente
ĠcatÃ©ter es
Ġe char
im us
ĠEste ban
ĠR R
Ġcompa tibles
Ġprim arias
ori ales
Ġcomp ras
Ġcolor aciÃ³n
ĠfÃ©r til
ĠCam po
me dic
Ġch ica
ĠcÃ³mo do
ĠCor respon
Ġpar ar
ĠG RA
ĠDescu bre
Ġru idos
Ġmac rÃ³
Ġbas Ã¡ndose
Ġalcal de
Ġal Ã©r
Ġte a
ca te
vi as
am ora
Ġcu entos
ĠseÃ± alizaciÃ³n
Ġaloj amiento
Ġneuro patÃŃa
Ġart ÃŃstica
in ados
Ġsu tura
Ġrel len
Ġadi poso
f ano
Ġcalcul Ã³
Ġvege taciÃ³n
abe mos
ĠEduc a
Ġpers iste
aj ara
Ġmens ual
Ġco au
fi eld
Ġa tÃŃp
Ġreno v
Ġca za
an cy
ĠcrÃ©di tos
tom ÃŃas
ĠF ig
pon en
Ġj ap
OM A
Ġpon ga
Ġdise Ã±os
Ã¡g ri
Ġglomer ular
Ġpu de
mÃŃn icos
Ġpos turas
Ġhist olÃ³gico
Ġhom bros
Ġc ora
Ġtes ts
Ġinse guridad
Ġhall aron
ĠGener ales
e gos
un idad
lor ca
Ġapor tando
f oc
ĠE gi
Ġproce dencia
Ġoc Ã©
ĠT ÃŃtulo
Ġdesencaden ar
P AR
cion istas
Ġsintom Ã¡tico
Ġamena zas
ida zol
Ġsue los
Ġpo deres
Ġten dÃ³n
ĠCon cepciÃ³n
er gia
ogrÃ¡ ficos
Ġi ra
Ġp Ã¡nico
Ġcran eo
ĠR D
Ġpa ta
Ġg oles
ĠRu bio
Ġperfor aciÃ³n
Ã¡s tico
Ġ( >
im al
Ġartic ulares
Ġcomplement arios
ĠOs teo
ve jecimiento
Ġagrade cimiento
Ġutil ice
ĠDeclar aciÃ³n
s ÃŃn
Ġcaracter izar
Ġargum ento
ĠV ice
Ġcambi Ã³
Ġobserv amos
Ġanticoagul ante
Ġpen al
me lo
Ġdo y
Ġregul an
diagn Ã³stico
Ġmen ingo
ĠF ase
ĠDoc um
m ado
t le
Ġmis terio
ĠMAT ER
v ari
ari zado
Ġay unas
Ġpus ieron
cul tural
Ġinaugur aciÃ³n
g ente
tu res
Ġdescan sar
Ġper pe
Ġanal ÃŃticas
ĠTecn ologÃŃas
cion ario
âĢĵ ,
de la
Ġus ada
f aro
Ġch ina
ĠQu i
ĠDes cripciÃ³n
uev as
omÃ© tricos
Ġmedic al
enfer medad
l ab
T AN
k en
C ER
Ġcer em
Ġc Ã³digos
Ġbil iares
Ġsem en
Ġpro ges
ĠRo che
Ġantigu as
cul aciÃ³n
Ġpy lori
Ġcambi an
ac he
Ġpie dras
R AS
Ġpara ceta
G C
Ġcor ticos
ĠF UN
Ġfan tÃ¡s
ĠBol etÃŃn
Ġesque mas
mar t
Ġcos tumbre
ĠD oppler
bacteri as
ĠCla u
Ġg li
pol it
Ġinconven ientes
Ġpru rito
l ara
Ġas al
Ġcap ilares
Ġlogr ando
Ġlan z
con duc
Ġcu a
Ġinform Ã¡tico
Ġvisit antes
Ġcompe ticiÃ³n
Ġide ales
ĠDis tribuciÃ³n
Ġsi mili
icar b
ĠEs tra
h ua
th ro
ph ic
L DL
Ġ12 5
Ġinevi table
p ic
ĠvÃŃn culos
Ġhab Ã©is
Ġconduc tor
Ġbenefici arse
Ġetique ta
Ġes poso
aci miento
Ġexpres iones
ĠCientÃŃ ficos
Ġanat Ã³micas
Ġparaceta mol
por ts
ĠdiseÃ± ada
Ġat letas
s s
es os
tric s
Ġ1 12
Ġgus tan
o patÃŃa
Ġl Ã³bulo
ĠCor uÃ±a
Ġexig ir
ĠR is
Ġgra tis
Ġgan ancia
Ġori entado
Ġcuan tas
i era
ĠDes cribir
ĠÃ ĥ
Ġpriv acidad
Ġsom bra
Ġperju icio
om io
ĠtÃ³p icos
Ġsus trato
Ġdistin ciÃ³n
Ġrecor rer
os ex
ĠCar olina
ĠCol o
Ġr icas
Ġpre vista
Ġla var
Ġmultiv ari
as o
Ġsubray ado
Ġdespren de
ari ta
Ġconsigui endo
Ġimp o
ĠTh omas
plic ado
ĠRE F
ĠU TIL
ĠCon duc
g ido
ment s
Ãĳ O
ĠacompaÃ± amiento
ĠMe tro
Ġrar os
Ġvaso dila
Ġfeder al
Ġconduc tual
Ġba ilar
ĠG an
Ġconsul torio
1 12
ĠE m
iz umab
ĠCons ide
Ġrestric ciones
Ġneces ito
Ġimportan t
Ġdesfib ril
Ġeduc ar
Ġinvol un
CS IC
Ġcompar te
Ġfarmac o
el i
ĠGuate mala
ĠAS P
pe des
Ġmas tic
Ġron da
Ġmenci ona
ĠBur gos
Ġprogen itores
Ġreca ud
Ġgrues o
Ġalum inio
ona tos
bier tos
Ġli br
Ġcotidi anas
Ġanomal ÃŃa
mp as
Ġsist Ã©micas
Ġsuger encias
ĠcÃ³mo da
Ġfom ento
Ġdoctor ado
Ġreflex iones
Ġto c
V O
se a
ĠExcel ente
TI EN
ĠPR OP
Ġdeber ÃŃamos
Ġobliga toria
Ġmitocon dri
lan dia
Ġcar ro
por aciÃ³n
ĠTener ife
Ġper diÃ³
ces s
Ġan titu
Ġfi el
Ġvene zol
p ene
Ġne fr
Ġtard ÃŃo
ĠMe dell
Ġrelo j
Ġindic ados
dez co
Ġmanifes tÃ³
Ġpreten den
Ġdisper siÃ³n
Ġirri tabilidad
Ġjus tifica
it enci
ĠAd olesc
ĠVar gas
li tos
Ġent r
Ġvo tos
Ġfalle cidos
ĠColom bi
ĠInd ustri
Ġelec toral
ĠInd ustria
Ġplu ri
Ġa ula
Ġexpres ado
ĠF ron
Ġmoder nos
Ġprodu zcan
ĠJohn son
g ante
Ġextraordin aria
Ġpeligros os
Ġmicrobio ta
ĠR ela
Ġex cus
Ġdis cur
quÃŃ deo
Ġc y
er ci
Ġs aco
Ġrol es
ĠC ron
Ġf ro
ĠRes iden
Ġher ed
Ġnoctur na
Ġiden tifi
Ġcompren didas
Ġespecta cular
Ġentren ador
Ġplan tar
Ġre absor
, '
Ġincluy a
pa tas
Ġtra tÃ³
Ġfran ces
d ora
c Ã¡n
ĠEv oluciÃ³n
Ġamari lla
ĠRES ULT
Ġencar gados
ĠNÃº mero
Ġespor Ã¡
Ġaf ili
Ġcons tancia
ĠInstitu t
tu alidad
ĠSu iza
Ġpropor cional
Ġ195 9
Ġprodu jeron
blas tos
Ã©is bol
Ġambula torio
Ġim mun
Ġest aciones
Ġhom osex
Ġtendr Ã¡s
ĠCan aria
Ãºn g
u f
ĠV amos
Ġsal to
Ġagre ga
Ġhemis fer
r eros
Ġdos ificaciÃ³n
od g
Ġinstitu to
Ġpres idencia
ĠGre cia
ĠAdministr aciones
ĠP OS
aci l
Ġsu c
Ġas om
Ġginec Ã³logo
orm es
ĠAs per
A mer
Ġp Ã³li
Ġ7 00
ĠPlata forma
ĠF eb
Ġsi entes
Ã© tera
ĠD IC
15 0
ĠM R
ĠM O
Ġs oma
ĠHum ano
Ġelectro dos
Ġalo pecia
Ġdenomin ados
ĠtÃŃp icos
Ġsever os
Ġpar alelo
Ġhier bas
Ġingre diente
Ġtransi toria
Ġsever as
Ġba Ã±
tic ales
Ġ16 0
Ġar tro
Ġadap tada
Ġcontr ar
ce mia
ĠConse jos
Ġmix ta
Ġfalle cido
Ġan Ã³m
ĠHe patitis
an gi
Ġaveri guar
tu ri
Ġp ÃŃl
Ġcompren diendo
ĠM G
Ġsal Ã³n
Ġvar ices
Un ivers
OR ES
Ġm ico
ĠAl bert
ĠAgus tÃŃn
Ġreemp laz
Ġni Ã±ez
r ida
AL IZ
Ġmaquilla je
ĠfÃŃs tula
Ġges tores
omiel itis
istan ce
f uegos
Ġfisi olÃ³gica
ĠInfec t
ĠTom ar
Ġsustancial mente
Ġpre mis
ric h
Ġcog er
j anos
ĠCon ven
ĠbritÃ¡n ico
ara zo
IN G
Ġrad ic
________ ________
Ġpreli min
ĠSegun do
6 00
Ġes tir
Ġproduc tores
Ġex istan
Ġdiffer ent
Ġmer curio
ri Ã³n
Ġsu yo
Ġpol is
Ġqued aron
ĠK ing
ĠCor te
Ġdiscu tir
ĠsÃ© pti
Ġatmos f
Ġsopor tar
Ġmen ciÃ³n
Ġca tÃ¡logo
Ġcent rar
Ġanaliz ando
indo ws
" ).
Ġpol lo
Ġangio plastia
tu oso
val or
Ġdis posiciones
Ġ19 78
Ġserv ido
Ġperiodon tal
Ġb ecas
Ġcircu itos
1 10
Ġac eta
los o
Ġcompr ens
ĠCÃ¡ diz
Ġderiv ada
Ġcompar tido
Ġdetal la
Ġzapa tos
ci entes
Ġagu deza
Ġsa turaciÃ³n
Ġpredic tor
Ġresul taron
Ġreco pil
Ġla bio
ĠcÃ¡r cel
ĠD P
Ġloc aliza
Ġcopa go
P ue
Ġdegrad aciÃ³n
Ġsuscep tible
ĠApo yo
cla je
Ġrela ted
ence fÃ¡l
Ġci tar
ĠGer encia
Ġqu ÃŃstica
ue bas
os Ã³
l ados
r idos
Ġprecoz mente
Ġrea f
Ġe yecciÃ³n
an ismo
Ġingres ar
ĠVal dÃ©s
Ġorto pÃ©
Ġavent ura
iv es
Ġblan das
b ablemente
al la
ĠSol id
ĠL ea
ĠI P
ĠtÃ³x icas
Ġdi l
ĠparÃ¡ metro
ĠA v
ĠB ri
Ġinhal aciÃ³n
Ġanun cio
op h
Ġautor izado
Ġconside re
ĠpsiquiÃ¡ trica
ĠF EDER
Ġbas ura
ien ce
Ġaneuris ma
um ar
Ġinterven idos
Ġf ama
Ġd uc
Ġmetabol itos
ĠMill onarios
Ġmicros copio
con tra
Ġpreval ence
ĠO P
Ġsin dic
Ġsuper an
Ġirre versible
p ensa
ĠSoci o
ence fal
Ġdescom pens
Ġt to
Ġmal igna
ĠFo od
ĠPo der
Ġcaracter ÃŃsticos
ĠlÃŃqu ida
e f
TIV OS
Ġimplic an
Ġfabric antes
c ÃŃa
Ġespe jo
Ġap ell
Ġconme mor
Ġdesgr acia
it Ã©s
ĠÃģl varo
qu io
Ġimp iden
c Ã©
c am
Ġas us
Ã¡ zar
Ġjab Ã³n
Ġam aman
Ã ¢
Ġconci ertos
Ġadi ciÃ³n
ĠChica go
B C
Ġresul te
Ġconform idad
Ġalcoh Ã³licas
Ġver gÃ¼enza
ĠPsychia try
ĠPÃ¡g ina
ĠB L
titu ciÃ³n
Ġform Ã³
Ġdise minaciÃ³n
Ġsecu enciaciÃ³n
Ġofer tas
Ġexcre ciÃ³n
Ġo ÃŃdos
a f
Ġdeb ÃŃan
ĠAs pectos
ĠMo der
Ġendos copia
ami lo
ĠDis trito
ar don
tÃ³ rax
and ra
Ġetc Ã©tera
Ġh un
ĠM ec
Ġbo tul
Ġal so
IS TA
ind d
ie go
ĠDe mo
Ġint entado
ĠInter venciÃ³n
Ġdev olver
Ġcontinu ado
Ġorient ada
k ers
Ġcons ecuciÃ³n
Ġidentific an
Ġimplic ado
Ġpresu puestos
Ġtrad uc
Ġapor tes
Ġprovoc ada
Ġsindica to
Ã©l ulas
Ġtradicional mente
Ġmate mÃ¡ticas
Ġ19 76
ĠDis min
Ġejecu tivo
Ġedi tor
Ġra bia
l us
ĠIN VENCION
Ġintens iva
M i
Ġblo od
v ac
Ġc Ã©
coh ol
Ġtesti monio
Ġphys ical
ĠPAR TE
Ġau tÃ³
Ġl Ã¡gri
ĠAcadem y
Ġre pos
Ġpi den
Ġreform as
ĠMa x
Ġfrus traciÃ³n
Ġsi lic
Ġrealizar Ã¡n
Ġga to
ĠClÃŃn icas
ĠCr Ã³nica
cion an
far mac
ĠBoliv ia
CI P
Ġcomunic arse
Ġevi dentes
CA A
Emb argo
Ġanticoag ulaciÃ³n
P res
IM IENTO
Ġter mo
h ista
Ġinadecu ado
ment aria
ĠSU PER
Ġ( <
Ġinyec table
Ġrecord Ã³
ogrÃ¡ fica
Ġfabric ante
mer as
Ġbi omÃ©dica
Ġe go
Ġman dar
ĠAr ro
ĠPa ti
Ġv uestros
Ġcl ari
Ġlig amentos
ĠPro p
pi ta
ari ales
ĠPh il
Ġinnov ador
F ICI
d ona
am arca
Ġsub grupos
Ġvolun tario
Ġfoc al
Ġobs er
ĠE va
ĠS ie
era to
Ġprotec tores
Ġpos esiÃ³n
gu as
S IDA
gu Ã©
cl er
ĠF AC
ĠZ ika
ĠO p
C ol
ĠH ip
Ġodon tologÃŃa
ĠÃ© tn
ach ing
Ġcor tico
Ġocup an
tron omÃŃa
j adas
Ġadap ta
ac ha
ĠDes ta
ĠI c
Ġdescub rieron
CO O
Ġcel l
ĠA H
Ġb ut
u ado
ĠRecomend aciones
ĠExper im
Ġins piraciÃ³n
t ch
ab ell
hu ana
ar emos
per ci
di d
OS A
Ġag ro
ĠMil los
Ã©rm ica
Ġresul tante
ne ga
Ġs mo
Ġrec rea
ide as
AP S
Ġfron teras
Ġacciden tal
Ġpor tador
iz as
Ġexclus ivo
ĠMari ano
Ġfisio patologÃŃa
Ġdi Ã³xido
Ġvig ilar
lic e
Ġsu man
Ġ19 79
ĠJe an
ĠA U
la za
Ġmover se
ĠEmpres a
Ġpar che
Ġh arÃŃa
Ġadvers o
ĠResul ts
cefal ia
an i
ec os
ĠCol or
Ã©rg ico
Ġd ure
ĠrÃ¡p idos
Ġpol en
Ġdemocr acia
Ġelas ticidad
Ġpo esÃŃa
Ġautom Ã³vil
Ġmanten ga
Ġtrop icales
Ġextin ciÃ³n
Ġ cia
Ġinvas ivas
ĠperiÃ³ dicamente
Ġreca ÃŃdas
Ġdescubri mientos
20 18
Ġlig amento
ACION ES
Ġcercan as
Ġun irse
Ġopera tivo
Ġhuel ga
N H
in fec
ĠsÃŃ filis
Ġsignific ant
N T
ĠCon cretamente
IM A
ari ana
ĠW ol
. Â¿
L ES
ĠA EC
Ġfal so
ĠFarmacÃ©u tica
t ulas
idal go
ĠQuiz Ã¡
Ġsuger ido
Ġdes pro
Ġene migos
g Ã³n
Ã¡ ticamente
Ġent rÃ³
Ġvincul adas
ĠSan itas
ĠPÃºbl icas
car se
ĠEs tre
cl ina
Ġcu en
ĠSu pre
cis mo
Ġfacilit ando
Ġsobre dosis
ĠS ES
ĠA J
Ġest acional
Ġinter media
ist Ã¡n
Ġeng lo
Ġlan zar
ĠelÃ©c tricas
Ġutiliz amos
N E
Ġesta tus
Ġro j
Ġfi jo
ĠL L
ĠM IN
Ġos cura
Ġps ych
Ġor bi
D AD
Ġb rad
ariz ados
Ġfamos a
ple j
Ġinde x
ĠD al
ĠH ern
Ġpolim orf
Ġindic ando
ĠChar les
Ġdo taciÃ³n
ĠUn os
Ã¡g icas
h on
Ġanti agre
Ġorg Ã¡nico
ENT OS
Ġconsci encia
ĠTIEN E
Ġsecre taria
ĠH LA
ĠAmer ica
Ġconec tar
ĠAsisten cial
ĠG ro
Ġcolg ajo
ĠX a
OP A
gÃ¼ ey
ĠR on
Ġcar ecen
Ġle vo
Ġc ens
Ġpr Ã©s
ĠDis positivo
ĠelÃ©c tricos
ĠPol ÃŃticas
Ġgu iar
Ġcombus tible
ĠTra uma
ÃŃ tis
Ġterri ble
Ġintu baciÃ³n
Ġmi ento
Ġpor ta
Ġtit ulares
te lerÃŃa
Ġglo bo
15 2
ĠD ich
Ġplante Ã³
direc tor
ĠDol ores
Ġdecl ara
D EN
Ġm ante
Ġadministr ada
lu encia
av ir
Ġital iano
ĠImp or
ĠAli anza
Ġad mir
In s
Ġocul ta
ĠCan dida
ĠQu iero
TR OS
P ero
ĠCole gi
sa bilidad
var tis
ĠmacrÃ³ fagos
Ġintim idad
Ġas istido
ĠFer rer
ĠP ie
per son
ĠV ent
w al
per io
Ġesp esor
ĠSal Ã³n
Ġfisi olÃ³gicas
Ġdefi ende
Ġcump lan
ps i
Ġfe min
ĠI X
Ġheter oci
e mias
g h
Ġenve j
ĠanalgÃ©s ico
un os
Ġn acen
Ġh Ã©ro
Ġestudi an
Ġsum amente
Ġcontrar res
t Ã©n
OR M
Ġsuperfici ales
Ã± e
ĠacompaÃ± ados
Ġlocal idades
Ġperif Ã©ricos
ĠD O
Ãģ S
Ġluc es
ĠcrÃ©di to
Ġejer cen
Ġobs te
ĠGo bern
icarb onato
G U
ĠF Ã©
Ġpol ici
Ġinform an
ĠGuadal ajara
Ġvesti r
se vier
vel a
di lo
ĠL ara
Ġsol v
Ġdedic adas
Ġintersti cial
Ġvis tas
ĠHo tel
ĠEl los
dis ta
Ġinstitu cion
Ġfer til
us k
Ġcons ol
bl an
jec t
Ġk ilo
Ġpan demia
Ġad junto
Ġestu viera
Ġper icar
Ġjur ado
Ġemis iones
Ġradi aciones
Ġresiden cias
Ġba u
ĠF orma
! .
ĠdÃ© ci
Ġrev esti
Ġsocial ista
Ġint entan
Ġjus tificar
ĠSue le
Ġaf or
c ron
Ġ19 75
Ġvid rio
ĠM P
enes s
ĠG i
Ġalcohol ismo
ĠEgi pto
F YC
vene cimiento
Ġpe ti
Ġendo telial
Ġorigin an
Ġsu pl
ĠENFERM EDAD
ec lam
ĠENTR E
Ġpas aron
ĠPas cual
ĠT IC
Ġcor ona
Ġsuici da
Ġrepar ar
Ġautom Ã¡tica
Ġconcl uyen
Ġfaculta tivo
Ġaisl adas
ĠP ub
rolÃ³g ica
Ġcorne al
Ġci tada
m ora
Ġpro tÃ©s
tro ke
ĠhuÃ©s ped
Ġobserv adas
th erapy
OM B
Ġempeor ar
s ue
uer zo
Ġperme abilidad
n g
ce le
m L
que al
ob s
ĠNicol Ã¡s
ĠH acer
Ġpo eta
aci na
Ġconcep tual
Ġsel f
er da
Ġdedic an
ĠCal der
nes is
ĠT im
Ġpublic an
ĠCam pos
Ã©nd ole
ĠHu bo
Ġana tomo
Ġfortal eza
b ack
par as
ĠVas cular
Ġsindica tos
ĠMil itar
bil itar
ĠtelÃ© fonos
f ÃŃ
Ġs ymp
Ġmonitor izar
Ġurban as
Ġsolici tÃ³
i Ã¡n
Ġjugue tes
gi miento
Ġth ere
ĠTR AN
ĠRodri go
ĠCL ÃįN
ĠPuer ta
Ġf ito
Ġenvas es
Ġllu via
Ġcan cel
Ġpo quito
Ġanti psic
do i
Ġapo p
Ġdesigual dad
20 17
Ġofici almente
Ġali ento
of t
Ġpractic e
Ġdi vis
Ġagres iva
Ã©p ticas
Ġcor tas
Ġaudi encia
Ġrecomend ados
Ġtu b
Ġmencion adas
am bres
ĠCh r
uel va
Ġplante amiento
Ġde velopment
Ġpres encial
Ġdescu bre
Ġt echo
ĠvÃ¡l ida
Ġmedi taciÃ³n
Ġverdadera mente
Ġvulner able
gre l
10 5
Ġseman ales
Ġab on
Ġley enda
Ġre ten
ĠEn seÃ±
Ġrepro ducir
ĠPro gramas
Ġori enta
Ġres ide
Ġâī ¤
Ġimag inar
b ados
OR A
B LE
Ġmicroorgan ismo
Ġneu trÃ³
Ġaber tura
Ġtransform ar
Ġres tante
Ġmu ere
Ġgan ador
Ġinnov adoras
ĠCompos tela
Ġcor pora
Ġinform aron
Ġahor rar
ĠCien fuegos
ci co
ril l
hi po
Ġusu almente
Ġseleccion a
ar tritis
Ġw ar
Ġvan guardia
ĠTex as
Ġdej aron
Ġseleccion aron
Ġimpor tar
Ġinvestig ando
Ġcuri oso
ĠP ros
Ġas um
Ġcuadr ado
tÃ¡n eas
Ġtener se
Ġempez ando
Ġinsa tis
ĠF isi
gu ida
Ġn itro
ĠDES CR
Ġhemb ra
Ġi ones
c t
Ġre ma
Ġcono zco
Ġlogr aron
Ġpapel es
ĠT y
Ġarrit mia
Ġdel incu
Ġinquie tud
Ġcontro lan
ĠTi enen
puer to
mi ta
ab al
ĠH ier
Ġinstrum ental
tar Ã¡n
ĠQ ual
Ġpal adar
ĠB ron
Ġexisti endo
Ġpuber tad
Ġneona tos
ĠCh il
Ġdesarrollar Ã¡
Ġnegoci aciÃ³n
Ġrela tos
Ġdes pl
Ġinvas ivos
Ġnoctur no
ĠPR ODUC
ĠCÃ¡ tedra
pan ish
us os
Ġpa th
p m
Ġre tom
Ġdes orden
Ġmas to
Ġempez ado
Ġgra m
h ab
Ġsex to
Ġpertin entes
Ġautom Ã¡tico
Ġflex iÃ³n
Ġan tin
tu ria
Ġexitos a
Ġpor tÃ¡
ĠPrecis amente
Ġfal sa
Ġcompar Ã³
Ġtoma te
vi ra
IL O
8 00
Ġsubje tiva
uc al
Ġacum ulada
Ġhiper colesterolemia
tema tic
ĠLic enciado
Ġrecuer dan
J o
Ġpa ula
Ġconces iÃ³n
ĠbioquÃŃm icos
Ġreg ulares
Ġdismin uyÃ³
M o
Ġinesta ble
Ġfir st
Ġmani pul
Ġcolabor ador
Ġcomien zos
Ġgal ardon
Ġfal los
n ico
Ġanal ÃŃtico
S D
Ġrevis ado
Ġpr in
Ġven cer
ĠfÃŃs icamente
Ġdiges tivas
Ġnave gaciÃ³n
cl ar
Ġtrabaj amos
Ġapren de
Ġprovin cial
Ġcurios idad
Ġex tr
Ġprofun dos
T AR
11 6
ĠCul tural
Ġin da
ĠT I
Ġver b
Ġdefin iciones
ĠbioquÃŃm ica
Ġintrao cular
ĠRel aciÃ³n
ĠÃ© bola
ĠZ ona
Ġsal ga
Ġbloque ar
Ġimpues to
Ġcons isten
ĠGus tavo
ĠEcu Red
Ġna tal
bu profeno
Ġextra Ã±os
ĠI A
Ġoftalm Ã³logo
Ġimagin aciÃ³n
Ġins cri
Ġvi entre
Ġlimp i
Ġinterfer ir
Ġtrans cripciÃ³n
ĠVir us
Ġcomp uls
ĠAb ril
ĠBl ack
14 0
ima gen
Ġcerebro vasculares
ris to
Ġp io
Ġfec al
Ġco pi
Ġpl omo
Ġsintom Ã¡tica
Ġacu dieron
Ġperci be
g able
Ġcomple tos
av a
Ġpro mes
Ġrequis ito
icios o
Ġso ber
ĠAn g
Ġse gre
Ġsegur as
ĠIden tificar
Ġtran quilo
Ġestan cias
Ġaudio vis
floxaci no
Ġpal iar
Ġdetermin aciones
Ġsosten ida
ES A
Ġp Ã©ptido
Ġorgul lo
Ġmet formina
ĠCo operaciÃ³n
ĠClar o
Ġsil ves
Ġoptimi zaciÃ³n
bier ta
Ġmedi ca
Ġintelig entes
ĠCar re
s el
Ġmulti fac
rane ales
ĠM Ã©ndez
tiv aciÃ³n
Ġoportun a
ĠNo ta
Ġe gres
omedi cina
ĠI t
taliz as
ĠGu ÃŃas
Ġpas ados
ĠMal lorca
Ġal co
Ġrecog idas
Ġi b
Ġprepar ada
Ġsist Ã©micos
Ġadministra tivos
ĠES P
Ġv ina
Ġvec tor
Ã ¤
S ON
ĠP om
tr Ã¡n
ĠR EL
Ġelectro magn
aj aja
Ġcompon e
ĠPad re
Ġdetec tados
Ġhall Ã³
Ġimprescindi bles
Ġalcan zando
Ġsociodemo grÃ¡ficas
IN AL
Ġinfecci oso
ĠvÃ©r te
Ġre ingres
Ġgu ard
Ãĳ A
ĠÃ¡tom o
Ġpredic tores
ĠestratÃ©g ico
Ġon co
Ġtraslad ar
tiv es
Ġpreocup ante
Ġavan zando
B ER
tan to
Ġper tur
Ġenerg Ã©tica
eclam psia
Ġb ÃŃ
Ġbar ra
Ġinquie tudes
ĠT es
ĠEX TR
ĠS he
ĠMed line
Ġrespec tivos
Ġque ma
Ġprefi eren
om onas
Ġpon entes
Ġaliment ario
ĠS F
fer as
Ġdefin iÃ³
Ġest ri
Ġcompro misos
Ġpermitir ÃŃa
Ġsepar ados
pers onal
ÃŃ ficos
Ġmar eo
Ġmonta Ã±as
id s
yec tos
Ġta p
lar se
Ġadministr Ã³
Ġprogram ada
ĠG in
ac eta
Ġb reast
Ġperman encia
Ġadul ts
Ġultravi oleta
Ġpostopera toria
Ġdiges tivos
Ġviscer al
al ta
ĠW indows
Ã³rm ula
B P
Ġfund ada
tan ol
Ġsub es
f ety
ĠC ell
teri cia
erv icio
Ġprotagon ismo
ta m
Ġz an
ĠmÃ³d ulos
Ġgig ante
Ġen ca
Ġextrac tos
tiz ados
ĠEr nes
ĠAgr icultura
v ic
ĠNo vartis
ĠGre en
Ġfisioterape utas
Ġacid osis
Ġpa tas
Ġman uales
ĠAndalu z
I TA
ĠCama gÃ¼ey
ĠCab allero
ĠHa bi
Ġmanda to
Ġlimi tados
Ġagr ÃŃcolas
Ġliber ar
ĠOx ford
Ġsuf riendo
Ġa vena
Ġin cÃ³mo
SN S
tra cciÃ³n
Ġdibu jos
Ġe yac
Ġbi omÃ©
ĠMar g
Ġcre ador
us h
E H
Ġalter ada
Ġrepor ta
oci aciÃ³n
Ġapar tados
re laciÃ³n
Ġpar ado
ĠSer Ã¡
ĠR ece
ĠAnd re
Ġtrop ical
Ġmiocardio patÃŃa
B R
Ġfinanci ar
Ġhon go
ĠS H
ĠRes ulta
Ġencontr adas
Ġo le
ĠL ucÃŃa
Ġes fera
Ġasoci arse
br on
ĠmÃŃn imas
ph ia
Ġje fes
Ġgeno tipo
EM OS
Ġguar da
ĠFar ma
Ġagres ivos
Ġestric to
Ġl anza
Ġalim entar
ĠCons iste
Ġrecu b
OR MA
Ġco ad
Ã¡nd oles
Ġdedic ar
Ġhiper plasia
di vers
ĠBro wn
Ġcocin ar
Ġdiri giÃ³
Ġregistr ar
Ġsul f
Ã¡ qu
Ġpes ca
Ġneur onales
Ġimpos ibilidad
ĠJ ane
Ġma xilar
gin osa
Ġdemostr ada
Ġproduc tor
Ġcumpl ido
Ġrepor taron
Ġtransmis ibles
ĠCam pus
AN D
iz arse
Ġpr endas
Ġabs ceso
Ġcomprome tido
ĠSig lo
ol is
Ġdeb idas
tÃ¡n d
Ġdesapar ecen
y ente
pue de
ĠC RE
ĠS G
Ġasegur arse
Ġdirec ciones
ĠCol l
ĠdÃ©bil es
AM IENTO
Ġinclu ÃŃa
Ġexpe diente
ph il
Ġrepe tidas
Ġre ces
Ġdeb ut
Ġcur vas
Ġincrement an
Ġadquir idos
Ġinspec ciÃ³n
Ġque jas
Ġqu iso
Ġacces ibles
Ġmari huana
tar lo
ogÃ©n esis
se lo
Ġad olescent
Ġpersonal idades
Ġen ju
ĠCan al
odg kin
ĠPr ueba
Ġre mon
ĠÃī ste
ĠvÃ¡lv ulas
Ġestim ada
ĠAlter aciones
ĠMedell ÃŃn
Ġviv iÃ³
Ġtermin ales
ĠMi ra
ĠInmun ologÃŃa
ĠOrg Ã¡nica
Ġaprob ados
Ġlib era
ĠSe min
Ġindividu alizada
ĠBea triz
Ġcin cuenta
pas s
Ġvis ite
Ġamp ollas
Ġban cos
ĠMara Ã±Ã³n
o u
ĠUnivers idades
Ġvari adas
ĠMinis tro
ĠEn g
Ġcercan ÃŃa
fer ente
mÃ¡ ticamente
Ġci tados
especial mente
am nesis
Ġch ico
Ġpar ezca
Ġvent riculares
Ġpresent adas
Ġpe o
g amiento
ĠautÃ³n omo
h um
Ġpon der
Ġpor ciones
ĠR ecu
Ġforma tivas
Ġalcan z
Ġimpuls ado
ĠMon tero
Ġac h
Ġmejor Ã³
Ġprim ary
ĠNutri tion
S al
Ġte mÃ¡ticas
Ġestric tamente
Ġpro puestos
Ġdis trito
Ġesper aba
Ġexpres Ã³
Ġpla zos
Ġmotor as
bra zo
c entes
on ÃŃa
ĠB ach
n ias
om y
Ġex acto
Ġsa Ãºde
Ġpro biÃ³ticos
Ġal as
ĠN ada
Ġconoc ÃŃa
ĠProvin cia
Ġg iro
Ġfrag mento
Ġven til
Ġaur ÃŃcula
Ġle gi
f ul
Ġin tac
Ġenci clo
Ãĳ OS
t una
Ġcomun itarios
Ġpol imer
ĠEj emp
Ġres ol
Ġprotec tora
Ġmio pÃŃa
ĠespectÃ¡ culo
Ġins truc
Ġp Ã¡
ro ides
Ġmodific ada
Ġgol pes
Ġmeta anÃ¡lisis
Ġpar ox
Ã¡s ticas
Ġcor rup
Ġ195 8
Ġ0 1
P ar
Ġderi van
ĠSu p
ĠVir gin
unda tion
Ġlis to
fici ts
Ġmar gin
ĠFlor ida
Ġâ Ĩ
Ġcal entamiento
Ġincons ciente
Ġex puesta
trib u
Ġpon emos
Ġjue z
p ical
Ġdirec tores
Ġdis cul
Ġval iosa
us ieron
Ġhospit alizaciones
Ġalimenti cio
Ġcuidados amente
ĠB las
Ġk e
Ġforma tiva
ĠAn exo
dias is
Ġgus taria
uel en
Ġas sessment
Ġclas ifica
Ġpose er
Ġfac tura
ific ada
tar y
ĠCu atro
con o
Ġposi bilit
Ġs Ãº
a gr
ar quÃŃa
Ġajus tes
ĠH em
j Ã³n
s is
Ġri ego
Ġrec re
Ġadministr an
Ġre ino
Ġch u
Ġcontes tar
Ġconf ort
Ġse para
ĠR ED
tra um
Ġapar ezcan
ĠÃļ l
ĠÃī s
Ġga tos
Ġcuar enta
ĠK le
Ġinf artos
e mas
Ġopi Ã¡ceos
Ġimp i
ĠPo blaciÃ³n
Ġretino patÃŃa
Ġflu ores
Ġasigna turas
z ona
iz os
ĠMy co
irru bina
bacteri um
Ġrell eno
al i
Ġilumin aciÃ³n
ar mac
Ãºbi to
Ġintra opera
ĠAn ual
Ġfavor eciendo
Ġinfec ciosos
on y
Ġo cu
Ġmen Ãº
Ġonc olÃ³gica
ĠApro ximadamente
Ġep ÃŃ
p ig
Ġb ac
gui to
S EM
Ġaplic adas
Ġneo plÃ¡s
Ġconvers aciones
Ġcortis ol
ĠFeder ico
Ġpros ta
f fer
ĠXV II
mon s
Ġdise ases
ign as
Ġbenefici ar
il ure
Ġay uno
AS T
Ġ( .)
Ġhemato poy
Ġanticoncep tivo
Ġob ede
cl as
Ġquier as
Ġexten so
li que
ĠN eo
Ġpis cina
Ġure tra
v ino
Ġex istÃŃan
Ġradi ologÃŃa
Ġinter viene
Ġtrad iciones
Ġmiel oma
ĠMas ter
Ġo titis
ĠLi fe
Ġw ell
Ġdescri biÃ³
Ġten Ã©is
Ġocur ra
Ġcontrib u
ien se
Ġprelimin ares
ĠF I
Ġca Ã±a
Ġmun diales
Ġhor talizas
Ġempres arios
Ġqu estion
Ġ Ã±
ci ano
gen cy
Ġlig ada
Ġcoordin ada
Ġhema toma
Ġconduc en
Ġde mor
ĠpÃ¡r ra
Ġascen dente
ĠenseÃ± anzas
Ġfinanci eros
ĠCoordin ador
Ġvina gre
en tific
ĠA umento
se t
ĠA cos
ĠM ILL
ĠJ R
Ġdis fagia
Ġdese en
Ġrefer irse
Ġent eral
Ã¡ vez
ERM I
ĠDIS P
incl uyendo
P e
ĠF en
hi te
Ġdiet Ã©tica
Ġincu mplimiento
Ġhar ina
Ġcali bre
ri mos
ĠsanguÃŃn eas
vers a
Ġvari ados
Ġpresent arÃ¡
Ġneur Ã³logo
Ġreconoci Ã³
Ġcolon ia
ĠJun io
ul an
Ġsuce der
Ġmaravillos o
Ġdiagnostic aron
ĠgrÃ¡ fico
ĠStre ptococcus
ĠG Ã©n
Ġma gia
Ġverda deros
Ġlu jo
G arcÃŃa
V er
Ġneurodegenera tivas
guir re
ĠPal mas
Ġminis terio
ĠEs pin
tan zas
D D
Ġac lara
Ġind ol
Ġdiagnostic an
Ġcon fec
dr os
Ġextraordin ario
am ar
Ġdo i
men da
Ġintrodu cido
Ġconven iencia
b uen
inos as
ti gar
Ġej es
Ġmam ografÃŃa
Ġpermitir Ã¡n
Ġcuadr ados
ĠE ur
Ġtu bos
ĠG old
ucle ar
id an
Ġintens os
ĠdesempeÃ± ar
Ġn aciones
Ġagr ÃŃcola
Ġcuan tificar
ron utri
Ġheredi tario
Ġemerg entes
u an
Ġenten dido
tin es
u ps
ĠErnes to
f ron
tr ÃŃas
Ġp ista
ĠPal ia
Ġcampe Ã³n
Ġinici an
Ġnota bles
ĠMan tener
Ġdeb idamente
val o
Ġcrist ales
Ġfund Ã³
s mo
Ġpsic omo
Ġde biÃ³
Ġcu ota
ĠNuev as
ter ritorial
Ġprecip it
Ġcompens ar
Ġcre cido
Ġgus te
Ġcontrib uyendo
Ġino cu
Ġresfri ado
Ġes car
ĠV ÃŃa
Ġagu an
Ġapar ecido
Ġrequier an
in Ã³
Ġdedic Ã³
esti ona
Ġsub venciones
ĠImp erio
Ġhabi taciones
Ġempez aron
Ġsup uso
Ġcer rada
trÃ³ leo
Ġrefu gi
Ġinm uebles
Ġvec tores
Ġeffec t
Ġor ejas
ĠEsta tu
Ġbar ri
Ġde ciden
Ġsospech ar
re al
ĠCo un
Ġsuav es
Ġo ÃŃr
Ġtermin an
Ġhabl Ã³
Ġan as
Ġro mÃ¡n
Ġcor e
ĠJa Ã©n
ĠValde cilla
Ġdej en
fisi ologÃŃa
Ġago tamiento
Ġpreco ces
Ġcerv icales
Ġpeo ple
ĠAl rededor
ĠIN CL
Ġah i
Ġcolombi ana
Ġtend ones
Ġperci bida
ĠEl sevier
ĠG A
Ġsens ores
po t
Ġun ilateral
13 8
ĠP SA
Ġdesarrol le
z il
ĠUnivers al
15 36
ĠpronÃ³s ticos
Ã¡ci ca
g ren
ĠFAR M
Ġesc amos
Ġconvir tiÃ©ndose
Ġse cas
Ġent era
Ġdem encias
Ġhab le
ĠÃŃn tima
Ġab riÃ³
Ã©l gica
Ġblog s
Ġsolid aria
Ġfundam entos
ĠG U
Ġclasific ados
na ire
Ġmanio bra
S ab
Ġal zhÃ©imer
Ġlengu as
ĠestratÃ©g ica
Ġecocardi ograma
? "
Ġdecen as
ĠD ada
ĠPro f
ĠCom pu
Ġdescen dente
man ente
Ġpl Ã¡
Ġlinf omas
br ados
Ġthe y
Ġoblig ados
Ġro le
Ġrela tions
ĠReci bido
Ġdisfru te
iz er
Ġsatur adas
Ġnoci vos
ĠestÃ© ril
Ã¡ce a
ue ga
ĠAc ceso
Ġ19 77
Ġtraslad Ã³
a k
ti as
Ġd ÃŃ
car b
onces to
Ġinv al
ĠAC V
Ġap p
Ġavis o
tÃ¡n eos
Ġm L
ĠCate gor
Ġateros clerosis
ĠÃ¡ ra
Ġinv ad
ĠOl iv
Ġpon encias
Ġre baj
ac tivas
Ġox idaciÃ³n
ĠFib ro
Ġc lo
Ġep igen
Ġanun cios
ocito penia
Ġingres a
ues to
ĠÃº rico
ho ut
ĠV era
Ġin activ
Ġbucoden tal
Ġrefer idos
ĠtÃ³p ico
Ġderma tÃ³logo
! ,
Ġ( -
Ġpon encia
Ġre ina
Ġal mo
f isis
la zar
Ġafirm aciÃ³n
Ġevalu ada
ĠDiges tivo
pa th
Ġsens oriales
ĠGu z
f ÃŃn
Ġfeb ril
ĠcutÃ¡n eos
Ġsu ba
Ġanti hista
ĠMediterrÃ¡n eo
di era
Ġdin Ã¡mico
ĠLes iones
Ġmedi al
Ġmos quito
Ġanal ÃŃticos
Ġrepar to
Ġev itan
Ġve ÃŃa
Ġlevel s
j arse
Ġofre ciÃ³
Ġgluc ocor
Ġcomprome ter
el li
pen di
ĠSer ÃŃa
Ġinnov adora
ĠS co
ĠK im
Ġreligios as
r arse
Ġapar e
Ġinform ados
ĠPres enta
Ġprolon gar
Ġl itro
Ġhos pe
Ġpeligros a
Ġevolu tivo
pon a
des a
Ġba zo
Ġinteres adas
log y
Ġheter ogeneidad
Ġabo ut
Amer ican
Ġredon da
ĠA EP
Ġelabor ados
Ġdes tre
Ġintrac raneal
ĠObr ador
vi x
Ġhis tori
Ġprecis ar
H T
Ġpro vienen
Ġe ficientes
Ġmec Ã¡nico
Ġpreven tion
ĠdesempeÃ± an
Ġmascari lla
ÃŃs imos
Ġinnov aciones
Ġins tan
Ġi v
ĠPac ÃŃfico
Ġg arra
ĠT M
ĠLu gar
Ġtraslad ado
ĠOcho a
Ġdis tor
ĠtÃ³p ica
f it
ĠSen ado
Ġpreval entes
Ġasc enso
Ġcan di
ĠAr turo
emb ol
Ġperina tal
Ã³g enas
bo x
ĠMir anda
AN TES
Ġag itaciÃ³n
Ġincom pa
Ġcubier tas
Ġhue co
Ġque do
Ġali anza
Ġver rugas
ĠÃŃn dole
L P
ĠSec und
Ġocul to
Ġmar ch
Ġesca par
Ġneur al
Ġdisor ders
Qu iÃ©n
---- ----
Ġprotein uria
gun as
ĠD SM
Ġs era
Ġcas eros
Ġ3 50
tur ados
Ã©rg ica
ĠdÃ© ficits
Ġanti di
Ġrelacion arse
Ġhipo c
Ġcristal ino
al quil
Ġen ormes
Ġor inar
ĠCal vo
Ġrandom ized
u idas
Ġo dio
g ing
enci ados
Ġfum ador
ĠSel ecciÃ³n
Ġfor os
inf orm
Ġde bi
Ġemple adas
Ġsac erdo
ĠH idalgo
qu Ã©s
Ġsome tidas
P er
y cho
ĠI de
Ġaum ente
Ġges to
Ġsir va
ĠMe thod
Ġprovoc Ã³
Ġrit mos
Ġvascul itis
ĠS ir
Ġba ile
ed s
Ġcefal eas
ĠAt lÃ¡n
Ġmac ho
Ġimpo tencia
Ãº e
Ġetique tado
Ġmal tra
Ġcosm Ã©tica
Ġelec tricidad
Ġingres Ã³
ĠFo undation
', '
Ġmonitor eo
ĠBra vo
Ġinform Ã¡ticos
Ġmo des
Ġaclar amiento
Ġgus tos
ĠSan gre
Ġcuan ti
Ġeviden ciÃ³
Ġconside ro
V C
Ġcoinci diendo
ta mo
Ġmar rÃ³n
Ġcolon izaciÃ³n
Ġexhaus tiva
Ġgangl io
H a
domin al
Ġprofes sional
ĠCom en
j unta
ĠCar rera
Ġlar vas
ac ar
Î ²
ĠD IR
Ġven den
i eros
ĠLo zano
Ġhe mol
Ġdeba tir
Ġalquil er
Ġsi entan
Ġa tÃ³pica
ĠPor tal
Ġmal nutriciÃ³n
ĠR CP
ic ÃŃlico
ĠJ P
Ġru tas
ÃŃn tesis
ĠPreven tiva
ĠA ta
Ġalea toria
Ġplas mÃ¡ticos
Ġc ÃŃ
ĠmÃ¡r genes
Ġaf ro
Ġme lo
Ġex ti
se x
Ġpen icilina
pl antes
000 1
xa to
ĠvÃ©r tigo
ida e
ĠA plic
ĠA rias
Ġfil osÃ³
Ġemi tir
Ġendometri o
ĠRESULT ADOS
ĠAu gus
ĠT S
Ġins cribir
Ġhal o
Sin Embargo
ÃŃng ea
h ÃŃa
Ġobserv arse
ĠSe a
Ġfil tros
Ġso fis
Ġvincul aciÃ³n
Ġcon torno
ĠS Ã¡
TIV A
ste in
his to
ĠA mor
Ġcomprome te
Ġbon ito
ĠCOMP OSI
g aba
Ġnar co
aj us
Ġf ores
Ġacab o
Ġsent ÃŃa
r ones
men os
om ic
Ġdes tina
Ġpelo ta
Ġseleccion adas
ĠTum ores
di ar
ten cias
Ġconduc tores
ĠON U
ĠEfec to
Ġtrans forma
Ġyog ur
enci o
ĠmÃºs icos
ĠMon tes
ĠH UM
ĠE J
ĠV A
ĠM ON
ĠPro gram
Ġconfi ar
Ġintra uter
ur ar
Ġr Ã©c
cer es
ĠH ID
Ġmas ajes
Ġsurg ery
iladel phia
us itis
ĠMar y
Ġcontrac ciones
Ġfa una
Ġv entan
s ec
Ġcap tura
Ġejecu tar
Ġblo ques
Ġper cen
Ġmanifes tarse
ĠFÃ© lix
Ġb icarbonato
Ġnefro patÃŃa
Ġinforma tivo
t to
Ġes encialmente
Ġin al
Ġsigui eron
Ġdepres ivo
P CR
Ġdi fici
crip ciones
Ġre quiera
Ġins tante
c ano
el ia
Ġabor tos
Ġse ll
Ġabsor b
ĠDig ital
Ġfal tan
Ġvincul ada
Ġac Ãºs
Ġma tric
Ġcav idades
dific aciÃ³n
Ġoli go
ĠTrin idad
Ġcer rados
Ġpreval ente
Ġt orm
Ġre versible
Ġtembl or
ĠN A
ĠDepen dencia
ĠAgra de
Ġalucin aciones
Ġinfec tions
ĠS Ã£o
Ġtom en
ticuer pos
Ġdecir le
ĠZ el
Ġintelec tuales
Ġen vÃŃa
Ġdomin ios
Ġti ra
Ġan ces
ĠBio quÃŃmica
Ġte tra
Ġneuro muscular
ĠLabora torios
12 9
Ġirri table
ĠlÃ¡ mina
ĠUni ted
Ġmunicip ales
Ġaten didas
en ne
ten o
Ġ% ),
Ġmonta je
ĠI glesias
Ġser ios
Ġtu tores
ĠM ama
Ġfal sas
Ġsocial mente
ĠEjer ci
ĠSo to
ĠT AM
ios os
Ġmin or
Ġinform acion
Ġrequer ida
irÃ¡ mi
ĠQuir Ãºrg
Ġsub cutÃ¡neo
Ġdemostr ando
Ġmil los
Ġac Ã¡
ven osa
de re
Ġdesin fec
ward s
ra y
Ġconten gan
ĠVirgin ia
Ġp ica
aj ada
Ġesf ÃŃn
Ġpol Ã©mica
Ġgimnas io
por ina
Ġinclus ive
Ġconfidencial idad
Ġadvir tiÃ³
ĠAlcal Ã¡
Ġdemo grÃ¡ficas
menopÃ¡us icas
ul tados
ĠExper tos
Ġexig encia
ĠWilliam s
ĠO tor
dis pon
Ã©m ur
ĠNor th
12 5
Ġsuf ra
N M
Ġsub tipos
vier ten
ĠRepres ent
Ġnorm alizaciÃ³n
Ġdesarroll en
ĠÃ¡n gel
ĠAndalu za
Ġdolor osas
Ġprovis ional
Ġca tar
Ġinm ensa
Ġcent ran
Ġpreserv aciÃ³n
ĠLe g
Ġco bra
Ġrepres entado
ĠAl icia
Ġtu bercul
k el
Ġradio grafÃŃas
ĠT ru
Ġas tr
Ġdur as
Ġcamis eta
ĠA gua
â ī
Ġposicion amiento
il lan
arc os
Ġloc alizaciones
Ġinca paz
ĠM AD
tor ales
ĠPsych ology
M on
Ġcardi Ã³logo
Ġalm end
Ġestre pto
ĠNo viembre
ĠE c
Ġpi ra
Ġal a
Ġir se
Ãį T
Cu Ã¡n
Ġcine mato
cin g
iv ing
Ġcri men
ĠCate dr
Ġtrascen dencia
may or
TR AS
Ġve an
Ġalgorit mos
he d
ĠSi endo
rig ht
Ġsuces os
Ġabs ur
ul inas
Ġotor gado
Ġevit arse
Ġtraum Ã¡tica
vil le
ran go
Ġvacun ados
Ġexcl uir
ci Ã©ndose
Ġs Ã©ricos
Ġ19 50
Ġdesa perci
Ġperci ben
Ã³ cra
Ġpat Ã³geno
Ġs tu
an ina
v ados
se gÃºn
Ġpar Ã©n
ĠRes puesta
Ġantirretrovir al
Ġde pre
Ġdif usa
id ona
Ġpun tual
ĠRen al
ĠïĤ ·
Ġconec tado
Ġinmun izaciÃ³n
rinolaring ologÃŃa
Ġhacer nos
Ġvan com
Ġcarb Ã³n
bas ed
Ġmeas ure
Ġcefal orra
ĠC ER
ĠHon or
ĠÃ³se os
199 8
ter m
Ġmedal la
Ġprofesor ado
Ġaci dez
Ġinfraestruc turas
cre di
Ġpros pecto
Ġdig it
ĠD OS
ĠAs untos
Ġcru zada
Ġsir viÃ³
ĠperiÃ³ dicas
ĠB aja
ĠPh iladelphia
ĠHig iene
ach os
AP A
Ġaudi tivo
gu ido
al is
Ġpa ga
Ġtor rente
Ã³ j
idad a
pues tamente
Ġeviden ce
Ġcre ÃŃa
Ġinjer tos
ĠFer ia
Ġobliga torio
Ġsal ario
ĠAlim entaria
Ġresal ta
Ġmedi ada
Ġnovedos o
i milar
ĠA EMPS
ĠL CR
Ġdefen dido
ola to
ï¿½ ï¿½
ĠCor tÃ©s
Ġmer ecen
ĠB au
Ġactu alizado
ĠAn dro
ĠfÃ³s iles
Ġinterfer Ã³n
ĠCalder Ã³n
s ky
ĠM F
Ġsensibil izar
Ġsu bl
Ġextra celular
Ġcron icidad
Ġlibre mente
Ġmi xto
ĠIn terior
ĠTera pÃ©u
led ge
Ġv ello
ĠA um
Ġaument ada
Ġclor uro
G AN
Ġcolegi ados
ĠCuer po
tan eo
Ġvac a
Ġtradu cir
Ġc Ã©r
Ġsal iv
Ġcal mar
Ġcompar aciones
ĠN UE
Ġdiet Ã©ticos
arra g
ĠPUE DE
Ġdis tancias
Ġbas ed
Ġllev arse
u resis
Ġlan zÃ³
Ġins iste
Ġinterven ido
Ġfec undaciÃ³n
ĠDes arrol
ges tiva
ĠDie ta
ĠanestÃ©s ico
Ġapop tosis
Ġcivil es
ĠðŁ ĺ
Ġayud Ã³
ĠInter territorial
Ġcar encias
ĠRad iologÃŃa
Ġceb olla
ec Ã©
Ġestu ve
ĠRec on
Ġconoci Ã³
Ġbo tÃ³n
Ġbronqui tis
Ġu ma
Ġfin alizado
ne as
ĠD T
ĠEsper amos
Ġpal paciÃ³n
Ġmanifes tar
ĠTOD O
ĠCh o
Ġirreg ulares
Ġaconse jar
Ġintens ivo
Ġprolon gados
Ġsofis tic
Ġabsor be
Ġcumpli endo
Ġrevis aron
gal o
Ġendometri osis
il le
estig os
Ġn ursing
Ġpeligros as
bl ia
Ġ10 3
ĠN ar
uel ta
tÃŃ pica
ĠTrad icional
ke y
Ġub ica
Ġaconte cimiento
lo c
pl oma
tr aci
Ġcontra tar
Ġmorf ina
ĠD S
mas car
ĠCh Ã¡vez
Ġpermi ti
Ġecu aciÃ³n
ĠmÃ¡s ter
ĠPro ceso
Ġmetod ologÃŃas
Ġconfun dir
ĠN u
gan o
Ġclasific an
Ġdeci dieron
ĠÃī sta
TIC AS
Ġcam ina
ĠVal or
z ono
Ġmoles ta
ar ch
Ġactu ando
Ġarmon ÃŃa
Ġdis c
par tÃŃculas
Ġpe trÃ³leo
Ġd anza
Ġtra yecto
Ġexpec tativa
Ġarri es
Ġhiper glucemia
Ġpopular idad
Ġton el
Ġestabil izaciÃ³n
Ġselec tivo
TU RA
Ãº p
Ġbene fi
OM E
Ġmus eo
ĠVir tual
Ġempe ora
Ġdes eas
ĠB Ã¡sica
Ġro bus
ĠalÃ©rg ico
ĠT oma
ĠaÃ© reas
Ġpar ciales
Ġapr ueba
Ġense Ã±a
2 123
ĠL eo
Ġesta tura
ĠH ill
Ġagrup aciÃ³n
I E
Ġcl ic
Ġsuce dido
Ġrar amente
T IN
Ġ10 5
Ġase ver
ĠvÃ¡l ido
Ġerrad icaciÃ³n
Ġrepas o
apro pi
Ġl iso
Ġaplic ados
Ġk now
Ġrefle jar
p ales
ĠN um
Ġoper ado
cl or
xi to
ona zol
ĠLuc as
s car
ari lo
Ġac ud
Ġcombin ados
Ġan Ã³n
Ġac ero
ce do
Ġvej ez
Ġenorme mente
uestion ario
Ġrefuer za
ĠNe gro
ĠMEN OS
Ġentren ar
ĠJ en
Ġviv encias
aron a
ĠAdi cionalmente
ĠEs col
10 2
rol i
Ġma ta
ĠOrden aciÃ³n
ĠS CA
Ġben igno
Ġprote gen
p uls
dar d
tra je
Ġencontrar Ã¡s
Ġgluc Ã©mico
VI H
Ġdenomin adas
Ġa min
id urÃŃa
Ġpropon emos
Ġdes gar
Ġdeba tes
Ġetique tas
de fin
ci ence
ac ruz
Ġtit ulada
ĠmÃ¡ ximos
ĠPER O
Ġhay as
ĠF rac
ĠO ne
Ġmm ol
ĠMa tanzas
Ġdar Ã¡n
Ġtri but
Ġmoder nas
ĠIz quier
ri me
Ġcolabor ado
ĠCoordin aciÃ³n
Ġlle guen
Ġofici o
ĠIntens iva
Ġfac tible
Ġproces ados
Ġapoy os
ti empo
Ġinciden tes
Ġcoher encia
Ġjur is
Ġprevis tos
Ġ10 2
Ġautom Ã¡ticamente
ĠVe ter
Ġas tro
no va
Ġcomple tas
Ġglu ta
par te
10 4
Ġu rea
ĠgrÃ¡ fica
ĠMunicip io
id Ã³n
Ġdar les
d x
iz aron
v estig
Ġexperim entaciÃ³n
Ġre tic
ch em
Ġproteg ida
ĠTe orÃŃa
Ġlimp io
Ġsuperviv ientes
Ġlig ado
Ġrevel ado
ĠVi go
ĠAl ba
Ġt ela
Ġayudar nos
un ciones
Ġo ch
Ġtesti monios
Â ·
Ġth ose
Ġparticip ando
OS P
Ġdep ilaciÃ³n
Ġvia jeros
Ġinfec tado
Ġp Ã³s
Ġfas cin
Ġimplan tado
Ġacces orios
ĠSex ual
ĠO cup
tim amente
Ġestimul ante
ara gua
Ġdesapar ecido
ĠvÃ³mi to
ĠE ti
Ġrestaur ante
Ġtransmi ten
Ġderiv aciones
UL AS
Ġcomplement ar
Ġlin k
Ġdesin tox
Ġcon ti
Ġti p
ĠPr Ã³
pon entes
Ġtecn olÃ³gicas
ĠON CE
V S
Ġsiste mÃ¡tico
pe mia
et ales
ĠSÃŃn tomas
Ġmon os
Ġdeci mos
Ġfir mas
Ġanal y
c ton
Ġpas aba
Ġradi olÃ³gica
ĠVer de
Ġso b
Ġpractic an
Ġben Ã©
Ġp Ã³l
Ġsilic ona
ĠRe producciÃ³n
ci dencia
Ġh echas
Ġatrib uye
Ġconjun tivitis
ÃŃgen a
person ales
era peu
ĠPal acios
Ġevalu ation
Ġenerg ÃŃas
ĠMar zo
ĠAN TI
ĠC EL
Ġespon tÃ¡neo
ĠInfec ciosas
ĠSE F
Ġsepar ar
ĠIncl uye
Ġbols illo
Ġcon gestiÃ³n
Ġocciden tales
Ġb ari
Ġfundam ento
tre xato
y an
olo go
Ġinde se
Ġdel itos
Ġad ren
Ġol vido
divers idad
ĠneutrÃ³ filos
los a
lÃŃn ico
Ġderro ta
ĠP N
Ġcompar tida
Ġhacer me
Ġpoder oso
Ġinvi ta
Ġfos fa
t za
Ġfin alizaciÃ³n
ta Ã±as
Ġevalu a
Ġinvoluc ra
Ġdistribu idos
Ġacerc amiento
Ġes can
Ġacab ado
o ur
Ġcri anza
Ġocasional mente
Ġsal va
Ġayudar le
ĠPr uebas
ve da
Ġjubil aciÃ³n
h ada
Ġcefalorra quÃŃdeo
ta to
Ġenfa tiz
Ġus Ã³
Ġmoder n
ocitos is
bi tal
Ã³ meros
gl uce
Ġru tinas
Ġrefle jos
un es
Ġelabor ada
Ġvolunt ariado
Ġi buprofeno
ĠR ÃŃos
Ġaban ico
Ġadeno carcinoma
d ando
ĠEl abor
ĠSer ie
Ġb rillo
Ġsin cron
Ġtranquil a
Ġmitocondri al
gui miento
val ente
Ġb r
Ġch ino
ĠC res
Ġcorre la
ĠR as
ĠGuar dia
Ã¡ce as
ĠpÃ³li pos
ĠGonz alo
ĠV idal
Ġapoy ado
Ġpol if
Ġag ran
ĠNuev os
Ġasesina to
quirÃºrg ica
Ġp ilar
Ġcircula torio
pro tecciÃ³n
Ġliti asis
m y
Ġpe d
ĠM AL
ig as
tros copia
ĠC uen
ĠA CI
Ġap res
Ġmultidiscipl inario
Ġexpe diciÃ³n
ĠM ez
Ġerrad icar
ĠRE G
Ġmon tÃ³n
ĠAT P
ĠExper iencia
ĠGra m
Ġreempla zar
Ġeritema toso
ach us
f ur
Ġ1 15
Ġemple Ã³
ech an
Ġrazon amiento
ĠMar ÃŃn
ĠquirÃºrg icamente
ĠHol anda
ĠME J
Ġun ida
Ġau tista
Ġdoctor al
Ġtab Ã¡qu
Ġsuger ir
erra t
Ġrelig iosa
ĠS R
fi anza
ist ol
Ġindustri as
d ones
ĠalÃ©rg icos
ĠsÃ³ dico
Ġcon tun
lam aciÃ³n
ud ado
ĠO S
Ġcenten ar
Ġcorticos teroides
ec om
Ġt rea
Ġa o
in sa
ĠCon oci
Ġic tericia
Ġde vas
Ġmete or
ĠLi bre
ana hor
ĠIN M
Ã©rm ico
Ġobs truc
ÃŃcl ico
P RE
Ġasoci ar
Ġs core
ĠTer cer
ĠAs tra
ĠBuen a
Ġpl ur
Ġtama Ã±os
ĠHos p
Ġanti bacteri
Ġperio pera
Ġpes cados
i tiva
Ġidentific adas
aci Ã¯
ĠaÃ±a den
Ġoper ados
Ġazul es
je je
Ġtrans port
ĠseÃ± ora
uy o
ĠProto colo
pira toria
TO DOS
Ġsuprar renal
Ġes mal
Ġtra gar
Ġpobl acionales
Ġtendr ÃŃan
Ġa is
ĠAs s
Ġmo to
Ġadop tado
Ġagu jero
ĠActu alizaciÃ³n
u di
Ġla tÃŃn
ic on
Ġabund ancia
ĠDipu tados
Ġile gal
ĠE QU
Ġapar ezca
Ġla go
Ġhier ba
Ġpais aje
mus culares
s ch
ĠSin dica
Ġdes h
ĠEdi ciÃ³n
Ġf Ã©mur
20 19
Ġanti f
Ġajus tada
Ġprom ueven
ĠDro gas
Ġvoc ales
Ġen com
Ġcul min
Ġen cen
Ġdefin idas
ĠEstra tÃ©g
Ġm ero
ĠR EP
Ġimp u
vers ibles
Ġmanip ular
ĠC CAA
Ġsemej antes
Ġdele gaciÃ³n
ĠInform Ã¡tica
ĠT reatment
D C
ĠN orma
Ġdo bl
dom ina
ĠH ues
Ġgru pal
S on
ud ina
til l
Ġcl on
Ã³s idos
Ġfo und
Ġamari ll
fun ciÃ³n
ĠF r
Ġdescon ocen
Ġsecre tos
Ġotor gar
Ġinmun olÃ³gica
Ġalterna tivos
u z
ĠS Ã©
cion ados
ig eno
ĠTras plante
ĠMon itor
ĠPalia tivos
Ġproce den
r ÃŃt
ĠD L
Ġdivi den
Ġin apropi
Ġval le
ĠEnfer mera
Ġtur nos
ĠMicros oft
M I
ici das
Es tamos
ĠIm mun
ĠSeÃ± ora
ĠCas as
Ġrum bo
que ta
ĠOcciden tal
Ġcor tical
Ġefectu Ã³
Ġvie jos
O Y
Ġab uelos
Ġbar rios
Ġsepar adas
nos is
Ġinici aron
Ġdisfun ciones
ĠSec tor
ĠO fre
Ġpobl adores
Ġs tress
Ġrepi te
Ġauton Ã³mico
Ġest om
Ġcatal Ã¡n
Ġfos fato
ĠA I
Ġb ody
ĠEn ero
Ġinde fin
Ġpers igue
Ġindu cido
Ġjard ÃŃn
ion istas
Ġdivi dir
b ulo
Ġsuple mentaciÃ³n
ĠGuz mÃ¡n
Ġdes ier
Ġmis iones
ĠpÃ© ptidos
Ġex pos
ĠPres u
g lu
us p
cul tivos
ĠRo jo
Ġampli os
re os
ĠZ amora
Ġmol de
ĠE ri
ĠCor ea
Ġe mail
ĠAcos ta
li tis
Ġcoci ente
Ġcatara ta
ĠC rea
Ġesta tales
Ġan amnesis
ĠhÃ¡bi tat
Ġcoloc ado
Ġargen tino
Ġad yuvante
ĠN adie
Ġleuc o
ĠCa ixa
r ue
P F
den ce
Ġlar inge
Ġin na
Ġe mite
e gas
Ġexpor taciÃ³n
ĠB oy
Ġguar dias
Ġgrad ualmente
Ġme la
Ġpermi tieron
Ġdele gado
ĠPreven tion
Ġre mun
Ġo puesto
Ġbe havi
U Y
er ÃŃas
Ġentre gado
ay os
ĠL inf
AR R
Ġprefer ible
ĠSue Ã±o
Ġprop Ã³sitos
rec tomÃŃa
Ġrecu pera
in ten
ĠJ aco
ĠMa te
Ġsemi lla
Ġsobre vida
pe ar
ĠPas tor
Ġpic adura
Ġtit ulaciÃ³n
Ġf osa
TR ACT
f ru
r Ã¡s
ĠPro bablemente
Ġhomeo patÃŃa
ĠtÃŃp icas
Ġto po
Ġur banos
Ġenten dimiento
ĠQuer emos
Ã¡ Ã±ez
ĠPa pa
Ġcampe onato
ĠDoc tora
ĠSil via
ĠpÃ¡r pado
ĠCambi o
ci tado
Ġper didos
ĠPres idencia
ĠTu berculosis
fi bro
Ġpre dnis
Ġab ren
ĠBar b
Ġadquier en
Â® ,
cons tric
Ġindi cios
mon ella
Ġavi ones
Ġa man
Ġseleccion ada
Ġrepor tes
Ġinterac tuar
x e
ĠS IG
Ġcre es
Ġafec tivo
Ġrutin aria
Ġm Ãĥ
Ġcon fes
Ġofre cido
brid ge
ĠC li
ĠR C
Ġingres ado
ĠJ ar
Ã©r dida
ico bacter
Ġlu br
entan ilo
ĠP f
Ġcoordin ar
Ġdesemp leo
Ġentusias mo
Ġla x
Ġg ase
ĠDe m
Ġprolon gaciÃ³n
ĠDa ta
ul ario
ĠBer lÃŃn
Ġdue Ã±o
Ġn Ã£o
r ante
om ida
Ġins ta
Ġinmun itaria
D eb
ĠDe presiÃ³n
Ġcontrib uciones
le u
Ġdiscapaci dades
ĠCog ni
L ICA
Ġlipo proteÃŃnas
la y
Ġdo tar
ĠDE R
Ġvacun al
ĠAc ta
ĠCom pro
Ġobes ity
Ġgranul oma
Ġenf ri
ĠConven io
fic ada
Ġdi ger
Ġcuan tificaciÃ³n
j i
Ġpa u
adr Ã³n
ici embre
Ġprepar aciones
ĠGar cia
Ġpel os
ĠS es
Ġinfec tada
Ġfil trado
ĠA INE
tr ante
Ġba Ã±os
us ter
Ġintegr ados
Ġvisit ado
ĠS y
Ġllor ar
it ch
ĠO C
ĠOl ÃŃmp
ĠempÃŃr ico
Ġque mar
Ġo C
Ġpa gos
Ġalmacen ar
Ġvi able
Ġtelef Ã³nica
ĠAn s
ĠCON CLUS
Ġpregun tÃ³
Ġrec ambi
Ġdes ple
ĠR AD
Ġafec tos
cal cemia
g Ãº
Ġger min
ĠRES P
Ġex hib
ĠGEN ER
Ġter m
is tics
ĠEs truc
Ġfabric ar
ĠSci ences
Ġdivi dido
Ġest Ã©s
Ġgen Ã³mica
Ġeos ino
Ġban dera
Ġcigar rillo
ĠColegi al
" ),
Ġen marca
ĠP inar
t ÃŃan
Ġ \
Ġdis plasia
Ġau ge
Ġch amp
ĠUsu ario
Ġras go
Ġfigur an
Ġtempor adas
df ul
Ġcuchar ada
ĠB rig
B arcelona
ĠB Ã©lgica
Ġrecomend Ã³
Ġcal ib
ĠCon ten
Ġinstitu cionales
Ġconcentr ado
olog ic
Ġlon ge
t ta
ĠSalud os
u res
Ġauto con
ĠConf lic
ĠEn gl
Ġdon ar
Ġ196 1
Ġrobo t
O O
Ġbien venida
Ġsurg ido
Ġmedi do
Ġar dor
Ġins istido
Ġhabi a
ĠC asta
Ġcru z
vi ta
tens ion
Ġgu iada
u era
ĠApar te
ĠðŁ Ļ
Ġata xia
ĠF echa
cer eb
tri es
ĠtÃºn el
Ġinici arse
trop ina
Ġa eros
ĠFisi ologÃŃa
Ġsar co
el in
ĠBar re
ĠH odgkin
Ġconec tivo
ĠCon ocimiento
ĠFil osofÃŃa
Ġecos istemas
on io
ger y
Ġin to
Ġorigin almente
a ta
Ġcarcin omas
ĠS IST
Ġabord an
ĠM UC
Ġaplic ables
ĠABS TRACT
ĠES C
n to
Ġdeber es
Ġin como
ĠPa u
ÃŃri tus
17 58
Ġc able
Ġsitu ados
inas a
Ġer up
ĠRies gos
Ġpa tria
evalu aciÃ³n
Ġfamos os
Ġanas tom
Ġapas ion
Ġro edores
Ġlimi tan
Ġben ignos
ic ulo
Ġsol as
ĠPr ÃŃncipe
ĠEL A
ĠCu idado
N P
Ġmie lo
Ġa rea
Ġcon tenta
ĠS AR
ĠPa tr
Ġdemostr aciÃ³n
Ġfo od
ritis h
ac usia
ĠRub Ã©n
ve lo
Ġpas eo
ĠRE V
Ġadap tados
Ġeti olÃ³gico
Ġsol itario
Ġdifici l
Ġ19 74
Ġacu diÃ³
osa u
Ġpregun to
ĠHu go
Ġaspir antes
Ġpro hibiciÃ³n
as i
Ã± ones
ĠplÃ¡s ticos
Ġprefi ere
es pas
Ġrecib ÃŃan
ĠImp lan
Ġfres ca
ĠovÃ¡r ica
Ġpreli minar
Ġejemp lar
Ġdar nos
V P
Ġdetermin aron
Ġa ulas
ĠAmbi ental
Ġsymp tom
Ġsal sa
in ea
%) ;
Ġpare ciÃ³
ll us
mi ll
ĠH as
ĠF ol
ĠIn forma
ĠDepen diendo
u ga
Ġsolid ario
tiv ar
ĠFin anci
Ã² n
Ġnue ces
ac ta
ĠautÃ©n tico
Ġmad ru
o us
Ġadministra tivas
Ġc res
Ġencontr ada
ĠMarg arita
Ġbil irrubina
ĠG aran
Ġplan tillas
Ġcapit Ã¡n
ĠRec ons
gan os
ĠgrÃ¡ ficos
Ġpro visiÃ³n
Ġrespon diÃ³
Ġservir Ã¡
Ġl una
Ġalterna tivo
Ġhidro xi
Ġn ula
Ġocurr encia
Ġver Ã¡
OL A
ĠdiseÃ± Ã³
S EC
Ġconsidera ba
Ġevolucion ado
Ġpre cedentes
TA CION
Ġbacteri emia
Ġcons istiÃ³
En fer
D el
ĠB ran
Ġpon go
adr ado
ĠB Ã¡s
ici da
ĠMÃ¡r quez
ĠTra tado
Ġri val
Ġpas iva
ĠCon tr
ĠM Ã³nica
Ġubic ados
ĠEmb arazo
ĠaminoÃ¡ cido
ĠLabor al
Ġefectu ado
Ġad renalina
Ġdetermin e
Ġlu x
Ã ¬
ĠF IS
Ġreg ÃŃmenes
Ġcompos itor
ad io
Ġdibu jo
Ġde ath
paci entes
Ġloc alizados
Ġalcoh Ã³lica
Ġresuel ve
D is
Ġob viamente
Ġsegu idas
Ġart ÃŃstico
ĠUTIL IZ
tu osa
ĠB ir
ĠObs erv
Ġb er
Ġreci ban
Ġcardio pulmonar
Univers idad
C omo
ĠCin co
ĠJ E
ĠV ers
ĠT EP
Ġgra baciÃ³n
Ġregis tran
Ġprecis os
Ġtom adas
ĠLi tera
ĠTur ismo
ver de
esof Ã¡gico
ĠRe ferencia
isti an
Ġreun ido
Ġmi diÃ³
ĠtÃ³x ica
ĠH C
Ġrestaur ar
Ġti ros
ĠPa t
Ġle e
xi as
Ġz anahor
h it
ĠR I
Ġci tologÃŃa
Ġevalu adas
Ġdesign ado
o fo
Ġrespon dieron
gÃ©n icas
Ġfoc os
ht m
Ġulcer osa
Ġus adas
pit aciones
ĠAn derson
ĠX II
Ġher e
Ġ19 73
ÃŃ e
Ġdescrip tiva
Ġpes ados
Ġsi tÃºan
Ġcuer das
ĠM OD
ĠO MC
ber os
Ġconseguir lo
Ġengros amiento
Ġtrasplan tados
Ġcereb ros
ada p
ĠAl ma
Ġindic aron
ĠAp ple
an ts
EN S
Ġcontinu as
Ġampli as
Ġgrad iente
Ġterres tre
Ġsuce diÃ³
Ġappro ach
Ġg all
Ġari lo
ĠCambi os
ĠA dap
Ã©c tor
Ã¡ cido
Ġa ga
en co
199 7
Ġinvis ible
Ġcaus e
Ġcump la
Ġm Ã³r
Ġhig her
Ġcier ra
Ġfil Ã³s
i mia
cas o
ĠIns trum
Î ¼
Ġcur sa
Ġre plicaciÃ³n
ĠT echn
oc y
ĠMar k
AM OS
Ġman dibular
ĠPri eto
b ÃŃ
Ġsu ch
Ġp esti
ĠCu anto
ĠTo xic
j ol
ĠE van
CI OS
ĠMATER IAL
ĠEspin osa
Ġdis tensiÃ³n
ich ia
Ġconserv adora
Ġbre ves
de mas
Ġprevis tas
s ter
Ġestr Ã³geno
ĠHol guÃŃn
ĠU GR
Ġv enci
Ġespon tÃ¡neamente
Ġvagin ales
den ts
ĠF inal
Ġper u
Ġnaci mientos
Ġla tidos
Ġsu puestamente
Ġciudad ana
Ġempren der
h tt
Ġdolor osos
Ġpla yas
ĠAl merÃŃa
gan da
Ġjun tas
ĠHab lamos
Ġconjun tos
f ritis
pr incip
H H
i anas
10 1
Ġdese ados
ĠnÃ³d ulo
ĠMay ores
ila tes
Ġ _
Ġromp e
ĠElec trÃ³n
Ġlle ven
Ġignor ancia
Ġendocr ino
ĠGu ad
13 0
Ġexces ivamente
Ġadyac entes
ĠG lor
Ġ10 1
Ġapro bar
Ġcondicion a
ĠB ig
Ġinci de
Ġabsor ber
Ġbenefici osa
Ġestu pen
Ġcompu tadora
Ġape go
ĠHier ro
Ã³r denes
Ġsolu ble
ko v
Ġpre escol
ĠO ut
Ġpol y
e cidos
Ġci ones
ĠmÃ© ritos
RA F
Z O
Ġdistrib uir
Ġescas as
Ġgen Ã©rico
Ġth ree
Ġagra v
enci ar
ER OS
ĠIc tus
ĠLe er
Ġexitos o
Ġexten dida
ov igilancia
Ġtel es
Ġd ucha
ab ra
Ġpre eclampsia
ĠÃ³r bita
ĠPaÃŃs es
consul tado
der ly
Ġpes a
Ġneuro logÃŃa
Ã©n dice
Ġfor tuna
bun ales
Ġencan tado
Ġpar ie
Ġdiver tido
Ġpare cida
Ġnovel as
ĠMass achus
ĠS panish
ĠNeuro cirugÃŃa
Ġ196 2
ĠPe ar
ĠSer ra
Ġajus tado
Ġaprovech amiento
Ġmela tonina
Ġcol ch
ĠG eron
Ġsa ga
d ur
S F
Ġalem ana
Ġme tan
Ġfun ction
Ġpes quis
TI R
b Ã©
tre mia
Ġre genera
ĠB at
ĠBio Ã©tica
ĠH am
ĠK ra
ĠDes tac
Ã¡g icos
f ra
Ġsos tener
Ġa xil
te ch
Ġca z
Ġexig en
Ġpreju icios
Ġneuro pÃ¡tico
Ġprecur sor
ĠG E
Ġce f
Ġenvi Ã³
Ġlin fa
Ġinter rup
Ġcal Ã³rico
Ġcono zca
re mo
Ġrela jar
TO DO
Ġm ere
ĠG im
Ġdin am
ĠSys tem
ĠlÃ¡ tex
ĠI MS
ĠU p
Ġempres ario
ĠfÃ¡ brica
ĠCh am
Ġaf inidad
Ġri f
ĠIn icia
par tment
Ġtu vieran
Ġqui ta
ar ma
Ġtom ada
dful ness
ĠF om
Ġci lin
s tru
ĠA guirre
Ġinciden cias
Ġmezcl ar
Ġin oc
Ġquer idos
Ġp ra
Ġgas tritis
Ġadver tido
Ġredon de
Ġsab ores
15 1
Ġbenefici arios
Ġinde mn
Ġsul fato
tu aciones
Ġnorte americano
gu inal
Ġpre gn
ĠS pi
ur se
Ġv uestras
ce fÃ¡l
Ġconstitu cional
ir os
Ġconven cer
ĠIn dex
Ġaum entos
Ġindi que
ĠSus ana
u mp
as on
ĠCom paÃ±
ĠcompaÃ± era
form ance
ĠSal ut
Ġapor tado
ĠC IR
ĠrÃ¡p idas
Ġestimul an
Ġal iado
tu ximab
Ġpas ivo
Ġla tente
Ġpercep ciones
Ġestira miento
Ġgan ando
ĠMon ts
ĠCon venciÃ³n
Ġpost grado
ĠSER VI
Ġdistin gue
Ġcar tu
Ġreac cionar
Ġatravi esa
Ġpos tural
ver n
Ġr ent
Ġque den
Ġpar cel
Ġcomprob Ã³
ĠCuen ca
ol ÃŃtico
Ġca va
tin amente
tÃ³n ica
T EC
ĠRev olucion
um as
Ġbio tecn
Ġelimin an
Ġt ari
Ġse t
Ġin venciÃ³n
g ara
pro p
mor e
Ġ19 68
15 7
ĠGer iatrÃŃa
ol itis
Ġmen tira
Ġhemisfer io
ine al
Ġinf usiones
Ġof ens
ĠFamil iares
F ran
T AL
Ġdesencaden antes
Ġres ume
Ġcan to
a den
Ġcuantita tiva
b ene
Ġpar ches
Ġtar da
Ġres istance
ido grel
Ġmal formaciÃ³n
Ġmac ros
Ġver lo
Ġap endi
Ġprocedi Ã³
Ġro cas
14 6
Ġne gras
Ġhe art
Ġus aron
Ġ10 9
Ġg re
iz adores
Ġcap tar
g ed
ĠIg E
tÃŃcul a
terapÃ©u tico
Ġleg almente
B D
ĠH Ã©ctor
ĠCom por
Ġactiv an
ĠlÃ¡gri mas
uel to
Ġmens aj
p ur
ĠLe gal
ĠTOD OS
Ġe arly
ĠN ursing
AD E
Ġinci dir
C AM
R NA
ĠPro yectos
et s
Ġsuf rieron
ĠAd ol
Ġins trucciÃ³n
es tad
Ġd ys
ĠJu ventud
Ġv on
ĠCastel lÃ³n
Ġpion era
Ġh erv
Ġpres ion
Ġrecom pensa
Ġregular idad
par o
ĠJul iÃ¡n
Ġeval Ãºan
Ġsab idurÃŃa
Ġris a
Ġdis olv
Ġextra Ã±a
Ġhep Ã¡ticos
Ġthro ugh
Ġllev ados
TR UC
th al
Ġami lo
ĠhÃŃ br
Ġexhaus tivo
Ġdi rÃŃa
ĠAr tritis
Ġmetod olÃ³gica
Ġangio grafÃŃa
Ġdemo grÃ¡ficos
n on
Ġpas tilla
n ar
lo y
ĠIV A
Ġfirm ar
v uls
Ġpre c
ĠpolÃŃ mero
ĠSe p
Ġpropens as
Ġpres s
Ġno via
ĠanÃ¡ logos
Ġmultifac torial
ĠaÃ³r tico
ul ador
Ġcabal los
bi t
educ aciÃ³n
Ġproxim idad
ĠtrÃ¡ mites
ĠHb A
Ġban c
Ġenti enden
di to
IC AM
ĠmÃ¡ ximas
Ġt estigos
Ġmejor amiento
Ġfi ables
Ġtens iones
Ġcompet entes
ĠCon clus
Ġfo i
Ġpredominante mente
Ġsu ena
Ġemi tido
Ġconme mora
Ġevolucion a
ici as
Ġpublic aron
Ġcole cis
de ri
ĠI sa
Ġhuel la
ĠBen ito
ĠClÃŃn icos
in ares
Ġco difica
oro este
Ġencefal opatÃŃa
ĠPolit Ã©cnica
ĠCÃ¡r denas
Ġp om
Ġlipos ucciÃ³n
f ÃŃsica
Ġacep tada
g rim
com un
Ġmencion ada
ĠS un
Ġacep tables
norm al
Ġbotul ÃŃnica
Ġele gi
Ġ( %)
Ġf ul
Ġger men
al os
ĠD ÃŃ
t acion
di fi
ĠT NF
Ġcol ap
Ġlu cir
ĠY A
Ġvacun ar
Ġca udal
Ġal gas
Ġjus tificaciÃ³n
Ġfarmacocin Ã©tica
Ã³ tida
ur go
Ġculp able
Ġvig entes
Ġinten ciones
Ġfin as
Ġhom olog
Ġpon gan
Ġir Ã¡n
Ġhil os
Ġdis oluciÃ³n
Ġs Ã©ptico
Ã© dica
ĠP H
Ġtu vimos
Ġcolec ciones
s ub
ĠB ill
dr ico
Ġmi den
Ġco oper
Ġreum Ã¡ticas
ĠH ere
ĠPe da
ĠPlan ificaciÃ³n
Ã¡ trica
ĠI vÃ¡n
fic acy
tor nos
Ġp acto
Ġdi anas
ĠW est
Ġestable ciendo
n iciÃ³n
ĠD iciembre
Ġse con
Ġinforma tion
Ġdespren dimiento
ĠlipÃŃ dico
ma x
Ġrefi riÃ³
acea e
Ġmar inos
efec tividad
n el
Ġsin Ã³nimo
gr acias
Ġdo tado
Ġov ulaciÃ³n
Ġingles a
w th
Ġpers isten
Ġmens uales
Ġacum ular
Ġba tal
Ġdirig entes
Ġd adas
ĠDi plom
Ġinconven iente
Ġinflu encias
Ġfrances es
Ġantipsic Ã³ticos
Ġman tuvieron
Ġloc alizadas
Ġcolonos copia
ĠJ ones
Ġgu antes
Ġbar co
Ġreligios o
Ġ0 2
ĠBra zil
Ġexci taciÃ³n
Ġhumil de
Ġdocum entado
P s
x icilina
Ġincrement ando
Ġimpresion ante
ĠÃĵ scar
m icas
Ġs orte
Ġob vio
ĠS oc
Ġarren damiento
ĠA ir
ĠsÃŃn cope
Ġcomen zando
Con s
ĠBR CA
Ġasoci aron
dis tas
ay as
Ġs chool
Ġgener ados
ĠInstitu ciÃ³n
ve t
ĠDi ez
ĠPos ee
ĠPubl ica
ĠMex icano
ul cor
ĠC ES
ĠCon ci
Ġincre as
Ġcertific ados
ĠESPE CIAL
Ã¡c ticos
ĠCom posiciÃ³n
M or
Ġportu gu
Ġmejor en
Ġfu ga
ord ina
Ġag lu
Ġvit alidad
gl uciÃ³n
Ġfuncion ando
on os
Ġad hi
Ġju gos
Ġdila tada
perit oneal
Ġdur os
ho od
Ġnucle Ã³
D T
ĠB ase
Ġ ud
Ġdeb u
bloque antes
Ġcos tas
Ġrespec tivas
Ġnervi osos
Ġregres Ã³
Ġbo th
EL L
ĠEspecial idades
trans fer
Ġb lando
far ina
Ġintrodu jo
ti er
Ġmir ando
di Ã©ndose
an dos
ent adas
Ġque hacer
Ġexp uso
ĠFac tor
Ġanormal idades
Ġintox icaciones
ĠMad re
ĠMana gement
Ġamer icana
ĠF Ã¡
Ġacom od
omÃ© trico
Ġcerem onia
Ġasign ados
estim ulaciÃ³n
ag ro
OL ES
Ġp istas
10 3
Ġapar ecieron
Ġadquir idas
ir as
tia z
p ril
Ġmoder ados
ill erato
g ru
Ġrequer ido
Ġimpar tir
bil izar
Ġalcan zaron
Ġimpac t
w or
ol ona
ĠmÃ© xico
Ġul timo
Ġne gar
Ġfamil y
ĠPedia tr
Ġestable cieron
Ġepi teliales
Ġmon tar
ĠpÃ©lv ica
ma gem
ĠG M
ĠSi tio
Ġwe ight
in k
Ġen marc
Ġextir par
e Ã±a
ĠT AR
Ġconviv en
Ġlig a
Ġtransi torio
S ervicio
Ġneutro penia
Ġpos traum
Ġven tila
Ġu ve
Ġdenomin an
ca t
la gos
Ġsuper mer
Ġrecono cidas
Ġelec trones
ĠC is
Ġpres tan
ĠvÃŃ rica
Ġingen iero
Ġcoher ente
Ġreal idades
ill ado
Ġases orÃŃa
Ġven gan
temp or
ĠVer acruz
ĠAr terial
Ġcer do
ĠImp acto
ĠDe tecciÃ³n
ĠPue blo
alim entaciÃ³n
ĠCam paÃ±a
ĠNic aragua
Ġgalard Ã³n
for e
EF E
ĠArch iv
ĠF le
he im
V AS
m end
Ġdar te
da te
ĠO pin
ĠPu ig
u aciÃ³n
ĠJ r
Ġab uela
ER C
Ġaisl amientos
Ġcontemp lar
Ġcoron arios
Ġtonel adas
Ġmu rieron
Ġexpres amente
ĠEspeci alizada
e dema
ĠF recuencia
Ġaprovech ando
cÃ³p icas
Ġacab Ã³
Ġepidemi olÃ³gicas
Ġsum ado
Ġderma tologÃŃa
ĠA bra
go depen
Ġc ese
Ġantivir ales
ĠCh en
Ġque ja
Ġfil m
Ġalve olar
des arrollo
Ġregistr ada
Ġtin ciÃ³n
Ġir rig
Ġconvoca torias
O PS
Ġan ex
Ġvig encia
n ell
Ġescuch ando
Ġval idado
Ġfalle cimientos
ĠhÃºme do
h ue
Ġanaliz amos
Ġincu baciÃ³n
Ġs trate
Ġsu ya
ĠB U
Ġser lo
Ġenfer mas
Ġmejor e
m bre
Ġgrave mente
ĠDin amarca
un cias
Ġllam amos
ĠMer cado
N OS
istÃ³ bal
Ġabs cesos
Ġaus tral
Ġapren diendo
Ġincomple ta
ĠFarmac ologÃŃa
ĠglÃº teos
polit ana
l uen
ol isis
Ġhemorr Ã¡gico
Ġmusculo esquel
Ġorient adas
Ġbios imilar
ti ras
cl ÃŃnica
ĠOr top
Ġdestac ada
fi as
ĠWil son
ĠanestÃ©s icos
Ġbara to
ĠGar rido
lop idogrel
ĠD osis
. Â»
l uc
ĠEs ther
Ġalter ado
aci al
Ġmam ario
ĠS oria
ĠIn c
Ġautor izados
Ġses enta
ĠCOMP UES
Ġhermos a
Ġdef unciones
Ġtes ticular
Ġconstr uyÃ³
mi tte
Ãº b
reg ulaciÃ³n
ĠCe cil
ĠF ÃŃs
Ġcal ambres
ID AS
h ol
Ġus ual
Ġpin cha
t Ã¡r
Ġtesti go
ĠAb s
Ã©r mino
Ġhipo xia
en cy
Ã¡ til
Ġafec te
Ġrepor tÃ³
Ġprescri to
es s
Ġd ual
Ġlo como
Ġurg entes
Ġno d
Ġmes o
ĠZ e
Ġtri dimensional
Ġat ento
g adores
Ġconec ta
ĠN OS
Ã©c do
ĠMedi das
tÃ© lite
ĠC AB
Ġsa biendo
ĠHon duras
Ġrevis a
un ar
elas co
Ġresuel to
cher ichia
gn a
s ive
Ġvir ul
Ġdec Ãºbito
Ġv ÃŃs
ÃŃn ea
aca te
ĠBel Ã©n
Ġb ec
ĠautÃ©n tica
Ġbuc ales
dor as
Ġten din
Ġ9 00
Ġnum ber
ĠQuirÃ³n salud
Ġtrata mos
Ġti rar
Ġad or
A d
di ta
Ġenfo car
Ġhici era
ĠsÃº per
Ġcardi Ã³logos
Ġcuantita tivo
ĠTra tamientos
Ġexcl uidos
Ġhu Ã©r
Ġser ias
ĠMa uri
ĠC COO
v Ã©ase
Ġcomun itarias
Ġorden adores
Ġreligios os
Ġdesagrad able
ĠRe medios
Ġestimul antes
Ġcor o
Ġgener ada
uls iÃ³n
ĠD ay
Ġre bo
15 6
Ġdespl ie
h h
ter ectomÃŃa
???? ????
Ġcolap so
Ġle tal
Ġnecesit en
Ġt ech
tic es
th s
Ġven ÃŃa
ĠPa ula
Ġregistr adas
ist s
Ġpa gina
ĠG or
ver te
rela ted
Ġ( +
Ġal titud
Ġdes cal
Ġsup rimir
Ġcorrel aciones
l is
Ġcaro tÃŃ
inc Ã³n
ÃŃng eo
TI ON
v ul
Ġan os
Ġtra bal
: )
ĠC K
N S
ĠR he
ĠMan ten
ĠPf izer
pi demia
Ġveci no
Ġf estival
ĠEnfer magem
ĠMen Ã©ndez
ci osa
Ġwh en
Ġabord ado
Ġestar emos
Ġam ÃŃg
Ġalter an
ĠX I
Ġedi tores
ĠLon don
Ġglucocor ticoides
EM AS
Ġtox ic
Ġqued arÃ¡
Ġregal os
ĠC OP
ĠG rupos
Ġmonocl onal
Ġintra celular
ĠFel ici
Ġllen ado
der ma
rol imus
ĠSos ten
Ġagon istas
c g
Ġca deras
Ġbor rosa
Ġconlle var
Ġdel a
Ġver ificaciÃ³n
Ġtarje tas
Ġacumul an
Ġproges terona
ĠMonts errat
Ġpade cido
z er
ĠM io
EN DE
ĠCar acas
Ġpreopera torio
si empre
Ġdiri gen
Ġequival entes
Ġinf rac
ĠrÃ©c ord
ĠH all
N os
ĠR P
Ġmezcl as
ĠEC V
go gÃŃa
Ġmal e
lan da
Ġproporcion ando
Ġobserv ando
Ġrepresent ando
Ġdios es
C OM
gur os
Ġna taciÃ³n
Ġb ic
fi le
Ġrelacion ar
ĠG PC
Ġplu ma
ĠÃ³v ulo
Ġd ona
ĠMa ta
ĠMa to
AC TER
Ġmeto trexato
er ciÃ³n
Ġn an
Ġdismin uida
ĠAz ul
Ġase qui
ĠAb or
Ġpas amos
Ġcu ente
tur adas
Ġw it
Ġescri tores
Ġper don
ĠEn dos
Ġ19 72
ĠSi tuaciÃ³n
un aciÃ³n
ĠLe w
ĠPro por
Ġbiom ec
ĠCapit al
Ġprecur s
Ġserv idor
Ġaficion ados
ĠEs trada
Ġbom bas
Ġpreven tivos
ĠCr istÃ³bal
Ġgubernam entales
te lo
Ġle gado
ĠS abemos
TI TU
Ġorient ados
Ġemp erador
ĠÃŃn tegra
taneo us
Ġen gan
Ġol ig
ĠQ RS
Ġfa ilure
Ġinsul in
Ġten ÃŃamos
Ġrepresent aciones
ĠF lu
ĠPa th
ĠcongÃ©n itos
Ġproteg ido
ĠMa teriales
Ġexcep ciones
Ġesqu ina
Ġpromo tor
omÃ© trica
Ġca ÃŃdo
Ġcep illo
tos as
Ġencontr ando
Ġfuncion e
Ġocup ado
Ġincorpor Ã³
Ġdiffer ences
Ġs arcoma
ĠEs pacio
ĠO me
Ġconlle van
Ġex ca
ti t
Ġ1 16
Ġami g
Ġevolucion ar
ĠL lam
ĠcientÃŃ ficamente
Ġgluc os
Ġperiton itis
tiv eness
Ġor questa
ĠMemor ia
Ġresul tando
Ġllen ar
Ġprivile gi
ĠE mo
per as
ĠMar c
Ġasi ento
Ġsuces ivas
Ġimpac tos
ĠStu dent
ĠMar keting
Ġiden tif
Ġdiafrag ma
ĠEstudi antes
Ġenten demos
ĠDomin icana
Ġex fol
Ġasi mi
Ġinmunosupres ores
D oc
Ġcor ren
Ġapar eciendo
S G
iz ca
Ġindic adas
ĠJu Ã¡rez
ĠAcep tado
Ġrep ente
ĠL ocal
ĠP IB
ĠH op
on se
ĠC ity
Ġal re
Ġeleg ida
Ġpaque tes
Ġesque leto
Ġvalor an
Ġtemp lo
Ġpal ma
ĠX III
uc k
ĠEn er
fici encias
Ġincorpor an
cent r
Ġhemo filia
Ġman d
Ġpat entes
uer do
ĠSte ph
n c
Ġnum er
Ġcul to
Ġclas s
Ġaproxim ada
ĠCam ino
H emos
ĠG S
15 5
f ting
aci dez
ER GEN
Ġed ulcor
ĠS cale
ts u
tÃ¡l amo
Ġmaes tra
og ar
Ġcalcul ado
Ġ .
tri p
Ġremi tir
es clerosis
Ġpat olÃ³gicas
Ġelimin ando
Ġperfec ciÃ³n
Ġtras pas
Ġconven ios
IF ICA
ĠH il
di ll
Ġleg ÃŃ
tin ela
ĠgeogrÃ¡ ficas
Ġse pan
ĠcongÃ©n ito
Ġultrason idos
Ġm s
ĠG es
ĠC ano
Ġder mis
Ġpic aduras
ĠJur ado
ĠR O
ĠDeb en
tifi cia
Ġsam ple
Ġimper fec
Ġindividu alizado
Ġcon fer
ĠCam bridge
Ġextra cor
Ġconsum ido
Ġperci bido
Ġcomprome tida
Ġconsolid ar
ĠcoÃ¡g ulos
ĠCÃ¡ ceres
Ġc aj
Ġgem elos
Ġaf uera
enter io
ĠCar ras
Ġsub e
Ġcualita tivas
IT AL
I TO
un tura
ĠIns pec
Ġbal oncesto
ĠCereb ral
ĠP ier
Ġintra muscular
Ġde gluciÃ³n
aj or
Ġab aste
Ġnecesita ba
Ġpantal las
Ã³ pata
n ec
ĠF ru
Ġrepor tados
res e
ĠPR IN
ĠIntel igencia
Ġinter personales
don de
Ġsys tematic
Ġcono zcan
ĠC G
tom ia
Ġpen ÃŃnsula
cr acia
di litis
Ġproces ar
EP OC
Ġbrus ca
ĠSal as
Ġaument aron
ci dades
Ġno tificado
Ġespeci fica
ĠDivers os
Ġcon cu
, "
al b
Ġbas Ã³
Ġâ ĸ
Ġmedicin al
ĠArro yo
u ginosa
ĠBar rio
Ġantiinflama torio
Ġginec ologÃŃa
ĠI ra
ĠH ur
Ġval ioso
Ġcotidi ano
ĠHel icobacter
Ġfi lo
Ġhal lan
Ġfactor ial
Ġc usto
one fritis
Ġeste mos
Ġocup Ã³
Ã¨ ncia
Ġon ly
ĠVi olencia
Ġvari anza
19 95
an dez
ue ta
Ġpar am
Ġsu po
Mar tÃŃn
ĠAtlÃ¡n tico
ĠNe ur
Ġde ter
ĠF Ãºtbol
ĠH acia
Ġperio dismo
Ġinmigr ante
Ġo ur
Ġexpuls iÃ³n
Ġrepresenta tiva
ĠC NAE
Ġproces s
on ucle
Ġnombra miento
ĠPa tolÃ³gica
Ġevent ualmente
p rÃ³
ĠÃ Ĺ
Ġdesas tre
ĠalÃ©r genos
Ġinvestig ado
pres idente
Ġconform ado
i amente
Ġper ÃŃmetro
Ġoscur idad
Ġencamin adas
Ġdin Ã¡micas
bi ologÃŃa
Ġincorpor ando
ĠDoc umento
Ġmedi oc
Ġarteri ales
ĠF recu
ĠTro mb
Ġvancom icina
Ġper icÃ¡r
Ġter ci
k is
in arias
Ġen cer
Ġtromb ocitopenia
ĠCI E
Ġadju dic
Ġselec tivos
Ġvia j
ĠBi om
ven ir
ĠCor tes
Ġobes as
Ġprior itario
Ġt amb
ĠD J
il able
ĠÃ© ticas
Ġvalor aciones
ab ar
Ġnec ro
Ġpun tuales
Ġadministr ados
Ġesmal te
Ġsu ceso
ĠEn tero
Ġtom aban
Ġenglo ba
rec ciÃ³n
Ġorganiz Ã³
ĠIN TR
Ġbloque adores
Ġcompra venta
ĠSigui endo
th an
Ġelimin ado
Ġhidra tante
Ġantagon ista
Ġenju a
Ġin und
iz e
Ġal turas
Ġcombin an
Ġine qu
Ġguer ras
C AR
Ġcub ren
ester n
in fecciÃ³n
Ġac tÃº
itos is
ĠGastroenter ologÃŃa
ĠB ajos
Ġverte brales
Ġcompens aciÃ³n
ĠGal lego
ĠT ay
Ġvir gen
ĠCas os
Ġta pa
Ġelectro do
Ġdesplaz amientos
Ġre organ
Ġoptim ismo
ion ista
a pren
eller ia
Ġvenen o
Ġreconoci mientos
iv ed
âĢ ¢
Ġcompar an
ier es
ĠEspecial istas
Ġliter aria
vo car
Ġox igeno
Ġse mb
Ġcaca o
C or
pene m
ronutri entes
Ġb uro
gr ada
Ġreci ba
Ġfalle cieron
Ġfres cos
Ġorganiz an
Ġtar dar
Ġenv ol
Ġtransfus iones
U AL
Ġmig rantes
Ġnutri cionista
Ġatrib uir
Ġpon drÃ¡
b aci
he mo
Ġestric ta
Ġuter ina
Ġdespi erta
s ÃŃ
aliz aron
ĠGran des
ĠpsiquiÃ¡ trico
Ġcon tenciÃ³n
ĠInici almente
Ġpre domina
Ġlaparos copia
os amente
Ġrenunci ar
Ġser pi
Ġhor no
Ġmec Ã¡nicas
ĠZ o
ĠhomogÃ©n ea
Ġr uso
Ġdifi eren
Ġa que
pi de
Ġau tol
ĠPar k
v oc
Ġin guinal
Ġexpe dientes
Ġdeform idad
ver y
tÃ³ pico
Ã¡nd olas
m ec
ĠPues to
Ġcompar ando
Ġvalor ados
Ġven de
Ġval idar
Ġcome tido
Ġnave gador
Ġestim Ã³
Ġdivers a
CION AL
Ġprefer iblemente
Ġpop ul
Ġha gas
ĠCono ce
ĠEsco bar
Ġcaracter es
ĠeconÃ³m icamente
ĠCO F
Ġreclam aciones
ĠA plicaciÃ³n
Ġpol o
am icina
Ġhab lo
b idas
ada jo
Ġcompos iciones
Ġpreserva tivo
ĠEs tar
Ġcl ÃŃ
ĠAn tio
U PO
k u
Ġcircun ferencia
Ġbas tantes
ĠG om
Ġ3 60
mis sion
ĠImp uesto
ĠR h
Ġale manes
ita mos
Ġesc enas
Ġ% ).
Ġrobo ts
ĠW HO
Ġmostra ba
ĠA ustria
ĠAcu erdo
ĠP T
fa z
Ġhemor roides
Ġton os
Ġbeneficios as
Ġjuz gar
Ġconqu ista
Ġviv ÃŃan
bo a
Ġguitar ra
S EN
cul tivo
ĠCON TR
Ġpato genia
Ġfer ment
ĠaÃ© reo
z y
Ġn Ã³
E O
Es tos
Ġescal eras
Ġdi le
Ġges tos
el amente
ĠUnivers o
Ġinterpre ta
go ci
Ġcre di
Ġhipo gluce
Ġad misiÃ³n
Ġfal tar
Ġnum ero
Ġcuanti tativas
ines s
Ġsho uld
ĠBr us
ĠCON TIEN
ari edad
Ġ13 5
adajo z
Ġir is
Ġasisti eron
ĠParticip aciÃ³n
Ġcardi orres
Ġflu or
Ġatra cciÃ³n
Ġvesti do
Ġdecor aciÃ³n
Ã ´
mor al
Ġdeb idos
Ġas tenia
ĠSol ici
ĠH uelva
Ġperman eciÃ³
Ġpropi amente
ĠocÃ© ano
Ġimp one
Ġgobern ador
Ġestructur ado
Ġ195 7
Ġs tra
ĠC ra
ins t
TIC OS
Ġhacer te
Ġconf ron
Ġma pas
Ġrec tor
Ġfin o
Ġpromo vido
ĠC uestionario
Ġpl us
Ġ1 17
IS TR
Ġacad Ã©micas
t ology
ĠEs pe
Ġpreopera toria
Ġinf rar
IS MO
Ġequiv ale
E uro
Ġo yentes
ĠSe ptiembre
Ġfi jado
Ġorganiz adas
Ġprecis Ã³
ĠAs sessment
ad illas
ĠEs cal
th es
Ġam en
Ġrealiz aba
Ġendo telio
ĠMad rile
Ġsi llas
Ġsatisfec hos
IER E
L V
Ġbio ps
ĠMer ck
Ġa me
car o
Ġb ach
Ġdis puesta
Ġan Ã©cdo
Ġ10 6
Ġgra bar
ano va
ĠMinis tros
ve ment
Ġrepor tan
ti cismo
ĠfarmacÃ©u ticamente
ĠS ED
ĠW ork
Ġaneuris mas
Ġmor ales
Ġmedi adores
ĠvÃŃ r
ĠRe view
Ġdes Ã³rdenes
ĠR NA
ĠPa trimonio
Ġcu ida
ĠIn tra
des te
Ġforma tos
AR C
quirÃºrg ico
as iÃ³n
tiv ales
ĠC ENT
Ġdemas iada
Ãºr pura
Ġcre aron
eo plÃ¡s
Ġtable tas
os ina
Ġcuan tÃŃa
Ġdescen dencia
ogrÃ¡ ficas
hor t
Ġconcili ar
Ġap ical
Ġca yÃ³
Ġpsiquia tras
Ġpol io
Ġmues tral
ĠAr t
ĠNeona tologÃŃa
ĠSecund aria
Ġer ecciÃ³n
ĠPa in
Ã³l era
Ġinvi to
Ġs ch
Ġse amos
Ġorg Ã¡nicas
Ġmaravillos a
Ġal tru
Ġpal pitaciones
glic er
Ġre tira
Ġtri bunal
Ġap la
Ġpin tor
n ivel
ĠP OD
Ġimpor taciÃ³n
Ġrepu bl
Ġdistin guen
ĠAdul tos
ĠpediÃ¡ tricas
Ġ196 7
arrag ona
Ġhom oci
Ġconsecu ente
Ġecos istema
ĠHealth care
Ġ196 9
n ic
ĠHi jo
Ġresid uales
Ġdirig irse
Ġadap taciones
Ġpeti ciones
ĠS um
ĠA credi
Ġ19 71
Ġradi olÃ³gicos
Ġhal lar
f rac
un e
ĠOb ra
Ġs tar
Ġtal lo
ig e
Ġo val
Ġrespon dido
Ġsom br
th ritis
ĠC op
Ġap las
Ġdesenca dena
ĠP le
qu ent
Ġ1 11
Ġadolescent s
Ġp irÃ¡mi
OG R
Ġconsta tado
ĠCon gresos
Ġran gos
Ġplur alidad
Ġhal lado
Ġauton Ã³mica
Ġrob Ã³tica
ĠPon tificia
ĠT O
Ġi li
ĠantibiÃ³ tica
ts on
ĠCoordin adora
s ible
Ġconstituy Ã³
ĠRespon sable
tras plante
Ġtes tÃŃculos
Ġamer icanos
S er
ĠEmpres as
ĠDIA GN
Ġm ud
Ġna vide
Ġcontrol led
D H
ĠB ritish
Ġvie ja
om i
ĠidÃ³n eo
Ġper dÃ³n
Ġad mite
Ġemp ecÃ©
ĠA fortunadamente
gu re
tas e
ĠV Ã©ase
Ġpas arÃ¡
P lus
l um
Ġman u
Ã¡c til
Ġinn umer
Ġcu bierto
Ġmanus crito
Ġ10 4
Ġpar ques
tur ado
10 6
Ġextra e
Ġpos grado
ĠD ON
Ġj ar
ĠCon tiene
ĠMc G
f ace
Ġlevan tarse
Ġpi ano
Ġregres a
Ġinmuno histo
Ġconfirm ada
ĠP ino
Ġhid rÃ³
demi as
Ġsome tida
Ġgran o
ĠPr Ã¡cticas
Ġlon g
ĠpsÃŃqu ico
Ġcontrarres tar
Ġs is
Ġes for
Ġdes ci
Ġad minis
Ġtrasl ada
ĠdomÃ©s ticos
Ġm uebles
og a
acion alizaciÃ³n
Ġepidemi as
ul adores
le a
Ġsiste mÃ¡ticas
Ġinstaur aciÃ³n
Ġembol ia
Ġap ues
Ġran king
end ÃŃa
Ġinvit aciÃ³n
Ġar gentina
a ur
ĠPR EPAR
ĠRa quel
Ġsuple ment
Ġw o
Ġas ciende
ĠO per
Ġapoy ando
Ġ196 4
Ġplie gues
Ġmus lo
L OS
Ġex i
Ġpap Ã¡
ĠE ch
ĠC OS
que a
Ġwit hout
x ie
Ãĵ G
Ġman guito
Ġconfirm ados
ĠSe guimiento
Ġcal ientes
gi p
Ġpata tas
Ġyo u
Ġatra er
Ġile gales
Ġtr ucos
Ġrenta bilidad
Ġrec ta
199 6
TOR ES
Ġj ajaj
ord ar
Ġfol ÃŃculos
f und
Ġven ga
Ġtor re
ĠFran ces
Ġluch ando
Ġsegu ÃŃa
Ġmetod olÃ³gico
ĠV elasco
Ġsatisfec ho
ĠLi mp
ab Ã©ticos
Ġpal p
Ġpresent arÃ¡n
Ġgr acia
ĠEsper anza
ĠVal orar
Ġnatur almente
ĠMassachus etts
ĠEs cherichia
Ġven daje
Ġsubyac entes
ĠPROC ED
Ġ196 5
ĠI SO
ĠV D
Ġter cios
tÃ³l ico
H is
ĠbritÃ¡n ica
Ġinvi tamos
Ġmasco tas
Ġactiv ado
cul tura
m all
Ġequ ivo
Ġcomplement ario
ec he
Ġdur Ã³
Ġhablar emos
Ġpasaj eros
s olo
amer icanas
Ġbre cha
Ġpertin ente
Ġ1 13
ĠP TH
Ġoxigen aciÃ³n
Ġo zono
ĠMe ta
Ġgrues a
Ġre gar
Ġmin i
Ġpin turas
Ġsub tipo
ol ib
Ġcas ti
ĠautÃ³n omos
ĠSel ec
ĠCon de
cre a
il y
Ġor gas
ci entÃŃ
ĠAnestes ia
Ġf etales
ĠSala zar
Ġenciclo pedia
ĠG C
po p
m id
qui ta
ĠMil ler
Ġnie ve
Ġabus os
el ing
ĠP un
ĠF AM
Ġprove er
mart ph
ĠSo uth
Ġa ve
Ġ196 3
t oles
ma te
Ġconvier ta
ĠpÃŃl dora
ĠA ri
ĠP AN
Ġpromo viendo
Ġentrevis tados
que os
M ED
ÃŃ es
Ġp ala
tin er
Ġreaf irm
ĠSupre mo
Ġproduc tiva
Ġafirm aciones
ar ning
Ġlo cura
Ġmanten ida
Ġgal le
Ġllu vias
ĠJ al
Ġmicro gramos
Ġradi olÃ³gico
v antes
Ins titu
Ġentre gÃ³
ĠMar quÃ©s
Ġmoder adas
Ġaer uginosa
b b
Ġcel ls
4 50
Ġa e
Ġmo co
UL OS
Ġdirec tas
Ġcomple tado
Ġj en
Ġvir tuales
cel ulares
zep am
Ġre tr
ÃŃs o
li p
Ġreac tivos
Ġprovoc adas
Ġparad Ã³j
ch ado
Ġin Ãº
ĠA mi
: '
Ġpul gar
Ġfis cales
ÃŃcl icos
am ia
Ġvo tar
Ġproven iente
Ġw a
ĠTh om
ĠTit ular
cip iente
Ġevolu tiva
Ġtranspor tar
gi bre
Ġmar ina
Ġcos tado
bo ok
ĠCor reo
- )
ĠP ic
Ġespi ro
Ġno ble
Ġdes vel
ĠE PS
ĠPedia trics
Ġf ur
Ġrecu biertos
ĠEnseÃ± anza
mitte e
G ran
Ġves ÃŃculas
Ġestr ÃŃas
ĠMon t
ti gma
Ġintraven oso
Ġdiscri min
ĠCompor tamiento
Ġcu banas
Ġestar ÃŃan
Ġmotiv ado
Ġasintom Ã¡tico
ĠConsul te
Ġneurotransmis ores
ĠC amilo
Ġz umos
ĠLic encia
ĠCom plicaciones
Ġhipo termia
Ġcolum nas
Ġolvi des
Ġpre ex
mo der
ĠW all
ĠInstitu ciones
Ġalco xi
Ġtransform aciones
Ġbar ro
Ġplante arse
b Ã³
Ġra te
Ġbio Ã©tica
Ġhipoc ampo
ĠseÃ± ores
Ġcircul antes
Ġmarc ados
Ġb ares
Ġfil as
Ġreper fusiÃ³n
p Ã¡ticos
in di
om ÃŃas
Ġ19 40
Ġventan as
Ġestu do
Ġpers istentes
ĠRe des
Ġinmun es
Ġdif uso
Ġch ile
Ġcompro baciÃ³n
er t
ones es
Ġprecis as
ĠpsÃŃqu ica
n utri
vera ge
ĠM am
Ġher b
Ġdiar reas
ĠPer mite
oles terol
Ġrecibir Ã¡n
Ġconviv ir
ĠPrincip ios
ĠSimp osio
ĠCOM UN
ries go
ĠM B
at ch
fin anci
Ġmadru gada
cip ital
tt y
i tia
ur ado
jec tive
p ad
Ġplan ific
Ġes torn
AC O
mun ica
in ales
Ã¡zar o
ens as
Ġorganiz ados
Ġdu des
Ġro to
ĠF J
ĠB ios
ac ol
ĠÃģ cido
Ġoch enta
Ġan ular
Ġgan adores
Ġrepu taciÃ³n
Ġsatisfac torios
Ġho teles
Ġexacer baciones
der se
Ġex quis
Ġreduc ciones
Ġvuel tas
Ġlo ca
ĠðŁĻ Ĥ
Ġweb s
Ġdetec tadas
Ġrecib idos
ind ustria
sÃŃn drome
H DL
ll amente
prim idos
pa thy
Ġrecibir Ã¡
ĠLitera tura
Ġ1 18
cl oro
cas a
ĠCu ar
Ġdese able
un do
Ġmil ig
fen il
Ġtor tu
Ġc aciÃ³n
ĠDe velopment
Ġindirec tamente
Ġ1 14
Ġmas ivo
Ġconten ida
Ġbar ras
Ġsup port
Ġata ca
Ġdiferenci an
menta tion
cord ing
ĠMU Y
ĠFibro mialgia
ĠDes a
Ġfuncion ario
Ġcan tar
idel idad
Ġreju venecimiento
Ġcompar ados
Ġloc almente
ly ing
Ġgra bado
Ġbio dispon
Ġad vierten
Ġfamil i
Ġcirc und
ĠFun ciÃ³n
ĠGR AN
ĠChild ren
ĠS ho
gan cia
ĠBar rios
ĠIndustri al
Ġsacri ficio
abell Ã³n
C entro
L AS
Ġfla v
ĠFiscal ÃŃa
Ġtra mo
Ã©nd ola
ĠTe ma
Ġoscur as
tid ina
Ġcoun tries
Ġsymptom s
ex iÃ³n
ĠH igh
PR ES
mi ra
ĠPr ado
ĠSa Ãºde
Ġantihista mÃŃnicos
Ġel derly
ĠOfici ales
Ġdel gada
Ġpol ip
ĠCR IS
Ġsin usitis
Ġmitocon d
it ari
ÃŃn ico
Ġatmosf Ã©rica
Ġcolon ial
m Ã³
Ġh ista
ĠT U
em en
ĠSim Ã³n
Ġmostra ban
Ġprotes ta
Ġaf ines
ĠEs tu
Ġges tante
Ġdesen lace
ĠCampe onato
Ġmon um
ĠColum bia
ĠdomÃ©s tico
Ġcompe tir
Ġtra ge
ĠestÃ© ticas
c Ã©n
ĠEs os
Ġter ra
Ġcampes inos
Ġas pira
Ġoftalm ologÃŃa
ĠH AC
Ġpas adas
Ġconvenci do
Ġtrami taciÃ³n
Ġan dr
cri ta
UR OPA
su per
Ġcuchar adas
Ġs Ã©rico
Ã¡ mb
Ġbiblio grÃ¡ficas
Ġen mascar
ul i
Ġsec ues
Ġfo bia
ÃįT ULO
Ġher nias
19 2
Ġestra tificaciÃ³n
Ġapropi adas
Ġo clus
ĠI ll
ĠTer ri
Ġperfec cionamiento
Ġcateter ismo
do pa
ol l
Ġneces s
Ġrecidi vas
Ġllan to
Ġexcus a
dic ciÃ³n
ĠJo ven
ĠaÃ±ad iendo
ĠLou is
ol ol
Ġtrabaj adora
ĠW in
Ġrecib idas
ĠCatal Ã¡n
Ġrecha zar
Ġidentific ada
Ġcoloc an
Ġpig ment
ĠJane iro
Ġplan a
is cos
Ġsuel do
g ad
Ġcr ÃŃa
Ġdese e
Ġambula torios
ĠPRIN CIP
Ġun ico
Ġagrade cido
Ġh ir
Ġali ados
p ing
ue z
ĠCu adro
Ġaero puerto
ĠXa vier
S o
Ġg oma
Ġg ela
Ġpri mo
pla tino
Ġgastroenter itis
me dades
Ġmu tua
Ġagre gado
Ġcompar able
Ġinforma tivas
ĠAS I
Ġe min
ĠB om
ĠOrto doncia
Ġestero ideos
e ficacia
ĠD IF
ĠCon tac
ĠAu xil
Ġex ante
Ġpoder osa
Ġhipo tÃ¡lamo
IV A
Ġexcep cionales
ise ma
Ġparti endo
ĠFuer zas
ĠDE N
Ġcuan tific
AB A
-- .
Ġinus ual
Ġale gra
pl ant
fon ÃŃa
Ġtol erabilidad
ĠCon curso
Ġdic tadura
Ġcobr ar
ul in
Ġasign ado
Ġprescrip ciones
Ġinnumer ables
Ġconfi ere
ĠnÃŃ trico
Ġcharacter istics
cep t
Ġapropi ados
Ġan to
Ġhom eos
ome galia
posi tivos
Ġdestac adas
ĠSal monella
TER IOR
V ER
ta ke
Ġdi gan
ĠMej ora
ĠC B
Ġsal idas
Ġfran ja
Ġwar farina
Ġpade cimientos
Ġvul gar
c c
ĠLa w
Ġgro ups
Ġper e
ĠPR EV
anal ysis
Ġdrug s
s ki
de h
Ġpos tre
Ġbila terales
Ġja pon
ĠG las
Ġtiro ideas
ĠNie ves
Ġe gip
ĠAs unciÃ³n
ĠRom Ã¡n
ĠAl cohol
Ġmon stru
Ġinciden ce
Ġver ific
Ġmicro c
tri o
Ġher idos
OL ÃĵG
Ġentreten imiento
tis tical
H TA
Ġ10 7
a gu
ĠclÃ¡s icas
Ġaval an
Ġdescu ento
cÃ³p icos
ĠO sa
ĠG ib
Ġaleator izaciÃ³n
Ġcontraindic aciÃ³n
Ġlitera ture
p tos
Ġdis cusiones
Ġ4 50
Ġcomprome tidos
A unque
z arse
ur ses
Ġac aso
Â® )
Ġbrin dan
Ġaj ena
Ġmus los
ĠG ala
Ġdis tri
est Ã¡
ĠIr landa
Ġrepresent ada
Ġbom bar
Ġsubray Ã³
Ġc le
ADOR ES
ĠDefin iciÃ³n
7 00
ĠCi er
ĠIntern acionales
ĠGr ad
Ġ196 6
Ġnosocom ial
ĠAn na
ĠNorte amÃ©rica
cap aces
ĠA ur
il io
ĠT EC
ĠseÃ±al aron
Ġm y
ĠAs ma
Ġconce dido
Ġacus ado
k al
Ġdes mi
ulo patÃŃa
g entes
Ġg ab
Ġpen itenci
Ġacord ado
IENT OS
w ar
ĠM H
ĠK ir
ĠDoc encia
Ġ10 8
Ġrefer ida
Ġnacional idad
Ġinterven tion
Ġbusc amos
ĠA lo
Ġhom e
Ġcas tigo
Ġapren den
Ġextre mas
Ġpor os
Ġacum ulado
Ġcito cinas
Ġabar can
G S
Ġsex ta
Ġparticular idades
ĠEs cu
x aca
Ġrecuper ado
ĠobstÃ¡ culo
ĠK u
acÃ¡r idos
ĠcÃ© le
ĠCom andante
Ġmon te
Ġreun iÃ³
es ar
fic e
Ġca tas
ĠO rig
Ġimplic ar
ĠAe des
ĠSindica to
Ġcin tur
Ġproto tipo
Ġmulti plic
Ġfer ia
Ġpes ada
Ġinteres ar
Ġpromo tores
Ġto p
ĠV ila
Ġcolabor an
Ġra zas
UR O
ĠJose ph
Ġretrospec tiva
Ġinstal ado
Ġcom munity
Ġfollow ing
Ġdes echos
Ġcur sar
Ġproteg idos
ĠG am
Ġsan ta
Ġemo cion
Ġpul pa
Ġmodific ados
ĠPl us
ĠMi ami
ĠGR UPO
Ġpare cidos
EC TO
Ġsub ida
ĠApro v
Ġintent Ã³
G onz
R T
Ġte Ã³ricas
Ġimpar tido
ĠGlor ia
mp l
Ġinter iores
Ġedi tado
aci adamente
Ġalim enta
Ġdiscri mina
Ġtra cciÃ³n
Ġma il
Ã±os a
im Ã©
ĠCar rillo
Ġvari ado
Ġana ero
Ġbus que
ier an
Ġilus tra
ĠGer ardo
Ġcentr arse
Ġco ches
Ġavent uras
Ġdisli pemia
Ġb one
Ġfun da
ĠN P
ren o
ĠASP ACE
Ġobses ivo
te mos
mi tir
Ġcur san
dente mente
Ġconvoc ado
d remos
Ġcons istentes
Ġpregun tado
tu ber
duc tor
Ġorig inar
ĠAns iedad
Ġacercar se
we ver
Ġbloque a
IEN DO
ĠEco grafÃŃa
n ed
ĠC aja
Ġter remo
Ġrefrac taria
Ġrefres cos
ĠcÃ©r vix
ÃŃ var
Ġfin ca
ĠT F
ĠDen gue
Ġbenefi cia
Ġsac ro
ĠT H
Ġce jas
Ġmad ura
ĠHa z
Ġlogr arlo
Ġpropie tarios
Ġla ter
cep tos
ID S
Ġemple arse
ĠFre ud
te ur
Ġcel i
ĠAy er
ĠMED I
ĠAc ces
Ġcomp l
Ġconce bir
Ġconten ga
ĠBre taÃ±a
Ġsus tent
Ġm ueven
din Ã¡mica
Ġnorte americana
v idos
Ġm ÃŃo
ĠGÃ©n ero
Ġcito quinas
Ġincen tivos
ĠfÃŃs tulas
Ġren uncia
Ġindirec tos
tÃ³x icos
ĠMEJ OR
Ġre posiciÃ³n
lo cu
ĠPACI ENTES
Ġsa tÃ©lite
res te
Ġmen tiras
ĠHen ry
ab dominal
ĠN F
Ġexam ina
ĠPubl icado
Ġnovedos a
' )
Ġo d
Ġform ular
Ġfil traciÃ³n
tÃ¡s tro
ĠP it
Ġaf fec
Ġcuchar ad
Ġso vi
Ġinsu ficientes
o de
Ġcorrec tas
Ġol ores
Ġec olÃ³gico
Ġcoh esiÃ³n
Ġcons trucciones
ĠES O
Ġem ble
on c
Ġcandi diasis
ĠD un
Ġjus ta
Ġcandida tura
Ġti tan
et ti
Ġemerg ente
ĠJ F
Ġdej es
l Ã³
Ġgu i
ĠCons elleria
Ġaconse jan
ĠS ano
tiv ely
in aciÃ³n
ĠVal ores
Ġeleg idos
b ismo
ĠlÃ¡ mp
C re
ĠC Ã¡n
Ġbaci los
Ġy ear
[...]
