{
  "!": 4,
  "!!": 2426,
  "!!!": 7392,
  "!!!!": 10283,
  "!!!!!": 32637,
  "!!!!!!!!": 32380,
  "!!!.": 45207,
  "!!.": 48224,
  "!\"": 37192,
  "!\".": 48741,
  "!)": 39810,
  "!,": 19861,
  "!.": 18571,
  "\"": 5,
  "\"\"": 45222,
  "\"(": 40740,
  "\")": 12940,
  "\"),": 20758,
  "\").": 17248,
  "\",": 856,
  "\"-": 50194,
  "\".": 942,
  "\":": 16004,
  "\";": 14546,
  "\"?": 29246,
  "#": 6,
  "$": 7,
  "%": 8,
  "%(": 50020,
  "%)": 2359,
  "%),": 4230,
  "%).": 4809,
  "%):": 45989,
  "%);": 20953,
  "%,": 2857,
  "%-": 25862,
  "%.": 2945,
  "%/": 50161,
  "%:": 12197,
  "%;": 10245,
  "&": 9,
  "'": 10,
  "''": 10468,
  "''''": 40269,
  "'',": 44339,
  "')": 24055,
  "'),": 42753,
  "',": 3477,
  "','": 20061,
  "'-": 36753,
  "'.": 5877,
  "':": 38893,
  "';": 36719,
  "'s": 6260,
  "'t": 40751,
  "(": 11,
  "(.)": 8471,
  "(>=": 33625,
  ")": 12,
  ")\"": 34061,
  ")\",": 31960,
  ")\".": 32039,
  ")(": 520,
  "))": 28534,
  ")*": 44635,
  ")**": 45283,
  "),": 604,
  ")-": 9009,
  ")-,": 47097,
  ").": 544,
  ").-": 13919,
  ")..": 28197,
  ").âĢĵ": 30444,
  ")/": 28021,
  "):": 1181,
  "):.": 18672,
  ");": 3094,
  ")?": 27611,
  ")]": 36720,
  "*": 13,
  "**": 5893,
  "***": 40863,
  "****": 18731,
  "********": 37365,
  "*,": 25476,
  "+": 14,
  "+)": 36331,
  "++": 13080,
  "++++": 48616,
  "+,": 15850,
  "+.": 22626,
  "+/": 29265,
  ",": 15,
  ",\"": 22944,
  ",'": 17876,
  ",(": 26842,
  ",,": 9729,
  ",,,": 41199,
  ",,,,": 34888,
  ",.": 7959,
  ",.)": 39235,
  "-": 16,
  "-(": 13079,
  "-)": 23145,
  "-,": 7201,
  "--": 2007,
  "--,": 25531,
  "---": 38397,
  "----": 4311,
  "--------": 7496,
  "----------------": 13119,
  "--------------------------------": 24525,
  "--.": 23681,
  "-->": 23143,
  "-.": 14123,
  "-;": 37042,
  "->": 28551,
  "-[": 34186,
  ".": 17,
  ".!": 42355,
  ".\"": 5826,
  ".\",": 32445,
  ".\".": 29229,
  ".'": 28517,
  ".(": 11757,
  ".)": 3220,
  ".),": 9043,
  ".).": 7535,
  ".):": 36271,
  ".);": 47755,
  ".*": 38709,
  ".,": 1561,
  ".-": 2558,
  "..": 3607,
  "..-": 25735,
  "...": 20841,
  "...)": 38941,
  "....": 14560,
  "........": 27964,
  "./": 23748,
  ".:": 5607,
  ".;": 9706,
  ".?": 16846,
  ".[": 13849,
  ".]": 5624,
  ".Â¡": 25828,
  ".Â»": 22482,
  ".Â¿": 18445,
  ".âĢ¢": 46539,
  ".âĢĵ": 41939,
  "/": 18,
  "/-": 18846,
  "/.": 31332,
  "//": 2842,
  "0": 19,
  "00": 442,
  "000": 949,
  "0000": 39988,
  "0001": 20111,
  "001": 6974,
  "002": 24282,
  "003": 26335,
  "004": 28276,
  "005": 24604,
  "006": 32736,
  "007": 33913,
  "008": 31953,
  "009": 39033,
  "01": 4471,
  "010": 48928,
  "011": 45326,
  "012": 46412,
  "013": 47188,
  "014": 47824,
  "015": 46081,
  "016": 48393,
  "02": 4790,
  "03": 3400,
  "04": 3139,
  "05": 3462,
  "06": 5154,
  "07": 4991,
  "08": 5355,
  "09": 4951,
  "1": 20,
  "10": 1170,
  "100": 5005,
  "1000": 1459,
  "101": 18925,
  "1016": 28169,
  "102": 18031,
  "103": 19638,
  "104": 18657,
  "105": 16805,
  "106": 20885,
  "107": 22509,
  "108": 11002,
  "109": 22024,
  "11": 1604,
  "110": 15536,
  "111": 22762,
  "112": 16621,
  "113": 24746,
  "114": 23055,
  "115": 23993,
  "116": 17670,
  "117": 24946,
  "1172": 31912,
  "118": 25767,
  "119": 24023,
  "12": 1246,
  "120": 14326,
  "121": 5606,
  "122": 23999,
  "123": 14481,
  "124": 25040,
  "1240": 35652,
  "1242": 46859,
  "125": 14405,
  "126": 23516,
  "127": 25430,
  "128": 25544,
  "129": 18870,
  "13": 1913,
  "130": 19614,
  "131": 22510,
  "132": 25851,
  "133": 26914,
  "134": 27635,
  "135": 25186,
  "136": 28611,
  "137": 27790,
  "138": 18923,
  "1388": 26930,
  "139": 26869,
  "14": 1890,
  "140": 17278,
  "141": 24121,
  "142": 16714,
  "143": 28488,
  "144": 28561,
  "145": 25115,
  "146": 21266,
  "147": 30540,
  "148": 31469,
  "149": 24506,
  "15": 1726,
  "150": 16168,
  "151": 21228,
  "152": 18166,
  "153": 26379,
  "1536": 19788,
  "154": 32220,
  "155": 22570,
  "156": 21975,
  "157": 21587,
  "158": 27330,
  "159": 27261,
  "16": 2091,
  "160": 19976,
  "1607": 29082,
  "161": 34787,
  "162": 31815,
  "163": 36112,
  "164": 36880,
  "165": 35940,
  "166": 38098,
  "167": 37341,
  "168": 37102,
  "169": 40709,
  "17": 2061,
  "170": 31442,
  "171": 35218,
  "172": 32767,
  "173": 40315,
  "174": 38476,
  "175": 38075,
  "1758": 21447,
  "176": 36118,
  "177": 40177,
  "178": 39450,
  "179": 39321,
  "18": 2048,
  "180": 22858,
  "181": 36058,
  "182": 41858,
  "183": 40637,
  "184": 39311,
  "185": 38839,
  "186": 43370,
  "187": 40530,
  "188": 43519,
  "189": 39896,
  "19": 1348,
  "190": 33373,
  "191": 30883,
  "192": 24436,
  "193": 35849,
  "194": 45685,
  "195": 39989,
  "196": 41922,
  "197": 42958,
  "198": 40206,
  "1980": 45203,
  "1982": 44372,
  "1983": 46124,
  "1984": 42177,
  "1985": 37637,
  "1986": 33956,
  "1987": 39982,
  "1988": 37127,
  "1989": 35072,
  "199": 40590,
  "1990": 28254,
  "1991": 31956,
  "1992": 27087,
  "1993": 27621,
  "1994": 25017,
  "1995": 22670,
  "1996": 23260,
  "1997": 21324,
  "1998": 20095,
  "1999": 17057,
  "2": 21,
  "20": 759,
  "200": 2500,
  "2000": 14700,
  "2001": 16632,
  "2002": 13133,
  "2003": 13978,
  "2004": 14264,
  "2005": 13155,
  "2006": 11882,
  "2007": 11862,
  "2008": 12008,
  "2009": 11459,
  "201": 25908,
  "2010": 10457,
  "2011": 10922,
  "2012": 9988,
  "2013": 10776,
  "2014": 11320,
  "2015": 10715,
  "2016": 11879,
  "2017": 9234,
  "2018": 9395,
  "2019": 8597,
  "202": 28739,
  "2020": 2209,
  "203": 39375,
  "204": 36466,
  "205": 38164,
  "206": 37425,
  "207": 42042,
  "208": 40548,
  "209": 40214,
  "2094": 10321,
  "21": 3484,
  "210": 34761,
  "2108": 15009,
  "211": 42647,
  "212": 41369,
  "2123": 20645,
  "213": 46243,
  "214": 45475,
  "215": 44541,
  "216": 43112,
  "217": 50033,
  "218": 47098,
  "219": 47683,
  "22": 3185,
  "220": 33076,
  "221": 44928,
  "222": 41680,
  "223": 42315,
  "224": 40299,
  "225": 39560,
  "226": 46279,
  "227": 46591,
  "228": 48161,
  "229": 46663,
  "23": 3537,
  "230": 35790,
  "231": 48187,
  "232": 45929,
  "233": 46479,
  "234": 46436,
  "235": 45775,
  "236": 45751,
  "237": 43658,
  "238": 45115,
  "239": 46354,
  "24": 2539,
  "240": 35030,
  "242": 47505,
  "243": 35163,
  "244": 39484,
  "245": 45431,
  "246": 48384,
  "247": 47382,
  "248": 49734,
  "249": 47772,
  "25": 2781,
  "250": 20708,
  "252": 50017,
  "253": 47223,
  "254": 47987,
  "256": 47071,
  "26": 3579,
  "260": 43468,
  "265": 49153,
  "266": 29804,
  "27": 2370,
  "270": 44862,
  "2733": 7419,
  "2738": 7573,
  "28": 3649,
  "280": 39605,
  "281": 47857,
  "282": 49364,
  "29": 3901,
  "290": 46894,
  "3": 22,
  "30": 2333,
  "300": 12336,
  "301": 43467,
  "302": 43849,
  "303": 48868,
  "304": 47028,
  "305": 49000,
  "306": 49616,
  "308": 49007,
  "31": 4829,
  "310": 48799,
  "3121": 6700,
  "32": 4795,
  "320": 42565,
  "325": 31391,
  "33": 3074,
  "330": 48076,
  "34": 4389,
  "340": 48865,
  "345": 50108,
  "35": 4172,
  "350": 37942,
  "36": 3293,
  "360": 40855,
  "365": 49351,
  "37": 4619,
  "38": 3207,
  "380": 47577,
  "39": 5050,
  "4": 23,
  "40": 3336,
  "400": 14109,
  "41": 5922,
  "415": 36807,
  "42": 5644,
  "420": 49450,
  "43": 5827,
  "44": 5119,
  "45": 4599,
  "450": 23096,
  "46": 5622,
  "47": 6086,
  "48": 5354,
  "49": 5941,
  "5": 24,
  "50": 2086,
  "500": 8088,
  "51": 6840,
  "52": 6714,
  "53": 6302,
  "54": 6705,
  "55": 5781,
  "56": 5430,
  "561": 16625,
  "57": 6787,
  "58": 5874,
  "59": 6278,
  "6": 25,
  "60": 4033,
  "600": 15852,
  "61": 6558,
  "62": 6633,
  "63": 6892,
  "64": 6489,
  "65": 5304,
  "66": 6321,
  "67": 6590,
  "68": 3005,
  "69": 5674,
  "7": 26,
  "70": 3116,
  "700": 21233,
  "71": 4357,
  "72": 2897,
  "73": 5597,
  "74": 5521,
  "75": 3673,
  "750": 48771,
  "76": 3513,
  "77": 6304,
  "78": 5764,
  "79": 3940,
  "8": 27,
  "80": 3873,
  "800": 16728,
  "81": 4259,
  "82": 4013,
  "824": 45230,
  "83": 6076,
  "84": 7297,
  "85": 4042,
  "86": 3992,
  "87": 4869,
  "88": 5077,
  "89": 7043,
  "9": 28,
  "90": 4528,
  "900": 27008,
  "905": 50102,
  "91": 7684,
  "92": 6975,
  "93": 7350,
  "936": 34952,
  "94": 4894,
  "95": 4452,
  "96": 6808,
  "97": 6801,
  "98": 6463,
  "99": 5468,
  ":": 29,
  ":\"": 48266,
  ":'": 23698,
  ":(": 48042,
  ":)": 22885,
  ":-": 37943,
  ":.": 1992,
  "://": 2916,
  "::": 15058,
  ":?": 49435,
  ";": 30,
  ";)": 32880,
  "<": 31,
  "</s>": 2,
  "<mask>": 50261,
  "<pad>": 1,
  "<s>": 0,
  "<unk>": 3,
  "=": 32,
  "=\"": 39015,
  "=.": 43464,
  "==": 8368,
  "====": 13788,
  "========": 22434,
  "================": 37759,
  ">": 33,
  ">=": 26852,
  "?": 34,
  "?\"": 19805,
  "?\",": 27457,
  "?\".": 28298,
  "?)": 24773,
  "?).": 36464,
  "?,": 8063,
  "?.": 7373,
  "?:": 20980,
  "?;": 42719,
  "??": 3491,
  "???": 16913,
  "????": 9143,
  "????????": 22511,
  "?Â¿": 31201,
  "@": 35,
  "@@": 42418,
  "A": 36,
  "AA": 12096,
  "AB": 4144,
  "ABA": 24252,
  "ABL": 44021,
  "ABLE": 16766,
  "ABVD": 41234,
  "AC": 1742,
  "ACA": 23021,
  "ACC": 45772,
  "ACCIÃĵN": 41024,
  "ACE": 8004,
  "ACEST": 49006,
  "ACETAMOL": 27054,
  "ACH": 47954,
  "ACHE": 40034,
  "ACI": 20535,
  "ACIDAD": 48721,
  "ACION": 6243,
  "ACIONES": 18994,
  "ACIÃĵN": 7198,
  "ACO": 21304,
  "ACR": 40124,
  "ACS": 30290,
  "ACT": 14391,
  "ACTER": 18949,
  "ACTO": 33074,
  "ACV": 40125,
  "AD": 1282,
  "ADA": 5600,
  "ADAMENTE": 48629,
  "ADAS": 14201,
  "ADE": 22328,
  "ADH": 41246,
  "ADN": 39483,
  "ADO": 4430,
  "ADOR": 11348,
  "ADORA": 40853,
  "ADORES": 23379,
  "ADOS": 7598,
  "ADS": 30465,
  "AE": 27344,
  "AEC": 32063,
  "AECC": 45852,
  "AEMPS": 31344,
  "AEP": 30119,
  "AES": 41441,
  "AF": 12857,
  "AG": 8515,
  "AGUL": 18080,
  "AHA": 46495,
  "AI": 28854,
  "AINE": 49824,
  "AJ": 47189,
  "AL": 1175,
  "ALA": 27241,
  "ALAT": 43308,
  "ALES": 6632,
  "ALIZ": 9628,
  "ALIZACION": 44418,
  "ALIZACIÃĵN": 41557,
  "ALIZADO": 16266,
  "ALL": 31550,
  "ALT": 27855,
  "ALU": 28973,
  "ALUD": 43344,
  "AM": 1983,
  "AMA": 14652,
  "AME": 22190,
  "AMENTE": 13900,
  "AMI": 38465,
  "AMIENTO": 17072,
  "AMOS": 23649,
  "AMP": 44799,
  "AN": 1320,
  "ANA": 12605,
  "ANAS": 34879,
  "ANCA": 47832,
  "ANCIA": 25320,
  "AND": 17389,
  "ANDA": 25936,
  "ANDO": 11631,
  "ANE": 21496,
  "ANEAL": 32417,
  "ANG": 39065,
  "ANO": 13722,
  "ANOS": 25805,
  "ANT": 29025,
  "ANTE": 8764,
  "ANTES": 11963,
  "ANZ": 42905,
  "AP": 2208,
  "APA": 35902,
  "APIA": 17167,
  "APS": 18455,
  "AR": 994,
  "ARA": 15739,
  "ARC": 22341,
  "ARD": 13667,
  "ARDIA": 24789,
  "ARE": 37817,
  "ARES": 20854,
  "ARI": 26744,
  "ARIA": 11791,
  "ARIAS": 28037,
  "ARIO": 11517,
  "ARIOS": 16509,
  "ARMA": 24354,
  "ARN": 29003,
  "ARO": 48562,
  "ARR": 18721,
  "ARROL": 33718,
  "ARSE": 29537,
  "ART": 23535,
  "AS": 1046,
  "ASA": 14561,
  "ASE": 20114,
  "ASEST": 32747,
  "ASO": 43171,
  "ASP": 25771,
  "AST": 19245,
  "AT": 2398,
  "ATE": 26034,
  "ATER": 12060,
  "ATERAL": 24583,
  "ATO": 14672,
  "ATOLOGÃįA": 12789,
  "ATOR": 21002,
  "ATORIO": 36263,
  "ATOS": 15537,
  "ATP": 42399,
  "ATS": 50043,
  "ATURA": 37737,
  "ATÃįA": 31957,
  "AU": 3642,
  "AUC": 48760,
  "AV": 23674,
  "Ab": 26531,
  "Ac": 11692,
  "Actualmente": 48455,
  "Acu": 26618,
  "Acude": 46378,
  "Ad": 19227,
  "Ade": 25710,
  "AdemÃ¡s": 28718,
  "Adminis": 41749,
  "Af": 25886,
  "Afebril": 29536,
  "Ag": 26699,
  "Agu": 48742,
  "Ahora": 29301,
  "Al": 6664,
  "Ale": 24779,
  "Alemania": 31648,
  "Alic": 49649,
  "Alicante": 49787,
  "All": 32918,
  "Am": 34862,
  "Americ": 18587,
  "American": 20115,
  "An": 8461,
  "Ana": 41052,
  "Anal": 31022,
  "AnalÃŃtica": 44853,
  "Ane": 35128,
  "Anexo": 46154,
  "Ante": 35193,
  "AnÃ¡lisis": 46359,
  "Ap": 38817,
  "App": 35221,
  "Ar": 9451,
  "Arg": 32964,
  "Argentina": 40297,
  "As": 8558,
  "AsociaciÃ³n": 26989,
  "AsÃŃ": 40307,
  "AtenciÃ³n": 46222,
  "Au": 41012,
  "Aunque": 24025,
  "Aus": 42648,
  "Ay": 31590,
  "B": 37,
  "BA": 8349,
  "BAR": 45841,
  "BAS": 28988,
  "BB": 32375,
  "BC": 16564,
  "BD": 19345,
  "BE": 16267,
  "BER": 17852,
  "BI": 13929,
  "BIEN": 25315,
  "BIO": 31583,
  "BL": 10764,
  "BLE": 16654,
  "BLES": 26945,
  "BM": 34439,
  "BN": 18299,
  "BNP": 17950,
  "BO": 34261,
  "BOE": 48620,
  "BOL": 49288,
  "BP": 9619,
  "BR": 14475,
  "BRE": 42590,
  "BS": 17238,
  "BT": 29992,
  "BU": 41382,
  "Ba": 26597,
  "Bal": 46101,
  "Ban": 46509,
  "Bar": 15243,
  "Barc": 42256,
  "Barcelona": 21327,
  "Barr": 41471,
  "BarrÃ©": 44327,
  "Bas": 32254,
  "Be": 40773,
  "Ber": 35118,
  "Bi": 37543,
  "Bil": 46839,
  "Bio": 27430,
  "Bl": 46817,
  "Blan": 46274,
  "Bo": 25686,
  "Bol": 35348,
  "Br": 34225,
  "Bra": 39985,
  "Bras": 39104,
  "Brasil": 41242,
  "Bri": 45631,
  "Bro": 46364,
  "Buen": 26556,
  "Bur": 40069,
  "Bus": 39764,
  "C": 38,
  "CA": 4025,
  "CAA": 18139,
  "CAL": 32530,
  "CAM": 19673,
  "CAN": 26495,
  "CAP": 26045,
  "CAR": 21656,
  "CAS": 34041,
  "CAT": 48743,
  "CB": 43081,
  "CC": 10500,
  "CCOO": 46696,
  "CD": 8164,
  "CDC": 28239,
  "CE": 7533,
  "CEE": 28600,
  "CEL": 33272,
  "CEP": 38047,
  "CER": 15597,
  "CES": 25698,
  "CEST": 40455,
  "CF": 38013,
  "CG": 13565,
  "CGH": 42963,
  "CH": 6203,
  "CHA": 38576,
  "CHO": 46862,
  "CI": 895,
  "CIA": 5424,
  "CIAL": 11204,
  "CIAS": 10480,
  "CIBER": 28798,
  "CIC": 44917,
  "CICO": 45865,
  "CID": 22624,
  "CIDO": 38806,
  "CIE": 38388,
  "CIII": 33858,
  "CIL": 31214,
  "CIMIENTO": 38126,
  "CIN": 26742,
  "CINOMA": 41519,
  "CIO": 13765,
  "CION": 2191,
  "CIONAL": 20676,
  "CIONES": 8239,
  "CIOS": 21575,
  "CIP": 19273,
  "CIR": 38542,
  "CIS": 24385,
  "CIÃĵ": 47910,
  "CIÃĵN": 2903,
  "CK": 33205,
  "CL": 5907,
  "CLA": 32845,
  "CLC": 50191,
  "CLUS": 11713,
  "CM": 2060,
  "CMI": 47568,
  "CN": 11563,
  "CNAE": 29054,
  "CO": 2934,
  "COC": 50210,
  "COF": 45305,
  "COL": 49266,
  "COM": 18877,
  "CON": 13971,
  "CONS": 43099,
  "COO": 18330,
  "COP": 29591,
  "COR": 24763,
  "COS": 40493,
  "COV": 23891,
  "COVID": 27133,
  "CP": 8139,
  "CR": 2214,
  "CRE": 28401,
  "CS": 6551,
  "CSF": 34224,
  "CSIC": 17756,
  "CT": 8425,
  "CU": 16441,
  "CUENT": 46590,
  "CULAR": 24712,
  "CV": 19564,
  "Ca": 12727,
  "Cab": 41578,
  "Cada": 33984,
  "Caixa": 46098,
  "Cal": 19100,
  "Cam": 24774,
  "Can": 15937,
  "CanadÃ¡": 43271,
  "Cap": 38683,
  "Car": 11510,
  "Cardio": 49213,
  "Care": 26232,
  "Carlos": 43273,
  "Cas": 17198,
  "Ce": 42297,
  "Centro": 23008,
  "Cer": 40222,
  "Ch": 13850,
  "Cha": 33583,
  "Chapter": 45853,
  "Chi": 39886,
  "Ci": 23531,
  "Ciencia": 47894,
  "Cir": 30333,
  "Ciru": 38614,
  "CirugÃŃa": 42995,
  "Ciudad": 34493,
  "Cl": 26783,
  "Clin": 38951,
  "Co": 7444,
  "CoA": 47014,
  "CoV": 12232,
  "Col": 16512,
  "Cola": 49084,
  "Colombia": 34694,
  "Com": 11647,
  "Como": 21498,
  "Con": 4713,
  "Conclusiones": 29381,
  "Cono": 33387,
  "Cons": 12039,
  "Consciente": 48909,
  "Consultado": 30603,
  "Contin": 46573,
  "Control": 23918,
  "Cor": 21647,
  "Cos": 47598,
  "Cov": 49275,
  "Cr": 23332,
  "Cre": 24082,
  "Crea": 46451,
  "Creo": 37115,
  "Cruz": 45135,
  "Cs": 39942,
  "Ctes": 43703,
  "Cu": 5052,
  "Cual": 40274,
  "Cuando": 16374,
  "Cuba": 42038,
  "Cur": 35419,
  "Curso": 47539,
  "CuÃ¡l": 9543,
  "CuÃ¡les": 16839,
  "CuÃ¡n": 20367,
  "CuÃ¡ndo": 28108,
  "CuÃ¡ntas": 43821,
  "CuÃ¡nto": 34743,
  "Cy": 39163,
  "CÃ¡": 42477,
  "CÃ³mo": 6775,
  "D": 39,
  "DA": 3330,
  "DAD": 18296,
  "DAH": 9476,
  "DAI": 43138,
  "DAS": 35582,
  "DC": 21064,
  "DD": 26136,
  "DE": 5212,
  "DEM": 40536,
  "DEN": 30735,
  "DER": 40408,
  "DES": 36158,
  "DEZ": 32535,
  "DF": 27870,
  "DG": 25903,
  "DH": 34368,
  "DI": 7292,
  "DICION": 45947,
  "DICIONES": 46792,
  "DIENTE": 33958,
  "DIO": 16402,
  "DL": 37791,
  "DM": 13704,
  "DNA": 33903,
  "DO": 4540,
  "DOS": 12675,
  "DP": 24663,
  "DQ": 38516,
  "DR": 8754,
  "DROME": 22280,
  "DS": 18342,
  "DT": 23318,
  "Da": 24159,
  "Dan": 48017,
  "Day": 12055,
  "De": 7387,
  "Deb": 20639,
  "Debemos": 44518,
  "Del": 21187,
  "Departamento": 32871,
  "Depen": 49570,
  "Der": 13323,
  "Derivado": 16300,
  "Des": 11443,
  "Desde": 24466,
  "DespuÃ©s": 49926,
  "Di": 16850,
  "Dia": 22633,
  "Diabetes": 49368,
  "Die": 49499,
  "Dios": 49775,
  "Dis": 18521,
  "Do": 31743,
  "Doc": 22814,
  "Doctor": 39743,
  "Dolor": 41999,
  "Don": 31346,
  "Donald": 42971,
  "Doppler": 47375,
  "Dr": 12583,
  "Dra": 24076,
  "Dur": 32173,
  "Durante": 37997,
  "DÃ³nde": 34248,
  "DÃŃa": 26179,
  "DÃŃaz": 45801,
  "E": 40,
  "EA": 4671,
  "EAP": 37303,
  "EAS": 38980,
  "EB": 10054,
  "EBRE": 41237,
  "EC": 1662,
  "ECA": 14530,
  "ECCION": 20325,
  "ECCIÃĵN": 15905,
  "ECE": 32758,
  "ECER": 47102,
  "ECES": 24404,
  "ECG": 25056,
  "ECHO": 46446,
  "ECO": 32471,
  "ECT": 13378,
  "ECTOM": 40760,
  "ECTOR": 44764,
  "ECU": 26200,
  "ECV": 40735,
  "ED": 2052,
  "EDA": 31375,
  "EDAD": 11296,
  "EDE": 29361,
  "EDER": 14314,
  "EDI": 42609,
  "EDO": 30848,
  "EDOR": 48979,
  "EE": 10470,
  "EEG": 44974,
  "EEUU": 32505,
  "EF": 6172,
  "EFA": 45885,
  "EFE": 22381,
  "EG": 3896,
  "EGA": 15960,
  "EGF": 30173,
  "EGO": 33548,
  "EH": 18898,
  "EHU": 35074,
  "EI": 43024,
  "EJO": 43689,
  "EL": 3314,
  "ELA": 26129,
  "ELL": 18191,
  "ELO": 24981,
  "EM": 1671,
  "EMA": 5987,
  "EMAIL": 8209,
  "EMAS": 21854,
  "EMB": 24782,
  "EMBRE": 46079,
  "EME": 32091,
  "EMENT": 42654,
  "EMENTE": 24457,
  "EMFE": 35873,
  "EMI": 35802,
  "EMIA": 16666,
  "EMO": 28047,
  "EMOS": 19571,
  "EMPL": 47525,
  "EMPRE": 31555,
  "EMPS": 15621,
  "EMS": 48581,
  "EN": 906,
  "ENA": 14039,
  "ENAL": 19076,
  "ENCI": 39340,
  "ENCIA": 8260,
  "ENCIAL": 33240,
  "ENCIAS": 29693,
  "ENCION": 41793,
  "ENCIÃĵN": 24492,
  "END": 11927,
  "ENDA": 31688,
  "ENDE": 22425,
  "ENDER": 47783,
  "ENDO": 32726,
  "ENE": 47009,
  "ENIA": 47496,
  "ENO": 13289,
  "ENS": 13373,
  "ENSA": 38212,
  "ENT": 1796,
  "ENTA": 12407,
  "ENTAL": 25667,
  "ENTAN": 44052,
  "ENTAR": 49921,
  "ENTE": 3988,
  "ENTEMENTE": 43848,
  "ENTES": 8714,
  "ENTO": 5098,
  "ENTOS": 12801,
  "EO": 19513,
  "EP": 2631,
  "EPA": 23913,
  "EPAR": 12872,
  "EPI": 31659,
  "EPOC": 21652,
  "EPRAZOL": 39825,
  "EPS": 43520,
  "EPT": 27220,
  "ER": 945,
  "ERA": 9575,
  "ERAS": 48759,
  "ERC": 20046,
  "ERCI": 47405,
  "ERENCIA": 42918,
  "ERG": 19214,
  "ERGEN": 25147,
  "ERIA": 26873,
  "ERICA": 42837,
  "ERM": 8903,
  "ERN": 22557,
  "ERNES": 48289,
  "ERO": 10408,
  "EROS": 23917,
  "ERR": 34593,
  "ERS": 15120,
  "ERTE": 44302,
  "ERÃįA": 35788,
  "ES": 935,
  "ESA": 21052,
  "ESC": 46563,
  "ESCO": 27811,
  "ESIS": 37095,
  "ESO": 10263,
  "ESP": 25390,
  "ESS": 23916,
  "EST": 11538,
  "ET": 3721,
  "ETA": 30515,
  "ETAS": 40668,
  "ETER": 30092,
  "ETES": 34371,
  "ETS": 37764,
  "ETT": 49544,
  "EU": 31961,
  "EUROPA": 30882,
  "EV": 8927,
  "EVA": 35697,
  "EX": 14506,
  "EZ": 10090,
  "EZA": 28305,
  "Eco": 42823,
  "Ed": 32701,
  "Edi": 41584,
  "Eds": 38225,
  "Educ": 48070,
  "El": 2942,
  "Emb": 16899,
  "Embargo": 18247,
  "Emp": 34573,
  "En": 3762,
  "Enfer": 19982,
  "Enfermedad": 41058,
  "Entre": 31082,
  "Ep": 47790,
  "Eq": 2066,
  "Er": 43968,
  "Es": 2196,
  "Esc": 31492,
  "Escuela": 45188,
  "Eso": 42068,
  "EspaÃ±a": 16624,
  "Especial": 43496,
  "Esper": 38998,
  "Esta": 16460,
  "Estable": 45028,
  "Estados": 17398,
  "Estamos": 21115,
  "Estas": 36706,
  "Este": 12796,
  "Esto": 16030,
  "Estos": 23177,
  "Estoy": 41823,
  "Estudi": 38637,
  "Estudio": 26069,
  "EstÃ¡": 30573,
  "Euro": 23298,
  "European": 36478,
  "Ev": 24124,
  "Evalu": 33178,
  "Ex": 10545,
  "Existe": 32126,
  "Existen": 40570,
  "F": 41,
  "FA": 6784,
  "FC": 11924,
  "FDA": 25705,
  "FDG": 50103,
  "FE": 11751,
  "FEC": 31444,
  "FEDER": 35683,
  "FEN": 47845,
  "FER": 31403,
  "FES": 16698,
  "FEVI": 34650,
  "FF": 26918,
  "FG": 20553,
  "FI": 19675,
  "FICI": 12772,
  "FIL": 26929,
  "FIS": 19651,
  "FISIOTERAPIA": 29742,
  "FL": 37317,
  "FM": 26294,
  "FO": 38762,
  "FP": 40131,
  "FR": 9892,
  "FS": 41585,
  "FT": 35609,
  "FU": 41149,
  "FUN": 41194,
  "FV": 43854,
  "FYC": 18576,
  "Fa": 49245,
  "Fac": 28368,
  "Far": 30342,
  "Fe": 27301,
  "Fecha": 45284,
  "Fer": 37515,
  "FernÃ¡ndez": 36143,
  "Fi": 11114,
  "Fig": 13583,
  "Figura": 14719,
  "Fin": 40371,
  "Fisio": 39908,
  "Fl": 39788,
  "Fo": 42246,
  "For": 40436,
  "Fran": 21856,
  "Francia": 36008,
  "Fu": 37232,
  "Fue": 47340,
  "FundaciÃ³n": 37462,
  "FÃ³rmula": 28179,
  "G": 42,
  "GA": 11108,
  "GAN": 19620,
  "GAR": 37322,
  "GAS": 42454,
  "GB": 49650,
  "GC": 20718,
  "GE": 10648,
  "GEN": 10015,
  "GENCIAS": 22584,
  "GES": 34226,
  "GF": 33977,
  "GG": 47895,
  "GH": 36149,
  "GI": 33887,
  "GIA": 27315,
  "GL": 23787,
  "GM": 25481,
  "GN": 14305,
  "GO": 9850,
  "GOS": 36848,
  "GOT": 6032,
  "GP": 38219,
  "GPT": 5951,
  "GR": 7844,
  "GRA": 30731,
  "GRAF": 18996,
  "GRAFIA": 49265,
  "GRAFÃįA": 23653,
  "GRE": 33104,
  "GRESO": 48667,
  "GS": 23420,
  "GT": 4660,
  "GU": 19027,
  "Ga": 36672,
  "Gal": 28610,
  "Gar": 36837,
  "GarcÃŃa": 19523,
  "Gas": 45123,
  "Ge": 47510,
  "Gen": 32947,
  "General": 47228,
  "Genes": 36967,
  "Ger": 49879,
  "Gil": 45300,
  "Global": 26988,
  "Go": 32946,
  "Gonz": 23957,
  "GonzÃ¡lez": 25827,
  "Gr": 26729,
  "Gra": 49478,
  "Gracias": 30671,
  "Gran": 23392,
  "Gre": 44953,
  "Grupo": 25946,
  "Gu": 13927,
  "GuÃŃa": 39345,
  "Gy": 48240,
  "GÃ³mez": 33156,
  "H": 43,
  "HA": 5363,
  "HAB": 47811,
  "HAS": 32476,
  "HB": 10318,
  "HC": 6951,
  "HCT": 50001,
  "HD": 9515,
  "HDL": 22694,
  "HDM": 30483,
  "HE": 12757,
  "HER": 39711,
  "HF": 31824,
  "HG": 42955,
  "HH": 17908,
  "HI": 29145,
  "HID": 34963,
  "HL": 42162,
  "HO": 8175,
  "HOL": 43833,
  "HOS": 25269,
  "HP": 33658,
  "HR": 16470,
  "HS": 9022,
  "HT": 18452,
  "HTA": 19529,
  "HU": 48394,
  "Ha": 17989,
  "Hab": 30863,
  "Hace": 45571,
  "Har": 50091,
  "Has": 41317,
  "Hasta": 29220,
  "Hay": 12254,
  "Hb": 24355,
  "HbA": 48276,
  "He": 8414,
  "Health": 10976,
  "HealthDay": 12392,
  "Heb": 14946,
  "Hebron": 16338,
  "Hemo": 38342,
  "Hemos": 22691,
  "Her": 24263,
  "HernÃ¡ndez": 31135,
  "Hg": 3933,
  "Hi": 29593,
  "Hidro": 40172,
  "Hill": 44604,
  "Hiper": 39695,
  "His": 22561,
  "HispaniCare": 36660,
  "Ho": 34269,
  "Hola": 42306,
  "Hospital": 14751,
  "Hoy": 28883,
  "Hu": 42411,
  "Hy": 37879,
  "I": 44,
  "IA": 2054,
  "IAL": 10817,
  "IALES": 39658,
  "IAM": 25913,
  "IAN": 48446,
  "IAS": 11338,
  "IATRÃįA": 46611,
  "IB": 3726,
  "IBA": 40710,
  "IBE": 34422,
  "IBER": 10590,
  "IBILIDAD": 48607,
  "IBL": 32018,
  "IBLE": 20992,
  "IBLES": 49981,
  "IBR": 23174,
  "IBU": 38639,
  "IC": 1071,
  "ICA": 2821,
  "ICACION": 20787,
  "ICACIONES": 23811,
  "ICACIÃĵN": 18547,
  "ICADO": 41220,
  "ICAL": 26475,
  "ICAM": 21061,
  "ICAMENTE": 29338,
  "ICAP": 47792,
  "ICAR": 35272,
  "ICAS": 12194,
  "ICC": 38633,
  "ICE": 15532,
  "ICEF": 31674,
  "ICH": 36521,
  "ICI": 5654,
  "ICIA": 46669,
  "ICIDAD": 41845,
  "ICIL": 22436,
  "ICINA": 21588,
  "ICIO": 22294,
  "ICIOS": 41264,
  "ICM": 48270,
  "ICO": 3922,
  "ICOS": 8457,
  "ICS": 29931,
  "ICULAR": 41189,
  "ID": 1371,
  "IDA": 5620,
  "IDAD": 6591,
  "IDADES": 24615,
  "IDAS": 21337,
  "IDE": 25291,
  "IDES": 45924,
  "IDIB": 48420,
  "IDO": 7818,
  "IDOS": 13693,
  "IDS": 24150,
  "IE": 21507,
  "IEN": 6599,
  "IENDO": 23663,
  "IENTO": 10488,
  "IER": 8379,
  "IERE": 23084,
  "IES": 39032,
  "IF": 5629,
  "IFA": 38362,
  "IFIC": 24483,
  "IFICA": 48104,
  "IFICACION": 47957,
  "IFICACIÃĵN": 41692,
  "IG": 4839,
  "IGA": 46884,
  "IGO": 28150,
  "II": 1524,
  "III": 6068,
  "IIIa": 47483,
  "IK": 26381,
  "IL": 2451,
  "ILA": 35190,
  "ILACIÃĵN": 43675,
  "ILACS": 48804,
  "ILAR": 40247,
  "ILI": 20529,
  "ILIA": 39632,
  "ILIAR": 40277,
  "ILIARES": 48097,
  "ILIDAD": 22603,
  "ILL": 12787,
  "ILLA": 23098,
  "ILLO": 29406,
  "ILO": 17910,
  "IM": 2778,
  "IMA": 17152,
  "IMC": 15296,
  "IME": 29079,
  "IMER": 44491,
  "IMI": 28872,
  "IMIENTO": 16200,
  "IMIENTOS": 47863,
  "IMO": 31024,
  "IMP": 44863,
  "IN": 1463,
  "INA": 5266,
  "INACION": 45186,
  "INACIÃĵN": 49273,
  "INAL": 14611,
  "INALES": 42413,
  "INAR": 48998,
  "INAS": 24176,
  "INC": 47785,
  "IND": 42034,
  "INE": 9358,
  "INF": 18635,
  "ING": 16149,
  "INGO": 46203,
  "INI": 35881,
  "INO": 14674,
  "INOS": 48175,
  "INR": 43031,
  "INS": 34691,
  "INT": 49997,
  "IO": 2752,
  "ION": 6470,
  "IONAL": 32576,
  "IONES": 14444,
  "IOR": 11697,
  "IOS": 8538,
  "IOTER": 20797,
  "IOTERAPIA": 23824,
  "IP": 4489,
  "IPA": 47422,
  "IPO": 15363,
  "IPOS": 37625,
  "IQ": 37052,
  "IQU": 20485,
  "IR": 3030,
  "IRA": 31613,
  "IRE": 34309,
  "IRO": 37250,
  "IS": 1568,
  "ISA": 14408,
  "ISIS": 19887,
  "ISMO": 15862,
  "ISO": 42895,
  "ISS": 40895,
  "IST": 7498,
  "ISTA": 24352,
  "ISTAS": 33122,
  "ISTE": 30689,
  "ISTENCIA": 45948,
  "ISTR": 40813,
  "ISTRA": 25180,
  "IT": 2899,
  "ITA": 15315,
  "ITAL": 19293,
  "ITAR": 39647,
  "ITAS": 47739,
  "ITE": 24823,
  "ITER": 46004,
  "ITICA": 43889,
  "ITIS": 16713,
  "ITO": 16708,
  "ITOR": 29293,
  "ITOS": 24161,
  "ITS": 36100,
  "ITU": 23984,
  "ITUAL": 36248,
  "ITUD": 44492,
  "IV": 3685,
  "IVA": 19706,
  "IVAL": 42865,
  "IVERS": 31042,
  "IVO": 33095,
  "IX": 8477,
  "IZ": 5145,
  "IZA": 38426,
  "IZACION": 34362,
  "IZACIÃĵN": 28458,
  "IZADO": 44116,
  "IZOL": 46019,
  "Ig": 23634,
  "Ima": 42080,
  "Imp": 29527,
  "In": 4040,
  "Incl": 46448,
  "Inf": 31829,
  "Informe": 47533,
  "Ingreso": 45705,
  "IngrÃ©s": 42910,
  "Ins": 17782,
  "Institu": 23606,
  "Instituto": 27419,
  "Inter": 12375,
  "Interna": 37276,
  "International": 44007,
  "Internet": 15330,
  "Investig": 36258,
  "Is": 26253,
  "Italia": 39608,
  "IÃģTR": 50075,
  "IÃĵN": 9254,
  "J": 45,
  "JA": 12192,
  "JAJA": 43473,
  "JAR": 35285,
  "JAS": 38498,
  "JC": 27508,
  "JD": 45084,
  "JE": 9932,
  "JER": 30452,
  "JM": 42135,
  "JO": 10322,
  "JOS": 27704,
  "JU": 48220,
  "JUN": 42412,
  "Ja": 28697,
  "Je": 43660,
  "JimÃ©nez": 50149,
  "Jo": 18787,
  "John": 36677,
  "Johnson": 47168,
  "Jos": 31976,
  "JosÃ©": 37190,
  "Journal": 34871,
  "Ju": 35952,
  "Juan": 35148,
  "Jun": 44872,
  "K": 46,
  "KA": 40232,
  "KE": 40360,
  "KG": 20603,
  "KI": 42163,
  "KIN": 37395,
  "KO": 39949,
  "Kg": 20284,
  "Kline": 45549,
  "L": 47,
  "LA": 4734,
  "LAM": 27108,
  "LAR": 40947,
  "LAS": 22284,
  "LAZ": 44215,
  "LC": 32572,
  "LCR": 41016,
  "LD": 12499,
  "LDH": 46307,
  "LDL": 17280,
  "LE": 4554,
  "LER": 49969,
  "LES": 18446,
  "LEX": 36078,
  "LIC": 48133,
  "LINE": 29785,
  "LL": 45450,
  "LM": 28438,
  "LO": 7461,
  "LOS": 23321,
  "LP": 26169,
  "LS": 48280,
  "LT": 31911,
  "LTI": 41038,
  "LU": 41890,
  "LV": 24568,
  "La": 2591,
  "Lab": 34198,
  "Las": 8067,
  "Le": 13308,
  "Les": 44628,
  "Lev": 49549,
  "Ley": 30994,
  "LeÃ³n": 46847,
  "Li": 30663,
  "Libro": 42720,
  "Lin": 48379,
  "Llamada": 38818,
  "Lle": 39971,
  "Lo": 11128,
  "Los": 5930,
  "Lu": 29841,
  "LÃ³pez": 25465,
  "M": 48,
  "MA": 3609,
  "MAC": 47599,
  "MAD": 49134,
  "MAE": 23500,
  "MAN": 30619,
  "MAP": 47411,
  "MAR": 36541,
  "MAS": 25113,
  "MB": 25921,
  "MC": 7663,
  "MD": 30478,
  "ME": 11329,
  "MED": 21791,
  "MEN": 34682,
  "MENTE": 15551,
  "MET": 36224,
  "MF": 43999,
  "MG": 11408,
  "MI": 5579,
  "MICA": 11831,
  "MICO": 40982,
  "MIENTO": 9748,
  "MIENTOS": 34210,
  "MIN": 15433,
  "MIR": 29384,
  "MIT": 40675,
  "ML": 22399,
  "MM": 29230,
  "MO": 8096,
  "MON": 23297,
  "MOS": 20589,
  "MP": 12065,
  "MR": 39887,
  "MS": 3831,
  "MSS": 19015,
  "MT": 32741,
  "Ma": 12418,
  "Madrid": 14503,
  "Mal": 37902,
  "Man": 12849,
  "Mantiene": 44506,
  "Mar": 11217,
  "MartÃŃn": 22764,
  "MartÃŃnez": 27266,
  "Mas": 32222,
  "Material": 44912,
  "Mc": 49346,
  "Me": 8632,
  "Med": 14291,
  "Medi": 25548,
  "Medicina": 36109,
  "Meier": 42798,
  "Mej": 28531,
  "Mejor": 46552,
  "Men": 34946,
  "Mer": 35329,
  "Met": 49319,
  "Mi": 17911,
  "Min": 34374,
  "Mir": 48988,
  "Mo": 17637,
  "Mon": 18236,
  "Mor": 26428,
  "Morales": 49199,
  "Moreno": 48337,
  "Mu": 23102,
  "Muchas": 38646,
  "Mujer": 40019,
  "Mur": 36351,
  "Murcia": 48671,
  "Muy": 45562,
  "My": 35944,
  "MÃ¡": 45176,
  "MÃ¡s": 30453,
  "MÃ©": 17567,
  "MÃ©dico": 49216,
  "MÃ©xico": 32540,
  "N": 49,
  "NA": 4247,
  "NAE": 16345,
  "NAME": 34669,
  "NAS": 41750,
  "NC": 23761,
  "ND": 20229,
  "NE": 12306,
  "NET": 32896,
  "NEUM": 42014,
  "NF": 12115,
  "NG": 29264,
  "NH": 20239,
  "NI": 10514,
  "NIC": 49949,
  "NIH": 40282,
  "NIS": 43266,
  "NM": 17856,
  "NO": 10643,
  "NOS": 21348,
  "NP": 10461,
  "NR": 13806,
  "NS": 20869,
  "NT": 17065,
  "NY": 45285,
  "Na": 14573,
  "National": 46887,
  "Nature": 36385,
  "Nav": 32996,
  "Ne": 12623,
  "Neces": 34084,
  "Net": 43434,
  "Neu": 44352,
  "Neuro": 26018,
  "NeurologÃŃa": 40558,
  "New": 43007,
  "Ni": 36637,
  "No": 4650,
  "Nom": 41863,
  "Nos": 22326,
  "Nosotros": 45163,
  "Nuestra": 35055,
  "Nuestro": 25474,
  "Nuestros": 33126,
  "Nueva": 47800,
  "Nunca": 49188,
  "O": 50,
  "OA": 45388,
  "OB": 5949,
  "OBILI": 48752,
  "OC": 2677,
  "OCA": 25791,
  "OCAL": 49980,
  "OCAR": 40331,
  "OCARD": 38456,
  "OCARDIO": 43747,
  "OCI": 16514,
  "OCK": 47233,
  "OCL": 42095,
  "OCO": 26833,
  "OCT": 43129,
  "OD": 4091,
  "ODE": 43268,
  "ODUC": 13524,
  "ODUCI": 42932,
  "OE": 9391,
  "OF": 15776,
  "OG": 3997,
  "OGEN": 37220,
  "OGENO": 35102,
  "OGO": 43630,
  "OGRA": 20392,
  "OGRAMA": 26643,
  "OH": 15189,
  "OI": 44819,
  "OL": 1794,
  "OLA": 22397,
  "OLES": 21461,
  "OLO": 31768,
  "OLOG": 6095,
  "OLOGIA": 18158,
  "OLOGÃįA": 8307,
  "OLU": 19047,
  "OLUCION": 48486,
  "OLUCIÃĵN": 26596,
  "OLÃĵG": 17602,
  "OLÃĵGICA": 35025,
  "OLÃĵGICO": 37091,
  "OLÃĵGICOS": 43633,
  "OM": 1629,
  "OMA": 13487,
  "OMB": 15600,
  "OMBIA": 46582,
  "OMC": 29333,
  "OME": 14015,
  "OMED": 50042,
  "OMO": 26576,
  "OMOS": 50154,
  "OMS": 8014,
  "ON": 983,
  "ONA": 12616,
  "ONAS": 42820,
  "ONE": 30026,
  "ONES": 26418,
  "ONG": 27818,
  "ONO": 33286,
  "ONS": 34564,
  "ONT": 35827,
  "OO": 22455,
  "OP": 5183,
  "OPATÃįA": 46289,
  "OPE": 49982,
  "OPL": 47248,
  "OPLAS": 48843,
  "OPS": 22959,
  "OR": 1167,
  "ORA": 10233,
  "ORACION": 49742,
  "ORACIÃĵN": 23244,
  "ORAZ": 42859,
  "ORB": 33307,
  "ORCION": 34048,
  "ORD": 27060,
  "ORE": 30006,
  "ORES": 17283,
  "ORIA": 49741,
  "ORM": 7324,
  "ORMA": 10600,
  "ORO": 44751,
  "ORR": 43817,
  "ORT": 36293,
  "ORTE": 25109,
  "OS": 988,
  "OSA": 14687,
  "OSI": 9586,
  "OSIS": 17535,
  "OSO": 19411,
  "OSP": 19239,
  "OT": 3640,
  "OTER": 42712,
  "OVA": 29663,
  "OX": 11307,
  "OY": 20585,
  "Ob": 36303,
  "Obs": 44586,
  "Ol": 34173,
  "On": 30806,
  "Onc": 45389,
  "Or": 16166,
  "Organ": 32780,
  "OrganizaciÃ³n": 37361,
  "Os": 19718,
  "P": 51,
  "PA": 4164,
  "PAD": 49663,
  "PAL": 44422,
  "PAN": 49311,
  "PAP": 43592,
  "PAR": 26896,
  "PAS": 18709,
  "PC": 7064,
  "PCC": 24452,
  "PCR": 13412,
  "PD": 11718,
  "PDF": 50251,
  "PE": 7172,
  "PEC": 15042,
  "PECTO": 44362,
  "PECÃįF": 47944,
  "PER": 8466,
  "PET": 32685,
  "PF": 21660,
  "PG": 48447,
  "PH": 27860,
  "PI": 8087,
  "PIA": 49135,
  "PIRA": 17121,
  "PL": 6898,
  "PLE": 26593,
  "PM": 15498,
  "PN": 26968,
  "PO": 9064,
  "PON": 37084,
  "POR": 13488,
  "POS": 24890,
  "PP": 10010,
  "PR": 4170,
  "PRE": 17316,
  "PRES": 17891,
  "PRO": 36751,
  "PROF": 31924,
  "PROFENO": 42717,
  "PS": 3680,
  "PSA": 44676,
  "PSS": 13941,
  "PT": 4350,
  "PV": 12873,
  "Pa": 17479,
  "Pacient": 20512,
  "Paciente": 8402,
  "Pacientes": 38952,
  "Pal": 28211,
  "Pan": 37760,
  "Par": 15411,
  "Para": 13314,
  "Paracetamol": 36860,
  "Parte": 45935,
  "Pas": 36339,
  "Pe": 25925,
  "Pedia": 44219,
  "Pen": 26170,
  "Pendiente": 34196,
  "Per": 18561,
  "Pero": 18545,
  "Pers": 43134,
  "Ph": 37021,
  "Pi": 37675,
  "Pla": 34773,
  "Plan": 26451,
  "Plus": 23368,
  "Po": 14311,
  "Pod": 43643,
  "Podemos": 41989,
  "PodrÃŃa": 47296,
  "Pol": 40721,
  "Pon": 33259,
  "Por": 6483,
  "Porque": 46175,
  "Pos": 31495,
  "Pr": 30718,
  "Pre": 15865,
  "Premio": 46849,
  "Pres": 17441,
  "Press": 33675,
  "Pri": 32625,
  "Pro": 7935,
  "Profes": 45601,
  "Programa": 31668,
  "Proyecto": 43319,
  "Ps": 21181,
  "Pu": 32577,
  "Pub": 36623,
  "PubMed": 40212,
  "Publ": 48099,
  "Pue": 17897,
  "Puede": 26990,
  "PÃ©rez": 29842,
  "Q": 52,
  "QL": 42780,
  "QM": 25859,
  "QT": 25433,
  "QU": 4601,
  "QUE": 10370,
  "QUI": 41533,
  "QUIER": 17923,
  "QUÃī": 34191,
  "QUÃį": 12751,
  "QUÃįMICA": 14371,
  "Qu": 3682,
  "Que": 15920,
  "Quer": 30490,
  "Queremos": 40580,
  "Quieres": 25855,
  "Quir": 44125,
  "QuiÃ©n": 20008,
  "QuÃ©": 4574,
  "R": 53,
  "RA": 1860,
  "RAD": 37634,
  "RAF": 13878,
  "RAL": 28248,
  "RAM": 32542,
  "RAN": 44228,
  "RAS": 17327,
  "RAX": 15745,
  "RAZOL": 33508,
  "RB": 47261,
  "RC": 5116,
  "RCP": 43568,
  "RCV": 12641,
  "RD": 28780,
  "RE": 5180,
  "REA": 47540,
  "RED": 33236,
  "RES": 12129,
  "RESPON": 48810,
  "REZ": 44013,
  "RF": 49282,
  "RG": 27721,
  "RH": 40559,
  "RI": 14074,
  "RIC": 31298,
  "RID": 26180,
  "RIL": 35812,
  "RM": 12228,
  "RMN": 45256,
  "RN": 47353,
  "RNA": 21896,
  "RNAs": 47584,
  "RO": 7147,
  "ROM": 34174,
  "ROS": 35169,
  "ROX": 24645,
  "RP": 29395,
  "RR": 16812,
  "RS": 5436,
  "RSS": 28166,
  "RT": 23044,
  "Ra": 25960,
  "Radio": 32239,
  "Ram": 38885,
  "Re": 6817,
  "Real": 46629,
  "Rec": 27970,
  "Recom": 45200,
  "Red": 15425,
  "Refiere": 47192,
  "Reg": 27670,
  "Reino": 26864,
  "Res": 12415,
  "Resultados": 24434,
  "Rev": 26738,
  "Rey": 42800,
  "Risc": 47056,
  "Ro": 12855,
  "RodrÃŃguez": 27463,
  "Rom": 36065,
  "Ros": 38958,
  "Rs": 45476,
  "Ru": 27370,
  "Ruiz": 43015,
  "Rx": 32500,
  "S": 54,
  "SA": 4437,
  "SAL": 25275,
  "SAM": 35945,
  "SAP": 43704,
  "SAR": 29623,
  "SARS": 43758,
  "SAS": 44038,
  "SAY": 29649,
  "SC": 12591,
  "SCA": 44716,
  "SD": 11810,
  "SE": 6842,
  "SEC": 21555,
  "SED": 37026,
  "SEF": 34506,
  "SEM": 19424,
  "SEN": 23265,
  "SEOM": 45255,
  "SEP": 36638,
  "SEPAR": 50076,
  "SER": 23447,
  "SES": 33195,
  "SF": 21554,
  "SG": 16571,
  "SH": 11227,
  "SI": 11501,
  "SIDA": 18365,
  "SL": 43725,
  "SM": 11649,
  "SN": 10929,
  "SNC": 36345,
  "SNS": 19174,
  "SO": 11425,
  "SON": 16947,
  "SOS": 39654,
  "SP": 11983,
  "SR": 31043,
  "SS": 5858,
  "ST": 9066,
  "STE": 45597,
  "SU": 33413,
  "SUB": 41839,
  "SV": 36957,
  "Sa": 24264,
  "Sab": 16916,
  "Sabemos": 45410,
  "Sabes": 38420,
  "SabÃŃas": 40398,
  "Sal": 18832,
  "Sala": 50162,
  "Salud": 16235,
  "Salut": 37903,
  "San": 12193,
  "Santa": 47558,
  "Sat": 42854,
  "Sch": 30177,
  "Science": 47341,
  "Se": 5067,
  "Sem": 50119,
  "Sense": 45327,
  "Ser": 21278,
  "Servicio": 21923,
  "SerÃ¡": 45007,
  "Sev": 37271,
  "Sevilla": 42498,
  "Sh": 45177,
  "Si": 7544,
  "Siempre": 41805,
  "Sil": 40515,
  "Sin": 11423,
  "SinEmbargo": 20128,
  "Sistema": 43495,
  "Sm": 50051,
  "Smith": 34933,
  "SmithKline": 47530,
  "So": 21456,
  "Sobre": 47329,
  "Sociedad": 29685,
  "Sol": 27490,
  "Somos": 41983,
  "Son": 20914,
  "Soy": 41361,
  "Spain": 48884,
  "Star": 44542,
  "Su": 14245,
  "Sue": 44831,
  "Super": 46361,
  "Supl": 44326,
  "Suppl": 33849,
  "Sur": 49488,
  "Sus": 48448,
  "SÃ¡nchez": 28376,
  "SÃŃ": 37522,
  "SÃŃn": 33584,
  "SÃŃndrome": 37807,
  "T": 55,
  "TA": 1482,
  "TAB": 28375,
  "TABLE": 32805,
  "TAC": 13252,
  "TACION": 21026,
  "TACIONES": 46654,
  "TACIÃĵN": 29359,
  "TADO": 40372,
  "TAL": 20170,
  "TAM": 12250,
  "TAMENTE": 44238,
  "TAMIZOL": 46742,
  "TAMOL": 25513,
  "TAN": 17687,
  "TANTE": 38434,
  "TAR": 17125,
  "TAS": 9400,
  "TASIA": 17077,
  "TAT": 28521,
  "TATINA": 43869,
  "TB": 26952,
  "TC": 5471,
  "TDAH": 33062,
  "TE": 3016,
  "TEA": 35134,
  "TEC": 19080,
  "TECED": 27103,
  "TED": 40167,
  "TEL": 22709,
  "TEN": 9585,
  "TENS": 25210,
  "TEP": 44629,
  "TER": 4081,
  "TERIOR": 20566,
  "TERO": 45144,
  "TES": 7219,
  "TEST": 50072,
  "TEX": 36973,
  "TF": 45529,
  "TG": 41060,
  "TH": 11717,
  "TI": 1894,
  "TIA": 28814,
  "TIC": 7066,
  "TICA": 13064,
  "TICAMENTE": 47371,
  "TICAS": 19724,
  "TICI": 48631,
  "TICIÃĵN": 27564,
  "TICO": 11669,
  "TICOS": 19839,
  "TIEN": 17620,
  "TIF": 37663,
  "TIL": 10105,
  "TIM": 33050,
  "TIN": 20274,
  "TION": 19551,
  "TIR": 19952,
  "TIS": 21911,
  "TITIS": 32616,
  "TITU": 20195,
  "TIV": 4435,
  "TIVA": 12622,
  "TIVAS": 31463,
  "TIVIDAD": 15254,
  "TIVO": 7383,
  "TIVOS": 14484,
  "TJ": 47660,
  "TL": 45059,
  "TM": 15768,
  "TNF": 26843,
  "TO": 3250,
  "TOM": 25399,
  "TOMAS": 46850,
  "TON": 31563,
  "TOP": 22248,
  "TOR": 6482,
  "TORES": 23305,
  "TORIA": 16755,
  "TOS": 8671,
  "TOX": 38276,
  "TP": 4490,
  "TPa": 7215,
  "TR": 2275,
  "TRA": 9643,
  "TRACT": 21289,
  "TRAL": 44530,
  "TRAN": 50172,
  "TRAS": 19987,
  "TRE": 47481,
  "TRIA": 35621,
  "TRO": 10544,
  "TROM": 42377,
  "TROS": 16800,
  "TRUC": 20650,
  "TRUCCION": 41560,
  "TRÃįA": 25204,
  "TS": 7466,
  "TT": 21480,
  "TU": 4551,
  "TURA": 18893,
  "TV": 20642,
  "Ta": 26369,
  "Tabla": 12593,
  "TambiÃ©n": 29414,
  "Tc": 43925,
  "Te": 14274,
  "Ten": 23686,
  "Tenemos": 28640,
  "Tengo": 44995,
  "Ter": 32004,
  "Tesis": 48211,
  "Th": 34696,
  "The": 13311,
  "Ti": 29823,
  "Tiene": 31763,
  "Tienes": 40421,
  "To": 11610,
  "Toda": 45786,
  "Todo": 29245,
  "Todos": 28615,
  "Tom": 40765,
  "Torres": 43482,
  "Tr": 47141,
  "Tra": 15117,
  "Tran": 31672,
  "Trans": 42727,
  "Tras": 26976,
  "Tratamiento": 34667,
  "Tri": 42667,
  "Tro": 49289,
  "Tu": 16942,
  "Tube": 25068,
  "U": 56,
  "UA": 22788,
  "UAL": 15510,
  "UAM": 39274,
  "UB": 11316,
  "UC": 4733,
  "UCA": 31304,
  "UCH": 40658,
  "UCI": 16035,
  "UCLE": 38467,
  "UCM": 47978,
  "UD": 6851,
  "UDA": 38529,
  "UDAD": 47892,
  "UE": 2243,
  "UEL": 20238,
  "UER": 17207,
  "UERDO": 49821,
  "UES": 8444,
  "UESTA": 33110,
  "UEZ": 45678,
  "UFICI": 21053,
  "UFICIENCIA": 21774,
  "UG": 12618,
  "UI": 17450,
  "UIR": 32867,
  "UL": 2544,
  "ULA": 13996,
  "ULACION": 39983,
  "ULAR": 9555,
  "ULARES": 48881,
  "ULAS": 19471,
  "ULF": 45895,
  "ULINA": 47619,
  "ULO": 12329,
  "ULOS": 23453,
  "ULP": 19624,
  "ULS": 42301,
  "ULT": 13348,
  "ULTA": 46572,
  "UM": 4158,
  "UMA": 30752,
  "UMEN": 12976,
  "UMENTO": 48552,
  "UN": 3541,
  "UNA": 30245,
  "UNAS": 46986,
  "UNCA": 40607,
  "UND": 22203,
  "UNE": 40115,
  "UNES": 24084,
  "UNO": 29616,
  "UP": 11480,
  "UPO": 23026,
  "UPV": 45544,
  "UR": 3251,
  "URA": 13283,
  "URAL": 30063,
  "URAS": 31729,
  "URE": 46624,
  "URG": 38992,
  "URL": 17413,
  "URO": 14124,
  "UROPA": 23839,
  "US": 3274,
  "USA": 31897,
  "USION": 46625,
  "USIÃĵN": 37672,
  "UT": 10386,
  "UTICA": 40934,
  "UTICO": 42076,
  "UTR": 21515,
  "UTRI": 27529,
  "UU": 7321,
  "UV": 23792,
  "UY": 21081,
  "Un": 8182,
  "Una": 14483,
  "Unidad": 32783,
  "Univers": 17972,
  "Universidad": 21610,
  "Uno": 41657,
  "Urg": 42629,
  "Urgencias": 48856,
  "Us": 36235,
  "V": 57,
  "VA": 5931,
  "VAL": 40456,
  "VAN": 45741,
  "VAR": 30585,
  "VAS": 15636,
  "VASCULAR": 41701,
  "VASTATINA": 45416,
  "VC": 6998,
  "VD": 11522,
  "VE": 12144,
  "VEN": 11498,
  "VENCION": 17155,
  "VER": 21834,
  "VES": 13948,
  "VESTI": 27044,
  "VF": 49071,
  "VH": 32694,
  "VHB": 47638,
  "VHC": 33475,
  "VI": 4005,
  "VIA": 44277,
  "VID": 3595,
  "VIDAD": 14078,
  "VIH": 20094,
  "VII": 33275,
  "VIII": 40188,
  "VIR": 28028,
  "VIS": 16077,
  "VL": 44292,
  "VM": 28573,
  "VO": 15694,
  "VOS": 41243,
  "VP": 6846,
  "VPH": 29817,
  "VR": 38866,
  "VS": 25976,
  "VV": 49526,
  "Val": 13449,
  "Valencia": 36175,
  "Vamos": 47600,
  "Var": 45248,
  "Ver": 18858,
  "Vi": 43668,
  "Vic": 49489,
  "Vie": 38694,
  "Vir": 44568,
  "Vis": 25466,
  "Visita": 33338,
  "Vol": 40263,
  "W": 58,
  "WA": 47005,
  "WHO": 49047,
  "WN": 48857,
  "WS": 45767,
  "We": 42247,
  "Whitney": 37032,
  "Wil": 33880,
  "X": 59,
  "XA": 27431,
  "XI": 46795,
  "XICO": 47035,
  "XX": 26534,
  "Y": 60,
  "YA": 24955,
  "YC": 16185,
  "YEC": 32633,
  "YL": 30393,
  "YM": 40676,
  "YO": 39024,
  "YS": 32521,
  "YT": 29374,
  "Ya": 25751,
  "Yo": 16874,
  "Z": 61,
  "ZA": 15372,
  "ZD": 44954,
  "ZO": 19538,
  "ZOL": 24593,
  "Zen": 32341,
  "Zeneca": 33219,
  "[": 62,
  "\\": 63,
  "\\,": 13331,
  "\\\\": 41230,
  "]": 64,
  "])": 24481,
  "]),": 43877,
  "]).": 35088,
  "],": 10411,
  "]-": 41150,
  "].": 4278,
  "]:": 34863,
  "];": 25126,
  "^": 65,
  "_": 66,
  "__": 2698,
  "___": 32727,
  "____": 5011,
  "________": 8930,
  "________________": 16525,
  "________________________________": 35140,
  "`": 67,
  "a": 68,
  "aa": 13475,
  "aaaa": 33168,
  "ab": 378,
  "aba": 1164,
  "abal": 15786,
  "abalina": 26981,
  "abamos": 48602,
  "aban": 1892,
  "abapentina": 28702,
  "abaquismo": 7090,
  "abar": 22608,
  "abas": 25201,
  "abaste": 35592,
  "abdomen": 29433,
  "abdominal": 19794,
  "abdominales": 41881,
  "abe": 7754,
  "abel": 8563,
  "abell": 16468,
  "abellÃ³n": 21947,
  "abeth": 24976,
  "abeu": 44311,
  "abilidad": 15103,
  "ability": 30291,
  "abina": 37471,
  "abla": 6473,
  "able": 874,
  "ablemente": 7476,
  "ables": 1593,
  "ablo": 6940,
  "abo": 12437,
  "abobo": 38317,
  "abor": 32204,
  "abos": 45355,
  "abra": 21525,
  "abras": 9014,
  "abril": 36725,
  "abs": 27538,
  "absor": 12347,
  "absorciÃ³n": 29659,
  "abu": 44945,
  "abuena": 16095,
  "abÃ¡n": 34477,
  "ac": 358,
  "aca": 1980,
  "acab": 42388,
  "acal": 16335,
  "acales": 34749,
  "acan": 38023,
  "acar": 17895,
  "acas": 7342,
  "acate": 21960,
  "acces": 35321,
  "acceso": 36433,
  "acci": 37749,
  "acciones": 16045,
  "acciÃ³n": 8474,
  "ace": 2441,
  "acea": 16799,
  "aceae": 22177,
  "acen": 12973,
  "acep": 12788,
  "acer": 4174,
  "aces": 3035,
  "aceta": 4045,
  "acetamol": 4353,
  "acetas": 47428,
  "acete": 11356,
  "acetil": 34680,
  "ach": 2674,
  "acha": 18332,
  "achas": 35568,
  "ache": 17230,
  "acher": 41355,
  "aches": 46680,
  "achi": 39423,
  "aching": 18309,
  "acho": 9292,
  "achos": 20396,
  "achus": 20964,
  "aci": 296,
  "acia": 1082,
  "aciadamente": 24273,
  "acial": 35796,
  "acias": 1540,
  "acic": 39255,
  "acico": 24135,
  "acida": 33467,
  "acidad": 11736,
  "acidez": 22801,
  "acido": 25613,
  "acidosis": 33501,
  "acient": 15609,
  "aciente": 6372,
  "acientes": 32072,
  "acil": 35992,
  "acilina": 31989,
  "acilo": 33762,
  "acimiento": 17579,
  "acimientos": 30538,
  "acin": 31468,
  "acina": 16231,
  "acio": 5398,
  "acion": 857,
  "aciona": 7757,
  "acional": 885,
  "acionales": 2420,
  "acionalizaciÃ³n": 23485,
  "aciones": 477,
  "acions": 17982,
  "acios": 16412,
  "aciÃ¯": 21152,
  "aciÃ²n": 42485,
  "aciÃ³": 4409,
  "aciÃ³n": 321,
  "aciÃĥ": 8534,
  "ack": 5054,
  "acks": 45453,
  "acno": 25606,
  "aco": 2207,
  "acoa": 26760,
  "acol": 23283,
  "acom": 46297,
  "acon": 29719,
  "acor": 34032,
  "acos": 8961,
  "acr": 46467,
  "acra": 38719,
  "acri": 35989,
  "acro": 26230,
  "acruz": 20724,
  "act": 24295,
  "acta": 20915,
  "acter": 1133,
  "acteri": 2475,
  "acterium": 49929,
  "actil": 25127,
  "actilia": 33617,
  "actin": 49416,
  "activ": 10253,
  "activa": 4902,
  "activaciÃ³n": 45745,
  "activas": 15950,
  "active": 40119,
  "actividad": 8324,
  "actividades": 38050,
  "activo": 12026,
  "activos": 14969,
  "acto": 2449,
  "actos": 46698,
  "actu": 47087,
  "actual": 45978,
  "actualidad": 40251,
  "actualmente": 32904,
  "acu": 10240,
  "acum": 45920,
  "acusia": 16043,
  "acy": 16224,
  "acÃ¡": 49575,
  "acÃ¡n": 29044,
  "acÃ¡r": 17205,
  "acÃ¡rido": 33283,
  "acÃ¡ridos": 24132,
  "acÃ³n": 27201,
  "acÃŃa": 46310,
  "acÃŃn": 47553,
  "ad": 280,
  "ada": 383,
  "adajo": 22969,
  "adajoz": 23048,
  "adal": 11242,
  "adamente": 2019,
  "adap": 21244,
  "adaptaciÃ³n": 38497,
  "adar": 14126,
  "adas": 540,
  "ade": 5768,
  "adecu": 7749,
  "ademÃ¡s": 32247,
  "aden": 13793,
  "adenoma": 46743,
  "ader": 26499,
  "adi": 9458,
  "adia": 28022,
  "adian": 37859,
  "adic": 10879,
  "adie": 16481,
  "adiense": 25377,
  "adienses": 41956,
  "adilla": 16346,
  "adillas": 22865,
  "adillo": 32106,
  "adimir": 48466,
  "adina": 30776,
  "adine": 33070,
  "ading": 31251,
  "adio": 19918,
  "adiol": 24879,
  "adir": 30256,
  "adis": 42062,
  "adismo": 39745,
  "adminis": 14476,
  "administra": 26648,
  "administraciÃ³n": 37432,
  "ado": 336,
  "adol": 27665,
  "adolesc": 35879,
  "adolinio": 39261,
  "ador": 797,
  "adora": 2132,
  "adoras": 3808,
  "adores": 832,
  "ados": 410,
  "adr": 1598,
  "adra": 24048,
  "adrado": 21492,
  "adre": 28218,
  "adren": 31428,
  "adrenalina": 23224,
  "adrenÃ©rgicos": 47961,
  "adri": 47693,
  "adrid": 1833,
  "adro": 11086,
  "adrones": 31167,
  "adros": 37808,
  "adrÃ³n": 21303,
  "ads": 26412,
  "adul": 47756,
  "adura": 8592,
  "aduras": 12537,
  "adurÃŃa": 39205,
  "ady": 24803,
  "adyu": 30674,
  "adyuvante": 21377,
  "adÃ¡": 7779,
  "adÃ¡ver": 15940,
  "adÃŃa": 47829,
  "ae": 36479,
  "af": 17047,
  "afec": 22457,
  "ag": 1300,
  "aga": 37653,
  "age": 10149,
  "ager": 11968,
  "ages": 47716,
  "agia": 7899,
  "aging": 43049,
  "agitis": 29249,
  "agon": 40254,
  "agosto": 50243,
  "agr": 19370,
  "agre": 13439,
  "agres": 32986,
  "agresividad": 48700,
  "agro": 22168,
  "agu": 31591,
  "agua": 34541,
  "ague": 20231,
  "agÃ³n": 32129,
  "agÃ¼": 13635,
  "agÃ¼e": 49214,
  "agÃ¼ey": 16454,
  "ah": 35561,
  "ahora": 25055,
  "ahu": 46607,
  "ais": 46785,
  "aj": 476,
  "aja": 3943,
  "ajada": 20072,
  "ajadahonda": 39126,
  "ajaj": 12299,
  "ajaja": 19043,
  "ajal": 13374,
  "ajar": 39105,
  "ajara": 17338,
  "ajardo": 28265,
  "ajas": 5300,
  "aje": 1195,
  "ajen": 32791,
  "ajes": 3240,
  "ajo": 3258,
  "ajor": 22255,
  "ajos": 13896,
  "ajus": 18617,
  "ak": 20157,
  "al": 276,
  "ala": 1668,
  "alac": 36555,
  "alan": 34971,
  "alanina": 37121,
  "alao": 47517,
  "alapril": 16169,
  "alar": 47330,
  "alas": 32020,
  "alato": 41740,
  "alb": 20884,
  "album": 44015,
  "albuminemia": 48194,
  "albuminuria": 32104,
  "albÃºmina": 48145,
  "alco": 31999,
  "alcohol": 41542,
  "alcoxi": 45199,
  "ald": 37627,
  "alda": 35521,
  "aldad": 40336,
  "alde": 47019,
  "aldo": 32948,
  "ale": 3918,
  "alelo": 17122,
  "aler": 28437,
  "ales": 393,
  "aletra": 19858,
  "alez": 25061,
  "alfa": 31226,
  "alg": 39755,
  "algia": 6751,
  "algias": 12728,
  "algo": 24653,
  "algunas": 48090,
  "algunos": 37684,
  "ali": 27276,
  "alia": 16982,
  "aliciÃ³n": 31440,
  "alidad": 731,
  "alidades": 47632,
  "alidomida": 46840,
  "align": 48727,
  "alim": 10846,
  "alimentaciÃ³n": 22266,
  "alimentos": 48177,
  "alimumab": 34551,
  "aling": 37345,
  "alip": 48450,
  "alis": 26721,
  "aliz": 473,
  "aliza": 4371,
  "alizaba": 46618,
  "alizacion": 32326,
  "alizaciones": 8715,
  "alizaciÃ³n": 1630,
  "alizada": 2596,
  "alizadas": 6246,
  "alizado": 2464,
  "alizador": 22692,
  "alizadores": 34616,
  "alizados": 4006,
  "alizamos": 12827,
  "alizan": 9854,
  "alizando": 14333,
  "alizante": 41030,
  "alizantes": 42825,
  "alizar": 2852,
  "alizaron": 22921,
  "alizarse": 16696,
  "alizarÃ¡": 27076,
  "alizas": 48829,
  "alization": 29329,
  "alized": 24426,
  "alizo": 22408,
  "alizumab": 43986,
  "alizÃ¡ndose": 40122,
  "alizÃ³": 10633,
  "all": 2546,
  "alla": 17871,
  "allas": 33920,
  "allen": 25026,
  "aller": 12301,
  "allero": 15028,
  "alles": 34806,
  "allis": 38356,
  "allitas": 44742,
  "allo": 33946,
  "allos": 38867,
  "ally": 14858,
  "almente": 664,
  "alo": 4451,
  "aloa": 40405,
  "alobos": 41911,
  "alog": 49573,
  "alos": 26663,
  "alquil": 20014,
  "alquilo": 9459,
  "alrededor": 36256,
  "als": 11131,
  "alt": 42930,
  "alta": 14350,
  "alter": 30163,
  "alth": 2741,
  "alto": 28306,
  "alu": 1090,
  "alud": 10083,
  "aludismo": 24900,
  "alupe": 26157,
  "alut": 29514,
  "alve": 35742,
  "alveolar": 40960,
  "am": 326,
  "ama": 1364,
  "amaciÃ³n": 22644,
  "aman": 6047,
  "amanca": 9750,
  "amanga": 39761,
  "amante": 31429,
  "amar": 14566,
  "amarca": 18265,
  "amas": 13306,
  "amb": 5003,
  "amba": 35404,
  "ambi": 526,
  "ambiente": 38179,
  "ambio": 43578,
  "ambique": 42166,
  "ambiÃ©n": 653,
  "amblaje": 44012,
  "amble": 7956,
  "amblea": 8675,
  "ambleas": 40929,
  "ambos": 39928,
  "ambre": 9412,
  "ambres": 18227,
  "ame": 5993,
  "amed": 45015,
  "amel": 41443,
  "amelo": 48762,
  "amelos": 43935,
  "amen": 12509,
  "ament": 11540,
  "amental": 28553,
  "amentales": 40868,
  "amentalmente": 36318,
  "amente": 560,
  "amento": 5741,
  "amentos": 5313,
  "amer": 3695,
  "ameral": 48793,
  "americ": 3941,
  "americana": 7003,
  "americanas": 23576,
  "americano": 9940,
  "americanos": 10828,
  "ames": 11354,
  "ametasona": 16673,
  "ametox": 44580,
  "ametoxazol": 46145,
  "ami": 828,
  "amia": 24012,
  "amicamente": 49127,
  "amicina": 21326,
  "amida": 10219,
  "amidas": 32248,
  "amiento": 936,
  "amientos": 3768,
  "amig": 24669,
  "amigdal": 29413,
  "amigdalitis": 42987,
  "amil": 911,
  "amillo": 44059,
  "amilo": 17802,
  "amiloide": 41104,
  "amilton": 35695,
  "amin": 7888,
  "amina": 8053,
  "aminas": 14031,
  "amine": 28130,
  "aming": 33643,
  "amino": 12780,
  "amma": 4580,
  "amn": 29396,
  "amnesis": 11764,
  "amo": 5970,
  "amon": 31878,
  "amor": 26946,
  "amos": 758,
  "amoto": 49900,
  "amoxifeno": 32638,
  "amp": 6360,
  "ampicina": 24369,
  "ampiÃ³n": 14001,
  "ampl": 13328,
  "amplona": 16257,
  "ampo": 3833,
  "ampoco": 4292,
  "ampsia": 43669,
  "ams": 23448,
  "amÃ¡": 14526,
  "amÃ©rica": 8059,
  "amÃŃn": 38632,
  "an": 278,
  "ana": 645,
  "anaderÃŃa": 31284,
  "anahor": 20309,
  "anal": 8008,
  "analysis": 24100,
  "analÃŃtica": 40727,
  "anas": 2865,
  "anato": 38035,
  "anca": 29473,
  "ance": 4070,
  "ancer": 31306,
  "ances": 34115,
  "anci": 2884,
  "ancia": 1362,
  "ancias": 7998,
  "anco": 34009,
  "ancy": 17485,
  "and": 4198,
  "anda": 6650,
  "andante": 15436,
  "ander": 15604,
  "andes": 16098,
  "andez": 22276,
  "ando": 451,
  "andos": 22189,
  "andr": 49290,
  "andra": 27418,
  "andre": 48878,
  "andro": 26926,
  "andÃ©s": 34259,
  "ane": 7150,
  "anes": 12929,
  "aneurisma": 48308,
  "ang": 4761,
  "ange": 23924,
  "angi": 22822,
  "angio": 12601,
  "angiotensina": 46252,
  "angitis": 26467,
  "ango": 27615,
  "ani": 17821,
  "ania": 33941,
  "anico": 49814,
  "anidad": 39601,
  "anim": 8500,
  "animaciÃ³n": 11967,
  "animidad": 27797,
  "anina": 20339,
  "aning": 40234,
  "anio": 42029,
  "anismo": 17867,
  "anismos": 32584,
  "ano": 835,
  "anopsia": 48507,
  "anos": 1143,
  "anosis": 27090,
  "anova": 23235,
  "ans": 5621,
  "ansas": 39569,
  "ant": 5150,
  "anta": 14166,
  "ante": 427,
  "antema": 43028,
  "antemente": 43064,
  "anterior": 45753,
  "anterÃŃa": 38422,
  "antes": 823,
  "anti": 10670,
  "anticuerpos": 26984,
  "antil": 2671,
  "anto": 5488,
  "antoÃŃna": 48374,
  "ants": 17890,
  "anty": 32136,
  "antyum": 33069,
  "antÃŃ": 45666,
  "anual": 37668,
  "anum": 35367,
  "any": 50021,
  "anz": 29868,
  "anza": 1832,
  "anzas": 9529,
  "anÃ¡lisis": 9576,
  "anÃ§a": 40633,
  "anÃ§as": 49838,
  "anÃŃa": 7747,
  "ap": 4207,
  "apar": 41282,
  "apariciÃ³n": 28161,
  "apo": 38805,
  "app": 30530,
  "appa": 21989,
  "apren": 22257,
  "aprendizaje": 27222,
  "apro": 12777,
  "apropi": 20401,
  "aproximadamente": 29035,
  "aquel": 37523,
  "aquÃŃ": 48885,
  "ar": 271,
  "ara": 607,
  "aragua": 20677,
  "aran": 1974,
  "arance": 46194,
  "aras": 10507,
  "arato": 34389,
  "arazo": 14363,
  "arc": 1345,
  "arca": 7418,
  "arcal": 28349,
  "arcas": 36571,
  "arcel": 2949,
  "arcelona": 3038,
  "arch": 20612,
  "arco": 33196,
  "arcoma": 12782,
  "arcomas": 45065,
  "arcos": 20509,
  "arction": 35162,
  "arcÃŃa": 2851,
  "ard": 3130,
  "ardi": 37761,
  "ardo": 6109,
  "ardon": 18210,
  "ardÃŃn": 16504,
  "are": 4365,
  "arel": 39241,
  "arelto": 45073,
  "aremos": 17796,
  "arena": 28373,
  "ares": 833,
  "arez": 41482,
  "argo": 990,
  "ari": 506,
  "aria": 616,
  "ariable": 22157,
  "ariado": 46950,
  "arial": 9887,
  "ariales": 18502,
  "ariamente": 4986,
  "arian": 31713,
  "ariana": 22979,
  "arias": 1106,
  "ariciÃ³n": 2465,
  "aridad": 11314,
  "arie": 38119,
  "ariedad": 18605,
  "aries": 47301,
  "aril": 46102,
  "arilo": 20649,
  "aring": 48212,
  "ario": 602,
  "arios": 738,
  "ariotas": 37339,
  "ariotipo": 37237,
  "arita": 17353,
  "arium": 45128,
  "arius": 43789,
  "ariÃ¡": 20286,
  "ariÃ¡trica": 21766,
  "ariÃ±o": 48269,
  "ark": 47920,
  "arla": 5558,
  "arlas": 32802,
  "arle": 20446,
  "arlo": 3678,
  "arlos": 9434,
  "arly": 16425,
  "arm": 42696,
  "arma": 21118,
  "armac": 19462,
  "armacia": 46818,
  "arme": 11992,
  "arning": 23759,
  "arnos": 9577,
  "aro": 12093,
  "aron": 702,
  "arqu": 30101,
  "arquia": 34606,
  "arquÃŃa": 19422,
  "arra": 3160,
  "arre": 28977,
  "arri": 44855,
  "arro": 7765,
  "arrol": 763,
  "arrollo": 5496,
  "arrÃŃa": 39933,
  "ars": 29741,
  "arse": 849,
  "art": 5846,
  "artan": 22361,
  "arte": 5960,
  "arterial": 28871,
  "artic": 24403,
  "article": 47462,
  "articular": 26064,
  "articulares": 35513,
  "arto": 3474,
  "artos": 15832,
  "artria": 20347,
  "artritis": 17944,
  "artro": 47640,
  "artrosis": 21333,
  "artÃ¡n": 22895,
  "artÃ©n": 41436,
  "ary": 7552,
  "arÃ¡": 1147,
  "arÃ¡n": 3628,
  "arÃŃa": 5233,
  "as": 273,
  "asa": 2320,
  "asaki": 39280,
  "asas": 4885,
  "asco": 37677,
  "ase": 1315,
  "asemia": 31986,
  "asen": 30763,
  "ases": 12440,
  "ash": 9004,
  "asi": 20747,
  "asia": 11858,
  "asis": 6626,
  "asistencia": 36838,
  "asma": 41111,
  "aso": 16242,
  "asoci": 36887,
  "ason": 19283,
  "asp": 29669,
  "aspir": 41687,
  "aspiraciÃ³n": 30182,
  "ass": 17528,
  "associated": 39198,
  "ast": 14497,
  "asta": 780,
  "astamiento": 47171,
  "astas": 40015,
  "aste": 12308,
  "asÃŃ": 28122,
  "at": 1276,
  "ata": 18273,
  "atales": 31627,
  "atch": 29516,
  "ate": 3887,
  "aten": 45401,
  "atenciÃ³n": 39977,
  "ater": 49970,
  "ates": 49320,
  "ath": 16105,
  "ating": 28207,
  "ation": 9073,
  "ativo": 15035,
  "ato": 12598,
  "atologÃŃa": 4463,
  "aton": 40266,
  "atori": 28970,
  "atorio": 12177,
  "atosis": 26800,
  "atro": 2035,
  "ats": 33622,
  "attle": 38475,
  "atÃ¡n": 31289,
  "atÃ³": 43267,
  "atÃŃa": 12556,
  "au": 3758,
  "audi": 38408,
  "aum": 38413,
  "aumento": 29346,
  "aunque": 10926,
  "aur": 19199,
  "auricular": 23561,
  "aus": 31877,
  "ausencia": 45162,
  "auto": 31054,
  "auton": 49952,
  "autor": 37775,
  "av": 1081,
  "ava": 19786,
  "aval": 29977,
  "avana": 47232,
  "ave": 7353,
  "avedra": 42949,
  "avent": 37118,
  "avera": 31180,
  "avir": 17587,
  "avirenz": 44199,
  "avor": 1842,
  "ax": 5045,
  "axaca": 34692,
  "axia": 24767,
  "axial": 29928,
  "axis": 8941,
  "ay": 921,
  "aya": 5898,
  "ayas": 22126,
  "ayer": 38345,
  "ayo": 9874,
  "ayor": 47396,
  "ayos": 21208,
  "ayuda": 29066,
  "ayuno": 27187,
  "az": 12918,
  "azol": 15831,
  "aÃ±a": 48134,
  "aÃ±ad": 17860,
  "aÃ±o": 15531,
  "aÃ±os": 14668,
  "aÃ³r": 30981,
  "aÃ³rticos": 50100,
  "aÃºn": 39061,
  "b": 69,
  "ba": 704,
  "bable": 22372,
  "bac": 13648,
  "bacco": 26123,
  "bach": 17627,
  "baci": 21212,
  "bacillus": 31943,
  "baciones": 17034,
  "baciÃ³n": 4598,
  "back": 18652,
  "bactam": 28462,
  "bacter": 12926,
  "bacteri": 8587,
  "bacteria": 46131,
  "bacterias": 17237,
  "bacterium": 19359,
  "bada": 25630,
  "bado": 3048,
  "bados": 17885,
  "bago": 43125,
  "bai": 44155,
  "baj": 695,
  "baja": 39319,
  "bajo": 15412,
  "bajos": 46062,
  "bal": 4560,
  "balamina": 42925,
  "balance": 46406,
  "balgia": 18477,
  "ball": 23799,
  "bamos": 8765,
  "ban": 1957,
  "bana": 8037,
  "banas": 16382,
  "banco": 36759,
  "bando": 41897,
  "bano": 8957,
  "banos": 17209,
  "bao": 14876,
  "bar": 2323,
  "bara": 21310,
  "barbital": 36588,
  "bares": 19487,
  "barse": 48415,
  "bas": 1639,
  "basal": 26753,
  "base": 30296,
  "based": 20419,
  "bat": 48101,
  "bata": 49041,
  "bato": 34116,
  "baum": 32446,
  "bavirina": 29404,
  "bay": 44763,
  "bb": 23542,
  "bbing": 49933,
  "be": 1562,
  "beb": 40135,
  "bec": 22711,
  "beck": 41614,
  "bed": 29558,
  "being": 47173,
  "bel": 7335,
  "bell": 25146,
  "bella": 27910,
  "belo": 50188,
  "ben": 5099,
  "bene": 21536,
  "beneficio": 25962,
  "benos": 43082,
  "benzo": 41786,
  "ber": 1047,
  "bera": 33480,
  "bercul": 5178,
  "berculosis": 5908,
  "berg": 7402,
  "berger": 36122,
  "bern": 6051,
  "berna": 46799,
  "bernam": 15246,
  "beros": 21552,
  "bers": 39840,
  "bert": 7656,
  "berto": 5773,
  "berts": 28519,
  "bertura": 37895,
  "bes": 9367,
  "bet": 43586,
  "beta": 27821,
  "bete": 40346,
  "betes": 6530,
  "bi": 352,
  "bia": 2436,
  "bial": 12563,
  "biales": 29467,
  "biana": 41900,
  "bianas": 46265,
  "bias": 13156,
  "bible": 31064,
  "bibles": 43073,
  "bic": 36994,
  "bica": 30509,
  "bico": 23149,
  "bicos": 48032,
  "bida": 9621,
  "bidas": 23022,
  "bido": 7723,
  "bidos": 15756,
  "bie": 44718,
  "bien": 29930,
  "biendo": 8244,
  "bier": 1290,
  "biera": 40310,
  "bieran": 13840,
  "bieron": 12713,
  "bierta": 18659,
  "biertas": 28736,
  "bierto": 6868,
  "biertos": 17131,
  "bies": 45565,
  "biga": 29786,
  "bil": 594,
  "bildo": 38454,
  "bile": 32060,
  "bili": 10189,
  "bilical": 11897,
  "bilidad": 817,
  "bilidade": 40754,
  "bilidades": 2225,
  "bilinÃ³geno": 15399,
  "bilirrubinemia": 43866,
  "bilis": 40364,
  "bilit": 3097,
  "bilita": 12069,
  "bilitar": 18141,
  "bilitat": 45921,
  "bilitation": 40039,
  "bilities": 39521,
  "bility": 9266,
  "bilitz": 47904,
  "biliz": 12420,
  "biliza": 33330,
  "bilizaciÃ³n": 7376,
  "bilizar": 10033,
  "billa": 29429,
  "billo": 36162,
  "bimos": 16798,
  "bin": 2118,
  "bina": 3900,
  "bing": 47197,
  "bio": 3763,
  "biologÃŃa": 22962,
  "bios": 6611,
  "biosis": 40444,
  "bir": 1785,
  "bira": 47361,
  "bis": 13063,
  "bismo": 22387,
  "bit": 19153,
  "bita": 15241,
  "bital": 16323,
  "bitas": 41992,
  "bitis": 22872,
  "bito": 14756,
  "bitos": 44649,
  "bitÃºricos": 37614,
  "bium": 44056,
  "biÃ³": 2008,
  "biÃ³tica": 47314,
  "biÃ³tico": 30647,
  "biÃ³ticos": 12516,
  "bl": 478,
  "bla": 13218,
  "blaciones": 32412,
  "blaciÃ³n": 8614,
  "blado": 40684,
  "blan": 18185,
  "blanco": 45198,
  "blas": 8503,
  "blasto": 47448,
  "blastoma": 16832,
  "blastos": 17563,
  "ble": 498,
  "blece": 42668,
  "blecer": 15252,
  "bledo": 36218,
  "blema": 33464,
  "blemas": 13825,
  "bles": 964,
  "bli": 31078,
  "blia": 20516,
  "bligo": 28105,
  "blind": 41717,
  "blio": 4084,
  "blo": 3978,
  "blog": 40638,
  "blogs": 30024,
  "blogspot": 34499,
  "bloque": 14292,
  "bloqueantes": 21139,
  "bloqueo": 40041,
  "blor": 49191,
  "blos": 10973,
  "bly": 50166,
  "blÃ¡stica": 24832,
  "bn": 49017,
  "bo": 1522,
  "boa": 23213,
  "board": 39020,
  "bol": 3337,
  "bola": 13004,
  "bole": 49136,
  "boles": 12042,
  "bom": 48672,
  "bon": 11806,
  "bonucle": 42272,
  "book": 23689,
  "bor": 7630,
  "bora": 42336,
  "born": 33452,
  "bos": 7284,
  "bosa": 41541,
  "bot": 37058,
  "bott": 39412,
  "bourne": 46250,
  "box": 19902,
  "boy": 41476,
  "br": 1303,
  "bra": 2844,
  "brada": 48731,
  "brado": 25161,
  "brados": 19864,
  "bral": 5512,
  "brales": 12553,
  "bramicina": 47613,
  "bramiento": 39288,
  "bran": 11677,
  "brand": 46059,
  "brar": 26096,
  "bras": 8018,
  "bray": 45983,
  "brazo": 15521,
  "bre": 454,
  "break": 48604,
  "bregat": 38082,
  "bren": 49125,
  "bres": 1545,
  "bri": 27853,
  "brica": 15956,
  "bricas": 31546,
  "brid": 14812,
  "bridamiento": 33964,
  "bridge": 21283,
  "bro": 5744,
  "bron": 19944,
  "bronquial": 49446,
  "bros": 10963,
  "bs": 12479,
  "bsi": 26054,
  "bsiella": 26574,
  "bu": 3026,
  "buen": 19082,
  "buena": 35349,
  "bueno": 28835,
  "bul": 14951,
  "bula": 13814,
  "bular": 7274,
  "bulares": 23595,
  "bulas": 42175,
  "bulo": 19267,
  "bulos": 27168,
  "bum": 11100,
  "bun": 7961,
  "bunal": 9931,
  "bunales": 21820,
  "buprofeno": 7571,
  "bur": 10949,
  "burg": 19244,
  "burgh": 37914,
  "burgo": 25504,
  "burn": 45187,
  "bury": 41251,
  "bus": 6300,
  "buses": 37956,
  "but": 44201,
  "buta": 14811,
  "butamina": 39433,
  "butamol": 18097,
  "by": 12367,
  "bÃ©": 21246,
  "bÃ©ola": 27228,
  "bÃ³": 24189,
  "bÃ³n": 38053,
  "bÃºs": 27167,
  "bÃŃ": 23613,
  "bÃŃa": 26183,
  "bÃŃan": 42579,
  "c": 70,
  "ca": 479,
  "cab": 34232,
  "caba": 44727,
  "caciÃ³n": 28328,
  "cad": 24244,
  "cada": 8802,
  "cadas": 24000,
  "cado": 2474,
  "cados": 8936,
  "cal": 1394,
  "cala": 10367,
  "calas": 32300,
  "calcemia": 18853,
  "calci": 15829,
  "calcitonina": 24476,
  "calcul": 49977,
  "cale": 15324,
  "cales": 10768,
  "cali": 32956,
  "calidad": 24882,
  "calipsis": 42354,
  "calo": 46139,
  "cam": 17689,
  "cambi": 5998,
  "cambio": 33282,
  "camente": 23767,
  "camiento": 26411,
  "camos": 25595,
  "campe": 48439,
  "campo": 18213,
  "can": 1020,
  "cana": 45888,
  "cancer": 24854,
  "cando": 28294,
  "canes": 30282,
  "cano": 20119,
  "canos": 44214,
  "cap": 9774,
  "capaces": 24170,
  "capaci": 8029,
  "capacidad": 2629,
  "cape": 45690,
  "capiÃ©": 14250,
  "caps": 18321,
  "capsular": 42577,
  "capular": 38399,
  "car": 722,
  "cara": 12889,
  "caracter": 48745,
  "caras": 30620,
  "carb": 19295,
  "carbo": 47515,
  "carbon": 26927,
  "carbonilo": 44189,
  "carcinoma": 11583,
  "carcinomas": 46235,
  "cardi": 4039,
  "cardia": 46519,
  "cardial": 30727,
  "cardio": 4952,
  "cardiografÃŃa": 36735,
  "cardiograma": 21796,
  "carditis": 12260,
  "care": 13527,
  "carga": 9090,
  "caro": 25497,
  "caroteno": 40572,
  "carril": 27171,
  "carse": 18250,
  "cas": 918,
  "casa": 23870,
  "casi": 26434,
  "caso": 19084,
  "casos": 37349,
  "cast": 5293,
  "cat": 20791,
  "cate": 22098,
  "categ": 33568,
  "caten": 47641,
  "catÃ©ter": 40916,
  "cav": 29820,
  "cava": 46036,
  "caÃŃna": 9828,
  "cc": 12653,
  "cciÃ³n": 3958,
  "ce": 466,
  "ced": 13238,
  "cedente": 7236,
  "cedentes": 2724,
  "cedents": 31676,
  "cedes": 16147,
  "cedo": 20605,
  "cefal": 7622,
  "cefalia": 15415,
  "cel": 1985,
  "cele": 17611,
  "celente": 41637,
  "celes": 34511,
  "cell": 28845,
  "cellular": 49358,
  "celo": 25290,
  "celular": 10714,
  "celulares": 23669,
  "cemia": 16052,
  "cemos": 16695,
  "cen": 1724,
  "cena": 35153,
  "cence": 42313,
  "cencia": 13057,
  "cencias": 47979,
  "ceno": 31301,
  "cens": 35571,
  "censo": 31012,
  "cent": 2825,
  "centa": 34470,
  "centaje": 25888,
  "cente": 24083,
  "centes": 27688,
  "centesis": 30143,
  "centil": 33174,
  "centr": 16198,
  "centraciÃ³n": 29356,
  "centro": 32466,
  "cep": 1000,
  "cepcional": 36285,
  "cepciÃ³n": 3603,
  "cephal": 45097,
  "ceps": 24445,
  "cept": 22680,
  "ceptiva": 40356,
  "ceptivo": 33090,
  "ceptivos": 37323,
  "cepto": 13669,
  "ceptor": 33137,
  "ceptores": 25422,
  "ceptos": 24334,
  "cer": 632,
  "cera": 3954,
  "ceras": 7312,
  "cerca": 28536,
  "cereb": 20707,
  "cerebral": 39385,
  "ceres": 19945,
  "cero": 25379,
  "ceros": 47367,
  "cers": 31573,
  "certid": 11915,
  "cerv": 22489,
  "cervical": 30450,
  "cervicales": 47206,
  "cerÃŃa": 39157,
  "ces": 609,
  "cesa": 9998,
  "cesis": 45041,
  "ceso": 1034,
  "cesos": 12410,
  "cess": 18103,
  "cet": 41384,
  "ceta": 30517,
  "cetam": 36941,
  "ceton": 37597,
  "cf": 49801,
  "cg": 9914,
  "ch": 501,
  "cha": 1039,
  "chado": 19296,
  "chamiento": 30010,
  "chan": 32143,
  "char": 6089,
  "chas": 3525,
  "che": 2043,
  "chea": 36982,
  "chel": 32580,
  "chem": 21163,
  "chemic": 46421,
  "chemical": 44646,
  "chen": 32897,
  "cher": 11615,
  "cherichia": 21917,
  "ches": 6043,
  "chester": 24698,
  "chever": 34177,
  "chez": 4417,
  "chi": 14606,
  "chia": 49192,
  "child": 46931,
  "chin": 35034,
  "cho": 1073,
  "chool": 11537,
  "chor": 38452,
  "chos": 2805,
  "cht": 35738,
  "chu": 41801,
  "chy": 43157,
  "ci": 267,
  "cia": 379,
  "ciado": 42890,
  "cial": 1433,
  "ciales": 2782,
  "cialidad": 17133,
  "cialmente": 7273,
  "cian": 29276,
  "ciana": 39723,
  "ciano": 19103,
  "cianos": 41083,
  "ciar": 39418,
  "cias": 1214,
  "cibilidad": 32058,
  "cible": 15923,
  "cibles": 26121,
  "cica": 12333,
  "cicas": 37815,
  "cicl": 29608,
  "cicle": 38451,
  "ciclo": 15179,
  "ciclovir": 30155,
  "cico": 14699,
  "cicos": 37560,
  "cid": 486,
  "cida": 2930,
  "cidad": 3535,
  "cidades": 22244,
  "cidas": 4488,
  "cidio": 40677,
  "cido": 1321,
  "cidos": 2492,
  "ciedad": 34563,
  "cience": 20614,
  "ciencia": 8487,
  "ciencias": 16864,
  "ciende": 14348,
  "ciendo": 2980,
  "cient": 27245,
  "ciente": 2613,
  "cientemente": 11816,
  "cientes": 5997,
  "cientos": 24825,
  "cientÃŃ": 23616,
  "ciera": 20907,
  "cieran": 48315,
  "cieron": 7202,
  "cierto": 44854,
  "cies": 15616,
  "ciferol": 49424,
  "cil": 1592,
  "ciles": 7096,
  "cili": 29709,
  "cilio": 41877,
  "cilla": 13265,
  "cillas": 40176,
  "ciller": 44859,
  "cillo": 30837,
  "cillos": 37156,
  "cima": 33378,
  "cimento": 31404,
  "cimiento": 1448,
  "cimientos": 5253,
  "cimos": 25060,
  "cin": 1624,
  "cina": 1155,
  "cinas": 8086,
  "cinasa": 44396,
  "cination": 41162,
  "cinco": 28605,
  "cindi": 6285,
  "cindible": 44677,
  "cine": 6647,
  "cines": 25696,
  "cinesia": 30854,
  "cinetobacter": 44032,
  "cing": 20181,
  "cino": 14565,
  "cinoma": 4965,
  "cinomas": 41468,
  "cinos": 33578,
  "cinto": 48060,
  "cio": 1059,
  "ciocho": 39782,
  "cion": 773,
  "ciona": 3104,
  "cionada": 15445,
  "cionadas": 28619,
  "cionado": 11077,
  "cionador": 33188,
  "cionados": 20876,
  "cional": 1242,
  "cionales": 3369,
  "cionalidad": 24178,
  "cionalmente": 8581,
  "cionamiento": 10837,
  "cionan": 18193,
  "cionando": 30218,
  "cionante": 22095,
  "cionantes": 44000,
  "cionar": 3001,
  "cionario": 17506,
  "cionarios": 30382,
  "cione": 43477,
  "ciones": 624,
  "cionismo": 35856,
  "cionista": 14422,
  "cionistas": 17538,
  "cions": 29801,
  "cionÃ³": 30684,
  "cios": 1967,
  "ciosa": 20449,
  "ciosas": 7229,
  "cioso": 15473,
  "ciosos": 14186,
  "cip": 693,
  "cipa": 6765,
  "cipaciÃ³n": 39501,
  "cipar": 31569,
  "ciparum": 35347,
  "cipe": 11680,
  "cipes": 32219,
  "cipios": 4434,
  "cipital": 15499,
  "cipl": 3363,
  "cipo": 47655,
  "cipro": 39073,
  "cir": 932,
  "circulaciÃ³n": 33812,
  "ciru": 8409,
  "cirugÃŃa": 10198,
  "cis": 1075,
  "cisa": 30346,
  "cisiones": 42812,
  "cisiÃ³n": 15667,
  "cismo": 18597,
  "ciso": 38176,
  "cista": 26248,
  "cistas": 38261,
  "cita": 13469,
  "citabina": 29848,
  "citado": 21170,
  "citalopram": 39623,
  "citamente": 34907,
  "citas": 24107,
  "citis": 9955,
  "cito": 5762,
  "citoma": 29672,
  "citopenia": 49407,
  "citos": 8011,
  "citosis": 28436,
  "cits": 23714,
  "ciÃ©ndose": 19622,
  "ciÃ¯": 38577,
  "ciÃ³": 2757,
  "ciÃ³n": 362,
  "ciÃĥ": 16628,
  "ck": 5752,
  "cl": 536,
  "cla": 4658,
  "claje": 17481,
  "clar": 3340,
  "clas": 21763,
  "clase": 30623,
  "clatura": 33321,
  "clave": 43775,
  "clavulÃ¡nico": 26932,
  "cle": 4300,
  "cleo": 41987,
  "cler": 3971,
  "clero": 42116,
  "clerosis": 4575,
  "clerÃ³tica": 26077,
  "cles": 36827,
  "clin": 26769,
  "clina": 17255,
  "clinas": 30726,
  "clip": 48318,
  "clo": 3197,
  "clor": 19073,
  "cloro": 17636,
  "clorotiazida": 22676,
  "cloruro": 39588,
  "clovir": 28967,
  "club": 49729,
  "clus": 2104,
  "clusion": 41344,
  "clusiones": 3376,
  "clusiÃ³n": 4624,
  "clÃŃn": 15407,
  "clÃŃnica": 21870,
  "cm": 10644,
  "co": 445,
  "coag": 22394,
  "coagulaciÃ³n": 37887,
  "coc": 7467,
  "coccal": 36688,
  "coccus": 9027,
  "coco": 11740,
  "cocos": 18863,
  "cogn": 25561,
  "coh": 2411,
  "cohol": 16983,
  "col": 4422,
  "cola": 39078,
  "colas": 15431,
  "coles": 6055,
  "colesterol": 12210,
  "colesterolemia": 14777,
  "coli": 19632,
  "colina": 26134,
  "colis": 46386,
  "colitis": 41699,
  "colmo": 38832,
  "colo": 35350,
  "color": 12970,
  "colÃŃa": 41775,
  "com": 1365,
  "come": 27453,
  "comer": 40518,
  "comerci": 44382,
  "comes": 38997,
  "comicina": 18493,
  "como": 4536,
  "comp": 20105,
  "compatibilidad": 47039,
  "comple": 24087,
  "compu": 42600,
  "compulsivo": 36963,
  "comun": 21976,
  "con": 593,
  "conazol": 22919,
  "cond": 12648,
  "condri": 15444,
  "conduc": 17484,
  "conductual": 26862,
  "cone": 35019,
  "cones": 40948,
  "conf": 33414,
  "coni": 36666,
  "conjuntivitis": 38618,
  "cono": 27897,
  "conoci": 16794,
  "conocida": 49334,
  "conocido": 38777,
  "conocimiento": 32895,
  "cons": 5553,
  "consciente": 43060,
  "conse": 29439,
  "consin": 41291,
  "consul": 22630,
  "consulta": 17473,
  "consultado": 21640,
  "consumo": 41007,
  "content": 43626,
  "contin": 14605,
  "continencia": 33600,
  "contra": 35825,
  "control": 11555,
  "controlled": 44551,
  "coordin": 39952,
  "cop": 5342,
  "copa": 42257,
  "copal": 47883,
  "cope": 11024,
  "copes": 32890,
  "copia": 4210,
  "copias": 24298,
  "copic": 29888,
  "copio": 9098,
  "copios": 26206,
  "copy": 29960,
  "copÃŃa": 16348,
  "cor": 1746,
  "cord": 14458,
  "cording": 23869,
  "core": 12383,
  "corpor": 27404,
  "corporaciÃ³n": 34208,
  "correg": 33119,
  "correspon": 46780,
  "cortical": 27208,
  "cortis": 29687,
  "cortisona": 34489,
  "cos": 1597,
  "cosa": 28249,
  "cosas": 39563,
  "coscopia": 29724,
  "cosis": 31124,
  "coso": 36275,
  "costal": 27256,
  "cot": 25603,
  "cott": 44252,
  "cou": 45048,
  "court": 27763,
  "coz": 37055,
  "cr": 4156,
  "cra": 12858,
  "cracia": 30765,
  "cran": 31772,
  "craneal": 34744,
  "crania": 37498,
  "crates": 41643,
  "cre": 901,
  "crea": 19147,
  "creas": 7716,
  "creatinina": 43611,
  "crecimiento": 36091,
  "credi": 20430,
  "creen": 12374,
  "creening": 13431,
  "creo": 37585,
  "cres": 46365,
  "cretamente": 17253,
  "cri": 779,
  "cribe": 43428,
  "cribir": 9417,
  "crimin": 29723,
  "crin": 11559,
  "crina": 50024,
  "crino": 32455,
  "crinos": 42975,
  "crip": 8449,
  "cripciones": 20194,
  "cripciÃ³n": 3733,
  "cript": 37474,
  "crisis": 44149,
  "crit": 42338,
  "crita": 24145,
  "critas": 38007,
  "crito": 3856,
  "critos": 13757,
  "cro": 14597,
  "cromatosis": 46375,
  "cron": 17002,
  "cru": 46796,
  "cruz": 49851,
  "crÃ¡": 26583,
  "crÃ¡tico": 46207,
  "crÃŃ": 49365,
  "crÃŃtica": 44986,
  "crÃŃtico": 48063,
  "cs": 31592,
  "ct": 29683,
  "cti": 26485,
  "ction": 15771,
  "ctional": 26225,
  "cto": 5504,
  "ctomia": 46496,
  "ctomÃŃa": 17101,
  "cton": 45023,
  "ctur": 6322,
  "cu": 471,
  "cua": 30617,
  "cuadrado": 38649,
  "cuadro": 25294,
  "cual": 12768,
  "cualquier": 39763,
  "cuando": 16012,
  "cuar": 33955,
  "cuatro": 47089,
  "cub": 36480,
  "cuent": 1252,
  "cuenta": 16195,
  "cuentro": 45424,
  "cuer": 18464,
  "cuidad": 38424,
  "cuidado": 13055,
  "cuidados": 37843,
  "cuito": 35371,
  "cul": 516,
  "cula": 3452,
  "culaciÃ³n": 17296,
  "culado": 40706,
  "cular": 1139,
  "culares": 2265,
  "culas": 6277,
  "culation": 34347,
  "culatura": 10249,
  "culitis": 17126,
  "culo": 2509,
  "culos": 3028,
  "culosos": 45292,
  "cultaciÃ³n": 12697,
  "cultivo": 10843,
  "cultivos": 14322,
  "cultura": 23471,
  "cultural": 17572,
  "culturales": 25658,
  "cum": 35043,
  "cuma": 30661,
  "cun": 37167,
  "cup": 2310,
  "cupa": 6248,
  "cupar": 9506,
  "cupational": 30354,
  "cur": 1280,
  "cura": 8040,
  "cure": 27925,
  "curio": 14523,
  "curo": 11489,
  "curs": 13813,
  "cursiones": 33756,
  "curso": 4905,
  "cus": 4262,
  "cusiones": 11800,
  "cusiÃ³n": 4587,
  "cuta": 30683,
  "cutÃ¡nea": 8639,
  "cutÃ¡neo": 11883,
  "cuÃ¡l": 22224,
  "cuÃ¡les": 42493,
  "cuÃ¡n": 36877,
  "cy": 6462,
  "cys": 38130,
  "cystis": 50252,
  "cÃ¡": 38359,
  "cÃ¡n": 16986,
  "cÃ¡ncer": 38184,
  "cÃ¡ntara": 42576,
  "cÃ¡r": 8750,
  "cÃ¡rdica": 47808,
  "cÃ©": 18036,
  "cÃ©falo": 38421,
  "cÃ©lulas": 33243,
  "cÃ©s": 8868,
  "cÃ³": 3299,
  "cÃ³cica": 17320,
  "cÃ³gn": 36604,
  "cÃ³mo": 10001,
  "cÃ³n": 14830,
  "cÃ³pica": 7103,
  "cÃ³picamente": 39730,
  "cÃ³picas": 21390,
  "cÃ³pico": 12937,
  "cÃ³picos": 22779,
  "cÃº": 23986,
  "cÃŃ": 39820,
  "cÃŃa": 17904,
  "cÃŃan": 26693,
  "cÃŃas": 26156,
  "cÃŃtica": 25753,
  "d": 71,
  "dL": 3618,
  "da": 394,
  "dactilia": 43062,
  "dad": 422,
  "dada": 14367,
  "dadas": 10060,
  "dade": 30909,
  "dades": 756,
  "dado": 8459,
  "dador": 9091,
  "dadora": 27416,
  "dadores": 15434,
  "dados": 11111,
  "dadura": 25280,
  "daf": 43662,
  "daje": 4328,
  "dal": 2755,
  "dala": 26565,
  "dalas": 25286,
  "dale": 30868,
  "dalena": 26652,
  "dalias": 42814,
  "dall": 23555,
  "dalla": 15111,
  "dallas": 29316,
  "dalo": 25822,
  "dalos": 46332,
  "dam": 15416,
  "damente": 29139,
  "damicina": 31581,
  "damiento": 16016,
  "damos": 31250,
  "dan": 1824,
  "dando": 36898,
  "danse": 40837,
  "dap": 2424,
  "dar": 2004,
  "dard": 20029,
  "dards": 36768,
  "dares": 11061,
  "daria": 44533,
  "dario": 24696,
  "darios": 29523,
  "darona": 21484,
  "darse": 34828,
  "dary": 31689,
  "das": 698,
  "dasa": 43946,
  "date": 22228,
  "dated": 50164,
  "datos": 31110,
  "day": 27150,
  "daz": 39221,
  "daÃ±o": 38580,
  "dc": 37747,
  "dd": 30072,
  "de": 260,
  "dea": 9968,
  "dear": 43145,
  "deas": 27805,
  "debe": 37151,
  "deber": 40062,
  "debido": 40752,
  "dec": 36833,
  "dece": 43298,
  "decer": 34283,
  "ded": 6403,
  "dedor": 3059,
  "dedora": 39635,
  "dedores": 11287,
  "def": 31834,
  "defin": 20546,
  "degenera": 12266,
  "degeneraciÃ³n": 42638,
  "degenerativas": 46724,
  "degrad": 35866,
  "deh": 24075,
  "dehÃŃdo": 32406,
  "del": 3567,
  "dela": 17448,
  "dele": 26552,
  "dell": 22524,
  "delo": 12014,
  "delos": 27180,
  "dem": 9717,
  "dema": 41875,
  "demi": 2889,
  "demia": 4125,
  "demias": 23456,
  "demic": 26690,
  "demo": 10946,
  "demos": 2031,
  "demy": 17939,
  "den": 417,
  "dena": 4705,
  "denafilo": 34838,
  "denal": 29757,
  "denas": 9325,
  "dence": 14002,
  "dencia": 1029,
  "dencial": 44822,
  "dencias": 3622,
  "dendr": 39308,
  "denes": 9413,
  "denitis": 46093,
  "denomin": 36577,
  "dens": 17037,
  "densidad": 32485,
  "dent": 9320,
  "dental": 5588,
  "dentales": 14647,
  "dente": 1250,
  "dentemente": 23757,
  "dentes": 1570,
  "dentro": 40843,
  "dents": 15383,
  "deo": 5125,
  "deos": 10909,
  "dep": 35154,
  "depen": 7134,
  "dependencia": 18823,
  "dependent": 40391,
  "dependiente": 13017,
  "dependientes": 33403,
  "depilaciÃ³n": 48573,
  "depor": 32240,
  "depres": 8347,
  "depresivo": 46716,
  "depresivos": 46956,
  "depresiÃ³n": 43823,
  "der": 551,
  "dera": 2432,
  "deraciÃ³n": 10120,
  "deramiento": 24892,
  "deran": 34734,
  "deras": 8691,
  "dere": 19150,
  "derecha": 42401,
  "derecho": 47774,
  "deres": 8131,
  "deri": 21373,
  "derivados": 36154,
  "derly": 21817,
  "derm": 32837,
  "derma": 27334,
  "dermia": 24356,
  "dermo": 34441,
  "dero": 4857,
  "deros": 7791,
  "ders": 8127,
  "derse": 24886,
  "dersen": 43790,
  "derson": 16721,
  "derstan": 32961,
  "derÃ¡": 8583,
  "derÃŃa": 10547,
  "derÃŃas": 31066,
  "des": 443,
  "desa": 19480,
  "desarrol": 34057,
  "desarrollo": 22076,
  "desde": 14056,
  "dese": 41561,
  "desh": 41478,
  "desis": 30132,
  "desivir": 31605,
  "deso": 44956,
  "desonida": 30268,
  "despuÃ©s": 30746,
  "destaciÃ³n": 13002,
  "deste": 23347,
  "desviaciÃ³n": 44976,
  "det": 40103,
  "detec": 38735,
  "determin": 25487,
  "determinaciÃ³n": 43272,
  "dex": 8778,
  "dez": 1930,
  "deza": 13315,
  "dezco": 17808,
  "df": 7187,
  "dful": 21319,
  "dfulness": 21822,
  "di": 293,
  "dia": 1086,
  "diab": 14149,
  "diabetes": 22998,
  "diacep": 21260,
  "diacepinas": 22880,
  "diado": 38074,
  "diafrag": 35599,
  "diafragma": 48069,
  "diagn": 13012,
  "diagnostic": 45131,
  "diagnÃ³stico": 16920,
  "dial": 1977,
  "diales": 12259,
  "dialmente": 28848,
  "dialysis": 31524,
  "dian": 34388,
  "diar": 15546,
  "diario": 45328,
  "dias": 9065,
  "diast": 48254,
  "diazep": 24985,
  "dible": 26091,
  "dibular": 11957,
  "dibulares": 30795,
  "dic": 648,
  "dica": 1196,
  "dicaciÃ³n": 10696,
  "dical": 31265,
  "dicamente": 13499,
  "dicas": 3360,
  "dicciones": 27553,
  "dicciÃ³n": 23934,
  "dice": 2012,
  "dicectomÃŃa": 31491,
  "dices": 8956,
  "dicho": 42834,
  "dici": 22627,
  "dicial": 9290,
  "diciales": 12739,
  "dicidad": 25605,
  "diciembre": 42986,
  "diciones": 15638,
  "diciÃ³n": 10945,
  "dico": 1008,
  "dicos": 1458,
  "dicto": 37894,
  "did": 18075,
  "dida": 1451,
  "didad": 5763,
  "didades": 46366,
  "didas": 4526,
  "didi": 16664,
  "didiasis": 20395,
  "dido": 1599,
  "didos": 4577,
  "die": 27676,
  "diendo": 2242,
  "diente": 1645,
  "dientes": 2743,
  "diera": 19098,
  "dieran": 31248,
  "dieron": 4050,
  "dies": 29772,
  "diet": 36849,
  "dieta": 36181,
  "dif": 44923,
  "dific": 2303,
  "difica": 10518,
  "dificaciÃ³n": 19960,
  "dig": 24843,
  "diga": 41563,
  "digital": 49894,
  "digo": 27691,
  "dii": 34123,
  "dil": 11207,
  "dila": 10042,
  "dilitis": 21688,
  "dill": 20690,
  "dilla": 21136,
  "dillas": 36088,
  "dillera": 26315,
  "dillo": 30266,
  "dilo": 15924,
  "dilol": 40979,
  "dilos": 46979,
  "dim": 43781,
  "dimens": 11706,
  "dimensional": 14551,
  "dimensionales": 33311,
  "dimento": 10808,
  "dimiento": 2099,
  "dimientos": 3854,
  "dimos": 9541,
  "din": 2810,
  "dina": 20927,
  "ding": 9232,
  "dings": 27313,
  "dinÃ¡mica": 24867,
  "dinÃ¡mico": 44505,
  "dio": 846,
  "diol": 36401,
  "dios": 2266,
  "dioso": 47647,
  "dipino": 15919,
  "dir": 1779,
  "dira": 43834,
  "direc": 9127,
  "direcciÃ³n": 26879,
  "director": 18535,
  "directora": 29837,
  "dirig": 42089,
  "dirse": 15256,
  "dirÃ¡": 40322,
  "dis": 1672,
  "discipl": 5070,
  "disciplinar": 32843,
  "dise": 45213,
  "dismin": 30798,
  "disminuciÃ³n": 41178,
  "dismo": 6158,
  "dison": 39441,
  "dispon": 20098,
  "dista": 18604,
  "distas": 22242,
  "diste": 45937,
  "distrofia": 36795,
  "dita": 24611,
  "ditas": 46190,
  "ditis": 22496,
  "dito": 22066,
  "ditos": 30817,
  "dity": 27863,
  "dium": 13796,
  "diur": 46819,
  "divers": 19224,
  "diversidad": 20866,
  "diz": 3071,
  "diza": 36072,
  "dizaciÃ³n": 19769,
  "dizaje": 4127,
  "diÃ¡": 4065,
  "diÃ¡lisis": 8674,
  "diÃ©ndose": 19925,
  "diÃ³": 2473,
  "dl": 4113,
  "dle": 27896,
  "dline": 18429,
  "dm": 38898,
  "dney": 43573,
  "dnis": 9686,
  "dnisolona": 19560,
  "dnisona": 12952,
  "do": 327,
  "doanal": 27198,
  "doba": 9165,
  "dobl": 43705,
  "doble": 48363,
  "doc": 6987,
  "doco": 37149,
  "docrin": 10944,
  "docs": 46161,
  "doctoral": 31800,
  "docum": 34242,
  "doi": 18638,
  "dol": 29415,
  "dola": 38710,
  "dole": 15728,
  "dolo": 40818,
  "dolor": 21768,
  "dom": 2758,
  "domen": 4069,
  "domin": 1837,
  "dominal": 16214,
  "dominales": 37796,
  "dominio": 49567,
  "domÃ©s": 41310,
  "don": 1617,
  "dona": 15750,
  "donaciÃ³n": 44919,
  "donado": 29167,
  "doncia": 8274,
  "donde": 22517,
  "dones": 20306,
  "donos": 9924,
  "dop": 24794,
  "dopa": 22516,
  "doppler": 41391,
  "dor": 2145,
  "dora": 17850,
  "doras": 22416,
  "dores": 17080,
  "dorf": 26664,
  "dorfinas": 36392,
  "doro": 49451,
  "dorra": 49374,
  "dos": 531,
  "dosa": 27028,
  "dose": 1782,
  "dosificaciÃ³n": 40746,
  "dosis": 9693,
  "doso": 24384,
  "doster": 44182,
  "dosterona": 27011,
  "dote": 32497,
  "dova": 43835,
  "down": 47784,
  "dox": 32671,
  "doy": 36225,
  "doya": 38616,
  "dr": 752,
  "dra": 5605,
  "dral": 38203,
  "dras": 16914,
  "dre": 28901,
  "dremos": 23505,
  "dres": 9449,
  "dri": 6984,
  "driceps": 42041,
  "drich": 36272,
  "drina": 37932,
  "dro": 1378,
  "drome": 1687,
  "dromes": 9457,
  "dromo": 44848,
  "dromos": 46756,
  "dronato": 32360,
  "dros": 17460,
  "drÃ¡": 6849,
  "drÃ¡n": 10803,
  "drÃ¡s": 26322,
  "drÃ©": 40386,
  "drÃ³nico": 41031,
  "drÃŃ": 3693,
  "drÃŃa": 8383,
  "drÃŃamos": 31655,
  "drÃŃan": 24432,
  "drÃŃguez": 3937,
  "ds": 5758,
  "dt": 21150,
  "dte": 23762,
  "du": 811,
  "duc": 533,
  "ducciÃ³n": 1556,
  "duce": 7756,
  "duced": 30226,
  "ducida": 34346,
  "ducido": 39935,
  "ducir": 1401,
  "duction": 31946,
  "ducto": 37338,
  "ductor": 23789,
  "ductores": 34973,
  "dul": 22445,
  "dula": 5783,
  "dular": 8541,
  "duoden": 30754,
  "duodenal": 41059,
  "dur": 18776,
  "dura": 10217,
  "durante": 32071,
  "duras": 6117,
  "dure": 16240,
  "dures": 38670,
  "duro": 47495,
  "dx": 20192,
  "dy": 9042,
  "dÃ¨ncia": 27126,
  "dÃ©": 24980,
  "dÃ©s": 16451,
  "dÃ³": 13047,
  "dÃ³n": 5378,
  "dÃ³nde": 49068,
  "dÃº": 32593,
  "dÃŃ": 7700,
  "dÃŃa": 1696,
  "dÃŃaca": 25553,
  "dÃŃan": 14495,
  "dÃŃas": 22461,
  "e": 72,
  "ea": 836,
  "eada": 16074,
  "eadas": 49992,
  "eado": 19028,
  "eados": 46318,
  "eae": 44408,
  "eal": 40292,
  "eamente": 8396,
  "eamiento": 24594,
  "ean": 49690,
  "ear": 3500,
  "earch": 7079,
  "ears": 9603,
  "eas": 1738,
  "eases": 25088,
  "eau": 38344,
  "eb": 654,
  "eba": 32391,
  "eber": 28106,
  "eberg": 49028,
  "ebo": 4440,
  "ebook": 9317,
  "ebra": 15219,
  "ebras": 34745,
  "ebril": 3976,
  "ec": 324,
  "eca": 4958,
  "ecable": 30020,
  "ecal": 18613,
  "ecalis": 39360,
  "ecas": 10953,
  "ecciÃ³n": 3055,
  "ece": 1200,
  "ecedor": 32046,
  "ecen": 2231,
  "ecencia": 26408,
  "ecer": 1518,
  "ecera": 10499,
  "eces": 620,
  "ecf": 24168,
  "ech": 784,
  "echa": 1858,
  "echan": 42146,
  "echas": 8203,
  "eche": 23504,
  "echea": 47167,
  "echn": 16228,
  "echo": 1275,
  "echos": 4796,
  "eci": 34500,
  "ecida": 24903,
  "ecidas": 27995,
  "ecido": 9622,
  "ecidos": 21151,
  "eciendo": 11863,
  "ecieron": 19691,
  "ecimiento": 14035,
  "eciÃ³": 11938,
  "eck": 11122,
  "eclam": 17958,
  "eclampsia": 18466,
  "ecn": 1799,
  "eco": 10942,
  "ecom": 20174,
  "econ": 6858,
  "economÃŃa": 50086,
  "econÃ³mico": 45381,
  "ecos": 18241,
  "ecoxib": 46829,
  "ecre": 3850,
  "ecretario": 44337,
  "ecrosis": 27526,
  "ectal": 29478,
  "ectasia": 36959,
  "ectasias": 20228,
  "ectina": 34430,
  "ectivo": 27234,
  "ecto": 47243,
  "ectom": 32619,
  "ectomia": 20474,
  "ectomy": 49467,
  "ectomÃŃa": 5945,
  "ectomÃŃas": 43846,
  "ector": 35565,
  "ecu": 1590,
  "ecuciÃ³n": 6707,
  "ecular": 11019,
  "ecured": 28320,
  "ecÃ¡nica": 41084,
  "ecÃ©": 20526,
  "ecÃŃa": 8898,
  "ecÃŃan": 13885,
  "ed": 1116,
  "eda": 9957,
  "edad": 1263,
  "edades": 5088,
  "edback": 26794,
  "ede": 7997,
  "edema": 14580,
  "edes": 17820,
  "edi": 5360,
  "edia": 18181,
  "eding": 24668,
  "edings": 33931,
  "edo": 30414,
  "edor": 7052,
  "edora": 24757,
  "edores": 7693,
  "edro": 33767,
  "eds": 19957,
  "edu": 28643,
  "educ": 13584,
  "educa": 37995,
  "educaciÃ³n": 21799,
  "ee": 8860,
  "eeee": 42992,
  "eek": 26831,
  "eeks": 46290,
  "eer": 29106,
  "eerp": 33271,
  "ef": 10951,
  "efac": 34834,
  "efacciÃ³n": 14972,
  "efec": 11582,
  "efectiva": 48165,
  "efectividad": 22182,
  "efecto": 26267,
  "effec": 45267,
  "eficacia": 23967,
  "eficiente": 43654,
  "efrosis": 36929,
  "eg": 1074,
  "ega": 14456,
  "egal": 8842,
  "egalo": 26897,
  "egalovirus": 27392,
  "egas": 15607,
  "egel": 45827,
  "eger": 49624,
  "ego": 6786,
  "egos": 17273,
  "egro": 42690,
  "egun": 45301,
  "egur": 27462,
  "eguridad": 30113,
  "egy": 25765,
  "egypti": 26587,
  "eh": 34405,
  "ei": 40136,
  "eis": 27646,
  "eix": 16398,
  "ej": 11359,
  "eja": 13466,
  "ejas": 13121,
  "ejil": 36215,
  "ejo": 10020,
  "ejos": 24590,
  "ek": 16377,
  "el": 403,
  "ela": 2339,
  "elamente": 22567,
  "elar": 24340,
  "elas": 8256,
  "elasco": 22469,
  "eld": 11105,
  "ele": 13247,
  "elec": 11596,
  "elecciÃ³n": 34255,
  "electro": 34958,
  "electrol": 35550,
  "elementos": 35080,
  "eler": 35319,
  "eles": 8874,
  "elf": 47897,
  "eli": 7256,
  "elia": 16989,
  "elin": 19562,
  "elina": 24408,
  "eline": 46266,
  "eling": 21058,
  "elings": 47254,
  "elio": 27063,
  "elis": 49039,
  "elitiasis": 29869,
  "elitis": 48674,
  "ell": 2239,
  "ella": 5261,
  "ellado": 45466,
  "ellas": 46245,
  "elle": 6643,
  "eller": 18240,
  "ellera": 44614,
  "elles": 32186,
  "elleza": 8697,
  "elli": 19609,
  "elling": 49542,
  "ello": 4074,
  "ellos": 33255,
  "ellow": 43695,
  "ells": 47279,
  "elly": 28908,
  "ellÃ¡n": 49743,
  "elo": 8463,
  "elos": 7354,
  "elosis": 27176,
  "els": 25305,
  "eltamivir": 40086,
  "elulares": 45578,
  "ely": 14695,
  "elÃ©c": 24309,
  "elÃ©ctrica": 42281,
  "em": 840,
  "ema": 7775,
  "emas": 17117,
  "emb": 6297,
  "embol": 21270,
  "embre": 1707,
  "emen": 23719,
  "ement": 8378,
  "emes": 42997,
  "emi": 5322,
  "emia": 2028,
  "emias": 10201,
  "emica": 36625,
  "emida": 10810,
  "emo": 13935,
  "emos": 1235,
  "emp": 538,
  "emplo": 43416,
  "empo": 8450,
  "empos": 33262,
  "empre": 1335,
  "empres": 45463,
  "emps": 37100,
  "emuls": 47617,
  "emÃ©ri": 40635,
  "en": 261,
  "ena": 1337,
  "enal": 37506,
  "enan": 44980,
  "enario": 41283,
  "enas": 4053,
  "enato": 32773,
  "enazgo": 48471,
  "enberg": 29676,
  "enc": 39144,
  "enca": 48182,
  "ence": 3614,
  "encefal": 15159,
  "encefalitis": 40745,
  "encefÃ¡lica": 34055,
  "ences": 11461,
  "enci": 562,
  "encia": 468,
  "enciaciÃ³n": 8584,
  "enciada": 13870,
  "enciadas": 34276,
  "enciado": 9999,
  "enciados": 18808,
  "encial": 3198,
  "enciales": 6198,
  "encialmente": 15160,
  "enciana": 9345,
  "enciano": 26473,
  "enciar": 10845,
  "encias": 767,
  "encies": 42991,
  "encio": 19840,
  "encion": 3598,
  "enciones": 44721,
  "enciÃ³": 29218,
  "enciÃ³n": 36450,
  "enco": 21548,
  "ency": 22472,
  "encÃ©falo": 41061,
  "end": 1287,
  "enda": 5897,
  "endan": 20665,
  "endario": 9503,
  "endas": 9847,
  "ende": 4140,
  "enden": 8467,
  "endi": 11305,
  "endio": 47229,
  "endo": 608,
  "endor": 35567,
  "endos": 26226,
  "endoscopia": 43974,
  "endose": 47085,
  "endoza": 15548,
  "endro": 48080,
  "endÃŃa": 23397,
  "ene": 539,
  "enem": 13787,
  "enemos": 2668,
  "enen": 965,
  "ener": 581,
  "eneraciÃ³n": 7591,
  "eneral": 37869,
  "energ": 47334,
  "enero": 38539,
  "enes": 8579,
  "eness": 18842,
  "enez": 32686,
  "enfer": 10811,
  "enfermedad": 17119,
  "enfermedades": 34437,
  "eng": 21984,
  "enga": 47494,
  "englicol": 33889,
  "engue": 48961,
  "enia": 35698,
  "enio": 11885,
  "enj": 42386,
  "enn": 42047,
  "enne": 14762,
  "eno": 1064,
  "enocumarol": 27351,
  "enol": 39410,
  "enona": 49201,
  "enos": 3170,
  "enqui": 7570,
  "enquimatos": 8416,
  "ens": 576,
  "ensa": 2519,
  "ensas": 49615,
  "ensayo": 42065,
  "ense": 7108,
  "ensen": 34751,
  "enses": 15968,
  "ensi": 14686,
  "ensibilidad": 8140,
  "ensibilizaciÃ³n": 29494,
  "ensible": 15011,
  "ensibles": 26640,
  "ensis": 13150,
  "ensiÃ³n": 2681,
  "enso": 2993,
  "enson": 44983,
  "ensor": 14650,
  "ensores": 36809,
  "ensorial": 28856,
  "ensos": 28654,
  "enstein": 36439,
  "ent": 284,
  "enta": 629,
  "entaciÃ³n": 1684,
  "entada": 5525,
  "entadas": 22550,
  "entado": 2314,
  "entados": 14854,
  "ental": 1273,
  "entales": 2545,
  "entalmente": 5696,
  "entamente": 12191,
  "entamicina": 29321,
  "entamiento": 12724,
  "entamos": 9780,
  "entan": 2135,
  "entando": 15858,
  "entanilo": 15490,
  "entar": 1485,
  "entaria": 11695,
  "entario": 10124,
  "entarios": 22874,
  "entaron": 24816,
  "entarse": 26289,
  "entas": 2659,
  "ente": 340,
  "entemente": 5682,
  "enten": 6832,
  "entena": 43399,
  "enter": 6494,
  "enteral": 11397,
  "enterio": 22324,
  "enterÃŃa": 47603,
  "entes": 412,
  "entesis": 17761,
  "enthal": 38546,
  "enti": 3566,
  "entia": 42996,
  "ential": 26855,
  "entido": 40233,
  "entific": 19552,
  "entimiento": 6778,
  "entimientos": 41296,
  "entino": 37834,
  "entir": 43771,
  "entismo": 27065,
  "entiu": 42506,
  "ento": 372,
  "entonces": 48221,
  "entor": 29938,
  "entory": 36184,
  "entos": 543,
  "entosa": 45063,
  "entr": 1453,
  "entra": 37204,
  "entrada": 30392,
  "entral": 7034,
  "entras": 1695,
  "entre": 7938,
  "entren": 41140,
  "entro": 6439,
  "ents": 3302,
  "entÃ³": 15040,
  "entÃŃ": 1333,
  "entÃŃa": 27841,
  "entÃŃn": 28160,
  "envejecimiento": 28417,
  "enz": 10185,
  "enza": 13143,
  "enzima": 30189,
  "enzimas": 48321,
  "enzo": 13362,
  "eo": 1179,
  "eologÃŃa": 36261,
  "eoplÃ¡s": 23480,
  "eos": 3423,
  "ep": 1705,
  "epi": 12241,
  "epidemi": 25493,
  "epil": 24415,
  "epitelial": 39794,
  "equ": 24952,
  "equi": 43506,
  "equival": 48208,
  "er": 270,
  "era": 432,
  "eraciÃ³n": 18488,
  "erador": 17245,
  "erais": 47634,
  "eral": 4992,
  "erales": 7685,
  "eramente": 7862,
  "eran": 5839,
  "erapeu": 20513,
  "erapeutic": 25957,
  "erapeutics": 46042,
  "erapy": 8886,
  "eras": 2787,
  "erato": 18010,
  "eratura": 25366,
  "erci": 14260,
  "ercicis": 38112,
  "ercise": 24979,
  "erciÃ³n": 22393,
  "erdo": 12819,
  "ere": 5148,
  "eres": 18962,
  "erg": 15721,
  "eri": 36664,
  "eria": 10348,
  "erie": 36489,
  "ering": 38235,
  "erio": 14901,
  "ern": 1845,
  "erna": 39576,
  "ernas": 40885,
  "erne": 44102,
  "ernÃ¡n": 2987,
  "ernÃ¡ndez": 3082,
  "ero": 679,
  "eron": 1080,
  "eronÃ¡u": 39708,
  "erop": 11768,
  "eropenem": 22075,
  "eropuerto": 19130,
  "eropuertos": 40593,
  "eros": 1636,
  "erra": 4848,
  "errat": 20855,
  "errector": 36201,
  "erro": 31368,
  "ers": 584,
  "erse": 8512,
  "ersey": 36023,
  "erso": 48044,
  "erson": 38738,
  "ert": 23387,
  "erta": 12468,
  "erte": 7250,
  "erto": 7707,
  "ertos": 12902,
  "erv": 665,
  "erva": 17259,
  "ervaciÃ³n": 15675,
  "erve": 25937,
  "ervi": 2786,
  "ervicio": 18780,
  "ervicios": 34265,
  "ervo": 32474,
  "ervos": 45670,
  "ery": 15777,
  "erÃ¡": 15680,
  "erÃ³b": 39799,
  "erÃŃa": 5232,
  "erÃŃas": 19916,
  "es": 263,
  "esa": 5064,
  "esan": 29632,
  "esc": 10215,
  "escala": 36935,
  "escam": 33092,
  "escler": 48115,
  "esclerosis": 19461,
  "esco": 43902,
  "escol": 25490,
  "escolar": 25099,
  "escolares": 28529,
  "escri": 36324,
  "escucha": 46239,
  "escultura": 38360,
  "ese": 4110,
  "esemia": 41500,
  "esen": 16538,
  "eses": 23078,
  "esf": 25016,
  "esi": 20476,
  "esia": 12286,
  "esio": 10005,
  "esis": 5981,
  "esiÃ³n": 5802,
  "eso": 5134,
  "esof": 14724,
  "esofÃ¡gica": 33334,
  "esofÃ¡gico": 19830,
  "esor": 10699,
  "esos": 17422,
  "esp": 22579,
  "espacial": 41677,
  "espasmo": 16462,
  "especi": 9775,
  "especial": 34313,
  "especialmente": 18978,
  "especÃŃ": 30988,
  "esper": 31069,
  "espin": 34149,
  "espinoso": 42385,
  "esplen": 44543,
  "esque": 29552,
  "esquel": 15414,
  "esqueleto": 37125,
  "esquelÃ©tico": 47680,
  "ess": 19219,
  "essa": 45752,
  "est": 2081,
  "esta": 4121,
  "estabilidad": 48188,
  "estable": 22485,
  "estad": 21504,
  "estado": 32005,
  "estadÃŃstica": 45417,
  "estamos": 38188,
  "estar": 10440,
  "estas": 28083,
  "este": 5359,
  "estenosis": 24484,
  "ester": 16320,
  "estern": 22575,
  "esternal": 32416,
  "esteroides": 36386,
  "estes": 3884,
  "estesia": 5278,
  "estesias": 19755,
  "esth": 25706,
  "esthe": 38061,
  "esthetic": 45375,
  "esti": 575,
  "estia": 26772,
  "estias": 31496,
  "estig": 728,
  "estigos": 20201,
  "estim": 10237,
  "estima": 7553,
  "estimar": 40538,
  "estimulaciÃ³n": 22052,
  "estion": 2988,
  "estiona": 19094,
  "estiones": 6476,
  "estival": 10534,
  "estiÃ³n": 1817,
  "esto": 16513,
  "estos": 34245,
  "estoy": 41506,
  "estr": 32724,
  "estra": 28794,
  "estre": 8252,
  "estres": 30242,
  "estro": 45673,
  "estruc": 6624,
  "estructur": 18725,
  "estructura": 27571,
  "estructuraciÃ³n": 29507,
  "estructuras": 36905,
  "estudi": 26569,
  "estudio": 27556,
  "estudios": 44707,
  "estÃ¡": 23107,
  "estÃ¡n": 32330,
  "estÃ©s": 9946,
  "estÃ©tica": 43107,
  "esÃŃa": 14357,
  "et": 1413,
  "eta": 1149,
  "etafe": 31838,
  "etal": 24616,
  "etales": 7439,
  "etamina": 21200,
  "etaminas": 38871,
  "etano": 37676,
  "etas": 4268,
  "etasona": 16316,
  "etc": 33318,
  "ete": 4909,
  "etes": 1976,
  "eth": 32480,
  "eti": 38517,
  "etil": 42721,
  "etina": 13651,
  "eting": 35330,
  "eto": 9293,
  "etonas": 15893,
  "ets": 14868,
  "ett": 29657,
  "etta": 31523,
  "ette": 27423,
  "etti": 25048,
  "etts": 17215,
  "ety": 7887,
  "etÃŃn": 12785,
  "eu": 9433,
  "euro": 27624,
  "eus": 22442,
  "eutical": 25075,
  "ev": 1478,
  "evaci": 34898,
  "evacizumab": 35328,
  "eval": 20556,
  "evalu": 10497,
  "evaluaciÃ³n": 16464,
  "evi": 31793,
  "evidad": 24099,
  "evin": 36546,
  "evitar": 48293,
  "ex": 1722,
  "excepto": 29648,
  "excl": 49705,
  "exia": 9876,
  "existe": 44886,
  "existen": 49062,
  "exiÃ³n": 21459,
  "exo": 12977,
  "exper": 25931,
  "expl": 25708,
  "explica": 43039,
  "exploraciÃ³n": 42741,
  "exposiciÃ³n": 47000,
  "exsero": 42259,
  "extensiÃ³n": 24744,
  "extra": 34411,
  "extre": 45183,
  "ey": 5364,
  "ez": 606,
  "eza": 1870,
  "ezas": 10428,
  "ezca": 8755,
  "ezcan": 10769,
  "ezco": 43566,
  "ezo": 37507,
  "ezolid": 26474,
  "ezÃ³n": 40547,
  "eÃ±a": 20113,
  "eÃ±as": 46633,
  "eÃ±o": 29845,
  "eÃ±os": 41298,
  "f": 73,
  "fa": 1649,
  "fac": 2284,
  "facciÃ³n": 9271,
  "face": 29972,
  "faci": 8291,
  "facial": 10668,
  "faciales": 31280,
  "facientes": 46731,
  "factor": 26144,
  "factores": 36640,
  "fag": 35222,
  "fagia": 11460,
  "fago": 9492,
  "fagos": 14990,
  "fal": 2456,
  "falo": 16704,
  "falta": 31832,
  "falÃ¡n": 31036,
  "famil": 15329,
  "familia": 27322,
  "familiar": 31115,
  "fan": 15843,
  "fano": 16903,
  "fanos": 26048,
  "far": 5503,
  "fari": 36106,
  "farina": 21707,
  "faringe": 41055,
  "faritis": 46296,
  "farma": 29606,
  "farmac": 17646,
  "farmacia": 30328,
  "faro": 17361,
  "faroplastia": 25611,
  "fas": 5006,
  "fascial": 31192,
  "fase": 29394,
  "fasia": 41804,
  "fasis": 12284,
  "fato": 12568,
  "favor": 12665,
  "faz": 23508,
  "fe": 2129,
  "feb": 33571,
  "febrero": 47713,
  "fec": 554,
  "fecciÃ³n": 39447,
  "fecto": 26941,
  "fectos": 32672,
  "feedback": 47668,
  "fel": 29560,
  "feld": 27701,
  "fem": 29828,
  "femoral": 47918,
  "fen": 6822,
  "fena": 33237,
  "fenaco": 30175,
  "fenib": 32194,
  "fenicol": 45816,
  "fenidato": 40659,
  "fenil": 23991,
  "feno": 5074,
  "fenol": 44987,
  "fenolato": 35010,
  "fenos": 35366,
  "fentanilo": 30066,
  "feo": 36128,
  "fer": 413,
  "fera": 6508,
  "feras": 12517,
  "ference": 30840,
  "ferencia": 3391,
  "ferencial": 38779,
  "ferencias": 7469,
  "ferente": 18226,
  "ferentes": 16995,
  "ferina": 37904,
  "ferior": 28832,
  "fero": 44231,
  "ferol": 19868,
  "feron": 29166,
  "ferves": 47715,
  "ferÃ³n": 41919,
  "fes": 712,
  "fetal": 40035,
  "fetamina": 37487,
  "fety": 19074,
  "ff": 5448,
  "ffe": 35104,
  "ffer": 24836,
  "fi": 2039,
  "fia": 4326,
  "fianza": 20867,
  "fias": 21220,
  "fib": 7651,
  "fibril": 46324,
  "fibrin": 46730,
  "fibro": 19210,
  "fibrosis": 48478,
  "fic": 523,
  "fica": 830,
  "ficaces": 41985,
  "ficacia": 14925,
  "ficaciones": 18682,
  "ficaciÃ³n": 7226,
  "ficacy": 22136,
  "ficada": 22438,
  "ficadas": 41832,
  "ficado": 16416,
  "ficados": 25978,
  "ficamente": 6524,
  "fican": 42472,
  "ficante": 48953,
  "ficantes": 45718,
  "ficar": 13337,
  "ficas": 2363,
  "fication": 49765,
  "ficaz": 3897,
  "fice": 24113,
  "ficencia": 31137,
  "fici": 642,
  "ficial": 5481,
  "ficidad": 9992,
  "ficie": 50258,
  "ficiencia": 1898,
  "ficiencias": 22506,
  "ficiency": 32847,
  "ficient": 36326,
  "ficiente": 2353,
  "ficientes": 6046,
  "ficil": 17423,
  "ficile": 24944,
  "ficio": 5859,
  "ficios": 8271,
  "ficit": 5122,
  "ficits": 17755,
  "fico": 1656,
  "ficos": 1918,
  "fida": 30316,
  "fidal": 48504,
  "fiebre": 31056,
  "fied": 37053,
  "field": 17633,
  "fiere": 32105,
  "fig": 13297,
  "figo": 46369,
  "figur": 46697,
  "figura": 16184,
  "fil": 1079,
  "fila": 26393,
  "filaxis": 20944,
  "file": 22640,
  "files": 36869,
  "filia": 8625,
  "filina": 28541,
  "filis": 15401,
  "film": 42744,
  "filo": 12565,
  "filos": 1755,
  "fils": 30728,
  "filtraciÃ³n": 26715,
  "fin": 5751,
  "fina": 17811,
  "final": 42556,
  "finales": 39633,
  "financi": 23922,
  "fines": 42153,
  "fir": 30999,
  "fis": 5157,
  "fisi": 14664,
  "fisio": 47456,
  "fisiologÃŃa": 19698,
  "fisis": 18654,
  "fismo": 42176,
  "fit": 32732,
  "fito": 42806,
  "fitos": 31207,
  "fits": 45060,
  "fixima": 44011,
  "fl": 13025,
  "flama": 42978,
  "flav": 43292,
  "fle": 23796,
  "flecha": 49759,
  "fleja": 44421,
  "flex": 47220,
  "flix": 31792,
  "flo": 8977,
  "flora": 43008,
  "floxaci": 10543,
  "floxacina": 32929,
  "floxacino": 12400,
  "flozina": 35982,
  "flu": 12252,
  "fluor": 36390,
  "fluoro": 31323,
  "fo": 2041,
  "fobia": 12981,
  "foc": 17076,
  "focal": 29062,
  "focales": 45208,
  "foidea": 38907,
  "foides": 43311,
  "fol": 7055,
  "folia": 34549,
  "folio": 35399,
  "fon": 4707,
  "fondo": 41013,
  "fono": 6864,
  "fonos": 13492,
  "fonso": 10335,
  "fonÃŃa": 37783,
  "foque": 33783,
  "for": 4307,
  "fora": 27632,
  "ford": 10363,
  "fore": 22306,
  "fores": 23470,
  "foresis": 25816,
  "foria": 32892,
  "form": 2935,
  "forma": 5049,
  "formaciones": 10406,
  "formaciÃ³n": 12731,
  "formance": 21909,
  "formas": 13305,
  "forme": 16280,
  "formes": 20237,
  "formidad": 36062,
  "formina": 12461,
  "foro": 11083,
  "foros": 38136,
  "fort": 21450,
  "fortun": 44979,
  "fortunadamente": 14306,
  "fos": 6716,
  "fosf": 14973,
  "fosfa": 47881,
  "fosfamida": 24776,
  "fosfato": 26304,
  "fosfol": 32346,
  "fosfonatos": 27528,
  "fota": 41286,
  "fotaxima": 45788,
  "foter": 31779,
  "fotericina": 32393,
  "foto": 38186,
  "four": 44572,
  "fovir": 43229,
  "fr": 2245,
  "fra": 22606,
  "frac": 32537,
  "frag": 11776,
  "fran": 29442,
  "fras": 49097,
  "fre": 9056,
  "frecu": 39811,
  "frecuencia": 31305,
  "fredo": 15613,
  "free": 42737,
  "fren": 8253,
  "frenia": 9177,
  "frente": 42004,
  "fri": 11920,
  "frica": 7162,
  "frina": 24455,
  "fritis": 18120,
  "fro": 5967,
  "fru": 21158,
  "frÃŃo": 45679,
  "frÃŃos": 21520,
  "fs": 21007,
  "ft": 5659,
  "ftal": 33249,
  "fting": 23156,
  "fts": 49598,
  "ftware": 8356,
  "fu": 11388,
  "fue": 33276,
  "fuegos": 18002,
  "fuente": 34446,
  "fuer": 32823,
  "ful": 19111,
  "fum": 36609,
  "fumador": 21474,
  "fumadora": 47532,
  "fun": 1594,
  "funcional": 34983,
  "funciÃ³n": 17988,
  "function": 40540,
  "fund": 23300,
  "fundador": 42343,
  "fungina": 38406,
  "fur": 17438,
  "fus": 30292,
  "fusiÃ³n": 10469,
  "fy": 48800,
  "fyc": 49707,
  "fÃ¡": 27517,
  "fÃ¡l": 9211,
  "fÃ¡lica": 16971,
  "fÃ¡lico": 15528,
  "fÃ¡licos": 39495,
  "fÃ¡rmacos": 24321,
  "fÃ©": 6912,
  "fÃ©n": 48621,
  "fÃ©resis": 36140,
  "fÃ²cits": 47722,
  "fÃ³n": 50077,
  "fÃ³nica": 27630,
  "fÃŃ": 18961,
  "fÃŃa": 1532,
  "fÃŃas": 6536,
  "fÃŃlica": 32632,
  "fÃŃn": 19469,
  "fÃŃs": 14923,
  "fÃŃsica": 22049,
  "fÃŃsico": 41193,
  "g": 74,
  "ga": 612,
  "gaba": 23115,
  "gabalina": 27861,
  "gaban": 44619,
  "gable": 23144,
  "gables": 39812,
  "gaciones": 29743,
  "gaciÃ³n": 4163,
  "gada": 2439,
  "gadas": 7704,
  "gadez": 49817,
  "gadic": 34074,
  "gado": 1725,
  "gador": 14746,
  "gadores": 23333,
  "gados": 5409,
  "gae": 49703,
  "gal": 5131,
  "galia": 49769,
  "gall": 44210,
  "galus": 36306,
  "gamiento": 20003,
  "gamma": 39659,
  "gamos": 8149,
  "gan": 692,
  "gancia": 23899,
  "ganda": 21619,
  "gando": 9798,
  "ganeso": 37735,
  "gangl": 43020,
  "ganistÃ¡n": 40410,
  "gano": 20647,
  "ganos": 21518,
  "ganta": 10100,
  "gante": 17347,
  "gantes": 14059,
  "gar": 765,
  "gara": 22187,
  "gard": 36510,
  "garia": 39168,
  "garo": 42222,
  "garon": 16699,
  "garse": 11382,
  "garÃ¡": 24925,
  "gas": 1581,
  "gase": 29867,
  "gat": 24585,
  "gata": 44344,
  "gate": 25526,
  "gativo": 11427,
  "gaz": 31385,
  "gazine": 42120,
  "gby": 47451,
  "ge": 1754,
  "geal": 37855,
  "geci": 40257,
  "ged": 22664,
  "gel": 3063,
  "gela": 28478,
  "geles": 35760,
  "gelo": 39355,
  "gem": 11875,
  "gement": 17457,
  "gen": 772,
  "gena": 12781,
  "genas": 40338,
  "genasa": 27465,
  "gencia": 15711,
  "gencias": 29443,
  "gencio": 46009,
  "gene": 32179,
  "gener": 16616,
  "genera": 5932,
  "generaciÃ³n": 29929,
  "generalmente": 34770,
  "genes": 2912,
  "genesia": 30690,
  "genia": 11276,
  "genic": 40975,
  "genicidad": 24578,
  "genio": 30318,
  "genital": 29074,
  "geno": 3372,
  "genos": 7843,
  "gens": 45874,
  "gente": 19491,
  "gentes": 25857,
  "gentina": 5516,
  "genÃ©tica": 25374,
  "genÃ©tico": 40904,
  "geos": 32407,
  "ger": 2316,
  "gers": 27494,
  "gery": 21449,
  "ges": 1498,
  "gesia": 6225,
  "gesta": 3717,
  "gestas": 21281,
  "gestion": 26944,
  "gestiÃ³n": 12255,
  "gestrel": 49269,
  "get": 21653,
  "gets": 47376,
  "geusia": 34015,
  "gg": 25416,
  "gh": 29369,
  "gi": 2013,
  "gia": 1864,
  "gias": 4555,
  "gibles": 37324,
  "gibre": 23685,
  "gic": 30537,
  "gica": 7248,
  "gicas": 14592,
  "gico": 10256,
  "gicos": 14661,
  "gida": 46995,
  "gido": 30987,
  "gie": 40938,
  "gies": 31249,
  "gil": 12960,
  "gillus": 30458,
  "gilosis": 44428,
  "gimiento": 29615,
  "gin": 4205,
  "gina": 9281,
  "ginal": 16432,
  "ginec": 43637,
  "ging": 21182,
  "ginina": 33813,
  "ginosa": 16524,
  "ginoso": 29506,
  "gins": 38252,
  "gio": 2634,
  "gios": 35787,
  "giosa": 16891,
  "gir": 28941,
  "gitos": 49405,
  "gitud": 37388,
  "giÃ³": 16372,
  "gl": 2518,
  "gle": 43546,
  "gli": 7056,
  "glia": 41142,
  "glic": 10510,
  "glicemia": 30780,
  "glicer": 19315,
  "glicerina": 33337,
  "glicol": 32377,
  "gliflozina": 46153,
  "glios": 9223,
  "gliptina": 29499,
  "glitazona": 49283,
  "glo": 50034,
  "glob": 3319,
  "globina": 3847,
  "globulina": 29257,
  "globulinemia": 47687,
  "glomer": 26150,
  "glos": 28343,
  "glu": 20258,
  "gluc": 6557,
  "glucemia": 9432,
  "gluciÃ³n": 19823,
  "glucosa": 50234,
  "gly": 38214,
  "glÃ©s": 4313,
  "gma": 9917,
  "gmail": 34325,
  "gmas": 31065,
  "gn": 570,
  "gna": 21692,
  "gne": 44844,
  "gner": 36990,
  "gnos": 35523,
  "gnosis": 42857,
  "gnostic": 26949,
  "gnÃ³stico": 34934,
  "go": 419,
  "gob": 26871,
  "goci": 22254,
  "godepen": 26227,
  "godependencias": 32238,
  "gogÃŃa": 22650,
  "going": 46592,
  "gol": 18376,
  "gologÃŃa": 21502,
  "gon": 3488,
  "gonal": 49550,
  "gones": 47354,
  "gono": 49465,
  "gons": 39149,
  "gonz": 33757,
  "gor": 6660,
  "gora": 41393,
  "gos": 851,
  "gosis": 27366,
  "gosto": 4907,
  "gota": 25172,
  "gote": 46753,
  "goto": 43063,
  "gotos": 41951,
  "gov": 16170,
  "govia": 25853,
  "gow": 23655,
  "goza": 9053,
  "goÃ±a": 33543,
  "gr": 741,
  "gra": 696,
  "graciadamente": 38988,
  "gracias": 22172,
  "graciÃ³n": 41725,
  "grad": 7506,
  "grada": 22700,
  "grade": 45464,
  "grado": 3403,
  "grados": 14926,
  "graf": 23827,
  "grafi": 44769,
  "grafia": 16129,
  "grafo": 37950,
  "grafÃŃa": 2274,
  "grafÃŃas": 8009,
  "gram": 10276,
  "grama": 3378,
  "gramar": 49790,
  "gramas": 12543,
  "gramo": 42168,
  "gramos": 15916,
  "gran": 5689,
  "grantes": 10416,
  "graph": 49061,
  "graphic": 27768,
  "graphy": 35067,
  "gras": 22206,
  "grat": 43936,
  "grave": 27692,
  "gre": 1198,
  "gree": 43240,
  "grel": 15762,
  "grelor": 47865,
  "gren": 21718,
  "grena": 42274,
  "gres": 860,
  "gresiones": 37999,
  "gresiÃ³n": 22013,
  "greso": 1587,
  "gresos": 8623,
  "gri": 10750,
  "grim": 21177,
  "gro": 5453,
  "gros": 6600,
  "grosa": 45026,
  "ground": 30353,
  "gru": 10952,
  "grupo": 10800,
  "grupos": 15730,
  "grÃ¡": 3111,
  "grÃ¡fica": 7333,
  "grÃ¡ficamente": 38230,
  "grÃ¡ficas": 7865,
  "grÃ¡fico": 9598,
  "grÃ¡ficos": 10040,
  "grÃ©s": 19970,
  "grÃŃa": 10116,
  "gs": 11727,
  "gth": 27846,
  "gu": 429,
  "gua": 4605,
  "guage": 42193,
  "guaje": 22041,
  "gual": 1759,
  "guan": 28171,
  "guar": 7731,
  "guardia": 14879,
  "guas": 18386,
  "guay": 8950,
  "guaya": 46766,
  "guayo": 41166,
  "guda": 19208,
  "gudes": 41299,
  "gudo": 26598,
  "gue": 1464,
  "gueal": 32494,
  "guen": 3770,
  "guenza": 44743,
  "guer": 16091,
  "guera": 9664,
  "gueras": 30937,
  "guero": 16675,
  "gueroa": 31325,
  "gueros": 35691,
  "guerra": 39508,
  "gues": 8002,
  "guesa": 33533,
  "guesas": 39618,
  "gueses": 41265,
  "guez": 3329,
  "gui": 844,
  "guicidas": 29049,
  "guida": 18483,
  "guido": 20103,
  "guidos": 35702,
  "guien": 4421,
  "guiendo": 37402,
  "guieron": 14332,
  "guila": 32043,
  "guimiento": 41545,
  "guimos": 43342,
  "guin": 13516,
  "guir": 2407,
  "guirre": 19611,
  "guita": 43118,
  "guito": 17774,
  "guiÃ³": 32124,
  "gula": 39140,
  "gulo": 8973,
  "gulos": 26706,
  "gun": 587,
  "guna": 11804,
  "gunas": 19767,
  "guno": 22905,
  "gunos": 28300,
  "guo": 24966,
  "guos": 42546,
  "gur": 1157,
  "gura": 2485,
  "gure": 23836,
  "gures": 34044,
  "gurg": 35433,
  "gurgitaciÃ³n": 39798,
  "guridad": 1818,
  "guro": 9983,
  "guros": 23574,
  "gus": 11107,
  "gut": 33873,
  "guÃ¡": 48093,
  "guÃ©": 18238,
  "guÃ©s": 44040,
  "guÃŃa": 30402,
  "guÃŃn": 3353,
  "gy": 11805,
  "gÃ¡is": 32167,
  "gÃ¡ndose": 45152,
  "gÃ¡strico": 30918,
  "gÃ©n": 2827,
  "gÃ©nero": 40093,
  "gÃ©nesis": 12793,
  "gÃ©nica": 12514,
  "gÃ©nicas": 20700,
  "gÃ©nico": 11917,
  "gÃ©nicos": 12893,
  "gÃ©s": 6886,
  "gÃ³": 6057,
  "gÃ³g": 11417,
  "gÃ³n": 23178,
  "gÃº": 21451,
  "gÃºn": 785,
  "gÃºrate": 46099,
  "gÃºrese": 28860,
  "gÃ¼": 7495,
  "gÃ¼edad": 13639,
  "gÃ¼enza": 16901,
  "gÃŃa": 1011,
  "gÃŃas": 10175,
  "h": 75,
  "ha": 1141,
  "hab": 18055,
  "habi": 14981,
  "habilit": 3966,
  "habilitaciÃ³n": 4508,
  "haca": 47156,
  "hace": 26977,
  "hacer": 12542,
  "hael": 15051,
  "hai": 41865,
  "hal": 10111,
  "haler": 36615,
  "halo": 46540,
  "ham": 7776,
  "han": 8458,
  "hance": 49852,
  "hans": 37222,
  "har": 14948,
  "hara": 24618,
  "hard": 31445,
  "has": 17348,
  "hasta": 13426,
  "hat": 4968,
  "hats": 25766,
  "haus": 10147,
  "hav": 24371,
  "havi": 14970,
  "havio": 32128,
  "haw": 47471,
  "hay": 14219,
  "he": 673,
  "hea": 39934,
  "head": 34395,
  "health": 30825,
  "hecimento": 45652,
  "hed": 20346,
  "heim": 22338,
  "heimer": 4325,
  "hel": 16116,
  "hem": 33683,
  "hema": 27781,
  "hemat": 46191,
  "hemo": 16156,
  "hemoglobina": 23159,
  "hemor": 36440,
  "hemos": 42298,
  "hen": 14921,
  "hens": 33555,
  "hensive": 42373,
  "hepa": 28618,
  "hepatitis": 33336,
  "hepÃ¡tica": 27365,
  "her": 2344,
  "heral": 44184,
  "here": 11106,
  "herencia": 29482,
  "herente": 37797,
  "hes": 28455,
  "heter": 28520,
  "hex": 22497,
  "hexidina": 29733,
  "hg": 32389,
  "hh": 22439,
  "hi": 2018,
  "hib": 8160,
  "hibi": 5715,
  "hibiciÃ³n": 14729,
  "hibir": 12491,
  "hibiÃ³": 40246,
  "hid": 3631,
  "hidra": 5071,
  "hidrataciÃ³n": 26763,
  "hidratado": 50055,
  "hidrato": 27561,
  "hidro": 9178,
  "hidrogenasa": 30631,
  "hidrosis": 31987,
  "hidroxi": 27609,
  "hijo": 34735,
  "hil": 28119,
  "hile": 25120,
  "him": 42964,
  "hima": 37935,
  "hin": 26921,
  "hip": 11419,
  "hiper": 8873,
  "hipertens": 13555,
  "hipertensiÃ³n": 37164,
  "hipo": 15517,
  "hips": 36893,
  "hire": 37452,
  "his": 9710,
  "hisp": 50003,
  "hist": 29375,
  "hista": 16961,
  "histo": 19910,
  "historia": 30950,
  "hit": 21618,
  "hite": 19440,
  "hitney": 29779,
  "hl": 17006,
  "hm": 40774,
  "hman": 40949,
  "hn": 4912,
  "ho": 2068,
  "hog": 47573,
  "hol": 21722,
  "hold": 43893,
  "hom": 24726,
  "hombre": 47919,
  "home": 47846,
  "hon": 18289,
  "honda": 37329,
  "hoo": 37768,
  "hood": 22252,
  "hop": 29561,
  "hor": 5484,
  "hora": 13467,
  "horabuena": 16952,
  "horas": 24560,
  "horm": 28818,
  "hormona": 47585,
  "hort": 23342,
  "hos": 13295,
  "hospital": 9497,
  "hospitalaria": 16831,
  "hospitalarias": 33047,
  "hospitalario": 25212,
  "hospitalarios": 45218,
  "hot": 30635,
  "hotmail": 39885,
  "hou": 36817,
  "house": 40585,
  "hout": 19882,
  "how": 41484,
  "hoy": 22405,
  "hr": 12559,
  "hringer": 35551,
  "hrs": 48322,
  "hs": 26694,
  "ht": 4928,
  "htm": 21669,
  "html": 16342,
  "htt": 21641,
  "http": 27086,
  "https": 45547,
  "hu": 8198,
  "hua": 17568,
  "huahua": 36789,
  "huana": 17757,
  "hue": 22267,
  "hum": 18048,
  "human": 42434,
  "humeral": 44209,
  "hy": 12511,
  "hyth": 47429,
  "hÃŃ": 15954,
  "hÃŃa": 20124,
  "hÃŃdr": 34025,
  "hÃŃdrico": 44314,
  "i": 76,
  "ia": 366,
  "iability": 41231,
  "iable": 36969,
  "iaca": 18165,
  "iaciÃ³n": 9318,
  "iada": 8679,
  "iadas": 14761,
  "iado": 3357,
  "iados": 8144,
  "iae": 38504,
  "ial": 1903,
  "iales": 10569,
  "iamente": 14167,
  "iamos": 37033,
  "ian": 5083,
  "iana": 6957,
  "ianas": 19183,
  "iano": 7340,
  "ianos": 13420,
  "ianza": 4128,
  "ianzas": 26088,
  "iar": 1479,
  "iares": 2336,
  "ias": 899,
  "iasis": 7429,
  "iasta": 49466,
  "iation": 46453,
  "iatric": 32006,
  "iatrÃŃa": 15573,
  "iaÃ§Ã£o": 42559,
  "ib": 938,
  "iba": 30343,
  "ibal": 48283,
  "iber": 14061,
  "ibilidad": 1952,
  "ible": 1406,
  "iblemente": 12900,
  "ibles": 2480,
  "ibo": 39341,
  "ibol": 36742,
  "ibro": 34132,
  "ibu": 37670,
  "ibus": 47749,
  "ic": 302,
  "ica": 389,
  "icaciones": 15068,
  "icaciÃ³n": 1439,
  "icada": 40989,
  "icado": 21174,
  "ical": 1583,
  "icales": 5362,
  "ically": 48662,
  "icamente": 1715,
  "ican": 29191,
  "icana": 15197,
  "icano": 22542,
  "icanos": 33712,
  "icans": 28228,
  "icante": 10914,
  "icar": 1927,
  "icarb": 15302,
  "icarbonato": 16404,
  "icardia": 7416,
  "icas": 643,
  "icciones": 36317,
  "icciÃ³n": 17509,
  "ice": 2739,
  "icela": 14406,
  "icemos": 40914,
  "icen": 8866,
  "iceps": 29808,
  "ices": 5672,
  "iceÃ±o": 50216,
  "ich": 2686,
  "icha": 31258,
  "ichas": 46974,
  "iche": 37174,
  "ichi": 40940,
  "ichia": 21167,
  "ichos": 39922,
  "ici": 414,
  "icia": 2160,
  "iciado": 33942,
  "icial": 16609,
  "iciales": 35598,
  "ician": 31633,
  "icians": 25959,
  "iciar": 26310,
  "icias": 18467,
  "iciclina": 35845,
  "icida": 21247,
  "icidad": 3072,
  "icidades": 33031,
  "icidas": 20815,
  "icidio": 24989,
  "icidios": 32899,
  "icie": 32882,
  "iciembre": 17917,
  "icil": 25309,
  "icilina": 7805,
  "icilinas": 33618,
  "icillin": 39236,
  "icin": 34738,
  "icina": 5803,
  "icio": 1022,
  "icion": 6869,
  "icional": 12349,
  "iciones": 3306,
  "icios": 1356,
  "iciosa": 24866,
  "icioso": 18917,
  "icip": 3576,
  "icipios": 11230,
  "icismo": 27325,
  "icista": 49313,
  "icity": 29039,
  "iciÃ³": 25452,
  "iciÃ³n": 1206,
  "ick": 7152,
  "icke": 49552,
  "icks": 48416,
  "ico": 440,
  "icobacter": 20136,
  "icocele": 41705,
  "icol": 26723,
  "icola": 29313,
  "icon": 22400,
  "iconazol": 35049,
  "icoplan": 27967,
  "icoplanina": 28772,
  "icor": 31795,
  "icordia": 47879,
  "icort": 40522,
  "icos": 597,
  "icosis": 13790,
  "icosocial": 30114,
  "icoterapia": 31854,
  "icro": 4503,
  "icrobi": 5953,
  "ics": 8569,
  "ictus": 46391,
  "icul": 14152,
  "icula": 23360,
  "icular": 2530,
  "iculares": 9307,
  "iculas": 40588,
  "iculitis": 35175,
  "iculo": 18271,
  "icultura": 8829,
  "icum": 35752,
  "icus": 34451,
  "icz": 44258,
  "icÃ¡r": 11999,
  "icÃ¡rdica": 28236,
  "icÃ¡rdico": 16334,
  "icÃ©": 36081,
  "icÃ³n": 39401,
  "icÃŃlico": 19122,
  "id": 312,
  "ida": 455,
  "idable": 47776,
  "idaciÃ³n": 7074,
  "idad": 376,
  "idada": 22362,
  "idadas": 32047,
  "idade": 9140,
  "idades": 689,
  "idado": 7437,
  "idados": 6631,
  "idae": 20134,
  "idal": 7468,
  "idales": 31008,
  "idalgo": 18381,
  "idamente": 4883,
  "idan": 19735,
  "idando": 44520,
  "idante": 34523,
  "idantes": 37978,
  "idar": 12521,
  "idas": 1176,
  "idasa": 17026,
  "idato": 36039,
  "idazol": 14295,
  "idazolam": 29554,
  "ide": 919,
  "idea": 7993,
  "ideas": 16953,
  "idectomÃŃa": 25776,
  "idel": 7485,
  "idelidad": 23439,
  "idelines": 16638,
  "idemia": 29802,
  "iden": 2535,
  "idencia": 12585,
  "identa": 6990,
  "idente": 2034,
  "identes": 18397,
  "ideo": 4523,
  "ideos": 9552,
  "ider": 11085,
  "idera": 29858,
  "iderazgo": 46733,
  "ides": 2138,
  "idez": 4872,
  "idge": 34402,
  "idi": 7992,
  "idin": 25915,
  "idina": 10207,
  "idis": 42435,
  "idismo": 8496,
  "iditis": 27155,
  "idity": 34355,
  "idney": 16928,
  "ido": 485,
  "idogrel": 17924,
  "idol": 23770,
  "idomida": 25177,
  "idona": 16433,
  "idor": 5223,
  "idora": 25150,
  "idores": 3945,
  "idorm": 44955,
  "idos": 743,
  "idosis": 13438,
  "idovudina": 44762,
  "idra": 35522,
  "idro": 22896,
  "ids": 17303,
  "idurÃŃa": 20716,
  "idÃ³n": 20172,
  "ie": 571,
  "iebre": 2335,
  "ied": 11560,
  "iedad": 2458,
  "iedades": 33023,
  "ief": 42342,
  "iega": 4662,
  "iego": 18046,
  "iegue": 24916,
  "iel": 5651,
  "ielo": 11702,
  "iemia": 15969,
  "iemias": 41219,
  "ien": 1219,
  "ience": 18079,
  "iencia": 9261,
  "iencias": 33093,
  "ienda": 15183,
  "iendas": 39926,
  "iendo": 1806,
  "iene": 5035,
  "ienes": 14171,
  "iense": 19488,
  "iente": 2971,
  "ientes": 3793,
  "ier": 783,
  "iera": 7646,
  "ieran": 12495,
  "ieras": 42446,
  "iere": 1468,
  "ieren": 3817,
  "ieres": 16482,
  "ierno": 25417,
  "iero": 9263,
  "ieron": 3404,
  "ieros": 19814,
  "ierra": 6202,
  "ierro": 16174,
  "ierÃŃa": 8971,
  "ies": 1781,
  "iese": 46174,
  "iesta": 29444,
  "iestas": 47048,
  "ieta": 27955,
  "iete": 30254,
  "iev": 48930,
  "ieve": 13800,
  "ieves": 46401,
  "ieza": 4843,
  "if": 1470,
  "ifa": 41155,
  "ife": 10046,
  "ifer": 42801,
  "ifera": 34203,
  "ifes": 24029,
  "iff": 39463,
  "ifi": 14568,
  "ific": 1213,
  "ifica": 1340,
  "ificaciones": 27217,
  "ificaciÃ³n": 2319,
  "ificada": 18606,
  "ificadas": 40708,
  "ificado": 12123,
  "ificados": 15749,
  "ifican": 47159,
  "ificante": 30335,
  "ificar": 6766,
  "ification": 24986,
  "ifico": 38807,
  "ified": 41400,
  "ifies": 3998,
  "ifique": 30688,
  "iflor": 43038,
  "ifolia": 48732,
  "iforme": 24027,
  "iformes": 29100,
  "iforn": 9174,
  "ifornia": 9244,
  "ift": 30940,
  "ig": 510,
  "iga": 4324,
  "igan": 13578,
  "igas": 28545,
  "ige": 22790,
  "igen": 7829,
  "igencia": 14941,
  "igeno": 11400,
  "igente": 44017,
  "iger": 26290,
  "igh": 14656,
  "ight": 8923,
  "ighting": 46744,
  "ights": 36772,
  "igilancia": 10649,
  "igma": 43773,
  "ign": 3119,
  "igna": 5623,
  "ignas": 40223,
  "igne": 26274,
  "igno": 48453,
  "igo": 8415,
  "igra": 37511,
  "igu": 13237,
  "igual": 8121,
  "iguar": 17420,
  "igudes": 29251,
  "igue": 5158,
  "igur": 6215,
  "ih": 49927,
  "ii": 8031,
  "iii": 34290,
  "ij": 11589,
  "ije": 45642,
  "ijing": 45995,
  "ijo": 38886,
  "ijÃ³n": 30104,
  "ik": 9346,
  "ika": 13132,
  "iki": 15222,
  "ikungunya": 26661,
  "il": 399,
  "ila": 3436,
  "ilable": 23040,
  "ilaciÃ³n": 6453,
  "ilada": 25773,
  "iladel": 15610,
  "iladelfia": 32230,
  "iladelphia": 20169,
  "ilado": 44637,
  "ilan": 26021,
  "ilancia": 4939,
  "ilandia": 35750,
  "ilar": 2894,
  "ilares": 15995,
  "ilas": 19848,
  "ilateral": 13040,
  "ilates": 21697,
  "ilato": 37403,
  "ild": 5630,
  "ile": 3114,
  "iled": 30441,
  "iler": 29696,
  "ilera": 27205,
  "ilers": 45366,
  "iles": 7143,
  "iley": 29692,
  "ili": 15045,
  "ilia": 40630,
  "ilidad": 10291,
  "ilin": 48229,
  "ilio": 23381,
  "ilios": 30924,
  "ilips": 38441,
  "ilis": 46699,
  "ilitros": 47420,
  "ill": 2311,
  "illa": 2754,
  "illado": 19649,
  "illan": 20301,
  "illance": 29275,
  "illar": 25331,
  "illas": 5666,
  "ille": 18802,
  "iller": 8976,
  "illerato": 22137,
  "illo": 3575,
  "illos": 8454,
  "ills": 34837,
  "illus": 29043,
  "illy": 17853,
  "illÃ³n": 47174,
  "ilo": 4618,
  "ilon": 40264,
  "ilos": 43402,
  "ils": 29638,
  "ilure": 19432,
  "ilvania": 37116,
  "ily": 20630,
  "ilÃ¡n": 44747,
  "im": 542,
  "ima": 2297,
  "imagen": 17593,
  "imal": 26515,
  "imamente": 13654,
  "iman": 31653,
  "imar": 35006,
  "imas": 5155,
  "imato": 34485,
  "ime": 8132,
  "imed": 49559,
  "imen": 5959,
  "iment": 27864,
  "imentaciÃ³n": 48560,
  "imental": 40997,
  "imer": 3600,
  "imes": 46754,
  "imi": 4637,
  "imia": 21234,
  "imiento": 3093,
  "imientos": 11815,
  "imilar": 43543,
  "imilares": 25047,
  "imismo": 3226,
  "immun": 44559,
  "imnas": 12619,
  "imo": 2083,
  "imon": 40462,
  "imos": 3387,
  "imp": 6835,
  "impan": 36836,
  "imped": 47710,
  "implan": 24022,
  "implante": 48346,
  "impor": 27792,
  "importante": 42628,
  "impres": 28608,
  "imumab": 35969,
  "imus": 14810,
  "imÃ¡tico": 44843,
  "imÃ©": 14212,
  "imÃ©nez": 43887,
  "in": 286,
  "ina": 532,
  "inaciÃ³n": 15558,
  "inada": 22902,
  "inado": 11483,
  "inados": 16779,
  "inal": 2268,
  "inales": 11643,
  "inamarca": 48995,
  "inando": 45889,
  "inar": 2723,
  "inares": 22124,
  "inaria": 12240,
  "inarias": 29165,
  "inariedad": 49011,
  "inario": 10173,
  "inarios": 17364,
  "inary": 27774,
  "inas": 1474,
  "inasa": 21093,
  "inasas": 46832,
  "inastÃŃa": 29944,
  "inato": 46147,
  "inavir": 34432,
  "inc": 7296,
  "inch": 30454,
  "inci": 4610,
  "incidencia": 44962,
  "incl": 9340,
  "incluida": 44582,
  "incluido": 44385,
  "incluidos": 41212,
  "incluso": 26650,
  "incluye": 45470,
  "incluyendo": 19072,
  "incones": 36687,
  "incre": 44433,
  "incron": 31527,
  "incu": 17134,
  "incÃ³n": 22592,
  "ind": 7823,
  "inda": 25101,
  "indd": 18190,
  "index": 16918,
  "indi": 24190,
  "indic": 5730,
  "indica": 27371,
  "indo": 12295,
  "indows": 18037,
  "induced": 34709,
  "industri": 48328,
  "industria": 23854,
  "ine": 1457,
  "inea": 21128,
  "ineal": 20041,
  "inec": 4394,
  "ined": 29759,
  "inefrina": 31374,
  "inemia": 13106,
  "ineos": 44899,
  "iner": 21227,
  "inero": 38920,
  "ines": 5168,
  "iness": 23544,
  "inester": 35009,
  "inesterasa": 43133,
  "inete": 16670,
  "inetes": 39868,
  "ineuro": 30791,
  "ineuropatÃŃa": 37041,
  "inf": 1422,
  "infa": 35684,
  "infantil": 35459,
  "infarto": 32066,
  "infec": 6807,
  "infecciones": 36051,
  "infecciÃ³n": 11635,
  "infectados": 47742,
  "inferior": 36701,
  "inflama": 6941,
  "inflamaciÃ³n": 32941,
  "inflamatorios": 39331,
  "info": 30383,
  "infocitos": 2802,
  "inform": 19352,
  "informa": 49268,
  "informaciÃ³n": 41295,
  "informe": 43512,
  "ing": 925,
  "inga": 14051,
  "ingas": 28641,
  "inge": 8032,
  "ingen": 24349,
  "ingenierÃŃa": 37538,
  "ingeo": 39719,
  "inger": 13152,
  "ingesta": 32940,
  "ingitis": 8997,
  "ingo": 10349,
  "ingos": 25858,
  "ingrÃ©s": 33701,
  "ings": 11996,
  "ington": 9829,
  "ingu": 28924,
  "ingual": 30206,
  "ingÃ¼": 11187,
  "ingÃ¼ÃŃstica": 42831,
  "inhib": 44392,
  "ini": 10102,
  "inia": 43644,
  "inici": 47442,
  "inicio": 34481,
  "inida": 33388,
  "inidad": 12127,
  "inilla": 38769,
  "ining": 16838,
  "inio": 13365,
  "initis": 46397,
  "inizaciÃ³n": 47896,
  "injer": 26215,
  "injerto": 36167,
  "injertos": 46308,
  "ink": 22265,
  "inmun": 6687,
  "inmuno": 46487,
  "ino": 1058,
  "inoa": 43251,
  "inoc": 46189,
  "inoides": 33727,
  "inois": 36375,
  "inoplastia": 15047,
  "inopril": 44779,
  "inos": 3146,
  "inosos": 32328,
  "ins": 4087,
  "insa": 21087,
  "inseng": 42022,
  "inska": 48484,
  "inski": 38609,
  "insky": 49506,
  "inst": 23285,
  "instein": 24563,
  "institu": 29777,
  "institucional": 46568,
  "insuficiencia": 43696,
  "int": 8453,
  "inta": 11601,
  "inte": 29824,
  "integr": 44975,
  "integraciÃ³n": 48329,
  "intel": 44340,
  "inten": 25612,
  "intens": 29515,
  "inter": 5975,
  "interpre": 42106,
  "interrump": 30761,
  "intersti": 45994,
  "intervalo": 31853,
  "intervenciÃ³n": 41359,
  "interÃŃa": 44657,
  "intes": 6394,
  "intestinal": 37392,
  "into": 20050,
  "intom": 29863,
  "intra": 43645,
  "ints": 29497,
  "inum": 43780,
  "inus": 36053,
  "invas": 35988,
  "investig": 31318,
  "inz": 35379,
  "inÃ¡p": 39379,
  "inÃ³": 46978,
  "inÃ³geno": 14783,
  "io": 385,
  "iol": 29949,
  "iology": 35864,
  "iologÃŃa": 7534,
  "ioma": 34917,
  "ion": 821,
  "iona": 6143,
  "ionada": 34318,
  "ionado": 14924,
  "ionados": 35061,
  "ional": 1294,
  "ionales": 1283,
  "ionalmente": 38134,
  "ionar": 5837,
  "ionares": 28705,
  "ione": 25097,
  "ionella": 30778,
  "ionero": 31407,
  "ioneros": 25724,
  "iones": 710,
  "ionista": 22946,
  "ionistas": 21402,
  "ions": 13970,
  "ior": 1191,
  "iores": 3152,
  "ios": 1016,
  "iosa": 10672,
  "iosarcoma": 39689,
  "iosas": 11841,
  "iosis": 12905,
  "iositis": 41997,
  "ioso": 7599,
  "iosos": 10874,
  "ioximetrÃŃa": 33011,
  "ip": 4641,
  "ipiÃ©": 29735,
  "ipiÃ©lago": 30973,
  "ipo": 23134,
  "ips": 41185,
  "ipÃº": 39850,
  "ipÃºzcoa": 46915,
  "ique": 10078,
  "iquen": 25410,
  "iques": 40373,
  "iquÃ©": 49971,
  "ir": 424,
  "ira": 4850,
  "iras": 21988,
  "ird": 30055,
  "ire": 2878,
  "iremos": 30829,
  "ires": 8853,
  "iris": 49959,
  "irm": 1891,
  "irma": 3285,
  "irman": 8779,
  "iro": 5733,
  "iros": 22154,
  "irri": 38551,
  "irru": 4774,
  "irrub": 38749,
  "irrubina": 4940,
  "irrubinemia": 41797,
  "irs": 20790,
  "irsch": 33691,
  "irse": 5950,
  "irÃ¡": 7223,
  "irÃ¡mi": 19013,
  "is": 311,
  "isa": 7331,
  "isakis": 50236,
  "isal": 48077,
  "isas": 42308,
  "isation": 43244,
  "isc": 33485,
  "isco": 11514,
  "iscos": 23373,
  "ise": 11326,
  "ised": 28632,
  "iser": 30740,
  "ises": 26579,
  "ish": 7710,
  "ished": 25884,
  "ishi": 49098,
  "ishing": 39586,
  "ishman": 24332,
  "ishmania": 40210,
  "isi": 30719,
  "isimo": 27337,
  "isio": 21713,
  "ision": 32260,
  "isiones": 21776,
  "isis": 958,
  "isiÃ³n": 3317,
  "isky": 47662,
  "isl": 2654,
  "isla": 10066,
  "ism": 13588,
  "ismo": 682,
  "ismos": 2490,
  "isms": 26787,
  "iso": 1943,
  "ison": 12138,
  "ispo": 25860,
  "iss": 12676,
  "issa": 35420,
  "isser": 33716,
  "isseria": 37331,
  "isson": 44605,
  "ist": 1035,
  "ista": 1099,
  "istad": 15000,
  "istades": 28396,
  "istag": 20937,
  "istal": 9076,
  "istales": 45790,
  "istan": 9362,
  "istance": 18360,
  "istant": 38428,
  "istas": 1560,
  "istaxis": 28348,
  "iste": 669,
  "isted": 47037,
  "istem": 30901,
  "istema": 3585,
  "istemas": 10241,
  "isten": 902,
  "istencia": 1447,
  "istencial": 16337,
  "istenciales": 45027,
  "istencias": 48365,
  "istent": 38523,
  "istente": 3221,
  "istentes": 3539,
  "ister": 21689,
  "isti": 2879,
  "istian": 21486,
  "istic": 29904,
  "istica": 40902,
  "isticas": 26867,
  "istics": 21350,
  "istida": 23261,
  "istido": 9661,
  "istiendo": 20305,
  "istieron": 35472,
  "istimos": 47093,
  "istir": 4537,
  "istiÃ³": 13066,
  "isto": 17098,
  "istoc": 34697,
  "istol": 29982,
  "istolia": 30167,
  "istro": 28925,
  "ists": 22385,
  "istÃ¡n": 18284,
  "istÃ©mica": 42811,
  "istÃªncia": 44269,
  "istÃ³": 14820,
  "istÃ³bal": 22415,
  "istÃŃa": 9857,
  "istÃŃan": 16020,
  "isÃ³": 25307,
  "it": 401,
  "ita": 1018,
  "itaciÃ³n": 6962,
  "itada": 23952,
  "itado": 14996,
  "itados": 43403,
  "ital": 2493,
  "itales": 5351,
  "itamina": 47397,
  "itamos": 23121,
  "itan": 3620,
  "itana": 17772,
  "itando": 34143,
  "itano": 29948,
  "itar": 1220,
  "itares": 37966,
  "itari": 23491,
  "itaria": 2746,
  "itariamente": 15378,
  "itarias": 6659,
  "itario": 2186,
  "itarios": 4710,
  "itarismo": 38721,
  "itas": 2861,
  "itat": 6748,
  "itative": 36447,
  "itch": 21213,
  "ite": 2513,
  "iten": 28590,
  "itenci": 17673,
  "iter": 11309,
  "ites": 7448,
  "ith": 2433,
  "iti": 18461,
  "itia": 23662,
  "itiative": 41624,
  "itica": 9636,
  "itidina": 44329,
  "itidis": 40143,
  "ities": 16011,
  "iting": 49172,
  "ition": 25926,
  "itis": 1883,
  "itismo": 40807,
  "itiva": 20864,
  "itivamente": 36061,
  "itivas": 37962,
  "itivo": 15247,
  "itivos": 24848,
  "itmo": 10574,
  "itmos": 18503,
  "ito": 1606,
  "itol": 23975,
  "itologÃŃa": 23972,
  "itor": 3714,
  "itores": 11229,
  "itos": 2176,
  "itosis": 22658,
  "itoÃŃna": 28983,
  "itra": 12277,
  "itrauma": 30025,
  "itri": 26375,
  "itritos": 13094,
  "itro": 3650,
  "itromicina": 9959,
  "its": 12082,
  "itt": 29314,
  "itud": 8998,
  "ity": 2415,
  "itz": 12152,
  "itza": 15355,
  "itzaciÃ³": 42229,
  "itzada": 43616,
  "itzar": 38900,
  "itzem": 45879,
  "itÃ©": 4367,
  "itÃ©s": 18115,
  "itÃ³": 43189,
  "itÃŃ": 25637,
  "iu": 34448,
  "ium": 11251,
  "ius": 23344,
  "iv": 435,
  "iva": 1621,
  "ivaca": 24640,
  "ivacaÃŃna": 29937,
  "ivada": 48688,
  "ivado": 11436,
  "ival": 11814,
  "ivalente": 30948,
  "ivamente": 5102,
  "ivan": 35635,
  "ivar": 40022,
  "ivas": 4614,
  "ive": 4625,
  "ived": 23072,
  "iveira": 35473,
  "ivel": 889,
  "iven": 34608,
  "iver": 8816,
  "ivers": 894,
  "iversario": 11886,
  "ivery": 40359,
  "ives": 16446,
  "ividad": 8974,
  "iving": 20382,
  "ivir": 17947,
  "ivo": 1877,
  "ivolu": 36723,
  "ivolumab": 36785,
  "ivos": 2711,
  "ix": 4501,
  "ixa": 13752,
  "ixo": 36871,
  "iz": 375,
  "iza": 2785,
  "izaba": 39268,
  "izable": 37867,
  "izacion": 19736,
  "izaciones": 9250,
  "izaciÃ³n": 1146,
  "izada": 4194,
  "izadas": 9169,
  "izado": 3324,
  "izador": 16325,
  "izadora": 44697,
  "izadores": 25568,
  "izados": 5347,
  "izamos": 30872,
  "izan": 7976,
  "izando": 13576,
  "izante": 15617,
  "izantes": 14301,
  "izar": 2992,
  "izaron": 21934,
  "izarra": 42244,
  "izarse": 21032,
  "izarÃ¡": 42819,
  "izas": 18349,
  "ization": 14310,
  "izca": 22958,
  "ize": 23352,
  "ized": 13381,
  "izer": 19867,
  "izo": 2678,
  "izofrenia": 36896,
  "izon": 8525,
  "izoph": 31361,
  "izophren": 31622,
  "izophrenia": 34364,
  "izos": 20233,
  "izquier": 37547,
  "izquierda": 45952,
  "izumab": 18427,
  "izÃ³": 13067,
  "iÃ¡": 13162,
  "iÃ¡n": 19032,
  "iÃ©": 48994,
  "iÃ©n": 9825,
  "iÃ©ndose": 12688,
  "iÃ©ramos": 47179,
  "iÃ³": 2217,
  "iÃ³n": 447,
  "iÃ³nica": 47696,
  "iÃĥ": 27878,
  "j": 77,
  "ja": 1038,
  "jaba": 25817,
  "jaban": 36934,
  "jaciÃ³n": 43435,
  "jada": 11121,
  "jadas": 17965,
  "jado": 6110,
  "jados": 13221,
  "jal": 11218,
  "jala": 16396,
  "jales": 38625,
  "jalÃ¡": 16318,
  "jama": 46529,
  "jamiento": 31006,
  "jamos": 20249,
  "jan": 3926,
  "jana": 37553,
  "jando": 15220,
  "jano": 12422,
  "janos": 17974,
  "jante": 40102,
  "jar": 3021,
  "jara": 36460,
  "jaron": 24964,
  "jarse": 19712,
  "jarÃ¡": 47703,
  "jas": 1991,
  "jate": 33341,
  "je": 636,
  "jec": 8394,
  "jecimiento": 4497,
  "ject": 18042,
  "jection": 44581,
  "jective": 23815,
  "jects": 24868,
  "jed": 25327,
  "jeda": 33447,
  "jedrez": 28297,
  "jeje": 21027,
  "jen": 23866,
  "jeo": 48730,
  "jer": 657,
  "jera": 7925,
  "jeran": 44499,
  "jeras": 13817,
  "jerci": 40496,
  "jero": 4974,
  "jeron": 6671,
  "jeros": 7631,
  "jerÃŃa": 7000,
  "jerÃŃas": 35625,
  "jes": 5591,
  "jeta": 36219,
  "jetivo": 27625,
  "jetivos": 37340,
  "jeto": 38675,
  "jetos": 26137,
  "ji": 21323,
  "jidad": 8124,
  "jiga": 30919,
  "jillo": 26695,
  "jimo": 47433,
  "jo": 708,
  "jol": 21915,
  "joles": 41710,
  "jon": 45201,
  "jones": 48033,
  "jor": 44508,
  "jos": 1248,
  "josa": 36773,
  "joso": 45231,
  "jote": 39439,
  "ju": 2939,
  "juana": 42601,
  "juegos": 45613,
  "jun": 13060,
  "junio": 38244,
  "junta": 32522,
  "juntivitis": 29889,
  "junto": 13522,
  "jury": 26047,
  "jus": 2833,
  "juvenecimiento": 37665,
  "juvenil": 34820,
  "jÃ¡n": 49622,
  "jÃ¡ndose": 47645,
  "jÃ³": 13213,
  "jÃ³n": 18588,
  "jÃ¶": 29496,
  "k": 78,
  "ka": 4547,
  "kacina": 34471,
  "kai": 48761,
  "kaia": 26781,
  "kal": 22178,
  "kan": 32670,
  "kar": 24756,
  "kas": 34053,
  "ke": 2837,
  "ked": 26887,
  "kel": 20372,
  "kele": 37240,
  "keletal": 44430,
  "keley": 43980,
  "ken": 17451,
  "ker": 6144,
  "kers": 17969,
  "kert": 31970,
  "kes": 16717,
  "kespe": 47997,
  "kespeare": 48414,
  "ket": 25525,
  "keting": 10304,
  "keto": 15325,
  "ketoprofeno": 15930,
  "key": 20441,
  "kg": 5911,
  "kh": 37453,
  "ki": 4956,
  "kia": 36815,
  "kide": 27495,
  "kidetza": 27699,
  "kin": 3635,
  "kine": 40503,
  "king": 7370,
  "kinra": 43720,
  "kins": 15125,
  "kinson": 6410,
  "kinumab": 44071,
  "kir": 48589,
  "kis": 22214,
  "km": 43624,
  "kman": 42833,
  "ko": 6303,
  "koa": 35799,
  "kos": 44390,
  "kov": 24109,
  "kra": 49972,
  "ks": 3843,
  "ku": 23564,
  "kus": 43392,
  "ky": 7995,
  "l": 79,
  "la": 415,
  "lab": 11079,
  "labor": 42944,
  "labora": 28067,
  "labrada": 35048,
  "lac": 12216,
  "lace": 13741,
  "laces": 29656,
  "lacional": 44555,
  "laciÃ³n": 9945,
  "lacta": 39301,
  "lad": 31740,
  "lada": 9122,
  "ladas": 24422,
  "lado": 5963,
  "lados": 17957,
  "lae": 31517,
  "lafa": 31687,
  "lafaxina": 32473,
  "lag": 43348,
  "laga": 9118,
  "lago": 11026,
  "lagos": 22183,
  "lah": 49398,
  "laje": 25218,
  "lam": 924,
  "lama": 5852,
  "lamaciÃ³n": 19744,
  "lamada": 29968,
  "lamar": 49086,
  "lament": 15693,
  "lamento": 7957,
  "lamiento": 46165,
  "lamos": 15488,
  "lamy": 30056,
  "lan": 649,
  "lana": 22938,
  "land": 6456,
  "landa": 22598,
  "landes": 35664,
  "landia": 17793,
  "lando": 5599,
  "lands": 40686,
  "landÃ©s": 39687,
  "lanes": 48349,
  "lano": 8824,
  "lanos": 17285,
  "lante": 3241,
  "lantes": 11911,
  "lao": 42050,
  "lar": 1031,
  "lara": 17244,
  "lares": 13185,
  "largina": 40517,
  "lary": 40582,
  "las": 733,
  "lasa": 13953,
  "lase": 44381,
  "lash": 24517,
  "lat": 46312,
  "lata": 40802,
  "lateral": 35773,
  "laterra": 11625,
  "lation": 38926,
  "lato": 26906,
  "latos": 36755,
  "lauc": 9609,
  "laucoma": 9978,
  "lav": 8123,
  "lava": 28575,
  "lave": 47478,
  "lavicular": 31997,
  "lax": 37494,
  "laxis": 44821,
  "lay": 21024,
  "laz": 1737,
  "laza": 17831,
  "lazamiento": 25832,
  "lazar": 19696,
  "lazo": 37294,
  "ld": 9339,
  "le": 345,
  "lea": 19951,
  "lebitis": 40551,
  "lec": 1608,
  "leca": 41343,
  "lecainida": 47721,
  "led": 10587,
  "ledge": 20488,
  "lee": 47847,
  "leep": 24530,
  "leg": 27560,
  "lege": 12729,
  "lego": 16497,
  "lein": 49415,
  "lem": 49454,
  "lemente": 24924,
  "len": 8540,
  "leo": 6796,
  "leon": 33517,
  "leos": 37391,
  "lepsia": 7901,
  "ler": 3269,
  "lera": 40007,
  "lero": 31392,
  "lerÃŃa": 22201,
  "les": 947,
  "lesa": 42126,
  "lesia": 8098,
  "lesias": 14723,
  "lesiones": 50196,
  "less": 35340,
  "let": 10902,
  "leta": 16115,
  "letas": 11523,
  "lete": 27199,
  "letes": 30276,
  "letismo": 26591,
  "leto": 12864,
  "letos": 27744,
  "leu": 20916,
  "lex": 9666,
  "lexane": 37947,
  "lexia": 26329,
  "lexiÃ³n": 22119,
  "ley": 7360,
  "lez": 3476,
  "lga": 10505,
  "lgies": 47646,
  "li": 847,
  "lia": 4696,
  "liam": 10867,
  "lian": 49403,
  "liano": 22754,
  "liar": 42618,
  "liber": 40138,
  "lic": 750,
  "lica": 3183,
  "lice": 20444,
  "licer": 45719,
  "lices": 36492,
  "lich": 32256,
  "lici": 44569,
  "liciÃ³n": 49253,
  "lick": 40918,
  "lico": 27825,
  "licÃ©ridos": 11923,
  "lid": 38976,
  "lido": 39171,
  "lie": 24576,
  "lies": 49347,
  "lig": 4798,
  "light": 37277,
  "ligo": 35177,
  "like": 33252,
  "lim": 29068,
  "limi": 48058,
  "limp": 26863,
  "lin": 6645,
  "lina": 6401,
  "line": 5390,
  "linf": 47624,
  "ling": 14142,
  "lio": 2798,
  "lios": 45677,
  "lip": 18740,
  "lipemia": 29892,
  "lipidemia": 37763,
  "lipo": 47502,
  "lips": 43729,
  "lique": 18934,
  "liquen": 26402,
  "lis": 19041,
  "lisis": 37691,
  "list": 40361,
  "lista": 32163,
  "lita": 6430,
  "litaxel": 27791,
  "litazona": 36044,
  "lite": 11387,
  "litis": 20083,
  "lito": 27730,
  "litos": 17576,
  "litus": 6422,
  "lix": 13854,
  "liximab": 30589,
  "liz": 11254,
  "lizumab": 20025,
  "ll": 4484,
  "lla": 2801,
  "llam": 23739,
  "llamente": 23853,
  "llas": 7144,
  "lle": 5076,
  "ller": 30061,
  "llevar": 29002,
  "llin": 35086,
  "llo": 19399,
  "llum": 36709,
  "llus": 23597,
  "lm": 31410,
  "lo": 386,
  "lob": 1642,
  "loba": 18501,
  "lobacter": 39181,
  "lobal": 10593,
  "lobul": 42593,
  "loc": 17252,
  "loca": 43091,
  "locaciÃ³n": 27515,
  "lock": 36834,
  "locu": 24281,
  "lodipino": 18724,
  "log": 19086,
  "logan": 46775,
  "logia": 19175,
  "logical": 42673,
  "logo": 6930,
  "logos": 14307,
  "logy": 19995,
  "logÃŃa": 3630,
  "loide": 13485,
  "loides": 49994,
  "lomer": 43046,
  "lon": 3522,
  "lones": 26638,
  "lop": 6523,
  "lopidogrel": 18388,
  "lopurinol": 42225,
  "lopÃŃa": 36371,
  "loque": 47362,
  "lor": 5277,
  "lora": 30533,
  "loro": 13775,
  "los": 670,
  "losa": 19727,
  "loso": 16872,
  "losos": 26284,
  "lot": 26522,
  "lotinib": 49161,
  "lov": 43762,
  "lova": 40120,
  "lovaquia": 44693,
  "low": 8162,
  "loween": 45552,
  "loy": 22014,
  "loyd": 45933,
  "lpm": 8283,
  "ls": 12530,
  "lu": 1097,
  "lub": 10420,
  "luc": 1697,
  "luen": 21054,
  "luencia": 17787,
  "luente": 48636,
  "luentes": 35276,
  "lujo": 10309,
  "luk": 44003,
  "lukast": 47274,
  "lulas": 44126,
  "lum": 17801,
  "luorescencia": 41433,
  "lus": 10176,
  "lux": 29529,
  "lvar": 7033,
  "lx": 21696,
  "ly": 3380,
  "lying": 23865,
  "lymp": 43325,
  "lyn": 35409,
  "lÃ¡n": 12417,
  "lÃ¨rg": 32135,
  "lÃ¨rgies": 35401,
  "lÃ©": 28017,
  "lÃ©tico": 28077,
  "lÃ³": 24793,
  "lÃ³n": 12518,
  "lÃŃ": 8391,
  "lÃŃn": 6932,
  "lÃŃndr": 25999,
  "lÃŃnica": 30933,
  "lÃŃnico": 20183,
  "lÃŃnicos": 48370,
  "m": 80,
  "mL": 10878,
  "ma": 371,
  "mab": 23064,
  "mac": 939,
  "macia": 3653,
  "macias": 8297,
  "maculada": 29879,
  "mad": 4568,
  "mada": 25604,
  "mado": 17182,
  "madol": 15469,
  "mados": 28439,
  "madre": 27527,
  "madrid": 48241,
  "madura": 9571,
  "maduras": 10971,
  "mael": 38915,
  "magem": 22334,
  "magn": 15875,
  "mago": 6525,
  "mail": 8658,
  "mal": 7133,
  "mala": 15131,
  "male": 43894,
  "males": 22654,
  "mall": 22761,
  "malo": 45913,
  "mam": 27740,
  "mamente": 22911,
  "man": 782,
  "mana": 1740,
  "manal": 46268,
  "manas": 20450,
  "manda": 46520,
  "mandibular": 39770,
  "manes": 14442,
  "mangi": 24268,
  "mania": 6694,
  "mann": 9649,
  "mano": 11327,
  "manos": 13989,
  "mans": 26991,
  "mante": 16580,
  "mantes": 21422,
  "mantina": 42873,
  "manual": 47708,
  "manuel": 40087,
  "mar": 2599,
  "mara": 33322,
  "maras": 14701,
  "marc": 13839,
  "marca": 16356,
  "mark": 42140,
  "mart": 17492,
  "martph": 23624,
  "mary": 40304,
  "marzo": 49472,
  "marÃŃa": 28333,
  "mas": 650,
  "masa": 39386,
  "masas": 31677,
  "mascar": 19994,
  "mat": 1770,
  "mate": 23617,
  "material": 42539,
  "matic": 15233,
  "mation": 46433,
  "matitis": 9654,
  "mato": 2953,
  "matocrito": 5314,
  "matologÃŃa": 3972,
  "matory": 31682,
  "matos": 4613,
  "matosa": 32189,
  "matosas": 48678,
  "matosis": 16496,
  "matoso": 35957,
  "matÃŃes": 5094,
  "max": 17512,
  "may": 14930,
  "mayo": 38325,
  "mayor": 19894,
  "mayores": 49524,
  "mb": 547,
  "mber": 25550,
  "mberg": 45955,
  "mbi": 2119,
  "mbicort": 41826,
  "mbito": 30351,
  "mbo": 28868,
  "mbran": 42661,
  "mbre": 19687,
  "mbres": 38829,
  "mbrolizumab": 38180,
  "mburgo": 37679,
  "mc": 41487,
  "mcg": 21186,
  "me": 436,
  "mea": 26631,
  "meable": 35119,
  "mec": 20148,
  "med": 11226,
  "medad": 13160,
  "medades": 23589,
  "mede": 39394,
  "medetomidina": 44432,
  "medi": 6017,
  "media": 2808,
  "mediana": 38784,
  "mediante": 35199,
  "medic": 17075,
  "medicaciÃ³n": 33012,
  "medicamentos": 38270,
  "medicina": 16793,
  "medio": 3394,
  "medios": 7348,
  "medular": 41093,
  "meinto": 43865,
  "mej": 7260,
  "mejo": 30970,
  "mejor": 17829,
  "mejorar": 49923,
  "mel": 13701,
  "melo": 16548,
  "memb": 29260,
  "membrana": 44276,
  "memor": 30344,
  "men": 1919,
  "mend": 22171,
  "menda": 19607,
  "mendamente": 36035,
  "mendations": 28494,
  "mended": 47803,
  "menes": 4370,
  "meno": 12512,
  "menopa": 44516,
  "menopausia": 46989,
  "menopÃ¡us": 16599,
  "menopÃ¡usica": 45058,
  "menopÃ¡usicas": 20317,
  "menor": 23912,
  "menores": 42875,
  "menorrea": 32454,
  "menos": 19110,
  "mens": 4737,
  "menstr": 34071,
  "menstrual": 37051,
  "ment": 1112,
  "menta": 6180,
  "mentaciÃ³n": 5008,
  "mental": 10419,
  "mentales": 25786,
  "mentar": 30925,
  "mentaria": 32785,
  "mentarias": 36579,
  "mentation": 23592,
  "mente": 487,
  "mented": 50177,
  "mentia": 41321,
  "mentine": 34321,
  "mento": 1412,
  "mentos": 3161,
  "ments": 17033,
  "meo": 27432,
  "mer": 564,
  "mera": 4812,
  "meras": 5209,
  "merg": 3888,
  "mergen": 16385,
  "meria": 20579,
  "meric": 3659,
  "merica": 14991,
  "mero": 1297,
  "meros": 3989,
  "mers": 38846,
  "merÃŃa": 1866,
  "mes": 3664,
  "mesa": 48272,
  "meses": 42425,
  "mesis": 30968,
  "met": 20861,
  "meta": 25990,
  "metab": 28518,
  "metil": 13713,
  "metop": 43706,
  "metria": 38626,
  "metro": 3984,
  "metropÃŃa": 31907,
  "metros": 3449,
  "metrÃŃa": 7336,
  "metrÃŃas": 25131,
  "mex": 26827,
  "mez": 5282,
  "mg": 2096,
  "mi": 355,
  "mia": 1115,
  "mial": 36012,
  "mialgia": 7711,
  "mialgias": 31355,
  "mias": 7380,
  "mible": 31554,
  "mic": 6992,
  "mica": 1603,
  "micamente": 30664,
  "micas": 4683,
  "micina": 9440,
  "mico": 2256,
  "micos": 3133,
  "micro": 27901,
  "mid": 23066,
  "mida": 16193,
  "midis": 42623,
  "mido": 37530,
  "midos": 44759,
  "midt": 41411,
  "mien": 28961,
  "miendo": 22704,
  "mienta": 30364,
  "miento": 450,
  "mientos": 956,
  "mies": 45277,
  "migo": 13990,
  "migran": 45313,
  "mil": 1875,
  "mila": 40413,
  "milar": 18752,
  "milares": 4058,
  "miles": 38472,
  "mill": 5352,
  "milla": 47678,
  "millon": 48140,
  "min": 491,
  "mina": 1761,
  "minaciÃ³n": 4285,
  "minal": 14097,
  "minales": 18678,
  "minar": 10016,
  "minares": 17178,
  "minas": 5566,
  "mine": 35251,
  "minente": 15561,
  "miner": 43707,
  "ming": 14543,
  "mingham": 24929,
  "minis": 1093,
  "ministro": 49314,
  "mino": 3078,
  "minos": 5139,
  "mio": 2374,
  "mioc": 48892,
  "mios": 6642,
  "mioterapia": 28760,
  "mir": 2531,
  "mira": 23450,
  "mirante": 42967,
  "mis": 1396,
  "misa": 34764,
  "misible": 45500,
  "misibles": 34545,
  "misiones": 27961,
  "misiÃ³n": 3066,
  "mismo": 46452,
  "miso": 4075,
  "misos": 14613,
  "mission": 23198,
  "mistas": 28954,
  "mistry": 48550,
  "mit": 30556,
  "mita": 25755,
  "mite": 3863,
  "mites": 6658,
  "mith": 12218,
  "mitir": 23818,
  "mitis": 28289,
  "mito": 45215,
  "mitte": 22309,
  "mittee": 23728,
  "mix": 50244,
  "mizol": 10374,
  "ml": 4480,
  "mm": 5090,
  "mmHg": 10682,
  "mmol": 41606,
  "mmy": 37374,
  "mn": 14864,
  "mo": 409,
  "mod": 29644,
  "modal": 30586,
  "modelo": 41675,
  "moder": 17879,
  "moderada": 29885,
  "moderado": 49786,
  "modium": 32566,
  "moh": 18142,
  "moide": 21509,
  "mol": 2829,
  "molar": 40961,
  "mon": 1296,
  "monar": 9954,
  "monares": 34414,
  "monary": 41754,
  "mond": 26985,
  "monella": 21075,
  "mones": 47601,
  "monial": 26078,
  "moniales": 34967,
  "monio": 5969,
  "monios": 14230,
  "monitor": 42838,
  "monos": 47222,
  "mons": 19497,
  "mont": 39406,
  "monte": 28821,
  "mor": 1559,
  "moral": 22752,
  "morales": 40561,
  "more": 22029,
  "morf": 30059,
  "morph": 40255,
  "mortalidad": 10855,
  "mos": 456,
  "mosa": 29164,
  "mosis": 13371,
  "moso": 43210,
  "moterol": 45337,
  "moto": 21661,
  "motor": 49323,
  "motos": 46531,
  "movil": 37944,
  "mox": 11352,
  "moxicilina": 12051,
  "mp": 367,
  "mpa": 20402,
  "mpas": 27996,
  "mper": 43921,
  "mperan": 42774,
  "mpl": 23399,
  "mple": 32824,
  "mpli": 11066,
  "mplimiento": 16663,
  "mpos": 34189,
  "mptom": 42001,
  "ms": 4436,
  "mu": 9691,
  "muc": 24119,
  "muchas": 33619,
  "mucho": 37889,
  "muchos": 40334,
  "mucosa": 33972,
  "muerte": 38054,
  "muestra": 45990,
  "mujer": 27512,
  "mujeres": 43868,
  "mul": 31593,
  "mullo": 22467,
  "mulo": 25004,
  "mulos": 35707,
  "mun": 1380,
  "mund": 41864,
  "mundo": 27434,
  "munica": 23823,
  "munity": 16027,
  "mural": 35658,
  "muro": 31013,
  "mus": 7016,
  "muscular": 11820,
  "musculares": 20692,
  "mutaciÃ³n": 43949,
  "muy": 12278,
  "mx": 24330,
  "my": 18074,
  "mÃ¡": 1389,
  "mÃ¡genes": 3861,
  "mÃ¡n": 7657,
  "mÃ¡s": 814,
  "mÃ¡tica": 3494,
  "mÃ¡ticamente": 19269,
  "mÃ¡ticas": 5454,
  "mÃ¡tico": 5934,
  "mÃ¡ticos": 7163,
  "mÃ¡x": 37446,
  "mÃ¡ximo": 36131,
  "mÃ©": 12002,
  "mÃ©dico": 36457,
  "mÃ©dicos": 36372,
  "mÃ©tica": 25384,
  "mÃ©todo": 50048,
  "mÃ³": 21875,
  "mÃ³n": 14583,
  "mÃ³r": 40537,
  "mÃ³s": 14929,
  "mÃŃ": 43446,
  "mÃŃn": 9240,
  "mÃŃnico": 28432,
  "mÃŃnicos": 17032,
  "n": 81,
  "na": 582,
  "nab": 10622,
  "nabis": 39478,
  "nacional": 39575,
  "naciÃ³n": 29187,
  "nada": 27477,
  "nado": 11728,
  "nae": 32224,
  "naire": 19762,
  "nal": 3982,
  "naldo": 44837,
  "nals": 39451,
  "nan": 25845,
  "nar": 8138,
  "nas": 2496,
  "nat": 37648,
  "natal": 25718,
  "natremia": 48920,
  "natural": 45669,
  "nau": 37565,
  "naud": 33673,
  "naval": 34875,
  "nc": 22607,
  "ncbi": 37941,
  "ncer": 32919,
  "ncia": 7104,
  "nd": 33614,
  "ndice": 48449,
  "ne": 1057,
  "nea": 2660,
  "neas": 19064,
  "nec": 22084,
  "neces": 24558,
  "ned": 37934,
  "nee": 45289,
  "nega": 19394,
  "neica": 19369,
  "neico": 27668,
  "neider": 46277,
  "nel": 22037,
  "nell": 22263,
  "nen": 46275,
  "neo": 10403,
  "neos": 28491,
  "ner": 4393,
  "nera": 11188,
  "neros": 34993,
  "ners": 42855,
  "nes": 2780,
  "nesia": 20693,
  "nesis": 11473,
  "nesota": 33193,
  "ness": 9682,
  "net": 3384,
  "nete": 33346,
  "nett": 34580,
  "neu": 36013,
  "neur": 49425,
  "neuro": 32825,
  "ney": 8254,
  "ng": 16962,
  "ni": 2282,
  "nia": 6622,
  "nias": 17938,
  "nic": 22304,
  "nica": 12158,
  "nicamente": 31475,
  "nicas": 33904,
  "niciÃ³n": 22118,
  "nico": 18554,
  "nicos": 26426,
  "nidad": 11881,
  "nie": 31007,
  "nier": 37076,
  "nifer": 39082,
  "nih": 31856,
  "nii": 43856,
  "nik": 36494,
  "nin": 33132,
  "ning": 10631,
  "nio": 35859,
  "nir": 37814,
  "nis": 7538,
  "nitina": 30911,
  "nitus": 39690,
  "nivel": 21405,
  "niveles": 48753,
  "niz": 45768,
  "niÃ±os": 44503,
  "nlm": 36236,
  "nm": 38743,
  "no": 684,
  "noche": 46287,
  "nombre": 42264,
  "non": 21443,
  "nor": 32390,
  "norm": 24922,
  "normal": 19485,
  "normalmente": 46478,
  "nos": 976,
  "nosci": 31430,
  "nosis": 20459,
  "noso": 23961,
  "nosos": 48059,
  "nout": 17194,
  "nov": 3346,
  "nova": 20687,
  "now": 14058,
  "nown": 40017,
  "ns": 15518,
  "nt": 45991,
  "nto": 20464,
  "nu": 35852,
  "nuevo": 49057,
  "nunca": 32057,
  "nutri": 23676,
  "nutriciÃ³n": 16465,
  "nutrition": 41255,
  "ny": 13855,
  "nÃ©": 10258,
  "nÃ©s": 44202,
  "nÃº": 24477,
  "nÃºmero": 28713,
  "o": 82,
  "oC": 3780,
  "oL": 46346,
  "oS": 36026,
  "ob": 7802,
  "obes": 32175,
  "obesidad": 35334,
  "obier": 2148,
  "obierno": 2368,
  "obl": 36237,
  "obron": 44463,
  "obs": 15474,
  "observ": 28621,
  "observador": 48041,
  "oc": 841,
  "oca": 25006,
  "ocaciÃ³n": 20966,
  "ocado": 44286,
  "ocal": 10567,
  "ocar": 26370,
  "ocas": 24008,
  "occipital": 49732,
  "oce": 7761,
  "ocel": 23862,
  "ocele": 49558,
  "ocelular": 28001,
  "ocen": 6358,
  "ocentesis": 37387,
  "ocer": 11334,
  "oci": 448,
  "ocia": 4807,
  "ociaciÃ³n": 18761,
  "ocial": 8946,
  "ociales": 13115,
  "ocicl": 42471,
  "ociedad": 25155,
  "ocilizumab": 22679,
  "ocin": 12205,
  "ocio": 20720,
  "ocito": 12649,
  "ocitopenia": 19165,
  "ocitos": 1349,
  "ocitosis": 20218,
  "ock": 6744,
  "ocol": 47118,
  "ocom": 9565,
  "ocor": 13571,
  "ocortico": 16991,
  "ocos": 25505,
  "ocromo": 35452,
  "octubre": 44233,
  "ocumarol": 26378,
  "ocup": 28975,
  "ocy": 21676,
  "ocyto": 39817,
  "ocytogenes": 44882,
  "ocÃ³": 35900,
  "ocÃŃa": 28877,
  "ocÃŃan": 47767,
  "ocÃŃtica": 32366,
  "od": 2506,
  "odds": 48533,
  "ode": 23527,
  "oden": 10508,
  "odentales": 49092,
  "odg": 17553,
  "odgkin": 18916,
  "odin": 25527,
  "odo": 42009,
  "odoro": 42749,
  "ody": 22426,
  "of": 3584,
  "ofar": 12263,
  "ofens": 33100,
  "off": 16439,
  "oflebitis": 45184,
  "ofo": 21417,
  "ofos": 30773,
  "oft": 18684,
  "og": 492,
  "oga": 22188,
  "ogar": 22705,
  "ogas": 32655,
  "ogastrio": 46877,
  "oge": 47923,
  "ogen": 9910,
  "ogene": 11513,
  "ogeneidad": 15664,
  "ogenes": 39048,
  "ogenesis": 39459,
  "ogenic": 46097,
  "ogenicidad": 31338,
  "ogeno": 39457,
  "ogenÃ©tica": 42212,
  "ogle": 10004,
  "oglic": 41706,
  "oglob": 13147,
  "ogluc": 27106,
  "ogo": 32396,
  "ogra": 2393,
  "ografia": 36413,
  "ografÃŃa": 3874,
  "ografÃŃas": 16543,
  "ograma": 6098,
  "ogramas": 30815,
  "ograph": 49181,
  "ographic": 37371,
  "ography": 28863,
  "ogrÃ¡": 4748,
  "ogrÃ¡fica": 17726,
  "ogrÃ¡ficas": 22354,
  "ogrÃ¡fico": 13564,
  "ogrÃ¡ficos": 17123,
  "ogue": 35660,
  "ogÃ©n": 5438,
  "ogÃ©nesis": 19038,
  "ogÃ©nica": 29661,
  "ogÃ©nicas": 37776,
  "ogÃ©nico": 16139,
  "ogÃ©nicos": 40781,
  "ogÃŃa": 26505,
  "oide": 42729,
  "oides": 15367,
  "ojo": 36866,
  "ojos": 44285,
  "ok": 4339,
  "oke": 49413,
  "okies": 13242,
  "okine": 47817,
  "oks": 24728,
  "ol": 316,
  "ola": 1105,
  "olab": 48482,
  "olac": 28572,
  "olaciÃ³n": 44454,
  "olactona": 32429,
  "olan": 49918,
  "olanda": 24829,
  "olar": 2642,
  "olares": 17892,
  "olaring": 15116,
  "olas": 8678,
  "olate": 11803,
  "olateral": 19977,
  "olato": 19176,
  "olatos": 42745,
  "old": 9758,
  "oldid": 29326,
  "ole": 3216,
  "olec": 40851,
  "olecular": 48330,
  "oledo": 11874,
  "olencia": 8919,
  "olepsia": 41144,
  "oler": 2771,
  "olera": 9524,
  "olerancia": 23591,
  "oles": 1244,
  "olesc": 2249,
  "olesterol": 18093,
  "oleta": 14881,
  "oletas": 35931,
  "oley": 42769,
  "olf": 34124,
  "olfo": 18788,
  "oli": 10562,
  "olia": 11819,
  "olib": 23572,
  "olibro": 45528,
  "olid": 3903,
  "olimus": 42923,
  "olin": 15686,
  "olina": 10445,
  "olip": 25689,
  "olipo": 42574,
  "olis": 31983,
  "olisis": 17139,
  "olismo": 10362,
  "olitis": 17129,
  "olito": 48996,
  "oll": 21018,
  "olla": 10423,
  "ollas": 14849,
  "ollo": 24897,
  "ollos": 49249,
  "olo": 1969,
  "oloca": 44067,
  "olog": 583,
  "ologa": 40926,
  "ologia": 6069,
  "ologias": 42357,
  "ologic": 21106,
  "ologica": 23032,
  "ological": 8516,
  "ologico": 22305,
  "ologicos": 42511,
  "ologies": 31045,
  "ologist": 46646,
  "ologists": 45661,
  "ologo": 18096,
  "ologos": 42312,
  "ology": 4218,
  "ologÃĥ": 48990,
  "ologÃŃ": 46700,
  "ologÃŃa": 659,
  "ologÃŃas": 2248,
  "olol": 17771,
  "olona": 15761,
  "olonas": 23175,
  "olor": 794,
  "olos": 4715,
  "olotil": 20819,
  "olox": 39758,
  "olpidem": 45882,
  "ols": 18955,
  "olu": 1938,
  "oluble": 27172,
  "olubles": 30985,
  "olucion": 7173,
  "olucionar": 49020,
  "oluciones": 16579,
  "oluciÃ³n": 1374,
  "olution": 27346,
  "olv": 14394,
  "olver": 4638,
  "olvid": 30107,
  "oly": 29545,
  "olÃ²": 38402,
  "olÃ³": 36160,
  "olÃ³g": 725,
  "olÃ³gica": 1718,
  "olÃ³gicamente": 9108,
  "olÃ³gicas": 2482,
  "olÃ³gico": 1526,
  "olÃ³gicos": 1856,
  "olÃŃn": 38301,
  "olÃŃtica": 29296,
  "olÃŃticas": 49099,
  "olÃŃtico": 18639,
  "olÃŃticos": 20746,
  "om": 305,
  "oma": 984,
  "omagn": 31485,
  "omagnesemia": 46685,
  "omal": 5387,
  "omalacia": 42025,
  "oman": 13875,
  "omandibular": 26709,
  "omanÃŃa": 38371,
  "omar": 47113,
  "omas": 2455,
  "omastia": 30904,
  "omateriales": 33925,
  "omatis": 39481,
  "omatosis": 16203,
  "omb": 21041,
  "ombi": 28905,
  "ombia": 30088,
  "ombre": 8480,
  "ome": 1601,
  "omed": 25224,
  "omedi": 16294,
  "omedias": 34905,
  "omedicina": 19014,
  "omegal": 12919,
  "omegalia": 15959,
  "omegalias": 29755,
  "omelo": 38311,
  "omen": 6977,
  "omenaje": 49353,
  "omeprazol": 42156,
  "omer": 7632,
  "omerasa": 41580,
  "omet": 44636,
  "ometa": 25093,
  "ometab": 35042,
  "ometria": 34278,
  "ometric": 36671,
  "ometrÃŃa": 8189,
  "omi": 22047,
  "omia": 30084,
  "omiasis": 45085,
  "omic": 19826,
  "omicina": 18677,
  "omicosis": 33152,
  "omics": 30675,
  "omida": 19900,
  "omiel": 15538,
  "omielitis": 17370,
  "omim": 48035,
  "omin": 1140,
  "omina": 9403,
  "omio": 17279,
  "omn": 7878,
  "omnia": 48125,
  "omnio": 9374,
  "omo": 4378,
  "omod": 24364,
  "omon": 33179,
  "omona": 46135,
  "omonas": 17754,
  "omor": 30460,
  "omos": 7199,
  "omotor": 40519,
  "omus": 30200,
  "omy": 19271,
  "omyces": 47559,
  "omÃ¡tica": 31037,
  "omÃ¡tico": 42903,
  "omÃ¡ticos": 49895,
  "omÃ©": 4372,
  "omÃ©dica": 9896,
  "omÃ©r": 41791,
  "omÃ©ricas": 48267,
  "omÃ©trica": 21945,
  "omÃ©tricas": 15357,
  "omÃ©trico": 21441,
  "omÃ©tricos": 17132,
  "omÃŃa": 3385,
  "omÃŃas": 23599,
  "on": 272,
  "ona": 613,
  "onal": 513,
  "onald": 17158,
  "onales": 4783,
  "onalgia": 44749,
  "onan": 37265,
  "onancia": 6739,
  "onaria": 36603,
  "onario": 28413,
  "onarios": 12699,
  "onas": 683,
  "onasterio": 32556,
  "onato": 5813,
  "onatos": 17647,
  "onatremia": 17124,
  "onavir": 19594,
  "onazepam": 45189,
  "onazol": 16245,
  "onc": 23735,
  "onces": 2788,
  "oncesto": 19715,
  "oncologÃŃa": 37203,
  "ond": 23301,
  "onda": 44142,
  "ondas": 25022,
  "ondo": 25304,
  "one": 2767,
  "oneal": 6811,
  "oneales": 32081,
  "onecrosis": 37989,
  "onefritis": 18951,
  "onega": 47948,
  "oneo": 22738,
  "ones": 368,
  "onesa": 15249,
  "oneses": 23793,
  "onesia": 35231,
  "onesis": 28810,
  "oneta": 46010,
  "oneuro": 43874,
  "oney": 34160,
  "ong": 5464,
  "onga": 39445,
  "ongaciÃ³n": 28805,
  "oni": 14241,
  "onia": 8079,
  "onial": 41201,
  "onias": 36037,
  "onico": 32381,
  "onida": 28861,
  "onina": 48816,
  "onio": 20477,
  "onis": 46901,
  "onismo": 47827,
  "online": 42649,
  "ono": 2378,
  "onoides": 25863,
  "onolactona": 33720,
  "onomÃŃa": 45845,
  "onor": 39366,
  "onos": 15802,
  "onoscopia": 41816,
  "ons": 6592,
  "onse": 22308,
  "ont": 19044,
  "onte": 47991,
  "ontes": 49802,
  "onto": 26832,
  "ontologÃŃa": 28692,
  "onucle": 18866,
  "ony": 19476,
  "onz": 3359,
  "onÃŃa": 20208,
  "onÃŃas": 49916,
  "oo": 10229,
  "oooo": 27631,
  "op": 1745,
  "opa": 8410,
  "opatÃŃa": 13657,
  "opatÃŃas": 45024,
  "oper": 11109,
  "opera": 5306,
  "operabilidad": 45457,
  "operaciÃ³n": 7778,
  "operatorio": 24421,
  "oph": 18060,
  "ophy": 43732,
  "opio": 27095,
  "opla": 31131,
  "oplastia": 42922,
  "opol": 20005,
  "opolis": 48131,
  "opor": 30389,
  "oppler": 14470,
  "opram": 26435,
  "opre": 31206,
  "oprol": 15328,
  "oprolifera": 38412,
  "oprolol": 18546,
  "opros": 37820,
  "opur": 45925,
  "opurul": 50074,
  "opÃŃa": 33674,
  "or": 275,
  "ora": 598,
  "oraciÃ³": 40374,
  "oraciÃ³n": 1150,
  "orada": 16977,
  "orado": 10305,
  "orafenib": 45614,
  "orafobia": 43945,
  "oral": 1702,
  "orales": 15276,
  "orama": 50035,
  "oramiento": 4426,
  "orar": 3033,
  "oras": 8228,
  "oratorio": 48152,
  "orax": 11666,
  "orazepam": 17140,
  "orazÃ³n": 3075,
  "orbi": 29446,
  "orca": 15453,
  "orci": 28589,
  "orcio": 14053,
  "ord": 1131,
  "ordan": 26520,
  "ordar": 23247,
  "orden": 11342,
  "ordi": 15048,
  "ordin": 2321,
  "ordina": 21674,
  "ordon": 30505,
  "ords": 11243,
  "ore": 8519,
  "ores": 494,
  "orescencia": 28684,
  "orestaciÃ³n": 47158,
  "oreste": 27558,
  "orexia": 36591,
  "orf": 12338,
  "orfina": 33265,
  "org": 5473,
  "organ": 5489,
  "organismos": 47041,
  "orge": 6355,
  "ori": 4352,
  "oria": 8151,
  "orial": 43083,
  "oriales": 16582,
  "oriano": 23794,
  "orias": 27438,
  "oriasis": 9268,
  "orina": 7302,
  "orio": 7455,
  "orios": 15016,
  "ork": 4166,
  "orks": 29036,
  "orkshop": 43863,
  "orld": 10093,
  "orm": 470,
  "orma": 1735,
  "ormaciÃ³n": 813,
  "ormal": 6386,
  "orme": 1865,
  "ormed": 25114,
  "ormente": 2552,
  "ormes": 12469,
  "ormeta": 46150,
  "ormetazepam": 48113,
  "ormo": 20163,
  "orn": 2396,
  "oro": 2063,
  "oroeste": 22103,
  "oros": 14807,
  "orr": 23313,
  "orra": 13198,
  "orragia": 17108,
  "orre": 12758,
  "orrea": 9222,
  "orres": 13556,
  "orresistencia": 43071,
  "orro": 11031,
  "orros": 29524,
  "ors": 14505,
  "ort": 10933,
  "orta": 39367,
  "orte": 2718,
  "orum": 47746,
  "ory": 13209,
  "orÃŃa": 2855,
  "orÃŃas": 3691,
  "os": 264,
  "osa": 916,
  "osal": 32597,
  "osalud": 40950,
  "osalus": 48993,
  "osamente": 20414,
  "osas": 2902,
  "osau": 21411,
  "ose": 11755,
  "osex": 17671,
  "osfa": 4559,
  "osfatasa": 5848,
  "osfato": 13463,
  "osidad": 11929,
  "osin": 4103,
  "osina": 21031,
  "osino": 13171,
  "osinÃ³filos": 4423,
  "osio": 16018,
  "osis": 1372,
  "ositis": 25798,
  "osium": 38484,
  "oso": 1218,
  "osofÃŃa": 9242,
  "osos": 4563,
  "osotras": 48508,
  "osotros": 8381,
  "ospit": 788,
  "ospital": 929,
  "ospor": 23152,
  "osporinas": 28141,
  "osta": 17219,
  "oster": 21051,
  "ostic": 13313,
  "ostico": 31023,
  "ostomia": 32676,
  "ostomÃŃa": 15743,
  "osu": 10441,
  "osup": 38791,
  "osÃ³": 18069,
  "ot": 14616,
  "ota": 12629,
  "otas": 23367,
  "ote": 28507,
  "oterapia": 11687,
  "oth": 26392,
  "oto": 30871,
  "otra": 46034,
  "otro": 40801,
  "otros": 43760,
  "ou": 20935,
  "our": 20212,
  "ource": 47862,
  "ources": 33598,
  "ous": 21225,
  "out": 41186,
  "ov": 13738,
  "ovigilancia": 21801,
  "ox": 3013,
  "oxa": 17810,
  "oxaparina": 21765,
  "oxetina": 23108,
  "oxib": 39739,
  "oxid": 6781,
  "oxidable": 44208,
  "oxidasa": 41108,
  "oxigen": 35097,
  "oxigenasa": 49412,
  "oxona": 43067,
  "oy": 1186,
  "oya": 15194,
  "oz": 40443,
  "p": 83,
  "pH": 41138,
  "pa": 493,
  "pac": 34904,
  "pace": 43943,
  "paci": 905,
  "pacial": 23911,
  "pacidad": 1383,
  "pacidades": 12634,
  "paciente": 12888,
  "pacientes": 21519,
  "pacio": 14738,
  "paciÃ³n": 4041,
  "pad": 21369,
  "pada": 38768,
  "pado": 8726,
  "pados": 11902,
  "padre": 43862,
  "pain": 14026,
  "pal": 4859,
  "pala": 43100,
  "pales": 20158,
  "pamilo": 45376,
  "pan": 2814,
  "pancre": 32012,
  "pando": 44668,
  "pani": 33860,
  "paniCare": 36602,
  "panish": 18826,
  "pano": 26385,
  "panos": 31378,
  "panosoma": 36036,
  "pany": 21961,
  "pap": 26130,
  "par": 747,
  "para": 3564,
  "parable": 35398,
  "paracetamol": 36613,
  "paraciÃ³n": 15282,
  "parado": 50214,
  "parar": 45770,
  "paras": 18620,
  "paratiroidismo": 24896,
  "parato": 15494,
  "paraÃŃso": 41346,
  "parece": 37398,
  "parencia": 39584,
  "parenquimatos": 28734,
  "paresia": 19421,
  "pari": 33489,
  "pariciÃ³n": 13661,
  "parin": 49740,
  "parina": 9573,
  "paro": 19508,
  "paros": 7895,
  "parse": 39025,
  "parta": 2740,
  "partamento": 3188,
  "partamentos": 13260,
  "parte": 20550,
  "parti": 31328,
  "partment": 21886,
  "parto": 12235,
  "partÃŃculas": 20617,
  "pas": 1679,
  "pasa": 21430,
  "pasmo": 12672,
  "paso": 34584,
  "pasos": 11884,
  "pass": 16827,
  "pat": 1523,
  "pata": 13427,
  "patas": 17819,
  "path": 19813,
  "pathic": 44173,
  "pathy": 23680,
  "pati": 25010,
  "patia": 15259,
  "patias": 37563,
  "patibilidad": 36212,
  "patible": 32369,
  "patient": 38931,
  "pato": 17518,
  "patologÃŃa": 8709,
  "patolÃ³gica": 25598,
  "patolÃ³gicas": 25369,
  "patolÃ³gico": 13332,
  "patolÃ³gicos": 16145,
  "patÃŃa": 2262,
  "patÃŃas": 5568,
  "pausia": 24127,
  "paz": 16247,
  "paÃ±": 709,
  "paÃ±a": 11300,
  "pciÃ³n": 2290,
  "pdf": 9919,
  "pe": 499,
  "pea": 28059,
  "pean": 31864,
  "pear": 21203,
  "pec": 627,
  "pech": 35624,
  "pecha": 16100,
  "peci": 690,
  "pecia": 15601,
  "pecial": 27799,
  "pecific": 39080,
  "pecitabina": 45107,
  "pectivo": 6238,
  "pecto": 1376,
  "pectomÃŃa": 39540,
  "pectos": 2570,
  "pecu": 27847,
  "pecÃŃ": 8340,
  "ped": 11157,
  "peda": 16589,
  "pedas": 43124,
  "pedes": 19282,
  "pedestaciÃ³n": 25654,
  "pedia": 7323,
  "pediatra": 45635,
  "pediatrÃŃa": 26761,
  "pejo": 34144,
  "pel": 12483,
  "pelo": 44639,
  "pemi": 30984,
  "pemia": 6319,
  "pen": 977,
  "pendi": 18064,
  "pendiente": 30462,
  "pendo": 23206,
  "pene": 33842,
  "penem": 22342,
  "penha": 33058,
  "penia": 6042,
  "peno": 38928,
  "pens": 3932,
  "pensa": 18017,
  "pensaciÃ³n": 9006,
  "pensar": 41434,
  "pensas": 17990,
  "pentina": 26550,
  "peo": 25961,
  "pep": 41141,
  "pepsia": 25035,
  "pepti": 32803,
  "peque": 34478,
  "per": 457,
  "pera": 7510,
  "perable": 50080,
  "peraciÃ³n": 2442,
  "peras": 22666,
  "percentil": 35818,
  "percepciÃ³n": 38623,
  "perci": 18175,
  "percusiÃ³n": 35445,
  "perfun": 30171,
  "perfusiÃ³n": 25221,
  "peridol": 49110,
  "peridona": 21663,
  "perio": 18177,
  "perit": 12756,
  "peritoneal": 18958,
  "peritoneales": 44420,
  "peritoneo": 29254,
  "permia": 44915,
  "pero": 5840,
  "pers": 9386,
  "person": 18425,
  "persona": 47409,
  "personal": 19026,
  "personales": 20679,
  "personas": 40798,
  "pert": 36909,
  "pertar": 49075,
  "pertura": 33911,
  "pes": 2948,
  "peso": 5807,
  "peta": 24953,
  "petas": 43092,
  "pete": 26813,
  "petencia": 29479,
  "petente": 41113,
  "petentes": 41513,
  "peto": 38382,
  "peu": 5186,
  "pex": 27398,
  "pexia": 28886,
  "pez": 3636,
  "peÃº": 36040,
  "pg": 42046,
  "ph": 2514,
  "pha": 13515,
  "phan": 41430,
  "pharmac": 42569,
  "phi": 27822,
  "phia": 19201,
  "phic": 17642,
  "phil": 18950,
  "phila": 42170,
  "philus": 26905,
  "phone": 49502,
  "phor": 33274,
  "phorbia": 45708,
  "phos": 38908,
  "php": 16667,
  "phy": 7102,
  "phyllum": 42226,
  "phylo": 14784,
  "phys": 36734,
  "pi": 656,
  "pia": 914,
  "piano": 25404,
  "pias": 2804,
  "pic": 16860,
  "pica": 3803,
  "pical": 19290,
  "picamente": 17120,
  "picas": 9068,
  "pico": 5007,
  "picos": 6820,
  "pid": 21899,
  "pida": 27912,
  "pide": 19089,
  "pidem": 44845,
  "pidemia": 21708,
  "pidemias": 49382,
  "pidez": 10890,
  "pido": 25564,
  "pidos": 9667,
  "pie": 25668,
  "piel": 40595,
  "piens": 37012,
  "piente": 9890,
  "pientes": 14516,
  "pies": 34955,
  "pig": 18258,
  "pigment": 41049,
  "pigmentaciÃ³n": 26934,
  "pil": 7810,
  "pimetrÃŃa": 36403,
  "pin": 6693,
  "pina": 7968,
  "pinavir": 37034,
  "ping": 21998,
  "pino": 11434,
  "pintero": 48956,
  "pio": 25549,
  "pion": 35431,
  "pions": 38474,
  "pios": 2497,
  "piprazol": 45216,
  "pir": 2074,
  "pira": 1664,
  "piraciÃ³n": 4659,
  "piramato": 40424,
  "piratoria": 18519,
  "piratorio": 22077,
  "pire": 33381,
  "piri": 18734,
  "pirid": 40793,
  "pirida": 47069,
  "piro": 14085,
  "piros": 42594,
  "pirosis": 35739,
  "pis": 32594,
  "pit": 717,
  "pita": 16117,
  "pitaciones": 10711,
  "pital": 35252,
  "pitantes": 37420,
  "pite": 36333,
  "piter": 42607,
  "pito": 24898,
  "pivacaÃŃna": 42659,
  "pix": 49631,
  "piÃ©": 10941,
  "pl": 589,
  "pla": 9961,
  "plac": 25904,
  "place": 45691,
  "placement": 47393,
  "plan": 7811,
  "plano": 35130,
  "plant": 23798,
  "plantar": 46656,
  "plantation": 26425,
  "plante": 9048,
  "plantes": 20102,
  "plaque": 46741,
  "plas": 2294,
  "plasia": 5491,
  "plasias": 10735,
  "plasma": 13027,
  "plasmosis": 26696,
  "plastia": 5452,
  "plastias": 34648,
  "plastina": 50189,
  "plasty": 41741,
  "plastÃŃa": 47280,
  "platino": 21259,
  "play": 43422,
  "ple": 1654,
  "plej": 16674,
  "plejia": 30830,
  "plejÃŃa": 26422,
  "plen": 24389,
  "pler": 9853,
  "ples": 3166,
  "pleural": 34848,
  "plex": 36856,
  "plic": 5030,
  "plica": 9184,
  "plicaciones": 14418,
  "plicaciÃ³n": 9671,
  "plicar": 9631,
  "plication": 31723,
  "plications": 41014,
  "plicidad": 37734,
  "plied": 28797,
  "plo": 9443,
  "plom": 11355,
  "ploma": 20571,
  "plomas": 46247,
  "plotaciÃ³n": 40068,
  "plu": 13673,
  "plus": 39370,
  "plÃ¡s": 8377,
  "plÃ¡sico": 29487,
  "plÃ¡sicos": 43752,
  "plÃ©j": 24817,
  "plÃ©jicos": 35109,
  "plÃŃ": 23998,
  "pm": 2976,
  "pnea": 34613,
  "po": 449,
  "poblaciones": 44510,
  "poblaciÃ³n": 32835,
  "poca": 46532,
  "poco": 35961,
  "pod": 25692,
  "podcast": 39688,
  "poder": 37141,
  "podos": 25818,
  "podrÃŃa": 40485,
  "pofol": 21059,
  "point": 43904,
  "pol": 6105,
  "pola": 43384,
  "polar": 11003,
  "polares": 41335,
  "pole": 30772,
  "poli": 29053,
  "polis": 22403,
  "polÃŃtica": 43676,
  "pon": 618,
  "pone": 12233,
  "ponemos": 44029,
  "ponen": 28196,
  "ponente": 39668,
  "ponentes": 39278,
  "poner": 12631,
  "ponerse": 35275,
  "pones": 47134,
  "ponible": 44098,
  "ponina": 10755,
  "poninas": 24627,
  "pool": 36262,
  "pop": 25514,
  "por": 617,
  "pora": 7698,
  "poraciÃ³n": 17632,
  "poral": 24947,
  "pores": 42614,
  "porina": 19220,
  "porosis": 7750,
  "porque": 16883,
  "port": 2167,
  "porta": 46110,
  "portador": 47161,
  "portal": 43708,
  "porte": 2094,
  "ported": 42904,
  "portes": 37949,
  "ports": 17684,
  "portun": 2769,
  "pos": 615,
  "posa": 8859,
  "posas": 30878,
  "pose": 43211,
  "posi": 2565,
  "posible": 38603,
  "posicion": 29690,
  "posiciones": 5289,
  "posiciÃ³n": 1773,
  "posis": 32023,
  "positiva": 37527,
  "positivas": 35180,
  "positivo": 14571,
  "positivos": 23645,
  "positor": 45656,
  "positores": 31112,
  "positorio": 38439,
  "positorios": 43011,
  "poso": 4184,
  "post": 32304,
  "posterior": 27014,
  "pot": 19261,
  "potas": 16373,
  "potasemia": 17545,
  "pote": 41042,
  "poten": 33867,
  "potencia": 48828,
  "potentes": 45074,
  "poy": 13895,
  "poye": 28897,
  "poyetina": 30142,
  "pp": 8191,
  "pping": 34334,
  "pr": 7137,
  "pra": 5120,
  "pramida": 20415,
  "pran": 28018,
  "prandial": 36752,
  "pratropio": 46813,
  "pray": 27321,
  "prazol": 8748,
  "prazolam": 36174,
  "pre": 2079,
  "preci": 16948,
  "precio": 41163,
  "prednisolona": 22396,
  "pregun": 47418,
  "pren": 5660,
  "pres": 787,
  "presencia": 48611,
  "presente": 47766,
  "presidente": 23029,
  "presina": 32283,
  "presiÃ³n": 1905,
  "press": 24853,
  "pression": 31533,
  "previa": 22613,
  "previo": 36828,
  "previr": 39845,
  "pri": 11392,
  "pril": 11476,
  "prim": 11864,
  "primer": 38510,
  "primera": 27043,
  "primido": 34544,
  "primidos": 23201,
  "prin": 18716,
  "princip": 22452,
  "principalmente": 31891,
  "privada": 38242,
  "pro": 1178,
  "proBNP": 23569,
  "prob": 34109,
  "probable": 45465,
  "probablemente": 40720,
  "problemas": 43580,
  "proc": 47966,
  "proce": 37933,
  "procedimiento": 49597,
  "proces": 32743,
  "proceso": 47370,
  "produc": 12105,
  "producciÃ³n": 16099,
  "producto": 47337,
  "productos": 31119,
  "profeno": 6096,
  "profes": 16455,
  "profesional": 26450,
  "profesionales": 34282,
  "profilaxis": 31516,
  "programa": 39867,
  "prol": 33830,
  "prome": 36009,
  "promo": 43693,
  "prop": 20928,
  "propi": 28360,
  "propil": 29304,
  "propor": 50040,
  "pros": 24783,
  "prote": 17816,
  "protec": 15451,
  "protecciÃ³n": 20664,
  "protector": 30071,
  "protectores": 34986,
  "proteg": 43239,
  "protein": 33567,
  "proteÃŃn": 9759,
  "proteÃŃna": 15677,
  "proteÃŃnas": 15143,
  "protÃ©s": 34622,
  "prov": 45867,
  "prox": 26279,
  "proxeno": 29522,
  "proyecto": 29071,
  "pru": 31702,
  "prudencia": 43122,
  "prueba": 31470,
  "prÃ¡ctica": 42725,
  "prÃ³tesis": 25344,
  "ps": 1223,
  "pse": 41849,
  "pseud": 28942,
  "pseudÃ³nimo": 31164,
  "psi": 17171,
  "psia": 3135,
  "psias": 10385,
  "psic": 8993,
  "psico": 37259,
  "psicologÃŃa": 35777,
  "psina": 28795,
  "psiquia": 45310,
  "psiquiatrÃŃa": 48422,
  "psiquiÃ¡": 31927,
  "psis": 7125,
  "pso": 14252,
  "pson": 26249,
  "psulas": 45784,
  "psy": 38699,
  "psych": 38524,
  "pt": 28568,
  "pta": 34022,
  "ptal": 49452,
  "pter": 31136,
  "pti": 2358,
  "ptiembre": 4046,
  "ptina": 26685,
  "ptisis": 25499,
  "pto": 5626,
  "ptoc": 38471,
  "ptococcus": 16887,
  "ptocÃ³": 41179,
  "ptom": 24786,
  "ptomicina": 28096,
  "ptor": 30019,
  "ptos": 25617,
  "pu": 967,
  "pub": 28387,
  "publ": 16735,
  "pubmed": 43505,
  "pue": 12290,
  "puede": 18749,
  "pueden": 27605,
  "pues": 893,
  "puesta": 1477,
  "puestamente": 20348,
  "puestas": 3095,
  "puesto": 2457,
  "puestos": 4456,
  "pul": 6485,
  "pula": 23009,
  "pullido": 47013,
  "pulmonar": 13943,
  "pulmonares": 41714,
  "puls": 46061,
  "pun": 10355,
  "punciÃ³n": 47357,
  "punto": 35853,
  "pur": 22861,
  "pura": 13668,
  "pus": 5604,
  "put": 45108,
  "puz": 38108,
  "puzkoa": 41316,
  "puÃ©s": 1137,
  "py": 7051,
  "pÃ¡": 47602,
  "pÃ¡g": 40640,
  "pÃ¡tica": 10421,
  "pÃ¡ticas": 25794,
  "pÃ¡tico": 13304,
  "pÃ¡ticos": 23731,
  "pÃ¡us": 16017,
  "pÃ©": 28667,
  "pÃ©dico": 50099,
  "pÃ©lv": 35710,
  "pÃ©rdida": 37916,
  "pÃ©tica": 37505,
  "pÃ©u": 1995,
  "pÃ³": 13000,
  "pÃ³n": 8312,
  "pÃº": 36129,
  "pÃŃ": 41731,
  "pÃŃa": 11972,
  "q": 84,
  "qu": 380,
  "qua": 40723,
  "qual": 36889,
  "que": 292,
  "quea": 23302,
  "queda": 47764,
  "quedad": 11964,
  "quel": 1403,
  "quemia": 36979,
  "quen": 5270,
  "quena": 48913,
  "quences": 39185,
  "quency": 28951,
  "quenilo": 26884,
  "quent": 23374,
  "queo": 10797,
  "quer": 3625,
  "quera": 11198,
  "queras": 39002,
  "queratosis": 46344,
  "quero": 16024,
  "queros": 26667,
  "querÃŃa": 28044,
  "ques": 2918,
  "quesa": 45735,
  "quese": 49065,
  "questa": 15442,
  "quet": 39547,
  "queta": 16727,
  "quetado": 21906,
  "quetas": 2794,
  "quete": 24958,
  "quetes": 31269,
  "quetty": 42230,
  "quexia": 46774,
  "quez": 6588,
  "qui": 488,
  "quia": 3688,
  "quial": 13281,
  "quiales": 38093,
  "quias": 19670,
  "quiatrÃŃa": 6385,
  "quicardia": 30050,
  "quicia": 34874,
  "quid": 41967,
  "quido": 21532,
  "quidos": 33400,
  "quien": 35791,
  "quier": 748,
  "quiera": 4019,
  "quieran": 16452,
  "quiere": 2252,
  "quieren": 3805,
  "quil": 1830,
  "quila": 32116,
  "quilib": 3593,
  "quilibrio": 42463,
  "quilla": 9233,
  "quillas": 35336,
  "quillo": 29707,
  "quilo": 4975,
  "quilos": 26332,
  "quimioterapia": 44498,
  "quin": 7989,
  "quina": 6342,
  "quinas": 8494,
  "quinasa": 42026,
  "quine": 31661,
  "quines": 34337,
  "quinilo": 37470,
  "quino": 42365,
  "quinolonas": 41663,
  "quio": 15483,
  "quios": 36841,
  "quip": 13041,
  "quir": 4343,
  "quired": 39924,
  "quirÃºrg": 8914,
  "quirÃºrgica": 19879,
  "quirÃºrgicas": 30929,
  "quirÃºrgico": 21540,
  "quirÃºrgicos": 24393,
  "quirÃºrgics": 39570,
  "quis": 3096,
  "quisiciÃ³n": 35374,
  "quisitos": 35875,
  "quismo": 6670,
  "quist": 49267,
  "quista": 27816,
  "quistosis": 49503,
  "quita": 23299,
  "quitec": 7931,
  "quitis": 42980,
  "quito": 10399,
  "quitos": 13390,
  "quiuria": 27304,
  "quiz": 39697,
  "quiÃ¡": 6613,
  "quiÃ©n": 32738,
  "quÃ©": 6070,
  "quÃ©mica": 39230,
  "quÃ©s": 20011,
  "quÃŃ": 1940,
  "quÃŃa": 10450,
  "quÃŃdea": 47335,
  "quÃŃdeo": 17536,
  "quÃŃmica": 8329,
  "quÃŃmicas": 34603,
  "quÃŃmico": 28412,
  "quÃŃmicos": 27426,
  "quÃŃn": 11971,
  "qÃ¼": 41039,
  "r": 85,
  "rND": 43794,
  "ra": 309,
  "raba": 35129,
  "rac": 1528,
  "raci": 41990,
  "raciones": 16867,
  "raciÃ³n": 9113,
  "rack": 22185,
  "racÃ¡n": 35964,
  "rad": 3077,
  "rada": 2753,
  "radas": 7860,
  "radi": 34301,
  "radia": 27874,
  "radio": 25334,
  "rado": 3938,
  "rador": 14659,
  "radores": 32367,
  "rados": 6777,
  "radura": 46689,
  "rael": 13624,
  "rafia": 44405,
  "raft": 32450,
  "rag": 2734,
  "ragia": 5469,
  "ragias": 10710,
  "ragon": 20960,
  "ragona": 22924,
  "ragones": 36287,
  "ragonesa": 41472,
  "ragonÃ©s": 30738,
  "ragÃ³n": 9274,
  "ral": 1646,
  "rales": 4879,
  "rall": 35392,
  "raltar": 45812,
  "ram": 12063,
  "rama": 27445,
  "rame": 6584,
  "ramento": 45116,
  "rameric": 42989,
  "rami": 2729,
  "ramicina": 40396,
  "ramina": 39561,
  "ramo": 49248,
  "ramos": 6674,
  "ran": 469,
  "rana": 3842,
  "rando": 12471,
  "rane": 4076,
  "raneal": 5816,
  "raneales": 14345,
  "rang": 32998,
  "range": 45455,
  "rango": 20281,
  "rano": 10464,
  "ranolol": 39064,
  "rante": 21176,
  "rantes": 8279,
  "ranz": 34897,
  "ranza": 45104,
  "rar": 2309,
  "rara": 49173,
  "raron": 29325,
  "rarse": 20196,
  "rary": 31293,
  "rarÃ¡": 42444,
  "ras": 490,
  "rasa": 32506,
  "rase": 31350,
  "rasia": 45180,
  "rassa": 42233,
  "rate": 16679,
  "rato": 27900,
  "raw": 41405,
  "rax": 3148,
  "raxia": 46962,
  "raxis": 27737,
  "ray": 7460,
  "raya": 15007,
  "raza": 42500,
  "razol": 25799,
  "rd": 37921,
  "re": 287,
  "rea": 1056,
  "reactividad": 38712,
  "reak": 36383,
  "real": 19088,
  "reas": 2384,
  "reast": 15481,
  "reat": 39502,
  "reatment": 6704,
  "rec": 716,
  "recciÃ³n": 21613,
  "recen": 6082,
  "receptor": 46180,
  "reci": 38590,
  "recom": 34345,
  "recomend": 45731,
  "rectal": 10641,
  "rectales": 44131,
  "recto": 49764,
  "rectomÃŃa": 18068,
  "rector": 26545,
  "recu": 1021,
  "recuencia": 9926,
  "recur": 40047,
  "red": 7508,
  "rededor": 3311,
  "redi": 42478,
  "reducciÃ³n": 43489,
  "ree": 15901,
  "ref": 16102,
  "refiere": 38003,
  "reg": 3720,
  "regulaciÃ³n": 22370,
  "regular": 45341,
  "reich": 40117,
  "rel": 14460,
  "rela": 16000,
  "relacion": 26437,
  "relaciones": 43164,
  "relaciÃ³n": 18948,
  "related": 22566,
  "rell": 23251,
  "remia": 50062,
  "remos": 5033,
  "ren": 715,
  "rena": 15665,
  "renal": 6891,
  "renales": 19827,
  "renalina": 13585,
  "rence": 25368,
  "reno": 23808,
  "renorfina": 43671,
  "rent": 40587,
  "renta": 35720,
  "rente": 9547,
  "rentes": 46643,
  "reo": 8337,
  "reos": 17157,
  "repres": 38313,
  "rer": 6295,
  "rera": 2830,
  "reras": 6899,
  "rero": 3373,
  "reros": 17902,
  "rerÃŃa": 42730,
  "res": 331,
  "resa": 31984,
  "rese": 22892,
  "resi": 46746,
  "resia": 36169,
  "resis": 5407,
  "resistant": 37278,
  "resistencia": 48524,
  "respon": 1962,
  "respuesta": 32911,
  "ress": 46786,
  "reste": 24136,
  "ret": 43424,
  "reta": 47180,
  "retin": 42937,
  "retro": 11182,
  "retrovir": 12544,
  "retroviral": 42189,
  "reus": 12414,
  "rev": 32717,
  "revista": 30149,
  "revolucion": 49990,
  "rey": 15380,
  "rez": 2463,
  "reza": 32846,
  "rg": 1202,
  "ri": 333,
  "ria": 2269,
  "riaga": 45172,
  "riam": 29835,
  "rian": 30936,
  "rias": 5790,
  "riasis": 26166,
  "riate": 38814,
  "ric": 3973,
  "rica": 11178,
  "ricaciÃ³n": 35181,
  "rich": 23319,
  "richo": 46371,
  "rick": 36014,
  "rico": 11638,
  "ricos": 48100,
  "ricula": 33896,
  "rida": 20769,
  "ridas": 29189,
  "rido": 3687,
  "ridos": 17979,
  "rie": 19558,
  "riel": 13233,
  "riendo": 5228,
  "riente": 6574,
  "rientes": 43401,
  "rier": 47765,
  "riera": 30839,
  "rieron": 6111,
  "ries": 13751,
  "riesgo": 23337,
  "rificaciÃ³n": 42144,
  "rig": 1547,
  "right": 20343,
  "rigin": 21355,
  "ril": 1269,
  "rilaciÃ³n": 8142,
  "rile": 10924,
  "riles": 12965,
  "rill": 18647,
  "rilla": 12677,
  "rillas": 24597,
  "rillo": 7708,
  "rillos": 9872,
  "rim": 1626,
  "rima": 43400,
  "rime": 20118,
  "rimi": 37635,
  "rimiento": 5414,
  "rimir": 12712,
  "rimos": 19368,
  "rin": 2044,
  "rina": 12612,
  "ring": 31047,
  "rino": 28475,
  "rinolaring": 15283,
  "rinolaringologÃŃa": 19933,
  "rinÃ³geno": 13614,
  "rio": 2443,
  "rios": 5408,
  "rique": 4989,
  "rir": 1836,
  "ris": 3219,
  "risa": 11479,
  "risas": 32213,
  "risk": 49272,
  "rista": 28337,
  "ristal": 34214,
  "ristina": 40499,
  "risto": 25385,
  "rit": 9387,
  "rita": 33797,
  "ritas": 31945,
  "ritina": 15202,
  "ritis": 8064,
  "ritish": 21477,
  "ritmia": 46218,
  "ritmias": 23563,
  "rito": 7222,
  "ritonavir": 36214,
  "ritorial": 14718,
  "ritos": 8717,
  "rity": 38953,
  "ritÃ¡n": 9045,
  "rium": 25191,
  "rix": 32949,
  "riz": 14537,
  "riÃ©ndose": 34011,
  "riÃ³": 3530,
  "riÃ³n": 18049,
  "rlae": 34397,
  "ro": 301,
  "roga": 35196,
  "rojo": 49360,
  "rol": 674,
  "roli": 20122,
  "rolifera": 37358,
  "rolimus": 18967,
  "rolitiasis": 40090,
  "rolizumab": 37477,
  "roll": 42145,
  "rolol": 50121,
  "rolÃ³g": 3517,
  "rolÃ³gica": 16614,
  "rolÃ³gicas": 29498,
  "rolÃ³gico": 22474,
  "rolÃ³gicos": 32818,
  "rom": 42771,
  "rome": 42772,
  "romo": 20609,
  "romos": 45998,
  "ron": 1247,
  "ronefrosis": 37847,
  "rones": 19809,
  "ronic": 11796,
  "rontal": 26894,
  "ronutri": 19661,
  "ronutrientes": 23110,
  "roquÃŃ": 44669,
  "ror": 6876,
  "rores": 27539,
  "ros": 796,
  "rosa": 11619,
  "rosas": 46777,
  "rosis": 4017,
  "roso": 15710,
  "rosos": 42376,
  "ross": 13842,
  "roup": 9480,
  "row": 32010,
  "roy": 38377,
  "roÃ±o": 37346,
  "rpm": 23462,
  "rr": 28857,
  "rs": 18928,
  "ru": 514,
  "rubi": 41840,
  "rubicina": 44507,
  "ruc": 30775,
  "rue": 20543,
  "ruecos": 26865,
  "rug": 8757,
  "ruga": 36453,
  "rugada": 15020,
  "rugas": 8986,
  "rum": 17323,
  "rump": 6375,
  "rup": 5948,
  "rupciÃ³n": 7889,
  "rupo": 3246,
  "rupto": 34980,
  "rus": 6918,
  "ruz": 5582,
  "ry": 6088,
  "rÃ¡": 2813,
  "rÃ¡fico": 25681,
  "rÃ¡n": 5455,
  "rÃ¡s": 21420,
  "rÃ¡ul": 33138,
  "rÃ©": 13542,
  "rÃ©s": 33365,
  "rÃ³": 3991,
  "rÃ³n": 9559,
  "rÃ³tesis": 14216,
  "rÃŃ": 15764,
  "rÃŃa": 5028,
  "rÃŃan": 15140,
  "rÃŃquez": 33232,
  "rÃŃt": 15572,
  "s": 86,
  "sAg": 43804,
  "sa": 1685,
  "sab": 24869,
  "sabilidad": 18543,
  "sable": 14539,
  "sables": 35936,
  "sah": 31313,
  "sahariana": 35888,
  "sal": 4309,
  "salud": 10898,
  "salva": 30954,
  "salvo": 35135,
  "san": 5264,
  "sancio": 9539,
  "sangre": 46805,
  "sanitaria": 47658,
  "sanitario": 47657,
  "sar": 6779,
  "sartan": 49154,
  "sartÃ¡n": 38418,
  "sary": 36487,
  "sas": 7306,
  "sat": 47825,
  "sc": 28094,
  "scales": 32586,
  "scalesuntuaciÃ³": 40889,
  "scar": 21120,
  "sch": 39986,
  "sche": 45621,
  "sci": 38450,
  "scielo": 48934,
  "score": 48756,
  "se": 439,
  "sea": 16894,
  "seas": 32048,
  "sec": 19466,
  "secre": 26711,
  "sectional": 41388,
  "sed": 15814,
  "see": 44330,
  "seg": 19141,
  "seguir": 44768,
  "segun": 32437,
  "seguridad": 41362,
  "segÃºn": 17883,
  "sel": 27971,
  "sele": 39243,
  "selo": 18999,
  "sem": 25660,
  "semana": 26868,
  "semos": 27607,
  "sen": 6871,
  "senal": 25518,
  "sens": 40890,
  "sensibilidad": 10737,
  "sensible": 49813,
  "seo": 36038,
  "ser": 9038,
  "sero": 33671,
  "serÃ¡": 45916,
  "ses": 4853,
  "sess": 10704,
  "sessment": 13292,
  "set": 19228,
  "seud": 15478,
  "seudo": 28072,
  "severa": 45717,
  "sevier": 18615,
  "sex": 19956,
  "sexo": 49938,
  "sey": 29666,
  "seÃ±": 3455,
  "sh": 18415,
  "si": 2445,
  "sia": 39639,
  "sible": 18389,
  "sic": 46797,
  "sica": 29370,
  "sida": 29878,
  "sider": 29503,
  "siempre": 22264,
  "siendo": 47018,
  "sier": 40422,
  "sig": 25779,
  "sign": 41607,
  "sil": 38959,
  "sim": 45672,
  "similar": 39626,
  "sin": 6809,
  "sina": 37654,
  "sing": 33359,
  "sinki": 35842,
  "sino": 46930,
  "sion": 6596,
  "siona": 28815,
  "sionais": 37640,
  "sional": 15153,
  "sions": 40578,
  "sis": 19753,
  "sistema": 35574,
  "site": 41068,
  "sito": 11535,
  "sive": 22463,
  "siÃ³n": 5687,
  "sk": 43812,
  "ski": 36899,
  "sky": 30510,
  "smo": 18569,
  "so": 926,
  "soas": 27554,
  "sobre": 13615,
  "soch": 36658,
  "sochinf": 38892,
  "socia": 5594,
  "social": 28082,
  "sociated": 10928,
  "sociation": 8456,
  "sol": 21903,
  "solo": 22299,
  "son": 2234,
  "sona": 47477,
  "sor": 6903,
  "sos": 1658,
  "soy": 41906,
  "sp": 32858,
  "ss": 16896,
  "sson": 46423,
  "st": 9929,
  "sta": 17495,
  "stan": 49776,
  "stas": 35928,
  "ste": 23238,
  "stein": 27743,
  "ster": 21748,
  "steÃŃna": 35986,
  "sti": 28748,
  "stico": 34227,
  "stru": 22064,
  "su": 5356,
  "sub": 19384,
  "sue": 18529,
  "sues": 31955,
  "sul": 18575,
  "sulf": 41807,
  "sulfon": 48376,
  "sulosina": 36315,
  "sum": 37866,
  "sup": 37601,
  "super": 22915,
  "sur": 36917,
  "sus": 15720,
  "sy": 36643,
  "sÃ£o": 44767,
  "sÃ©nico": 31614,
  "sÃ³lo": 24395,
  "sÃŃ": 22690,
  "sÃŃn": 16588,
  "sÃŃndrome": 22638,
  "sÃŃntomas": 46762,
  "t": 87,
  "ta": 308,
  "tab": 1743,
  "taba": 7585,
  "tabaco": 30513,
  "taban": 7840,
  "tabani": 35468,
  "tabase": 28721,
  "tabilidad": 9525,
  "tabina": 22449,
  "tabla": 12736,
  "table": 2471,
  "tables": 7531,
  "tabria": 10145,
  "tac": 1351,
  "taca": 47299,
  "tach": 38562,
  "taci": 36001,
  "tacion": 11939,
  "tacional": 23996,
  "taciones": 1762,
  "taciÃ³": 19754,
  "taciÃ³n": 810,
  "tacto": 44885,
  "tad": 1445,
  "tada": 1530,
  "tadas": 2305,
  "tades": 26562,
  "tadina": 29322,
  "tado": 737,
  "tadona": 24157,
  "tador": 5324,
  "tadora": 8665,
  "tadoras": 16490,
  "tadores": 5746,
  "tados": 675,
  "tadura": 16190,
  "taduras": 40460,
  "tag": 12214,
  "tage": 39878,
  "tagland": 24919,
  "tago": 24831,
  "tagon": 4199,
  "tagonistas": 38069,
  "tah": 41703,
  "tain": 13721,
  "taje": 11065,
  "tajes": 44544,
  "take": 24043,
  "tal": 557,
  "tala": 31693,
  "tale": 37086,
  "tales": 2173,
  "talgia": 15918,
  "talia": 7769,
  "talidad": 2206,
  "taliz": 16574,
  "talizas": 18895,
  "talla": 6204,
  "talm": 5613,
  "talo": 36732,
  "talopram": 30720,
  "talos": 34780,
  "tam": 12108,
  "tamante": 43767,
  "tambi": 14637,
  "tambiÃ©n": 15223,
  "tamen": 16547,
  "tament": 19721,
  "tamente": 1316,
  "tamento": 24047,
  "tami": 32100,
  "tamida": 41558,
  "tamiento": 1879,
  "tamientos": 7623,
  "tamin": 40669,
  "tamina": 37974,
  "taminaciÃ³n": 33077,
  "tamivir": 39969,
  "tamo": 20062,
  "tamos": 4243,
  "tan": 579,
  "tana": 10824,
  "tanas": 39043,
  "tanasia": 24971,
  "tance": 21275,
  "tancia": 1324,
  "tancias": 2773,
  "tander": 14971,
  "tando": 2313,
  "tane": 26104,
  "tanea": 23240,
  "taneas": 41331,
  "taneo": 17762,
  "taneous": 22733,
  "taner": 31476,
  "tanercept": 41021,
  "tanes": 43259,
  "tang": 25387,
  "tani": 47343,
  "tania": 44028,
  "tano": 9063,
  "tanol": 18382,
  "tanos": 13324,
  "tans": 46738,
  "tant": 11597,
  "tante": 819,
  "tantes": 1462,
  "tanto": 18767,
  "tants": 46381,
  "tanzas": 19618,
  "tapenem": 36137,
  "tar": 489,
  "tara": 7028,
  "tard": 38118,
  "tares": 31394,
  "tari": 37811,
  "taria": 3374,
  "tariado": 26222,
  "tarias": 8267,
  "tario": 3284,
  "tarios": 4691,
  "tarismo": 15172,
  "tarlo": 19209,
  "tarnos": 26264,
  "taro": 35678,
  "taron": 3296,
  "tarra": 41085,
  "tarsal": 50037,
  "tarse": 3212,
  "tarte": 26837,
  "tary": 20016,
  "tarÃ¡": 6254,
  "tarÃ¡n": 19526,
  "tarÃŃa": 4346,
  "tas": 484,
  "tasa": 4773,
  "tase": 22849,
  "tasi": 49961,
  "tasia": 11280,
  "tasias": 15913,
  "tasio": 3791,
  "tasis": 5663,
  "tasona": 40265,
  "tat": 11290,
  "tata": 4834,
  "tate": 23968,
  "tatina": 32627,
  "tation": 11144,
  "tations": 28571,
  "tativa": 11161,
  "tativas": 7183,
  "tativo": 23763,
  "tato": 12554,
  "tats": 29341,
  "taur": 4738,
  "tavirus": 39462,
  "tavo": 8634,
  "taxel": 37347,
  "taxis": 44393,
  "tay": 43299,
  "taz": 34473,
  "taza": 40337,
  "tazapina": 40850,
  "tazidi": 40783,
  "tazidima": 43374,
  "tazo": 27253,
  "tazobactam": 41000,
  "taÃ±a": 16363,
  "taÃ±as": 20093,
  "taÃ±o": 23943,
  "tbol": 5550,
  "tc": 45825,
  "tch": 22634,
  "td": 35016,
  "te": 310,
  "tea": 10857,
  "teado": 31044,
  "tear": 25971,
  "teas": 44251,
  "tec": 979,
  "teca": 7503,
  "tecal": 36334,
  "tecas": 15010,
  "tecciÃ³n": 6821,
  "tecen": 46564,
  "tech": 21726,
  "tecn": 9484,
  "tecnia": 42803,
  "tecnologÃŃa": 13923,
  "tecol": 26626,
  "tectom": 43405,
  "tectomia": 39237,
  "tectomÃŃa": 10326,
  "ted": 1602,
  "tedes": 10098,
  "tedra": 13352,
  "teg": 1229,
  "tega": 12360,
  "tegr": 6499,
  "tegra": 13226,
  "tegraciÃ³n": 25522,
  "tegravir": 48719,
  "tegro": 33634,
  "tegui": 33763,
  "tein": 7280,
  "tej": 48875,
  "tel": 2121,
  "tela": 10656,
  "telar": 25289,
  "tele": 26503,
  "telec": 15333,
  "telerÃŃa": 18634,
  "teles": 11130,
  "teli": 6390,
  "telial": 10612,
  "teliales": 12009,
  "telio": 10170,
  "telioma": 33060,
  "tell": 31560,
  "tella": 14658,
  "tello": 42897,
  "telo": 22540,
  "tely": 34256,
  "tem": 14776,
  "tema": 27922,
  "temia": 26844,
  "temos": 23817,
  "temp": 11292,
  "temporal": 25739,
  "tems": 29363,
  "ten": 404,
  "tena": 16089,
  "tenas": 33017,
  "tencia": 7661,
  "tencias": 20075,
  "tenciÃ³n": 946,
  "tendin": 44130,
  "tendo": 26430,
  "tenemos": 39612,
  "tener": 1415,
  "tenerse": 33066,
  "tengo": 35202,
  "tenia": 9363,
  "tenible": 41483,
  "tenido": 42002,
  "teno": 19496,
  "tenoides": 37693,
  "tenos": 25720,
  "tenosis": 5995,
  "tens": 1054,
  "tensa": 21113,
  "tense": 13059,
  "tensina": 14905,
  "tension": 18402,
  "tensiones": 40466,
  "tensiÃ³n": 2011,
  "tenso": 15844,
  "tent": 5888,
  "tenta": 10011,
  "tente": 5463,
  "tentes": 10282,
  "tento": 39016,
  "tentorial": 50071,
  "teo": 3362,
  "teor": 42591,
  "teos": 7270,
  "tepec": 49815,
  "ter": 349,
  "tera": 1101,
  "teral": 2371,
  "terales": 5480,
  "teralmente": 36399,
  "terapeu": 8320,
  "terapeuta": 24202,
  "terapeutas": 28255,
  "terapia": 1618,
  "terapias": 25593,
  "terapÃ©u": 12590,
  "terapÃ©utica": 31414,
  "terapÃ©uticas": 43098,
  "terapÃ©utico": 21617,
  "terapÃ©uticos": 36930,
  "teras": 7974,
  "terdam": 50079,
  "terectomÃŃa": 18423,
  "tered": 35929,
  "teres": 12226,
  "teri": 592,
  "teria": 4570,
  "terial": 1473,
  "teriales": 15046,
  "terias": 35078,
  "tericia": 8314,
  "terida": 47142,
  "teridad": 43208,
  "tering": 36919,
  "terio": 2134,
  "terior": 1204,
  "teriores": 3089,
  "teriormente": 2639,
  "terioro": 19633,
  "terios": 2543,
  "terismo": 47209,
  "teritis": 42523,
  "teriza": 46752,
  "term": 20250,
  "termia": 14447,
  "termica": 41318,
  "termin": 1225,
  "terminal": 34712,
  "tern": 6856,
  "terna": 9008,
  "ternal": 24664,
  "ternas": 23755,
  "ternidad": 15921,
  "terno": 13102,
  "ternos": 35761,
  "tero": 2187,
  "teroide": 38255,
  "teroides": 8989,
  "terol": 3461,
  "terona": 8355,
  "teros": 5805,
  "terosex": 27644,
  "terra": 10782,
  "terres": 25508,
  "territorial": 19652,
  "terror": 41543,
  "terrÃ¡n": 7500,
  "ters": 8934,
  "tery": 26085,
  "terÃ¡p": 14629,
  "terÃ¡pica": 29800,
  "terÃ¡pico": 26023,
  "terÃ¡picos": 34813,
  "terÃłpia": 38563,
  "terÃŃa": 7576,
  "terÃŃas": 16556,
  "tes": 425,
  "tese": 32255,
  "tesis": 2534,
  "test": 15036,
  "teto": 40204,
  "tetra": 29010,
  "tetricia": 10551,
  "teur": 24331,
  "tex": 10940,
  "texto": 27336,
  "tez": 13595,
  "teza": 14433,
  "teÃŃn": 1558,
  "teÃŃna": 19127,
  "th": 1025,
  "tha": 15917,
  "thal": 21429,
  "than": 22923,
  "the": 11953,
  "thel": 19780,
  "ther": 5755,
  "thera": 45936,
  "therapy": 18685,
  "therine": 42428,
  "thers": 24586,
  "thes": 31071,
  "thesis": 35353,
  "thing": 43956,
  "thma": 29619,
  "tho": 16371,
  "thod": 10688,
  "thon": 38929,
  "thor": 41772,
  "though": 31828,
  "thritis": 23415,
  "thro": 17174,
  "throp": 31872,
  "ths": 21583,
  "thus": 28358,
  "thy": 13500,
  "thyro": 47796,
  "ti": 281,
  "tia": 1988,
  "tiago": 5147,
  "tial": 14077,
  "tiana": 30280,
  "tiapina": 24155,
  "tias": 15820,
  "tiasis": 8965,
  "tiaz": 15593,
  "tiazem": 35396,
  "tiazida": 21523,
  "tibial": 42781,
  "tibiales": 49312,
  "tibilidad": 8963,
  "tible": 4131,
  "tibles": 5798,
  "tic": 363,
  "tica": 550,
  "tical": 5632,
  "ticales": 16669,
  "tically": 42733,
  "ticamente": 2667,
  "ticano": 40546,
  "ticar": 33170,
  "ticaria": 14324,
  "ticas": 805,
  "ticasona": 44371,
  "tice": 11661,
  "ticen": 26209,
  "ticer": 37750,
  "ticercosis": 45282,
  "tices": 21642,
  "tici": 27141,
  "ticia": 4388,
  "ticias": 6239,
  "ticidad": 9781,
  "ticio": 45061,
  "ticismo": 23288,
  "ticiÃ³n": 5308,
  "tick": 44571,
  "tico": 568,
  "ticoag": 5541,
  "ticoides": 47090,
  "ticos": 848,
  "tics": 7352,
  "ticu": 48773,
  "ticuer": 16469,
  "ticuerpo": 41982,
  "ticuerpos": 19426,
  "ticular": 2422,
  "ticulares": 9096,
  "ticularmente": 42223,
  "ticum": 40326,
  "ticus": 39368,
  "tid": 6675,
  "tida": 3764,
  "tidad": 1676,
  "tidades": 5973,
  "tidamente": 34312,
  "tidas": 5698,
  "tide": 25223,
  "tidez": 43553,
  "tidi": 6104,
  "tidina": 19033,
  "tiditis": 34831,
  "tido": 1224,
  "tidor": 47086,
  "tidora": 32551,
  "tidores": 32734,
  "tidos": 2944,
  "tie": 42018,
  "tiel": 45178,
  "tiembre": 41616,
  "tiempo": 20376,
  "tiempos": 47921,
  "tiende": 7290,
  "tiendo": 4908,
  "tiene": 1934,
  "tienen": 3616,
  "tienes": 41898,
  "tier": 21743,
  "tiera": 39789,
  "tieron": 7653,
  "ties": 7175,
  "tif": 12320,
  "tifi": 9200,
  "tific": 1153,
  "tifica": 6434,
  "tificaciÃ³n": 5024,
  "tificada": 27844,
  "tificado": 7365,
  "tificados": 31498,
  "tificar": 7008,
  "tification": 36621,
  "tificia": 22914,
  "tiforme": 38557,
  "tiformes": 45700,
  "tify": 48707,
  "tig": 18852,
  "tiga": 6281,
  "tigar": 19470,
  "tigma": 22810,
  "tigmatismo": 27619,
  "tigmina": 40270,
  "tigo": 7308,
  "tigos": 31944,
  "tii": 45093,
  "til": 574,
  "tila": 13056,
  "tilaciÃ³n": 5990,
  "tilde": 40707,
  "tile": 29337,
  "tileno": 27079,
  "tiles": 6676,
  "tilidad": 4930,
  "tilina": 29533,
  "till": 19231,
  "tilla": 3668,
  "tillado": 31264,
  "tillas": 6209,
  "tillo": 6936,
  "tillos": 27639,
  "tilo": 13280,
  "tim": 4364,
  "tima": 4648,
  "timamente": 20429,
  "timar": 29831,
  "timas": 6826,
  "time": 32649,
  "timi": 6825,
  "timia": 35183,
  "timiba": 43875,
  "timiento": 30935,
  "timo": 7916,
  "timore": 33881,
  "timos": 8590,
  "tin": 519,
  "tina": 1360,
  "tinaciÃ³n": 43971,
  "tinal": 3597,
  "tinales": 7590,
  "tinamente": 21482,
  "tinas": 6996,
  "tine": 13307,
  "tinela": 22629,
  "tinencia": 6702,
  "tiner": 23607,
  "tines": 19452,
  "ting": 3125,
  "tington": 29286,
  "tini": 34568,
  "tinib": 11578,
  "tinina": 3656,
  "tino": 2200,
  "tinopatÃŃa": 43051,
  "tinos": 10996,
  "tio": 2838,
  "tion": 970,
  "tional": 3604,
  "tiones": 49189,
  "tionina": 42020,
  "tions": 3320,
  "tiop": 27058,
  "tioprina": 32810,
  "tios": 7053,
  "tious": 26487,
  "tipo": 5123,
  "tipos": 7665,
  "tique": 22980,
  "tiques": 42403,
  "tir": 757,
  "tira": 8660,
  "tiracetam": 38658,
  "tiras": 23067,
  "tires": 37181,
  "tiri": 29130,
  "tirizina": 37040,
  "tiro": 5121,
  "tiroidismo": 8657,
  "tirox": 24103,
  "tiroxina": 30855,
  "tirse": 25572,
  "tirÃ¡": 17015,
  "tis": 668,
  "tisis": 23932,
  "tism": 36048,
  "tismo": 2913,
  "tismos": 11013,
  "tista": 4402,
  "tistas": 5128,
  "tiste": 47850,
  "tit": 21736,
  "tita": 8352,
  "titas": 28904,
  "titis": 2569,
  "tito": 9035,
  "titos": 38648,
  "titu": 777,
  "tituciÃ³n": 17574,
  "titud": 3702,
  "titudes": 7089,
  "titudin": 49481,
  "tiu": 13078,
  "tium": 27633,
  "tius": 22046,
  "tiv": 364,
  "tiva": 635,
  "tivaciÃ³n": 18553,
  "tival": 7733,
  "tivales": 22960,
  "tivamente": 1843,
  "tivar": 21086,
  "tivas": 1009,
  "tive": 3190,
  "tively": 24399,
  "tiveness": 22784,
  "tives": 17400,
  "tividad": 1933,
  "tividade": 50254,
  "tividades": 28131,
  "tivismo": 29151,
  "tivista": 35405,
  "tivitis": 14720,
  "tivity": 25299,
  "tivo": 556,
  "tivos": 764,
  "tiz": 2627,
  "tiza": 8332,
  "tizaciones": 34491,
  "tizaciÃ³n": 8016,
  "tizada": 15741,
  "tizadas": 30213,
  "tizado": 11710,
  "tizados": 19093,
  "tizan": 27402,
  "tizando": 42035,
  "tizante": 28470,
  "tizantes": 42474,
  "tizar": 4584,
  "tizÃ³": 33520,
  "tiÃ©ndose": 15059,
  "tiÃ³": 3647,
  "tiÃ³n": 16487,
  "tl": 35308,
  "tle": 13860,
  "tles": 46347,
  "tm": 48000,
  "tman": 33111,
  "tment": 5777,
  "tn": 10371,
  "tnam": 28787,
  "tners": 40178,
  "to": 325,
  "tobacter": 42538,
  "toc": 2870,
  "tocina": 27732,
  "tock": 24416,
  "toclo": 20584,
  "toclopramida": 20784,
  "tod": 4051,
  "toda": 32073,
  "todas": 37408,
  "todo": 7770,
  "todos": 15127,
  "todÃ³n": 39326,
  "tografÃŃa": 26965,
  "tol": 5406,
  "tole": 27002,
  "toles": 20564,
  "tologia": 48089,
  "tology": 48772,
  "tologÃŃa": 4571,
  "tolÃ³gica": 43740,
  "tom": 686,
  "toma": 3056,
  "tomas": 1268,
  "tomatic": 42942,
  "tomatologÃŃa": 49855,
  "tome": 14119,
  "tomegal": 31028,
  "tomegalia": 31632,
  "tomegalovirus": 30345,
  "tometr": 38459,
  "tometrÃŃa": 26135,
  "tomia": 9696,
  "tomidina": 40766,
  "tomo": 10109,
  "tomografÃŃa": 38935,
  "tomos": 11984,
  "tomosis": 19537,
  "tomy": 16889,
  "tomÃ¡tica": 45804,
  "tomÃ¡tico": 48462,
  "tomÃŃa": 2322,
  "tomÃŃas": 17030,
  "ton": 1302,
  "tona": 16146,
  "tonas": 31379,
  "tonces": 9908,
  "tone": 15861,
  "tones": 5197,
  "tonia": 30672,
  "tonin": 33534,
  "tonina": 8846,
  "tonio": 36273,
  "tono": 36247,
  "tonos": 21407,
  "tonÃŃa": 14624,
  "top": 3467,
  "topenia": 32244,
  "topera": 6690,
  "topia": 40996,
  "topic": 50190,
  "topo": 33591,
  "topos": 30199,
  "toprazol": 27931,
  "topril": 38652,
  "topÃŃa": 43390,
  "tor": 396,
  "tora": 2153,
  "toral": 9117,
  "torales": 20121,
  "toras": 8551,
  "torax": 32461,
  "torce": 25540,
  "tore": 28399,
  "tores": 822,
  "tori": 5526,
  "toria": 1007,
  "torial": 3730,
  "toriales": 12754,
  "toriamente": 12289,
  "torias": 2523,
  "toriedad": 31092,
  "tories": 39641,
  "torio": 1189,
  "torios": 2291,
  "toris": 31745,
  "torn": 15818,
  "torno": 9132,
  "tornos": 20629,
  "toro": 35026,
  "torre": 24338,
  "torrique": 35937,
  "tors": 10113,
  "torvastatina": 17635,
  "tory": 7699,
  "torÃ¡ci": 13739,
  "torÃ¡cica": 29551,
  "torÃ¡cico": 18385,
  "torÃŃa": 13191,
  "tos": 374,
  "tosa": 6630,
  "tosas": 25070,
  "toscopia": 21775,
  "toscopio": 45551,
  "tosis": 5376,
  "toso": 18379,
  "tosos": 32079,
  "tosterona": 13665,
  "total": 24764,
  "town": 45537,
  "tox": 4828,
  "toxi": 30443,
  "toxic": 28743,
  "toxicaciÃ³n": 9373,
  "toxicar": 43798,
  "toxicidad": 15336,
  "toxina": 27399,
  "toxinas": 31578,
  "tr": 356,
  "tra": 465,
  "trabaj": 33303,
  "trabajo": 36514,
  "trac": 9435,
  "tracciones": 36265,
  "tracciÃ³n": 17719,
  "traci": 19474,
  "traciones": 9966,
  "traciÃ³n": 3218,
  "tract": 37756,
  "tractores": 39249,
  "trad": 26916,
  "trada": 6244,
  "tradas": 14671,
  "trado": 2046,
  "trador": 34670,
  "tradores": 43169,
  "trados": 5578,
  "traje": 20653,
  "trajes": 42652,
  "tral": 3106,
  "trales": 13675,
  "tralgia": 25229,
  "tralgias": 26082,
  "tralina": 29563,
  "trall": 42019,
  "tramos": 19415,
  "tran": 1900,
  "trand": 49806,
  "trando": 9074,
  "trang": 40403,
  "trans": 6455,
  "transfer": 19695,
  "transferasa": 24630,
  "trante": 19549,
  "trantes": 35893,
  "traque": 18230,
  "traqueal": 21199,
  "trar": 2882,
  "traron": 4866,
  "trarse": 16656,
  "trarÃ¡": 44341,
  "tras": 735,
  "traso": 29458,
  "trason": 38157,
  "trasplante": 21787,
  "trastorno": 48197,
  "tratamiento": 16083,
  "trate": 47454,
  "trateg": 8069,
  "trato": 7110,
  "tratos": 25949,
  "traum": 17394,
  "trauma": 31735,
  "tre": 1006,
  "trea": 26938,
  "tream": 49962,
  "trectomÃŃa": 38571,
  "trel": 44331,
  "tremia": 14315,
  "tren": 11391,
  "trength": 40825,
  "treo": 10637,
  "trepo": 44294,
  "tres": 6376,
  "tress": 15575,
  "tretino": 48692,
  "trex": 24689,
  "trexate": 47917,
  "trexato": 20079,
  "tri": 622,
  "tria": 7424,
  "trial": 29045,
  "triax": 12494,
  "triaxona": 12658,
  "trib": 1305,
  "tribu": 18886,
  "tribuciones": 29567,
  "tribuciÃ³n": 10863,
  "tric": 2811,
  "trica": 2503,
  "tricamente": 32268,
  "tricas": 5305,
  "tricciÃ³n": 20950,
  "trices": 7050,
  "trich": 45954,
  "tricia": 7643,
  "tricidad": 14246,
  "trick": 30921,
  "trico": 3085,
  "tricos": 4016,
  "trics": 17312,
  "tridium": 24495,
  "tries": 21114,
  "trigina": 46402,
  "triglicer": 30115,
  "trigliceridemia": 31884,
  "tril": 27660,
  "trillo": 39480,
  "trim": 47663,
  "trimo": 37604,
  "trimonio": 7471,
  "trimoxazol": 38654,
  "trin": 27247,
  "trina": 13112,
  "trinas": 35813,
  "tring": 10819,
  "trio": 6412,
  "triol": 42768,
  "trip": 20039,
  "tripsina": 46619,
  "triptilina": 36034,
  "tris": 36089,
  "tritis": 4179,
  "trito": 11774,
  "trix": 34420,
  "triz": 4149,
  "tro": 433,
  "trocin": 11620,
  "trofia": 6113,
  "trofias": 34719,
  "troke": 18651,
  "trol": 880,
  "trom": 12314,
  "tromb": 5164,
  "trombina": 6118,
  "tron": 6617,
  "trona": 21413,
  "trones": 6133,
  "trong": 24720,
  "tronic": 30972,
  "tronidazol": 24639,
  "tronomÃŃa": 18313,
  "trop": 4903,
  "tropina": 20279,
  "tropio": 30621,
  "tropo": 34205,
  "tropol": 17024,
  "tropolitana": 23028,
  "tropos": 45367,
  "tropÃŃa": 43183,
  "trorragia": 31603,
  "tros": 610,
  "trosa": 39180,
  "troscopia": 16197,
  "trosis": 8514,
  "troso": 38185,
  "trospec": 45499,
  "trozol": 43274,
  "tru": 6340,
  "truc": 1084,
  "trucciones": 7388,
  "trucciÃ³n": 2583,
  "tructiva": 8257,
  "truida": 42724,
  "truir": 15992,
  "trum": 3260,
  "trus": 30676,
  "try": 8560,
  "trÃ¡": 28043,
  "trÃ¡fico": 34634,
  "trÃ¡n": 18469,
  "trÃ¡ndose": 37595,
  "trÃ¡s": 5039,
  "trÃ©": 43625,
  "trÃ©s": 16054,
  "trÃ³": 1789,
  "trÃ³fica": 14180,
  "trÃ³ficas": 32498,
  "trÃ³fico": 24887,
  "trÃ³ficos": 41233,
  "trÃ³filos": 3339,
  "trÃ³geno": 15029,
  "trÃ³leo": 19719,
  "trÃ³n": 2413,
  "trÃ³pica": 45773,
  "trÃ³pico": 35261,
  "trÃ³picos": 32508,
  "trÃ¶m": 44016,
  "trÃŃa": 2113,
  "trÃŃas": 15747,
  "ts": 1571,
  "tsch": 46545,
  "tsu": 28177,
  "tt": 2318,
  "tta": 22611,
  "tte": 12118,
  "tted": 42988,
  "tter": 13602,
  "tti": 17268,
  "tting": 37982,
  "tto": 19799,
  "tton": 49246,
  "tty": 33935,
  "tu": 347,
  "tua": 11102,
  "tuaciÃ³": 19235,
  "tuaciÃ³n": 9858,
  "tual": 1793,
  "tuales": 3828,
  "tualidad": 17877,
  "tualizaciÃ³n": 28395,
  "tualmente": 3027,
  "tuando": 30803,
  "tuar": 15643,
  "tuario": 24621,
  "tubaciÃ³n": 33181,
  "tube": 17227,
  "tuber": 22245,
  "tubre": 3483,
  "tud": 1906,
  "tudes": 6926,
  "tudi": 535,
  "tudio": 15061,
  "tudy": 5105,
  "tul": 7727,
  "tula": 11067,
  "tulas": 17676,
  "tulia": 25919,
  "tulosa": 43697,
  "tum": 7724,
  "tumb": 7773,
  "tumbre": 16709,
  "tumor": 35339,
  "tumumab": 49375,
  "tun": 6824,
  "tuna": 19390,
  "tunadamente": 11721,
  "tuo": 39704,
  "tuosa": 21321,
  "tuosas": 39805,
  "tuoso": 17846,
  "tuosos": 30828,
  "tur": 908,
  "tura": 760,
  "turaciÃ³n": 8693,
  "turada": 30963,
  "turadas": 27880,
  "turado": 24670,
  "turados": 20486,
  "tural": 1588,
  "turales": 2909,
  "turalmente": 31144,
  "turan": 35721,
  "turar": 29440,
  "turas": 1776,
  "ture": 5851,
  "tures": 17188,
  "turi": 17914,
  "turia": 11045,
  "turias": 9627,
  "turidad": 27650,
  "turismo": 46084,
  "turista": 47265,
  "turo": 2751,
  "turos": 7386,
  "turÃŃ": 32722,
  "tus": 2169,
  "tusa": 36680,
  "tusiones": 34949,
  "tusiÃ³n": 24040,
  "tussis": 42759,
  "tuvieron": 8262,
  "tuvo": 4806,
  "tuximab": 18451,
  "tuzumab": 23346,
  "tv": 45037,
  "twitter": 28616,
  "tx": 29305,
  "ty": 4139,
  "tyle": 25969,
  "type": 26100,
  "types": 41590,
  "tz": 8526,
  "tza": 22820,
  "tzer": 37251,
  "tÃ¡": 2412,
  "tÃ¡ce": 26132,
  "tÃ¡ceos": 33396,
  "tÃ¡culo": 46622,
  "tÃ¡is": 45585,
  "tÃ¡l": 13910,
  "tÃ¡lamo": 22786,
  "tÃ¡menes": 50198,
  "tÃ¡mico": 43674,
  "tÃ¡micos": 30978,
  "tÃ¡n": 1499,
  "tÃ¡namo": 26682,
  "tÃ¡nd": 19123,
  "tÃ¡ndole": 41537,
  "tÃ¡ndolo": 42715,
  "tÃ¡ndose": 11969,
  "tÃ¡nea": 3718,
  "tÃ¡neamente": 9835,
  "tÃ¡neas": 17189,
  "tÃ¡neo": 7785,
  "tÃ¡neos": 18878,
  "tÃ¡nica": 36529,
  "tÃ¡nico": 39771,
  "tÃ¡s": 4208,
  "tÃ¡sico": 37072,
  "tÃ¡stasis": 7271,
  "tÃ¡stro": 25727,
  "tÃ¡tica": 23588,
  "tÃ¡ticas": 49001,
  "tÃ¡tico": 26964,
  "tÃ¡ticos": 27643,
  "tÃ©": 2762,
  "tÃ©cn": 25371,
  "tÃ©cnica": 35528,
  "tÃ©cnico": 48440,
  "tÃ©is": 44675,
  "tÃ©n": 18319,
  "tÃ©r": 9364,
  "tÃ©rico": 49836,
  "tÃ©rmica": 14416,
  "tÃ©rmino": 24833,
  "tÃ©s": 9648,
  "tÃ©ter": 6030,
  "tÃ©tica": 8369,
  "tÃ©ticas": 33961,
  "tÃ©tico": 33313,
  "tÃ²": 31255,
  "tÃ²ria": 44566,
  "tÃ³": 1392,
  "tÃ³fano": 33832,
  "tÃ³logo": 44086,
  "tÃ³logos": 46765,
  "tÃ³n": 2645,
  "tÃ³nica": 21021,
  "tÃ³nicas": 27491,
  "tÃ³nico": 22220,
  "tÃ³nicos": 26776,
  "tÃ³pica": 14902,
  "tÃ³picas": 48373,
  "tÃ³pico": 20713,
  "tÃ³picos": 42567,
  "tÃ³rax": 10196,
  "tÃ³rica": 37098,
  "tÃ³s": 47084,
  "tÃ³x": 16683,
  "tÃ³xica": 38865,
  "tÃ³xico": 33287,
  "tÃ³xicos": 23849,
  "tÃº": 12933,
  "tÃºa": 5075,
  "tÃºan": 7169,
  "tÃºe": 41972,
  "tÃł": 27700,
  "tÃŃ": 2584,
  "tÃŃa": 6201,
  "tÃŃan": 21436,
  "tÃŃas": 12265,
  "tÃŃcolis": 48905,
  "tÃŃcul": 1454,
  "tÃŃcula": 21977,
  "tÃŃculas": 7210,
  "tÃŃculo": 9034,
  "tÃŃculos": 13975,
  "tÃŃlico": 47146,
  "tÃŃn": 2417,
  "tÃŃnica": 31103,
  "u": 88,
  "ua": 6268,
  "uaciÃ³n": 32531,
  "uada": 32548,
  "uado": 27712,
  "uados": 48314,
  "uaga": 43931,
  "ual": 1161,
  "uales": 2236,
  "ualidad": 7689,
  "ualmente": 6586,
  "uan": 19400,
  "uar": 28209,
  "uario": 38327,
  "uas": 25731,
  "uato": 38923,
  "ub": 3829,
  "uber": 47541,
  "ubi": 29051,
  "uble": 26858,
  "ubr": 36407,
  "uc": 390,
  "uca": 10807,
  "ucal": 17373,
  "ucalip": 40342,
  "ucar": 11624,
  "ucas": 40137,
  "ucci": 45833,
  "ucciÃ³n": 14694,
  "uce": 12826,
  "uces": 14103,
  "uch": 625,
  "ucha": 9442,
  "uchar": 50167,
  "uchas": 17269,
  "uche": 27285,
  "ucher": 41554,
  "uches": 49975,
  "uchi": 32804,
  "ucho": 15566,
  "uchos": 25382,
  "uci": 15864,
  "ucidad": 26010,
  "uciones": 8136,
  "uciÃ³n": 855,
  "uck": 22862,
  "ucker": 49100,
  "ucle": 4308,
  "uclear": 20288,
  "ucleares": 30313,
  "uco": 12315,
  "ucocitos": 3298,
  "ucos": 15465,
  "ucristo": 31349,
  "ucÃŃa": 5788,
  "ud": 508,
  "uda": 1432,
  "udad": 1600,
  "udades": 7111,
  "udado": 25014,
  "udal": 16449,
  "udar": 18718,
  "udas": 11317,
  "ude": 7647,
  "uden": 12951,
  "udes": 37531,
  "udi": 18887,
  "udina": 20271,
  "uding": 30431,
  "udo": 2831,
  "udos": 13496,
  "udul": 46000,
  "udÃŃ": 24700,
  "ue": 285,
  "ueba": 8722,
  "uebas": 15948,
  "ueble": 27559,
  "uebles": 13089,
  "uega": 19733,
  "uego": 1769,
  "uegos": 6955,
  "uel": 1033,
  "uela": 2171,
  "uelas": 4772,
  "uelen": 19351,
  "uello": 4368,
  "uelo": 5539,
  "uelos": 10972,
  "uelta": 19117,
  "ueltas": 39049,
  "uelto": 20538,
  "ueltos": 32332,
  "uelva": 18641,
  "uelve": 15440,
  "uelven": 29997,
  "uen": 888,
  "uena": 11878,
  "uentes": 43690,
  "uer": 603,
  "uera": 20901,
  "ueras": 41595,
  "uerca": 40624,
  "uerdo": 22595,
  "uero": 24522,
  "uerpo": 33565,
  "uerra": 4086,
  "uerta": 24991,
  "uertas": 39027,
  "uerte": 14992,
  "uerto": 14623,
  "uertos": 26759,
  "uerzo": 16108,
  "uerzos": 43681,
  "ues": 446,
  "uesa": 45420,
  "uesta": 4026,
  "uestas": 46121,
  "uestion": 12963,
  "uestionario": 20570,
  "uesto": 19850,
  "uestra": 3837,
  "uestras": 14893,
  "uestro": 5540,
  "uestros": 8617,
  "ueta": 16998,
  "ueto": 28204,
  "uev": 685,
  "ueva": 9684,
  "uevan": 27741,
  "uevara": 24739,
  "uevas": 17456,
  "ueve": 5104,
  "ueven": 13890,
  "ueves": 7817,
  "uevo": 24717,
  "uevos": 36245,
  "uey": 37516,
  "uez": 22881,
  "uf": 16720,
  "uficiencia": 9408,
  "ug": 4973,
  "uga": 21379,
  "ugh": 9201,
  "uginosa": 20165,
  "ugios": 48273,
  "ui": 15486,
  "uida": 15428,
  "uidad": 30459,
  "uidas": 21517,
  "uido": 3731,
  "uidos": 13873,
  "uimos": 27954,
  "uir": 1576,
  "uis": 49708,
  "ujo": 29295,
  "uk": 14197,
  "ul": 328,
  "ula": 1076,
  "ulacion": 26779,
  "ulaciones": 5294,
  "ulaciÃ³": 38591,
  "ulaciÃ³n": 1575,
  "ulada": 6122,
  "uladas": 28744,
  "ulado": 5301,
  "ulador": 21654,
  "uladora": 42192,
  "uladores": 24417,
  "ulados": 13735,
  "ulan": 19684,
  "ulando": 30102,
  "ulante": 31507,
  "ulantes": 31256,
  "ular": 666,
  "ulares": 2036,
  "ulario": 21364,
  "ulas": 1203,
  "ulata": 47470,
  "ulation": 9980,
  "ulcor": 22223,
  "uld": 12475,
  "ule": 16700,
  "ules": 30284,
  "ulf": 28839,
  "uli": 22367,
  "ulin": 23524,
  "ulina": 3430,
  "ulinas": 19272,
  "ulinemia": 29874,
  "ulio": 3358,
  "ulipas": 46516,
  "ulis": 44556,
  "ulitis": 9101,
  "ull": 10135,
  "ulla": 30096,
  "ullivan": 45384,
  "ullo": 11438,
  "ulmonar": 32286,
  "ulo": 1424,
  "uloma": 41770,
  "ulonefritis": 32318,
  "ulopatÃŃa": 16101,
  "ulopatÃŃas": 29075,
  "uloplastia": 43037,
  "ulos": 2227,
  "ulosa": 17272,
  "ulosas": 34330,
  "ulosina": 32607,
  "ulosis": 36138,
  "uloso": 20398,
  "ulosos": 47293,
  "uloxetina": 38236,
  "uls": 2578,
  "ulsa": 35634,
  "ulsivo": 30091,
  "ulsiÃ³n": 18264,
  "ult": 16575,
  "ulta": 1357,
  "ultad": 2515,
  "ultades": 4001,
  "ultado": 13681,
  "ultados": 19793,
  "ultura": 5706,
  "ulum": 30893,
  "ulÃ³": 28451,
  "um": 426,
  "uma": 2324,
  "umab": 6357,
  "umador": 13424,
  "umadora": 23614,
  "uman": 12741,
  "umar": 15008,
  "umarol": 25570,
  "umas": 21009,
  "umat": 8176,
  "umato": 9287,
  "umatoide": 10384,
  "umatologÃŃa": 6682,
  "umbar": 40622,
  "umberg": 29974,
  "umbilical": 34125,
  "umbre": 10232,
  "umbres": 12660,
  "ume": 6504,
  "umen": 2327,
  "umento": 6245,
  "umentos": 22285,
  "umer": 11286,
  "umi": 7859,
  "umin": 7520,
  "umina": 20495,
  "uminal": 42630,
  "uminar": 45103,
  "uminis": 42512,
  "uminosas": 41074,
  "uminuria": 24361,
  "umir": 4609,
  "umo": 1505,
  "umologÃŃa": 11033,
  "umon": 3756,
  "umonia": 9594,
  "umonÃŃa": 5371,
  "umos": 14555,
  "ump": 21673,
  "umption": 25815,
  "un": 289,
  "una": 3281,
  "unaciÃ³n": 43661,
  "unal": 33379,
  "unar": 17494,
  "unares": 45674,
  "unas": 7633,
  "unca": 2841,
  "unci": 3956,
  "uncia": 9934,
  "unciones": 20756,
  "unciÃ³": 28548,
  "unciÃ³n": 12006,
  "und": 1100,
  "unda": 11789,
  "undaciÃ³n": 13715,
  "undamente": 15523,
  "undan": 49426,
  "undante": 21888,
  "undantes": 31571,
  "undation": 19381,
  "unders": 26615,
  "undi": 38178,
  "unding": 44978,
  "undo": 23722,
  "unds": 35912,
  "une": 22293,
  "unes": 18837,
  "ung": 7979,
  "ungun": 24591,
  "ungunya": 24983,
  "uni": 34343,
  "unia": 45856,
  "unicaciones": 25263,
  "unicaciÃ³n": 47263,
  "unidad": 17418,
  "unidades": 32507,
  "uniden": 6004,
  "unidense": 29452,
  "univers": 27867,
  "unning": 31783,
  "uno": 4756,
  "unomida": 48962,
  "unos": 18899,
  "unque": 1050,
  "uns": 25241,
  "unt": 17301,
  "unta": 2986,
  "untades": 35529,
  "untamiento": 9561,
  "untamientos": 26564,
  "unto": 1065,
  "untos": 7519,
  "untuaciÃ³": 35123,
  "untura": 23625,
  "unya": 13594,
  "uo": 14091,
  "uos": 9282,
  "up": 2917,
  "uper": 39127,
  "uplo": 38123,
  "upne": 6458,
  "uppl": 28830,
  "ups": 19615,
  "ur": 398,
  "ura": 1834,
  "uracilo": 46787,
  "uraciÃ³n": 9660,
  "urada": 27975,
  "urado": 22335,
[...]
