{
  "!": 4,
  "!!": 2545,
  "!!!": 7680,
  "!!!!": 10423,
  "!!!!!": 33779,
  "!!!!!!!!": 31699,
  "!\"": 38101,
  "!\".": 50301,
  "!)": 41393,
  "!,": 20923,
  "!.": 21459,
  "\"": 5,
  "\"\"": 45118,
  "\"(": 39834,
  "\")": 12689,
  "\"),": 20498,
  "\").": 16847,
  "\",": 869,
  "\".": 959,
  "\"...": 36610,
  "\":": 16854,
  "\";": 14672,
  "\"?": 30554,
  "#": 6,
  "$": 7,
  "%": 8,
  "%(": 48054,
  "%)": 2308,
  "%),": 4229,
  "%).": 4857,
  "%):": 44458,
  "%);": 20766,
  "%,": 2797,
  "%-": 24917,
  "%.": 2909,
  "%/": 48110,
  "%:": 11720,
  "%;": 10026,
  "&": 9,
  "'": 10,
  "''": 10599,
  "''''": 37634,
  "'',": 43319,
  "')": 24181,
  "'),": 44475,
  "',": 3851,
  "','": 26654,
  "'-": 35676,
  "'.": 6255,
  "':": 44245,
  "';": 41625,
  "'s": 6152,
  "'t": 40417,
  "(": 11,
  "(...)": 10482,
  "(>=": 31305,
  ")": 12,
  ")\"": 33549,
  ")\",": 32964,
  ")\".": 32855,
  ")&": 45565,
  ")(": 498,
  "))": 28657,
  ")*": 42017,
  ")**": 42162,
  "),": 601,
  ")-": 8578,
  ")-,": 45397,
  ").": 531,
  ").-": 14690,
  ")..": 23879,
  ")...": 34371,
  ").âĢĵ": 33909,
  ")/": 26983,
  "):": 1107,
  "):.": 17313,
  ");": 3025,
  ")=": 49711,
  ")?": 27088,
  ")]": 43636,
  "*": 13,
  "*)": 30735,
  "**": 5567,
  "***": 38459,
  "****": 19813,
  "********": 37933,
  "*,": 25454,
  "+": 14,
  "+)": 35411,
  "++": 12392,
  "++++": 47695,
  "+,": 15156,
  "+.": 21706,
  "+/": 27855,
  ",": 15,
  ",\"": 15290,
  ",'": 20336,
  ",(": 25556,
  ",,": 8226,
  ",,,": 41769,
  ",,,,": 34492,
  ",.": 10072,
  ",...": 24029,
  ",...)": 41285,
  "-": 16,
  "-(": 12183,
  "-)": 25885,
  "-).": 49242,
  "-,": 7147,
  "--": 1901,
  "--,": 27715,
  "---": 36948,
  "----": 4012,
  "--------": 7005,
  "----------------": 12306,
  "--------------------------------": 23129,
  "--.": 23721,
  "-->": 16545,
  "-.": 14033,
  "-;": 35327,
  "->": 26725,
  "-[": 31894,
  ".": 17,
  ".\"": 7090,
  ".'": 24806,
  ".(": 14171,
  ".)": 5548,
  ".),": 10891,
  ".).": 9937,
  ".):": 35474,
  ".*": 37254,
  ".,": 1526,
  ".-": 2496,
  "..": 545,
  "..)": 36043,
  "..-": 21352,
  "...": 1228,
  "...\"": 14970,
  "...\",": 49874,
  "...\".": 39200,
  "...)": 5973,
  "...),": 20126,
  "...).": 14959,
  "...,": 19847,
  "....": 1426,
  ".....": 13271,
  "......": 7765,
  ".......": 28312,
  "........": 3335,
  ".........": 38476,
  "................": 6246,
  "........................": 50064,
  "................................": 11563,
  "................................................................": 23586,
  "...?": 47092,
  "...]": 5757,
  "./": 24283,
  ".:": 5335,
  ".;": 9671,
  ".?": 20012,
  ".[": 13383,
  ".Â»": 27477,
  ".âĢ¢": 46236,
  ".âĢĵ": 45171,
  "/": 18,
  "/-": 17815,
  "/.": 30530,
  "//": 2687,
  "0": 19,
  "00": 431,
  "000": 913,
  "0000": 38503,
  "0001": 19857,
  "001": 6907,
  "002": 24085,
  "003": 26166,
  "004": 28136,
  "005": 24089,
  "006": 32103,
  "007": 33357,
  "008": 31411,
  "009": 38953,
  "01": 4296,
  "010": 47465,
  "011": 44671,
  "012": 46491,
  "013": 46549,
  "014": 46877,
  "015": 45380,
  "016": 48210,
  "02": 4550,
  "03": 3108,
  "04": 2919,
  "05": 3342,
  "06": 4941,
  "07": 4716,
  "08": 5049,
  "09": 4668,
  "1": 20,
  "10": 1115,
  "100": 4739,
  "1000": 1338,
  "101": 17894,
  "1016": 26326,
  "102": 16985,
  "103": 18476,
  "104": 17545,
  "105": 15751,
  "106": 19651,
  "107": 21251,
  "108": 10193,
  "109": 20762,
  "11": 1494,
  "110": 14538,
  "111": 21481,
  "1111": 49116,
  "112": 15690,
  "113": 23393,
  "114": 21640,
  "115": 22636,
  "116": 16502,
  "117": 23685,
  "1172": 29652,
  "118": 24254,
  "119": 22902,
  "12": 1183,
  "120": 13484,
  "121": 5177,
  "122": 22717,
  "123": 13477,
  "124": 23574,
  "1240": 33206,
  "1242": 43594,
  "125": 13558,
  "126": 22087,
  "127": 23915,
  "128": 24133,
  "129": 17673,
  "13": 1808,
  "130": 18451,
  "131": 21277,
  "132": 24393,
  "133": 25517,
  "134": 26091,
  "135": 23845,
  "136": 26920,
  "137": 26258,
  "138": 17691,
  "1388": 25000,
  "139": 25261,
  "14": 1784,
  "140": 16269,
  "141": 22612,
  "142": 15567,
  "143": 26808,
  "144": 26787,
  "145": 23592,
  "146": 19930,
  "147": 28813,
  "148": 29789,
  "149": 22980,
  "15": 1643,
  "150": 15344,
  "151": 19877,
  "152": 16926,
  "153": 24748,
  "1536": 18337,
  "154": 30353,
  "155": 21200,
  "156": 20486,
  "157": 20329,
  "158": 25734,
  "159": 25606,
  "16": 1972,
  "160": 18775,
  "1607": 27011,
  "161": 33001,
  "162": 29984,
  "163": 34012,
  "164": 34777,
  "165": 34050,
  "166": 35967,
  "167": 35350,
  "168": 35066,
  "169": 38514,
  "17": 1945,
  "170": 29960,
  "171": 33209,
  "172": 30749,
  "173": 37958,
  "174": 36107,
  "175": 36222,
  "1758": 19922,
  "176": 34129,
  "177": 38002,
  "178": 37440,
  "179": 37168,
  "18": 1942,
  "180": 21808,
  "181": 34088,
  "182": 39657,
  "183": 38572,
  "184": 37492,
  "185": 36801,
  "186": 40937,
  "187": 38212,
  "188": 41071,
  "189": 38139,
  "19": 1282,
  "190": 31597,
  "191": 29028,
  "192": 22652,
  "193": 33791,
  "194": 42955,
  "195": 37818,
  "196": 39807,
  "197": 40772,
  "1979": 50897,
  "198": 37917,
  "1980": 44040,
  "1982": 42605,
  "1983": 44395,
  "1984": 39947,
  "1985": 36422,
  "1986": 32825,
  "1987": 39110,
  "1988": 35995,
  "1989": 33889,
  "199": 38318,
  "1990": 27039,
  "1991": 30673,
  "1992": 25496,
  "1993": 26627,
  "1994": 24119,
  "1995": 21762,
  "1996": 22247,
  "1997": 20413,
  "1998": 19178,
  "1999": 16299,
  "2": 21,
  "20": 715,
  "200": 2348,
  "2000": 14118,
  "2001": 15923,
  "2002": 12576,
  "2003": 13274,
  "2004": 13454,
  "2005": 12501,
  "2006": 11297,
  "2007": 11258,
  "2008": 11518,
  "2009": 10938,
  "201": 26459,
  "2010": 10107,
  "2011": 10605,
  "2012": 9796,
  "2013": 10525,
  "2014": 11047,
  "2015": 10373,
  "2016": 11475,
  "2017": 8725,
  "2018": 8874,
  "2019": 8149,
  "202": 27071,
  "2020": 2016,
  "203": 37423,
  "204": 34145,
  "205": 35977,
  "206": 35128,
  "207": 39683,
  "208": 38467,
  "209": 38411,
  "2094": 9512,
  "21": 3262,
  "210": 32694,
  "2108": 13891,
  "211": 40323,
  "212": 39390,
  "2123": 19149,
  "213": 43780,
  "214": 42939,
  "215": 42089,
  "216": 40678,
  "217": 47301,
  "218": 44318,
  "219": 45172,
  "22": 3001,
  "220": 31449,
  "221": 42768,
  "222": 39193,
  "223": 40806,
  "224": 37963,
  "225": 37352,
  "226": 43772,
  "227": 43764,
  "228": 45681,
  "229": 44373,
  "23": 3319,
  "230": 34144,
  "231": 45502,
  "232": 43350,
  "233": 43792,
  "234": 44913,
  "235": 43052,
  "236": 43122,
  "237": 41443,
  "238": 42602,
  "239": 43623,
  "24": 2319,
  "240": 33290,
  "241": 49484,
  "242": 44972,
  "243": 33356,
  "244": 37102,
  "245": 42848,
  "246": 45534,
  "247": 44543,
  "248": 46681,
  "249": 45548,
  "25": 2647,
  "250": 19727,
  "252": 47206,
  "253": 44471,
  "254": 45363,
  "255": 48803,
  "256": 44646,
  "257": 50817,
  "258": 47673,
  "259": 50554,
  "26": 3352,
  "260": 41387,
  "261": 50866,
  "262": 50999,
  "264": 50435,
  "265": 46733,
  "266": 28076,
  "267": 50322,
  "268": 48341,
  "269": 50536,
  "27": 2195,
  "270": 42521,
  "273": 48332,
  "2733": 6817,
  "2738": 6976,
  "275": 48281,
  "276": 49607,
  "277": 51309,
  "278": 51614,
  "279": 48596,
  "28": 3423,
  "280": 37645,
  "281": 45266,
  "282": 47015,
  "283": 51118,
  "285": 48639,
  "287": 51937,
  "289": 51598,
  "29": 3673,
  "290": 44264,
  "292": 51876,
  "295": 51034,
  "299": 49162,
  "3": 22,
  "30": 2225,
  "300": 11957,
  "301": 41077,
  "302": 41442,
  "303": 46031,
  "304": 45143,
  "305": 46594,
  "306": 46366,
  "307": 50504,
  "308": 46484,
  "309": 51418,
  "31": 4503,
  "310": 45895,
  "312": 50774,
  "3121": 6134,
  "32": 4514,
  "320": 40707,
  "325": 29311,
  "33": 2847,
  "330": 45671,
  "332": 51370,
  "333": 50045,
  "334": 49797,
  "335": 51841,
  "336": 47689,
  "34": 4139,
  "340": 46432,
  "344": 51633,
  "345": 47581,
  "35": 3963,
  "350": 36407,
  "36": 3087,
  "360": 40782,
  "365": 48048,
  "37": 4340,
  "370": 50215,
  "38": 2993,
  "380": 45308,
  "39": 4732,
  "399": 50910,
  "4": 23,
  "40": 3183,
  "400": 13701,
  "41": 5648,
  "415": 44378,
  "42": 5374,
  "420": 46984,
  "43": 5550,
  "44": 4854,
  "45": 4367,
  "450": 22152,
  "46": 5325,
  "47": 5797,
  "48": 5085,
  "49": 5665,
  "5": 24,
  "50": 1979,
  "500": 8081,
  "508": 51041,
  "51": 6457,
  "52": 6350,
  "53": 5982,
  "54": 6322,
  "540": 49780,
  "55": 5530,
  "56": 5021,
  "561": 15444,
  "57": 6426,
  "58": 5471,
  "59": 5954,
  "6": 25,
  "60": 3826,
  "600": 15643,
  "61": 6275,
  "62": 6338,
  "63": 6551,
  "64": 6210,
  "65": 5121,
  "650": 49712,
  "66": 5974,
  "67": 6325,
  "68": 2818,
  "69": 5411,
  "7": 26,
  "70": 2944,
  "700": 21025,
  "71": 4058,
  "72": 2705,
  "73": 5303,
  "74": 5218,
  "75": 3452,
  "750": 47405,
  "76": 3235,
  "77": 5989,
  "78": 5519,
  "79": 3638,
  "8": 27,
  "80": 3565,
  "800": 16500,
  "81": 3936,
  "82": 3714,
  "824": 42259,
  "83": 5739,
  "84": 6866,
  "85": 3756,
  "850": 49366,
  "86": 3708,
  "87": 4522,
  "88": 4729,
  "89": 6642,
  "9": 28,
  "90": 4239,
  "900": 26540,
  "905": 47055,
  "91": 7287,
  "92": 6593,
  "93": 6944,
  "936": 32725,
  "94": 4570,
  "95": 4189,
  "96": 6123,
  "97": 6402,
  "98": 6039,
  "99": 5179,
  ":": 29,
  ":\"": 41412,
  ":'": 21260,
  ":(": 47176,
  ":)": 24966,
  ":-": 36441,
  ":.": 1839,
  "://": 2744,
  "::": 15310,
  ":?": 47362,
  ";": 30,
  ";)": 35840,
  "<": 31,
  "</s>": 2,
  "<mask>": 51999,
  "<pad>": 1,
  "<s>": 0,
  "<unk>": 3,
  "=": 32,
  "=\"": 38997,
  "=.": 42495,
  "==": 7718,
  "====": 12688,
  "========": 20771,
  "================": 35089,
  ">": 33,
  ">=": 24959,
  "?": 34,
  "?\"": 20203,
  "?\",": 27746,
  "?\".": 28663,
  "?)": 24790,
  "?).": 36303,
  "?,": 8452,
  "?.": 8451,
  "?...": 39437,
  "?:": 20290,
  "?;": 45578,
  "??": 3866,
  "???": 16645,
  "????": 10773,
  "????????": 27851,
  "?Â¿": 32757,
  "@": 35,
  "A": 36,
  "AA": 12254,
  "AB": 4622,
  "ABLE": 18274,
  "ABVD": 38899,
  "AC": 1937,
  "ACA": 22465,
  "ACC": 46445,
  "ACCIÃĵN": 49913,
  "ACE": 9802,
  "ACEST": 46774,
  "ACEU": 28334,
  "ACHE": 40126,
  "ACI": 19452,
  "ACIDAD": 45357,
  "ACION": 9531,
  "ACIÃĵN": 8961,
  "ACO": 21470,
  "ACR": 47290,
  "ACS": 31998,
  "ACT": 44160,
  "ACV": 40015,
  "AD": 1482,
  "ADA": 6499,
  "ADAMENTE": 49373,
  "ADAS": 16704,
  "ADE": 31541,
  "ADH": 39464,
  "ADN": 39134,
  "ADO": 5366,
  "ADOR": 19166,
  "ADORA": 51989,
  "ADORES": 28357,
  "ADOS": 11667,
  "ADS": 38450,
  "AE": 27619,
  "AEC": 32274,
  "AECC": 45687,
  "AEMPS": 32447,
  "AEP": 30482,
  "AES": 35841,
  "AF": 13281,
  "AG": 8528,
  "AGUL": 16769,
  "AHA": 45654,
  "AI": 28119,
  "AINE": 49029,
  "AL": 1340,
  "ALA": 27291,
  "ALAT": 41459,
  "ALES": 8121,
  "ALL": 37870,
  "ALT": 28331,
  "ALU": 30406,
  "ALUD": 45501,
  "AM": 2064,
  "AMA": 14493,
  "AME": 22999,
  "AMENTE": 14019,
  "AMIENTO": 19543,
  "AMOS": 27109,
  "AMP": 46817,
  "AN": 1586,
  "ANA": 14087,
  "ANAS": 40837,
  "ANCIA": 42589,
  "AND": 24102,
  "ANDA": 27458,
  "ANDO": 13880,
  "ANE": 51405,
  "ANG": 39604,
  "ANO": 15498,
  "ANOS": 28715,
  "ANT": 46977,
  "ANTE": 11481,
  "ANTES": 13729,
  "AP": 2283,
  "APA": 36726,
  "APS": 19735,
  "AR": 1226,
  "ARA": 11503,
  "ARC": 24033,
  "ARD": 16272,
  "ARDIA": 23265,
  "ARE": 44599,
  "ARES": 31315,
  "ARG": 50178,
  "ARI": 35188,
  "ARIA": 14476,
  "ARIO": 14075,
  "ARIOS": 36794,
  "ARMA": 23126,
  "ARN": 29453,
  "ARO": 48563,
  "ARR": 26637,
  "ARROL": 38891,
  "ARSE": 43304,
  "ART": 29152,
  "AS": 1159,
  "ASA": 15579,
  "ASE": 22731,
  "ASEST": 30886,
  "ASO": 51595,
  "ASP": 30136,
  "AST": 22541,
  "AT": 3004,
  "ATOR": 26048,
  "ATOS": 15359,
  "ATP": 42655,
  "ATS": 48396,
  "ATÃįA": 30589,
  "AU": 4627,
  "AV": 25668,
  "Ab": 25320,
  "Ac": 11318,
  "Actualmente": 46833,
  "Acu": 24947,
  "Acude": 42990,
  "Ad": 17934,
  "Ade": 24356,
  "AdemÃ¡s": 27300,
  "Adminis": 39812,
  "Af": 23242,
  "Afebril": 27432,
  "Ag": 25307,
  "Agu": 51823,
  "Ahora": 28241,
  "Al": 6598,
  "Alb": 51791,
  "Ale": 25960,
  "Alemania": 33945,
  "Alic": 50978,
  "Alicante": 51092,
  "All": 31942,
  "Am": 33721,
  "Americ": 17897,
  "American": 19371,
  "An": 8365,
  "Ana": 40637,
  "Anal": 29287,
  "AnalÃŃtica": 41821,
  "Ane": 33119,
  "Anexo": 42830,
  "Ante": 33234,
  "Antecedentes": 49846,
  "Antes": 50972,
  "Anti": 48665,
  "AnÃ¡lisis": 46995,
  "Ap": 38056,
  "App": 39654,
  "Ar": 10156,
  "Arg": 23477,
  "Argentina": 40634,
  "As": 8296,
  "AsociaciÃ³n": 26934,
  "AsÃŃ": 38325,
  "AtenciÃ³n": 45050,
  "Au": 44993,
  "Aunque": 23636,
  "Aus": 43335,
  "Ay": 34881,
  "B": 37,
  "BA": 7960,
  "BAL": 49517,
  "BAR": 45199,
  "BAS": 28269,
  "BB": 32485,
  "BC": 17308,
  "BD": 19332,
  "BE": 13388,
  "BER": 20177,
  "BETES": 36413,
  "BI": 14198,
  "BIEN": 23516,
  "BILIDAD": 45271,
  "BIO": 31130,
  "BL": 12680,
  "BLE": 14675,
  "BLES": 28577,
  "BLO": 46676,
  "BM": 38602,
  "BN": 17702,
  "BNP": 16992,
  "BO": 21852,
  "BOE": 49013,
  "BOL": 48260,
  "BP": 9424,
  "BR": 17656,
  "BRE": 42077,
  "BS": 15711,
  "BT": 42106,
  "BU": 37538,
  "Ba": 26508,
  "Bal": 47363,
  "Ban": 48912,
  "Bar": 15912,
  "Barc": 39950,
  "Barcelona": 22484,
  "Barr": 41284,
  "BarrÃ©": 44791,
  "Bas": 31964,
  "Be": 42431,
  "Ber": 34036,
  "Bi": 37363,
  "Bil": 45522,
  "Bio": 27691,
  "Bl": 48778,
  "Blan": 46878,
  "Bo": 25459,
  "Bol": 33478,
  "Br": 33493,
  "Bra": 40768,
  "Bras": 40188,
  "Brasil": 42564,
  "Bri": 44663,
  "Bro": 46169,
  "Buen": 25427,
  "Bur": 39865,
  "Bus": 41772,
  "C": 38,
  "CA": 4033,
  "CAA": 18706,
  "CAD": 50366,
  "CAL": 32084,
  "CAM": 20075,
  "CAN": 26851,
  "CAP": 25973,
  "CAR": 18363,
  "CARDIO": 48136,
  "CAS": 35531,
  "CAT": 49814,
  "CB": 44367,
  "CC": 10089,
  "CD": 7983,
  "CDC": 27260,
  "CE": 6357,
  "CED": 51412,
  "CEE": 27092,
  "CEL": 33565,
  "CEM": 30821,
  "CEMFE": 35201,
  "CEN": 30514,
  "CEP": 29226,
  "CER": 18027,
  "CERMI": 51607,
  "CES": 25998,
  "CETAMOL": 25175,
  "CF": 37852,
  "CG": 13379,
  "CGH": 40416,
  "CH": 5878,
  "CHA": 38174,
  "CHO": 42741,
  "CI": 897,
  "CIA": 5406,
  "CIAL": 10799,
  "CIAS": 10660,
  "CIBER": 31606,
  "CIC": 46053,
  "CICO": 44070,
  "CID": 26549,
  "CIDO": 43209,
  "CIE": 38126,
  "CIII": 35709,
  "CIL": 30844,
  "CIM": 26176,
  "CIMIENTO": 38562,
  "CIN": 26301,
  "CINOMA": 39186,
  "CIO": 15752,
  "CION": 2276,
  "CIONAL": 19447,
  "CIONES": 7095,
  "CIOS": 25235,
  "CIP": 21458,
  "CIR": 39316,
  "CIS": 26994,
  "CIÃĵ": 44478,
  "CIÃĵN": 2811,
  "CK": 30027,
  "CL": 5855,
  "CLA": 28481,
  "CLC": 48826,
  "CLUS": 11824,
  "CM": 1912,
  "CMI": 46419,
  "CN": 12352,
  "CNAE": 27491,
  "CO": 2619,
  "COCEMFE": 51803,
  "COF": 51136,
  "COL": 46312,
  "COM": 19305,
  "CON": 13584,
  "CONS": 42421,
  "COO": 19995,
  "COP": 40368,
  "COR": 24325,
  "COS": 37749,
  "COV": 21840,
  "COVID": 24957,
  "CP": 7834,
  "CR": 2101,
  "CRE": 28338,
  "CS": 6782,
  "CSF": 32860,
  "CSIC": 21218,
  "CT": 6161,
  "CTO": 44154,
  "CU": 15732,
  "CUEN": 47570,
  "CUL": 50858,
  "CULAR": 23780,
  "CUR": 47066,
  "CV": 20240,
  "CY": 49831,
  "Ca": 13289,
  "Cab": 44937,
  "Cada": 33714,
  "Caixa": 48335,
  "Cal": 19550,
  "Cam": 25265,
  "Can": 16832,
  "CanadÃ¡": 45934,
  "Cap": 39319,
  "Car": 11584,
  "Cardi": 50987,
  "Cardio": 47209,
  "Care": 25240,
  "Carlos": 45473,
  "Cas": 18533,
  "Ce": 47065,
  "Centro": 23117,
  "Cer": 38445,
  "Ch": 15730,
  "Cha": 31197,
  "Chapter": 42676,
  "Chi": 44484,
  "Chile": 50600,
  "Ci": 23523,
  "Ciru": 36798,
  "CirugÃŃa": 40399,
  "Ciudad": 36010,
  "Cl": 26106,
  "Cla": 41598,
  "Clas": 42125,
  "Clin": 39644,
  "Co": 7110,
  "CoA": 46220,
  "CoV": 11300,
  "Col": 16341,
  "Cola": 51641,
  "Colombia": 35587,
  "Com": 11202,
  "Como": 21213,
  "Comple": 51355,
  "Con": 4648,
  "Conclusiones": 29516,
  "Cono": 35398,
  "Cons": 11490,
  "Consciente": 45642,
  "Constantes": 51534,
  "Consulta": 49047,
  "Consultado": 29191,
  "Contin": 44123,
  "Control": 22463,
  "Cor": 22667,
  "Cos": 48449,
  "Cov": 46062,
  "Cr": 22184,
  "Cre": 24819,
  "Crea": 44551,
  "Creo": 35478,
  "Cruz": 50488,
  "Cs": 39462,
  "Ctes": 40666,
  "Cu": 5099,
  "Cual": 39670,
  "Cuando": 16204,
  "Cuba": 37851,
  "Cur": 34067,
  "Curso": 45541,
  "CuÃ¡l": 9602,
  "CuÃ¡les": 16925,
  "CuÃ¡n": 20899,
  "CuÃ¡ndo": 28205,
  "CuÃ¡ntas": 46232,
  "CuÃ¡nto": 35456,
  "Cy": 38155,
  "CÃ¡": 44246,
  "CÃ³mo": 6990,
  "D": 39,
  "DA": 2907,
  "DAD": 18714,
  "DAH": 9543,
  "DAI": 42616,
  "DAL": 50601,
  "DAS": 20460,
  "DC": 21370,
  "DD": 27153,
  "DE": 4098,
  "DEA": 42930,
  "DEM": 43701,
  "DEN": 16655,
  "DER": 40109,
  "DES": 22409,
  "DEZ": 31079,
  "DF": 28079,
  "DG": 26701,
  "DH": 35693,
  "DI": 7561,
  "DICION": 45923,
  "DICIONES": 44755,
  "DIGO": 47197,
  "DIO": 12472,
  "DIS": 49367,
  "DL": 41505,
  "DM": 14142,
  "DNA": 33479,
  "DO": 3388,
  "DOR": 38544,
  "DOS": 8199,
  "DP": 24479,
  "DQ": 37905,
  "DR": 8577,
  "DROME": 21212,
  "DS": 14701,
  "DT": 23080,
  "DUC": 32629,
  "DUE": 51517,
  "Da": 21041,
  "Dan": 48759,
  "Day": 11259,
  "De": 7528,
  "Deb": 20575,
  "Debemos": 45067,
  "Dec": 49627,
  "Def": 51429,
  "Del": 20274,
  "Departamento": 30703,
  "Depen": 46669,
  "Der": 12619,
  "Derivado": 15088,
  "Des": 10855,
  "Describir": 48458,
  "Desde": 23979,
  "DespuÃ©s": 47916,
  "Di": 17125,
  "Dia": 22761,
  "Diabetes": 51675,
  "Die": 50979,
  "Dios": 50825,
  "Dis": 18052,
  "Do": 31837,
  "Doc": 22081,
  "Doctor": 38934,
  "Dolor": 40228,
  "Don": 32264,
  "Donald": 43039,
  "Doppler": 47149,
  "Dr": 12201,
  "Dra": 23118,
  "Dur": 31447,
  "Durante": 36574,
  "DÃ³nde": 35072,
  "DÃŃa": 27647,
  "DÃŃaz": 50613,
  "E": 40,
  "EA": 5228,
  "EAL": 23455,
  "EAP": 37580,
  "EAS": 40418,
  "EB": 10128,
  "EBRE": 38789,
  "EC": 1723,
  "ECA": 14590,
  "ECCION": 35158,
  "ECCIÃĵN": 35108,
  "ECE": 33875,
  "ECER": 50667,
  "ECES": 25212,
  "ECG": 23823,
  "ECO": 30245,
  "ECT": 26629,
  "ECTOM": 45622,
  "ECU": 26646,
  "ECV": 41863,
  "ED": 2235,
  "EDA": 46916,
  "EDAD": 11287,
  "EDO": 32262,
  "EDOR": 47885,
  "EE": 11223,
  "EEG": 44848,
  "EEUU": 34796,
  "EF": 7626,
  "EFE": 27116,
  "EG": 3987,
  "EGA": 15163,
  "EGF": 30068,
  "EH": 22040,
  "EHU": 39960,
  "EI": 41933,
  "EJO": 44063,
  "EL": 3396,
  "ELA": 26360,
  "ELL": 18911,
  "ELO": 25645,
  "EM": 1734,
  "EMA": 6765,
  "EMAIL": 8774,
  "EMAS": 34205,
  "EMB": 21116,
  "EMBRE": 45227,
  "EMBRO": 50391,
  "EME": 34186,
  "EMI": 39869,
  "EMIA": 16025,
  "EMM": 51970,
  "EMO": 26619,
  "EMOS": 20679,
  "EMP": 18949,
  "EMPL": 44425,
  "EMPO": 28987,
  "EMPRE": 32134,
  "EMPS": 16023,
  "EMS": 49435,
  "EN": 895,
  "ENA": 13872,
  "ENAL": 18263,
  "ENCI": 51646,
  "ENCIA": 8766,
  "ENCIAL": 39190,
  "ENCIAS": 32382,
  "END": 10756,
  "ENDA": 31991,
  "ENDE": 21414,
  "ENDER": 48757,
  "ENDIENTE": 32773,
  "ENDO": 36522,
  "ENE": 51703,
  "ENIA": 47027,
  "ENO": 12782,
  "ENS": 24704,
  "ENSA": 46745,
  "ENT": 28307,
  "ENTA": 13238,
  "ENTAN": 41565,
  "ENTAR": 21586,
  "ENTE": 4057,
  "ENTEMENTE": 51877,
  "ENTES": 9875,
  "ENTO": 13493,
  "ENTOS": 19966,
  "EO": 21948,
  "EP": 2623,
  "EPA": 21805,
  "EPAC": 49878,
  "EPI": 30065,
  "EPOC": 22520,
  "EPRAZOL": 37224,
  "EPS": 45962,
  "EPT": 29859,
  "ER": 1040,
  "ERA": 5193,
  "ERACION": 37710,
  "ERAN": 32688,
  "ERAS": 39766,
  "ERC": 19488,
  "ERG": 17951,
  "ERGEN": 25609,
  "ERIA": 43003,
  "ERICA": 41339,
  "ERM": 7442,
  "ERMI": 23973,
  "ERN": 21136,
  "ERNES": 46400,
  "ERO": 10137,
  "EROS": 24525,
  "ERR": 29213,
  "ERS": 25424,
  "ERTE": 46933,
  "ES": 939,
  "ESA": 18990,
  "ESCO": 28449,
  "ESO": 9773,
  "ESP": 26241,
  "ESS": 21603,
  "EST": 11939,
  "ET": 5097,
  "ETA": 30031,
  "ETE": 51482,
  "ETS": 40386,
  "ETT": 49566,
  "EU": 47621,
  "EUROPA": 38081,
  "EV": 8723,
  "EVA": 35179,
  "EX": 15783,
  "EZ": 10215,
  "EZA": 30636,
  "Eco": 41324,
  "Ed": 32630,
  "Edi": 40998,
  "Eds": 36113,
  "Educ": 47429,
  "Ej": 50302,
  "El": 3030,
  "Emb": 18754,
  "Embargo": 20526,
  "Emp": 34663,
  "En": 3660,
  "Enfer": 20094,
  "Enfermedad": 39471,
  "Entre": 31123,
  "Ep": 48211,
  "Epi": 51892,
  "Eq": 1898,
  "Er": 45757,
  "Es": 2200,
  "Esc": 32818,
  "Escuela": 45114,
  "Eso": 39938,
  "EspaÃ±a": 16855,
  "Especial": 44811,
  "Esper": 39467,
  "Esta": 16418,
  "Estable": 41696,
  "Estado": 51544,
  "Estados": 18406,
  "Estamos": 21524,
  "Estas": 36410,
  "Este": 12857,
  "Esto": 15746,
  "Estos": 23316,
  "Estoy": 40059,
  "Estudi": 37549,
  "Estudio": 26085,
  "EstÃ¡": 30724,
  "Euro": 23800,
  "European": 37209,
  "Ev": 23473,
  "Evalu": 31633,
  "EvaluaciÃ³n": 51050,
  "Ex": 10069,
  "Existe": 32760,
  "Existen": 38857,
  "F": 41,
  "FA": 6151,
  "FAC": 34747,
  "FAM": 40605,
  "FC": 12917,
  "FDA": 26263,
  "FE": 11315,
  "FEC": 32139,
  "FED": 24848,
  "FEDER": 35376,
  "FEN": 43937,
  "FER": 25894,
  "FES": 17146,
  "FEVI": 33093,
  "FF": 29785,
  "FG": 21379,
  "FH": 45579,
  "FI": 18991,
  "FIA": 49335,
  "FICA": 38581,
  "FICI": 11981,
  "FICIENCIA": 19722,
  "FICO": 40269,
  "FIL": 28179,
  "FIS": 18591,
  "FISIOTERAPIA": 27652,
  "FL": 45585,
  "FM": 27332,
  "FO": 36395,
  "FORM": 45494,
  "FP": 44672,
  "FR": 9729,
  "FRCV": 50651,
  "FS": 44801,
  "FT": 34988,
  "FU": 40205,
  "FUN": 39515,
  "FV": 43395,
  "FYC": 19529,
  "Fa": 48998,
  "Fac": 27454,
  "Famil": 49317,
  "Far": 30248,
  "Fe": 28280,
  "Feb": 50104,
  "Fecha": 42505,
  "Fel": 47201,
  "Fer": 36274,
  "FernÃ¡ndez": 38375,
  "Fi": 10586,
  "FiO": 47997,
  "Fig": 12646,
  "Figura": 13794,
  "Fin": 39993,
  "Fisio": 37444,
  "Fl": 43384,
  "Fo": 31312,
  "For": 41213,
  "Fran": 22549,
  "Francia": 38272,
  "Fu": 43157,
  "Fue": 45655,
  "FundaciÃ³n": 37486,
  "FÃ³rmula": 26396,
  "G": 42,
  "GA": 10885,
  "GAN": 19895,
  "GAR": 38326,
  "GAS": 42260,
  "GB": 50498,
  "GC": 20839,
  "GE": 10463,
  "GEN": 9185,
  "GENCIAS": 21724,
  "GES": 33203,
  "GF": 15496,
  "GG": 46712,
  "GGT": 49292,
  "GH": 35625,
  "GI": 22811,
  "GIA": 27273,
  "GL": 24054,
  "GM": 24363,
  "GN": 14339,
  "GO": 3772,
  "GON": 48779,
  "GOS": 41520,
  "GOT": 5582,
  "GP": 40540,
  "GPT": 5511,
  "GR": 8726,
  "GRA": 12184,
  "GRAF": 17678,
  "GRAFIA": 45213,
  "GRAFÃįA": 22216,
  "GRE": 31705,
  "GRESO": 47728,
  "GS": 22879,
  "GT": 4360,
  "GU": 15278,
  "GUE": 43886,
  "Ga": 38765,
  "Gal": 30326,
  "Gar": 41240,
  "GarcÃŃa": 22308,
  "Gas": 44503,
  "Ge": 48985,
  "Gen": 34226,
  "General": 45410,
  "Genes": 33204,
  "Ger": 50015,
  "Gil": 47021,
  "Glob": 28930,
  "Global": 30602,
  "Go": 34203,
  "Gonz": 26381,
  "GonzÃ¡lez": 28711,
  "Gr": 22432,
  "Gra": 49600,
  "Gracias": 24772,
  "Gran": 24223,
  "Gre": 46573,
  "Grupo": 25677,
  "Gu": 14153,
  "GuÃŃa": 39810,
  "Gy": 43580,
  "GÃ³mez": 36081,
  "H": 43,
  "HA": 5120,
  "HAS": 33241,
  "HB": 9945,
  "HC": 7044,
  "HCT": 47075,
  "HD": 9356,
  "HDL": 22566,
  "HDM": 28353,
  "HE": 13037,
  "HEM": 48797,
  "HER": 42194,
  "HF": 31828,
  "HG": 42316,
  "HH": 18205,
  "HI": 25224,
  "HID": 33789,
  "HL": 45200,
  "HO": 7924,
  "HOL": 43233,
  "HOS": 23886,
  "HP": 33164,
  "HR": 17287,
  "HS": 8912,
  "HT": 18003,
  "HTA": 19369,
  "HU": 50441,
  "Ha": 17446,
  "Hab": 31009,
  "Hace": 43566,
  "Han": 51446,
  "Har": 50155,
  "Has": 44664,
  "Hasta": 29748,
  "Hay": 12338,
  "Hb": 23518,
  "HbA": 48064,
  "He": 7583,
  "Health": 9927,
  "HealthDay": 11506,
  "Heb": 16096,
  "Hebron": 17763,
  "Hemo": 36302,
  "Hemos": 23747,
  "Her": 24692,
  "HernÃ¡ndez": 35532,
  "Hg": 3416,
  "Hi": 29475,
  "Hidro": 37429,
  "Hill": 42496,
  "Hiper": 37513,
  "Hipo": 48002,
  "His": 22055,
  "HispaniCare": 34198,
  "Historia": 51423,
  "Ho": 33412,
  "Hola": 42179,
  "Hospital": 14663,
  "Hoy": 28854,
  "Hu": 43522,
  "Hy": 41272,
  "Hz": 48901,
  "I": 44,
  "IA": 1990,
  "IAL": 10598,
  "IALES": 42751,
  "IAM": 25595,
  "IAN": 45182,
  "IAR": 20851,
  "IAS": 11844,
  "IB": 3855,
  "IBA": 42938,
  "IBE": 33371,
  "IBILIDAD": 48557,
  "IBLE": 20358,
  "IBLEMENTE": 51690,
  "IBLES": 49880,
  "IBU": 42458,
  "IC": 1059,
  "ICA": 2734,
  "ICACION": 21573,
  "ICACIONES": 24378,
  "ICACIÃĵN": 17885,
  "ICADO": 48292,
  "ICAL": 25878,
  "ICAM": 20372,
  "ICAMENTE": 26814,
  "ICAP": 50077,
  "ICAR": 30038,
  "ICAS": 12342,
  "ICC": 39286,
  "ICE": 15237,
  "ICEF": 31712,
  "ICET": 50692,
  "ICH": 35892,
  "ICI": 5561,
  "ICIDAD": 45626,
  "ICIL": 21209,
  "ICILINA": 47338,
  "ICINA": 20723,
  "ICIO": 21687,
  "ICM": 48473,
  "ICO": 3786,
  "ICOS": 8384,
  "ICS": 31431,
  "ICULAR": 30849,
  "ICY": 50091,
  "ICYUC": 50857,
  "ID": 1346,
  "IDA": 5558,
  "IDAD": 6656,
  "IDADES": 25012,
  "IDAS": 22436,
  "IDE": 24780,
  "IDES": 44949,
  "IDO": 7593,
  "IDOS": 13375,
  "IDS": 23086,
  "IE": 19370,
  "IEDAD": 48929,
  "IEN": 3287,
  "IENDO": 23046,
  "IENTE": 16840,
  "IENTES": 28761,
  "IENTO": 6245,
  "IENTOS": 25196,
  "IER": 9021,
  "IERE": 21796,
  "IES": 44357,
  "IF": 5745,
  "IFA": 40103,
  "IFIC": 25302,
  "IFICA": 48506,
  "IFICACION": 51958,
  "IFICACIÃĵN": 44134,
  "IG": 5090,
  "IGA": 45313,
  "IGURA": 23094,
  "II": 1485,
  "III": 5975,
  "IIIa": 45087,
  "IK": 28804,
  "IL": 2493,
  "ILA": 15466,
  "ILAR": 39400,
  "ILATERAL": 23034,
  "ILE": 51802,
  "ILIAR": 43474,
  "ILIDAD": 22336,
  "ILL": 13116,
  "ILLA": 23916,
  "ILLO": 29490,
  "ILO": 16737,
  "IM": 2798,
  "IMA": 17301,
  "IMC": 15518,
  "IME": 28479,
  "IMEN": 43831,
  "IMER": 44812,
  "IMIENTO": 16579,
  "IMIENTOS": 49536,
  "IMO": 31285,
  "IMP": 50280,
  "IN": 1439,
  "INA": 5039,
  "INACION": 44362,
  "INACIÃĵN": 48806,
  "INAL": 14669,
  "INALES": 40499,
  "INAR": 48319,
  "INAS": 24231,
  "IND": 42530,
  "INE": 9334,
  "INF": 19328,
  "ING": 18257,
  "INGO": 43829,
  "INI": 35209,
  "INO": 15574,
  "INOS": 49456,
  "INR": 40527,
  "INS": 33140,
  "IO": 2679,
  "ION": 7378,
  "IONAL": 35598,
  "IONES": 16104,
  "IOR": 11217,
  "IOS": 8975,
  "IOTERAPIA": 22966,
  "IP": 4322,
  "IPA": 45217,
  "IPO": 15995,
  "IPOS": 41050,
  "IQ": 37083,
  "IR": 3164,
  "IRA": 31706,
  "IRC": 51171,
  "IRE": 34466,
  "IRO": 36682,
  "IS": 1564,
  "ISA": 15133,
  "ISIS": 19757,
  "ISMO": 15863,
  "ISO": 42846,
  "ISS": 42031,
  "IST": 18679,
  "ISTA": 25869,
  "ISTAS": 38487,
  "ISTE": 15812,
  "ISTEN": 30455,
  "ISTENCIA": 44977,
  "ISTRA": 20548,
  "IT": 4714,
  "ITA": 13622,
  "ITAR": 23208,
  "ITE": 31365,
  "ITICA": 41798,
  "ITIS": 16236,
  "ITO": 23868,
  "ITOR": 29209,
  "ITOS": 24277,
  "ITS": 36674,
  "ITU": 50029,
  "IV": 3624,
  "IVA": 20036,
  "IVAL": 45332,
  "IVO": 31952,
  "IX": 8549,
  "IZ": 5111,
  "IZA": 29109,
  "IZACION": 26790,
  "IZACIÃĵN": 19671,
  "IZADA": 37959,
  "IZADO": 13459,
  "IZAR": 33142,
  "IZOL": 42757,
  "Iden": 39152,
  "Identificar": 49779,
  "Ig": 23675,
  "IgG": 50002,
  "Ima": 41429,
  "Imp": 30434,
  "In": 3798,
  "Inf": 32007,
  "Informe": 47902,
  "Ingreso": 42540,
  "IngrÃ©s": 39907,
  "Ins": 17053,
  "Institu": 23083,
  "Instituto": 26675,
  "Inter": 10870,
  "Interna": 37012,
  "International": 44625,
  "Internet": 13398,
  "Investig": 36931,
  "Is": 25669,
  "Italia": 41173,
  "IÃĵN": 10296,
  "J": 45,
  "JA": 12384,
  "JAJA": 47361,
  "JAR": 36005,
  "JAS": 39260,
  "JC": 28306,
  "JD": 46785,
  "JE": 10113,
  "JER": 31327,
  "JM": 44626,
  "JO": 10233,
  "JOS": 28794,
  "JU": 49092,
  "JUN": 40982,
  "Ja": 29104,
  "Jo": 19014,
  "John": 36355,
  "Johnson": 45816,
  "Jos": 32053,
  "JosÃ©": 37652,
  "Journal": 37048,
  "Ju": 37497,
  "Juan": 37084,
  "Jun": 43596,
  "K": 46,
  "KA": 39939,
  "KE": 39645,
  "KG": 19646,
  "KI": 39344,
  "KIN": 35694,
  "KO": 39994,
  "Kg": 19306,
  "Kline": 45904,
  "L": 47,
  "LA": 4345,
  "LACIÃĵN": 42957,
  "LAM": 25907,
  "LAMATOR": 48106,
  "LAS": 21507,
  "LAZ": 41778,
  "LC": 34380,
  "LCR": 40829,
  "LD": 12479,
  "LDH": 43711,
  "LDL": 17342,
  "LE": 4310,
  "LEM": 26073,
  "LEMENTE": 39327,
  "LER": 49755,
  "LES": 15900,
  "LEX": 34993,
  "LI": 39919,
  "LIC": 34581,
  "LINE": 32289,
  "LIO": 39269,
  "LL": 28281,
  "LM": 28693,
  "LO": 7333,
  "LOCA": 49885,
  "LOCATION": 50037,
  "LOS": 24270,
  "LP": 27455,
  "LS": 41962,
  "LT": 31507,
  "LTI": 44849,
  "LU": 35328,
  "LV": 23876,
  "La": 2635,
  "Labora": 49543,
  "Las": 8031,
  "Le": 13015,
  "Les": 51346,
  "Leucocitos": 47210,
  "Lev": 51552,
  "Ley": 31540,
  "LeÃ³n": 50284,
  "Li": 32798,
  "Libro": 41521,
  "Lin": 48042,
  "Llamada": 36205,
  "Lle": 39757,
  "Lo": 11055,
  "Los": 5945,
  "Lu": 31068,
  "LÃ³pez": 27698,
  "M": 48,
  "MA": 3420,
  "MAC": 48179,
  "MAD": 48646,
  "MAE": 23292,
  "MAN": 30946,
  "MAP": 48450,
  "MAR": 40686,
  "MAS": 28253,
  "MAT": 32598,
  "MB": 27069,
  "MC": 7670,
  "MD": 29693,
  "ME": 11302,
  "MED": 21843,
  "MEN": 36193,
  "MENTE": 12389,
  "MET": 37049,
  "MF": 49527,
  "MG": 10801,
  "MI": 12704,
  "MICA": 10903,
  "MICO": 38327,
  "MIENTO": 48028,
  "MIN": 14449,
  "MINISTRA": 24386,
  "MIR": 29442,
  "MIS": 48947,
  "MIT": 42620,
  "ML": 21317,
  "MM": 28931,
  "MO": 8231,
  "MOS": 28067,
  "MP": 11779,
  "MR": 40846,
  "MS": 3831,
  "MSS": 18377,
  "MT": 32221,
  "Ma": 11820,
  "Madrid": 14973,
  "Mal": 38972,
  "Man": 12696,
  "Mantiene": 41410,
  "Manual": 50913,
  "Mar": 12016,
  "MartÃŃn": 25355,
  "MartÃŃnez": 31203,
  "Mas": 33528,
  "Material": 36525,
  "Mc": 48081,
  "Me": 8411,
  "Med": 14865,
  "Medi": 25632,
  "Medicina": 35462,
  "Meier": 43509,
  "Mej": 43079,
  "Mejor": 46294,
  "Men": 37769,
  "Mer": 38118,
  "Met": 47177,
  "Mi": 17993,
  "Mic": 42384,
  "Min": 34601,
  "Mir": 51038,
  "Mo": 17493,
  "Mon": 18789,
  "Mor": 27761,
  "Moreno": 51821,
  "Mu": 24488,
  "Muchas": 35301,
  "Muchos": 51282,
  "Mujer": 40888,
  "Mur": 36536,
  "Murcia": 49643,
  "Mus": 50070,
  "Muy": 40419,
  "My": 36903,
  "MÃ¡": 46200,
  "MÃ¡s": 31976,
  "MÃ©": 17450,
  "MÃ©dico": 44966,
  "MÃ©xico": 33877,
  "N": 49,
  "NA": 4088,
  "NAE": 16953,
  "NAME": 32328,
  "NAS": 42352,
  "NC": 23660,
  "ND": 19665,
  "NE": 11960,
  "NEO": 51172,
  "NET": 34430,
  "NEUM": 39056,
  "NEUMON": 50102,
  "NF": 11799,
  "NG": 30377,
  "NH": 18981,
  "NI": 10561,
  "NIA": 50615,
  "NIC": 50287,
  "NIH": 39239,
  "NIS": 47652,
  "NM": 18061,
  "NN": 50499,
  "NO": 10369,
  "NOS": 22071,
  "NOTA": 48668,
  "NP": 10102,
  "NR": 12742,
  "NS": 8891,
  "NT": 19430,
  "NY": 44685,
  "Na": 14404,
  "National": 45991,
  "Nature": 38782,
  "Nav": 35753,
  "Ne": 12116,
  "Neces": 34074,
  "Net": 44587,
  "Neuro": 25071,
  "NeurologÃŃa": 37725,
  "New": 44376,
  "Ni": 37539,
  "No": 4588,
  "Nom": 39092,
  "Nor": 51658,
  "Nos": 23283,
  "Nosotros": 45888,
  "Nuestra": 35236,
  "Nuestro": 26511,
  "Nuestros": 33798,
  "Nueva": 50545,
  "Nunca": 49586,
  "O": 50,
  "OA": 49131,
  "OB": 6030,
  "OBI": 50208,
  "OC": 2938,
  "OCA": 27110,
  "OCAL": 29999,
  "OCAR": 31774,
  "OCI": 17055,
  "OCK": 47691,
  "OCL": 48410,
  "OCT": 43975,
  "OCUL": 49962,
  "OD": 5102,
  "ODUC": 14753,
  "ODUCI": 40717,
  "OE": 49648,
  "OF": 17481,
  "OG": 4089,
  "OGEN": 45965,
  "OGENO": 33293,
  "OGRA": 23938,
  "OGRAMA": 28985,
  "OH": 15395,
  "OI": 45030,
  "OL": 1736,
  "OLA": 21701,
  "OLES": 20703,
  "OLO": 27924,
  "OLOG": 5892,
  "OLOGIA": 17919,
  "OLOGÃįA": 7816,
  "OLU": 16872,
  "OLUCION": 46189,
  "OLUCIÃĵN": 22053,
  "OLÃĵG": 17040,
  "OLÃĵGICA": 33952,
  "OLÃĵGICO": 35533,
  "OLÃĵGICOS": 42719,
  "OM": 1629,
  "OMA": 12787,
  "OMB": 15478,
  "OMBIA": 48145,
  "OMC": 30486,
  "OME": 13053,
  "OMED": 49236,
  "OMO": 31284,
  "OMOS": 35856,
  "OMS": 8072,
  "ON": 985,
  "ONA": 11368,
  "ONAR": 21510,
  "ONARIOS": 44498,
  "ONAS": 40868,
  "ONE": 43032,
  "ONES": 26716,
  "ONG": 39275,
  "ONO": 31946,
  "ONT": 37916,
  "OO": 25877,
  "OP": 5292,
  "OPATÃįA": 47142,
  "OPLAS": 45462,
  "OPS": 22102,
  "OR": 1261,
  "ORA": 5962,
  "ORACION": 41991,
  "ORACIÃĵN": 22128,
  "ORAL": 25709,
  "ORB": 32125,
  "ORCION": 31816,
  "ORD": 32529,
  "ORE": 29555,
  "ORES": 12937,
  "ORM": 6986,
  "ORMA": 10347,
  "ORO": 43114,
  "ORT": 36089,
  "ORTE": 27893,
  "OS": 996,
  "OSA": 14272,
  "OSI": 8716,
  "OSIS": 16198,
  "OSO": 18723,
  "OT": 10009,
  "OVA": 32469,
  "OX": 12207,
  "Ob": 37271,
  "Obs": 43172,
  "Oc": 50156,
  "Ol": 35289,
  "On": 31691,
  "Onc": 45218,
  "Or": 16787,
  "Organ": 31353,
  "OrganizaciÃ³n": 35999,
  "Os": 19749,
  "P": 51,
  "PA": 4135,
  "PAD": 48768,
  "PAL": 45758,
  "PAN": 49815,
  "PAP": 42248,
  "PAR": 28731,
  "PARA": 31697,
  "PAS": 19358,
  "PATÃįA": 50980,
  "PC": 7169,
  "PCC": 23054,
  "PCR": 12960,
  "PD": 11463,
  "PDF": 48039,
  "PDN": 47321,
  "PE": 6851,
  "PEC": 13016,
  "PECTO": 41478,
  "PECÃį": 46323,
  "PEN": 35237,
  "PER": 11411,
  "PET": 34875,
  "PEU": 38372,
  "PF": 22530,
  "PG": 50953,
  "PH": 28643,
  "PI": 6801,
  "PIA": 13879,
  "PIRA": 15297,
  "PITAL": 20054,
  "PL": 6789,
  "PLE": 25931,
  "PM": 15319,
  "PN": 28807,
  "PO": 8527,
  "PON": 32462,
  "POR": 16634,
  "POS": 30015,
  "PP": 9687,
  "PR": 5015,
  "PRE": 32761,
  "PRES": 22892,
  "PRESA": 51706,
  "PRO": 31145,
  "PROF": 34280,
  "PROFENO": 40211,
  "PS": 3665,
  "PSA": 44855,
  "PSS": 13599,
  "PT": 4125,
  "PTH": 50670,
  "PV": 12816,
  "Pa": 16804,
  "Pacient": 19046,
  "Paciente": 7775,
  "Pacientes": 38130,
  "Pal": 28861,
  "Pan": 37924,
  "Par": 14806,
  "Para": 13008,
  "Paracetamol": 33131,
  "Pas": 36082,
  "Pe": 27193,
  "Pedia": 42940,
  "Pen": 24761,
  "Pendiente": 31778,
  "Per": 18388,
  "Pero": 17072,
  "Pers": 42399,
  "Ph": 23689,
  "Phone": 37996,
  "Pi": 40073,
  "Pla": 34257,
  "Plan": 25999,
  "Plus": 22618,
  "Po": 14294,
  "Podemos": 43117,
  "PodrÃŃa": 47483,
  "Pol": 40879,
  "Pon": 35389,
  "Por": 6619,
  "Porque": 46906,
  "Pos": 31198,
  "Pr": 31328,
  "Pre": 15801,
  "Premio": 46136,
  "Pres": 17527,
  "Press": 36692,
  "Pri": 32752,
  "Prim": 50652,
  "Pro": 7749,
  "Proce": 51815,
  "Prof": 44578,
  "Programa": 32121,
  "Proyecto": 43613,
  "Ps": 20802,
  "Psic": 48026,
  "Pu": 32380,
  "Pub": 35405,
  "PubMed": 38614,
  "Publ": 46449,
  "Pue": 18107,
  "Puede": 27210,
  "Puedo": 51515,
  "PÃ©rez": 33089,
  "PÃīU": 49477,
  "Q": 52,
  "QL": 45104,
  "QM": 26331,
  "QT": 24544,
  "QU": 4595,
  "QUE": 10058,
  "QUI": 28468,
  "QUIA": 40894,
  "QUIER": 19036,
  "QUÃī": 33138,
  "QUÃį": 11973,
  "QUÃįMICA": 13263,
  "Qu": 3807,
  "Que": 16058,
  "Quer": 30919,
  "Queremos": 42076,
  "Quieres": 28779,
  "Quir": 43301,
  "QuiÃ©n": 21109,
  "QuÃ©": 4726,
  "R": 53,
  "RA": 942,
  "RAC": 15355,
  "RAD": 44809,
  "RADA": 33095,
  "RADO": 37745,
  "RAL": 8483,
  "RAM": 18588,
  "RAN": 8245,
  "RANTE": 25417,
  "RAR": 35972,
  "RAS": 10678,
  "RAX": 14531,
  "RAZ": 18638,
  "RAZO": 45902,
  "RAZOL": 31380,
  "RC": 4888,
  "RCP": 43790,
  "RCV": 11886,
  "RD": 28949,
  "RE": 4115,
  "REA": 25778,
  "RED": 32407,
  "RES": 12246,
  "RESPON": 48157,
  "REZ": 43609,
  "RF": 51225,
  "RG": 26736,
  "RH": 39681,
  "RI": 14169,
  "RID": 27437,
  "RIL": 25301,
  "RIS": 50086,
  "RM": 13202,
  "RMN": 44497,
  "RN": 47314,
  "RNA": 21875,
  "RNAs": 49256,
  "RO": 6897,
  "ROM": 28966,
  "RON": 48647,
  "ROS": 35133,
  "ROX": 23289,
  "RP": 29384,
  "RR": 16195,
  "RS": 5157,
  "RSE": 43344,
  "RSS": 28569,
  "RT": 23006,
  "Ra": 25720,
  "Radio": 38685,
  "Ram": 42208,
  "Re": 7047,
  "Real": 47945,
  "Rec": 27089,
  "Recom": 46078,
  "Red": 9943,
  "Ref": 28936,
  "Refiere": 44090,
  "Reg": 27634,
  "Reino": 29499,
  "Rel": 49318,
  "Res": 12572,
  "Resultados": 24579,
  "Rev": 25062,
  "Revista": 40966,
  "Rey": 47178,
  "Risc": 43897,
  "Ro": 13083,
  "RodrÃŃguez": 30428,
  "Rom": 39320,
  "Ros": 41140,
  "Rs": 43302,
  "Ru": 29629,
  "Ruiz": 47299,
  "Rx": 30431,
  "S": 54,
  "SA": 4134,
  "SAL": 22547,
  "SAM": 38093,
  "SAP": 43337,
  "SAR": 27121,
  "SARS": 41044,
  "SAS": 44527,
  "SC": 13216,
  "SCA": 44978,
  "SD": 12095,
  "SE": 6367,
  "SEC": 22397,
  "SED": 37906,
  "SEM": 20041,
  "SEN": 21405,
  "SEOM": 46447,
  "SEP": 28524,
  "SEQ": 48723,
  "SER": 25063,
  "SES": 34620,
  "SF": 31905,
  "SG": 17042,
  "SH": 10949,
  "SI": 6175,
  "SIDA": 18297,
  "SION": 20116,
  "SIS": 49696,
  "SIÃĵN": 30166,
  "SL": 50616,
  "SM": 24814,
  "SN": 15743,
  "SNC": 36354,
  "SNS": 20832,
  "SO": 6614,
  "SON": 16503,
  "SOS": 38860,
  "SP": 17644,
  "SR": 30559,
  "SS": 5744,
  "ST": 16217,
  "STE": 43523,
  "SU": 34344,
  "SUB": 39391,
  "SV": 51518,
  "Sa": 24673,
  "Sab": 18324,
  "Sabemos": 45377,
  "Sabes": 42661,
  "SabÃŃas": 47322,
  "Sal": 19740,
  "Sala": 51332,
  "Salud": 14962,
  "Salut": 41984,
  "San": 11734,
  "Santa": 46502,
  "Santiago": 43722,
  "Sat": 40983,
  "Sch": 28968,
  "Science": 49602,
  "Se": 4919,
  "SegÃºn": 50228,
  "Sense": 42611,
  "Ser": 22329,
  "Serv": 17835,
  "Servicio": 20663,
  "SerÃ¡": 46837,
  "Sev": 38807,
  "Sevilla": 43579,
  "Sh": 41803,
  "Si": 7276,
  "Siempre": 40550,
  "Sil": 42249,
  "Sin": 11932,
  "SinEmbargo": 22606,
  "Sistema": 41506,
  "Sm": 47251,
  "Smith": 34740,
  "SmithKline": 48066,
  "So": 21519,
  "Sobre": 46411,
  "Sociedad": 29685,
  "Sol": 27534,
  "Solici": 46768,
  "Solo": 49601,
  "Somos": 45449,
  "Son": 21113,
  "Soy": 43336,
  "Spain": 50469,
  "Star": 47262,
  "Su": 13960,
  "Sue": 48029,
  "Super": 48258,
  "Supl": 41633,
  "Suppl": 31644,
  "Sur": 49886,
  "Sus": 43685,
  "SÃ¡nchez": 31921,
  "SÃ³lo": 51483,
  "SÃŃ": 38759,
  "SÃŃn": 32496,
  "SÃŃndrome": 36628,
  "T": 55,
  "TA": 1096,
  "TAB": 27919,
  "TABLE": 32399,
  "TAC": 12510,
  "TACION": 29260,
  "TACIONES": 46601,
  "TACIÃĵN": 27923,
  "TAD": 24681,
  "TADA": 29848,
  "TADO": 22582,
  "TADOR": 46208,
  "TADOS": 43718,
  "TAL": 7140,
  "TALES": 40844,
  "TAM": 6807,
  "TAMENTE": 44375,
  "TAMIENTO": 10830,
  "TAMIZOL": 43428,
  "TAMOL": 23847,
  "TAMOS": 48841,
  "TAN": 7554,
  "TANCIA": 46993,
  "TANTE": 25800,
  "TANTES": 38313,
  "TAR": 6956,
  "TARIA": 50684,
  "TARIO": 48680,
  "TAS": 7155,
  "TASIA": 15811,
  "TATINA": 41027,
  "TB": 26801,
  "TC": 5623,
  "TDAH": 34287,
  "TE": 1617,
  "TEA": 36554,
  "TEC": 14442,
  "TED": 42625,
  "TEL": 22018,
  "TEN": 6788,
  "TENS": 34848,
  "TEP": 41163,
  "TER": 4181,
  "TERA": 14077,
  "TERAL": 15984,
  "TERAPIA": 19599,
  "TERI": 33426,
  "TERIOR": 19748,
  "TERNA": 48010,
  "TERO": 38115,
  "TES": 4510,
  "TESIS": 38814,
  "TESTIN": 48577,
  "TEX": 35165,
  "TF": 46313,
  "TG": 38029,
  "TH": 11036,
  "TI": 1857,
  "TIA": 25722,
  "TIC": 6957,
  "TICA": 10589,
  "TICAMENTE": 47663,
  "TICAS": 20214,
  "TICI": 50746,
  "TICIÃĵN": 25735,
  "TICO": 8909,
  "TICOS": 19699,
  "TIEN": 16468,
  "TIF": 29355,
  "TIG": 30444,
  "TIL": 9622,
  "TIM": 22801,
  "TIN": 13092,
  "TINA": 23530,
  "TIO": 50814,
  "TION": 20760,
  "TIR": 21494,
  "TIS": 17101,
  "TITIS": 30731,
  "TITU": 19859,
  "TIV": 4307,
  "TIVA": 12026,
  "TIVAMENTE": 49669,
  "TIVAS": 31463,
  "TIVIDAD": 22462,
  "TIVO": 7148,
  "TIVOS": 14224,
  "TL": 47668,
  "TM": 15253,
  "TNF": 26737,
  "TO": 2054,
  "TOC": 39252,
  "TOL": 44392,
  "TOM": 17509,
  "TOMAS": 44047,
  "TON": 24849,
  "TOP": 20013,
  "TOR": 6331,
  "TORES": 22899,
  "TORIA": 16845,
  "TORIO": 31062,
  "TOS": 6659,
  "TOX": 35948,
  "TP": 3983,
  "TPH": 50359,
  "TR": 2547,
  "TRA": 4558,
  "TRACT": 19381,
  "TRAL": 27502,
  "TRAS": 21332,
  "TRE": 14610,
  "TRI": 51369,
  "TRIA": 34995,
  "TRO": 9013,
  "TROL": 16491,
  "TROM": 39933,
  "TROS": 17536,
  "TRUC": 23429,
  "TRÃįA": 23670,
  "TS": 7200,
  "TT": 20949,
  "TU": 3610,
  "TUAL": 10318,
  "TUD": 30408,
  "TURA": 15074,
  "TURAS": 43573,
  "TV": 20342,
  "Ta": 25804,
  "Tab": 51447,
  "Tabla": 11706,
  "TambiÃ©n": 26604,
  "Tc": 44642,
  "Te": 15044,
  "Ten": 22602,
  "Tenemos": 28791,
  "Tener": 50699,
  "Tengo": 41562,
  "Ter": 32973,
  "Tesis": 48711,
  "Th": 35113,
  "The": 13882,
  "Ti": 29630,
  "Tiene": 30560,
  "Tienes": 43365,
  "To": 11482,
  "Toda": 45611,
  "Todo": 29091,
  "Todos": 28654,
  "Tom": 40175,
  "Torres": 47506,
  "Tr": 46574,
  "Tra": 14591,
  "Tran": 29874,
  "Trans": 40210,
  "Tras": 24895,
  "Tratamiento": 32466,
  "Tri": 42894,
  "Tro": 47604,
  "Tu": 19314,
  "Tube": 29068,
  "TÃį": 26232,
  "TÃįC": 35115,
  "U": 56,
  "UA": 24470,
  "UAL": 23943,
  "UAM": 48403,
  "UB": 9883,
  "UC": 4982,
  "UCA": 32415,
  "UCH": 44104,
  "UCI": 15962,
  "UCLE": 36712,
  "UD": 7183,
  "UDA": 39300,
  "UDAD": 51636,
  "UE": 2062,
  "UEL": 20010,
  "UER": 16077,
  "UERDO": 49893,
  "UES": 8354,
  "UESTA": 32646,
  "UFICIENCIA": 20435,
  "UG": 12569,
  "UI": 18948,
  "UIR": 33373,
  "UL": 2461,
  "ULA": 12755,
  "ULACION": 38746,
  "ULAR": 9177,
  "ULARES": 50423,
  "ULAS": 18548,
  "ULINA": 45897,
  "ULO": 11743,
  "ULOS": 25070,
  "ULP": 18479,
  "ULTA": 12904,
  "UM": 4184,
  "UMA": 28224,
  "UMAT": 32875,
  "UMEN": 11833,
  "UMENTO": 47083,
  "UN": 3536,
  "UNA": 30407,
  "UNAS": 46147,
  "UNCA": 42044,
  "UND": 21927,
  "UNE": 41989,
  "UNES": 23145,
  "UNO": 26413,
  "UP": 11170,
  "UPO": 21900,
  "UR": 3864,
  "URA": 12282,
  "URAL": 31484,
  "URE": 45650,
  "URG": 35727,
  "URL": 18888,
  "URO": 15794,
  "UROPA": 28166,
  "US": 3275,
  "USA": 32237,
  "USION": 45222,
  "USIÃĵN": 36449,
  "UT": 18573,
  "UTR": 21704,
  "UTRI": 27509,
  "UU": 7544,
  "UV": 25602,
  "UY": 20629,
  "Ul": 50812,
  "Un": 8029,
  "Una": 14561,
  "Unidad": 31395,
  "Univers": 17832,
  "Universidad": 21171,
  "Uno": 42090,
  "Urg": 37348,
  "Urgencias": 45614,
  "Us": 36359,
  "V": 57,
  "VA": 5874,
  "VACIÃĵN": 50891,
  "VAL": 35125,
  "VAN": 43057,
  "VAR": 29056,
  "VAS": 15167,
  "VASCULAR": 40173,
  "VASTATINA": 42514,
  "VC": 6635,
  "VD": 11152,
  "VE": 12247,
  "VEN": 10185,
  "VER": 18126,
  "VES": 13656,
  "VH": 33881,
  "VHB": 46677,
  "VHC": 33678,
  "VI": 3908,
  "VIA": 43800,
  "VID": 3467,
  "VIDAD": 19441,
  "VIH": 20267,
  "VII": 32649,
  "VIII": 39345,
  "VIR": 28227,
  "VIS": 14505,
  "VM": 29245,
  "VO": 16431,
  "VOS": 41711,
  "VP": 6541,
  "VPH": 30985,
  "VR": 34411,
  "VS": 25296,
  "VV": 47525,
  "Va": 51539,
  "Val": 13419,
  "Valencia": 37701,
  "Vamos": 48138,
  "Var": 46327,
  "Ver": 18290,
  "Vi": 44762,
  "Vie": 40428,
  "Vir": 45566,
  "Vis": 24815,
  "Visita": 31084,
  "Vo": 35754,
  "Vol": 46940,
  "W": 58,
  "WA": 48197,
  "WHO": 47376,
  "WN": 49848,
  "WR": 51448,
  "WS": 45608,
  "We": 42720,
  "Whitney": 37469,
  "Willi": 47417,
  "X": 59,
  "XA": 25742,
  "XI": 45495,
  "XICO": 49587,
  "XX": 26248,
  "Y": 60,
  "YA": 24096,
  "YC": 16677,
  "YEC": 26134,
  "YL": 29110,
  "YM": 42475,
  "YO": 23924,
  "YR": 50903,
  "YS": 31654,
  "YT": 31107,
  "YUNO": 34403,
  "Ya": 25536,
  "Yo": 17638,
  "Z": 61,
  "ZA": 15202,
  "ZAR": 50415,
  "ZD": 43083,
  "ZEP": 45486,
  "ZEPAM": 50103,
  "ZO": 24020,
  "ZOL": 40880,
  "Zen": 34899,
  "Zeneca": 35940,
  "[": 62,
  "\\": 63,
  "\\,": 18410,
  "]": 64,
  "])": 24256,
  "]),": 44319,
  "]).": 34812,
  "],": 9863,
  "]-": 37452,
  "].": 4061,
  "]:": 34853,
  "];": 22992,
  "]]": 51540,
  "^": 65,
  "_": 66,
  "_(": 45367,
  "__": 2475,
  "___": 30680,
  "____": 4609,
  "________": 8256,
  "________________": 15381,
  "________________________________": 32719,
  "`": 67,
  "a": 68,
  "aa": 13702,
  "aaaa": 33808,
  "ab": 380,
  "aba": 1197,
  "abal": 15933,
  "abalina": 26601,
  "aban": 1951,
  "abapentina": 27604,
  "abaquismo": 7101,
  "abar": 23332,
  "abas": 26059,
  "abaste": 36730,
  "abdomen": 27697,
  "abdominal": 19405,
  "abdominales": 41274,
  "abe": 7843,
  "abel": 8841,
  "abell": 16267,
  "abellÃ³n": 21522,
  "abeque": 51744,
  "abeth": 26167,
  "abeu": 49087,
  "abezas": 51096,
  "abilidad": 14982,
  "ability": 28934,
  "abina": 36656,
  "abla": 5969,
  "ablaciÃ³n": 51643,
  "able": 870,
  "ablemente": 7504,
  "ables": 1633,
  "ablo": 7366,
  "abo": 11976,
  "abobo": 38668,
  "abor": 8876,
  "abora": 27648,
  "aboraciÃ³n": 17498,
  "aborar": 30000,
  "abos": 44728,
  "abra": 22716,
  "abras": 8900,
  "abril": 35101,
  "abs": 27907,
  "absor": 12068,
  "absorciÃ³n": 28853,
  "abu": 43516,
  "abuena": 17245,
  "abÃ¡n": 33319,
  "ac": 357,
  "aca": 1965,
  "acal": 16485,
  "acales": 36042,
  "acan": 39337,
  "acar": 17908,
  "acas": 7389,
  "acate": 23786,
  "acavir": 51202,
  "acceso": 34688,
  "acci": 37336,
  "acciones": 15017,
  "acciÃ³n": 6225,
  "ace": 2406,
  "acea": 16525,
  "aceae": 21584,
  "acel": 48248,
  "acen": 14045,
  "acent": 44775,
  "acep": 14807,
  "acer": 4342,
  "aces": 3102,
  "acesso": 49854,
  "aceta": 3744,
  "acetamol": 4002,
  "acetas": 47156,
  "acete": 11449,
  "acetil": 33460,
  "ach": 2690,
  "acha": 19414,
  "achas": 36183,
  "ache": 18492,
  "acher": 41288,
  "aches": 41852,
  "achi": 37530,
  "aching": 17921,
  "acho": 9963,
  "achos": 21108,
  "achus": 21297,
  "aci": 295,
  "acia": 1093,
  "aciadamente": 24886,
  "acial": 36275,
  "acias": 1653,
  "acic": 39301,
  "acico": 22375,
  "acida": 40150,
  "acidad": 11759,
  "acidez": 24004,
  "acido": 45690,
  "acidosis": 32677,
  "acient": 14395,
  "aciente": 5923,
  "acientes": 31672,
  "acil": 34475,
  "acilina": 29076,
  "acilo": 33887,
  "acimiento": 18680,
  "acimientos": 32397,
  "acin": 30437,
  "acina": 15653,
  "acinto": 51719,
  "acio": 5477,
  "acion": 848,
  "aciona": 7674,
  "acional": 910,
  "acionales": 2455,
  "acionalizaciÃ³n": 23411,
  "aciones": 478,
  "acions": 16852,
  "acios": 17427,
  "aciÃ²n": 43137,
  "aciÃ³": 4091,
  "aciÃ³n": 320,
  "ack": 5163,
  "acks": 46560,
  "aclar": 50124,
  "acno": 25216,
  "aco": 2202,
  "acoa": 26155,
  "acoc": 36376,
  "acocentesis": 45688,
  "acol": 42854,
  "acom": 44933,
  "acon": 29642,
  "acor": 33205,
  "acos": 8968,
  "acra": 36968,
  "acre": 38570,
  "acri": 35381,
  "acro": 26032,
  "acruz": 22006,
  "act": 23766,
  "acta": 20430,
  "acter": 1134,
  "acteri": 2494,
  "acterium": 49436,
  "actil": 24361,
  "actilia": 32288,
  "actin": 42004,
  "actina": 30221,
  "activ": 41337,
  "activa": 4565,
  "activaciÃ³n": 45475,
  "activas": 16552,
  "active": 40372,
  "actividad": 8204,
  "actividades": 35652,
  "activo": 12889,
  "activos": 16723,
  "acto": 2483,
  "actos": 45709,
  "actu": 27498,
  "actual": 45722,
  "actualidad": 42574,
  "actualmente": 32585,
  "actus": 44111,
  "acu": 10166,
  "acum": 45031,
  "acusia": 15832,
  "acy": 15244,
  "acÃ¡": 50055,
  "acÃ¡n": 30897,
  "acÃ¡r": 16894,
  "acÃ¡rido": 32519,
  "acÃ¡ridos": 23828,
  "acÃ³n": 30775,
  "acÃŃa": 47049,
  "acÃŃn": 49479,
  "ad": 280,
  "ada": 381,
  "adajo": 22844,
  "adajoz": 22913,
  "adal": 11303,
  "adala": 50489,
  "adamente": 2008,
  "adap": 21016,
  "adaptaciÃ³n": 38147,
  "adar": 14086,
  "adas": 544,
  "adder": 50275,
  "ade": 3662,
  "adecu": 7783,
  "ademÃ¡s": 35261,
  "aden": 10106,
  "adenoma": 44233,
  "ader": 26233,
  "adero": 50117,
  "adi": 9370,
  "adia": 28393,
  "adian": 36967,
  "adic": 10936,
  "adie": 17841,
  "adiense": 25732,
  "adienses": 43103,
  "adilla": 17473,
  "adillas": 24034,
  "adillo": 33767,
  "adina": 31662,
  "adine": 31247,
  "ading": 29758,
  "adio": 22470,
  "adiol": 24082,
  "adir": 31143,
  "adis": 42782,
  "adismo": 40075,
  "adminis": 14104,
  "administra": 25462,
  "administraciÃ³n": 36494,
  "ado": 338,
  "adol": 26976,
  "adolesc": 37335,
  "adolinio": 39176,
  "adona": 51785,
  "ador": 811,
  "adora": 2155,
  "adoras": 3846,
  "adores": 843,
  "ados": 411,
  "adr": 1667,
  "adra": 24327,
  "adrado": 21815,
  "adre": 28256,
  "adren": 30751,
  "adrenalina": 22374,
  "adrenÃ©rgicos": 46687,
  "adri": 49368,
  "adrid": 1926,
  "adro": 10398,
  "adrones": 33105,
  "adros": 33747,
  "adrÃ³n": 21919,
  "ads": 25872,
  "adul": 45201,
  "adura": 8420,
  "aduras": 12779,
  "adurÃŃa": 44674,
  "ady": 25562,
  "adyu": 30767,
  "adyuvante": 21568,
  "adÃ¡": 7929,
  "adÃ¡ver": 16356,
  "adÃŃa": 49182,
  "ae": 35527,
  "af": 9089,
  "afec": 22144,
  "ag": 1283,
  "aga": 29534,
  "age": 10121,
  "ager": 13913,
  "ages": 46756,
  "agia": 7601,
  "aging": 44751,
  "agitis": 28400,
  "agl": 42606,
  "agon": 38950,
  "agosto": 47774,
  "agr": 20168,
  "agre": 12884,
  "agres": 31701,
  "agresividad": 46024,
  "agro": 23303,
  "agu": 31262,
  "agua": 34227,
  "ague": 20601,
  "agÃ³n": 32488,
  "agÃ¼": 13363,
  "agÃ¼e": 46895,
  "agÃ¼ey": 16091,
  "ah": 37997,
  "ahora": 28588,
  "ahu": 48603,
  "ai": 51932,
  "ais": 43193,
  "aj": 479,
  "aja": 4021,
  "ajada": 20204,
  "ajadahonda": 37387,
  "ajaj": 12950,
  "ajaja": 20219,
  "ajal": 13619,
  "ajar": 40349,
  "ajara": 17471,
  "ajardo": 28764,
  "ajas": 5462,
  "aje": 1218,
  "ajen": 31621,
  "ajes": 3248,
  "ajestad": 47705,
  "ajo": 3223,
  "ajor": 20986,
  "ajos": 13966,
  "ajus": 18595,
  "ajuste": 33144,
  "ajustes": 47448,
  "ak": 21303,
  "al": 276,
  "ala": 1699,
  "alac": 35970,
  "alan": 35215,
  "alanina": 37027,
  "alao": 48556,
  "alapril": 15154,
  "alas": 32889,
  "alato": 41169,
  "alazina": 49717,
  "alb": 21794,
  "album": 42925,
  "albuminemia": 46952,
  "albuminuria": 32584,
  "albÃºmina": 47729,
  "alco": 31743,
  "alcohol": 40400,
  "alcoxi": 42124,
  "ald": 37506,
  "alda": 36550,
  "aldad": 39405,
  "alde": 48404,
  "aldo": 33519,
  "ale": 3986,
  "alelo": 17231,
  "aler": 29295,
  "ales": 394,
  "aletra": 18408,
  "alez": 28426,
  "alfa": 31403,
  "alg": 40220,
  "algia": 7818,
  "algias": 11895,
  "algo": 26300,
  "algunas": 48963,
  "algunos": 38925,
  "ali": 29321,
  "alia": 17212,
  "aliciÃ³n": 33103,
  "alidad": 734,
  "alidades": 46106,
  "alidomida": 45672,
  "align": 49613,
  "alim": 10843,
  "alimentaciÃ³n": 22094,
  "alimentos": 49408,
  "alimumab": 33517,
  "aling": 35962,
  "alip": 46156,
  "alis": 48987,
  "aliz": 476,
  "aliza": 4247,
  "alizaba": 47809,
  "alizacion": 31824,
  "alizaciones": 8661,
  "alizaciÃ³n": 1618,
  "alizada": 2580,
  "alizadas": 6214,
  "alizado": 2416,
  "alizador": 22708,
  "alizadores": 34504,
  "alizados": 4008,
  "alizamos": 22990,
  "alizan": 9767,
  "alizando": 14902,
  "alizante": 43284,
  "alizantes": 43463,
  "alizar": 2902,
  "alizaron": 24110,
  "alizarse": 16851,
  "alizarÃ¡": 29564,
  "alizas": 16635,
  "alization": 27526,
  "alized": 22882,
  "alizo": 37696,
  "alizumab": 33869,
  "alizÃ¡ndose": 40055,
  "alizÃ³": 10509,
  "all": 2541,
  "alla": 18644,
  "allas": 34383,
  "allen": 25833,
  "aller": 11989,
  "allero": 15568,
  "alles": 35427,
  "allis": 37795,
  "allitas": 47353,
  "allo": 34718,
  "allos": 41677,
  "ally": 14971,
  "almente": 663,
  "alo": 4645,
  "aloa": 43721,
  "alobos": 45987,
  "alog": 44932,
  "alos": 26915,
  "alquil": 18614,
  "alquilo": 8714,
  "alrededor": 36311,
  "als": 10989,
  "alt": 42831,
  "alta": 14119,
  "alter": 29342,
  "alteraciones": 51089,
  "alth": 2609,
  "alto": 28361,
  "alu": 1098,
  "alud": 9644,
  "aludismo": 24682,
  "alupe": 27901,
  "alut": 32124,
  "alutamida": 51789,
  "alve": 35317,
  "alveolar": 40393,
  "am": 326,
  "ama": 1372,
  "amaciÃ³n": 22651,
  "amados": 49908,
  "aman": 6293,
  "amanca": 10396,
  "amanga": 40307,
  "amante": 34676,
  "amar": 16385,
  "amarca": 18857,
  "amas": 13467,
  "amb": 4882,
  "amba": 35438,
  "ambi": 528,
  "ambien": 8186,
  "ambiente": 39365,
  "ambio": 42109,
  "ambique": 44331,
  "ambiÃ©n": 657,
  "amblaje": 44179,
  "amble": 8077,
  "amblea": 8786,
  "ambleas": 41224,
  "ambos": 39839,
  "ambre": 9628,
  "ambres": 18216,
  "ambÃº": 51469,
  "ame": 6081,
  "amed": 45992,
  "amel": 42820,
  "amelos": 46080,
  "amen": 12310,
  "ament": 10738,
  "amental": 28266,
  "amentales": 40736,
  "amentalmente": 35802,
  "amente": 557,
  "amento": 5817,
  "amentos": 5271,
  "amer": 3716,
  "ameral": 46734,
  "americ": 3970,
  "americana": 6932,
  "americanas": 24047,
  "americano": 10041,
  "americanos": 10951,
  "ames": 11928,
  "ametasona": 15906,
  "ametox": 43537,
  "ametoxazol": 44969,
  "ami": 819,
  "amia": 24000,
  "amicamente": 45871,
  "amicina": 15671,
  "amida": 9783,
  "amidas": 31218,
  "amiento": 921,
  "amientos": 3782,
  "amig": 24293,
  "amigdal": 28623,
  "amigdalitis": 41814,
  "amil": 906,
  "amillo": 46290,
  "amilo": 17924,
  "amiloide": 42320,
  "amilton": 35303,
  "amin": 8093,
  "amina": 7889,
  "aminas": 12802,
  "amine": 26447,
  "aming": 36741,
  "amino": 12135,
  "amma": 4284,
  "amn": 28885,
  "amnesis": 11227,
  "amo": 6311,
  "amol": 48835,
  "amon": 32638,
  "amor": 13049,
  "amora": 17654,
  "amos": 788,
  "amoto": 50096,
  "amp": 6440,
  "ampicina": 23442,
  "ampiÃ³n": 13791,
  "ampl": 13101,
  "amplona": 15970,
  "ampo": 3865,
  "ampoco": 4333,
  "ampsia": 44081,
  "ams": 10360,
  "amsulosina": 32148,
  "amÃ¡": 14578,
  "amÃ©rica": 8171,
  "amÃŃn": 39940,
  "an": 279,
  "ana": 650,
  "anaderÃŃa": 30135,
  "anahor": 21129,
  "anal": 7703,
  "analysis": 22506,
  "analÃŃtica": 38900,
  "anas": 2867,
  "anato": 37037,
  "anca": 29193,
  "ance": 4009,
  "ancer": 32396,
  "anci": 2953,
  "ancia": 1362,
  "ancias": 7894,
  "anco": 34739,
  "ancy": 16759,
  "and": 4066,
  "anda": 6852,
  "andante": 15423,
  "ander": 16242,
  "andes": 16164,
  "andez": 23526,
  "ando": 453,
  "andos": 21879,
  "andr": 48760,
  "andra": 18836,
  "andre": 46461,
  "andro": 27323,
  "andÃ©s": 34938,
  "ane": 7122,
  "anes": 13939,
  "aneurisma": 49459,
  "anfenicol": 49319,
  "ang": 5147,
  "ange": 23349,
  "angi": 14834,
  "angio": 12321,
  "angiotensina": 45446,
  "angitis": 26429,
  "ango": 27418,
  "ani": 18269,
  "ania": 34239,
  "anico": 42498,
  "anidad": 41590,
  "anim": 8498,
  "animaciÃ³n": 11877,
  "animidad": 28591,
  "anina": 20132,
  "aning": 38502,
  "anio": 43597,
  "anismo": 18037,
  "anismos": 32520,
  "ano": 849,
  "anopsia": 45679,
  "anos": 1166,
  "anosis": 26351,
  "anova": 23461,
  "ans": 5609,
  "ansas": 39697,
  "ansiedad": 49389,
  "ant": 4861,
  "anta": 14781,
  "ante": 426,
  "antema": 40482,
  "antemente": 44688,
  "anterior": 44200,
  "anterÃŃa": 38274,
  "antes": 827,
  "anteÃ³n": 49725,
  "anti": 8390,
  "anticuerpos": 27016,
  "antil": 2618,
  "anto": 5520,
  "antoÃŃna": 47568,
  "ants": 16576,
  "anty": 29976,
  "antyum": 30892,
  "antÃŃ": 44595,
  "anual": 38187,
  "anum": 33573,
  "any": 48247,
  "anz": 28407,
  "anza": 1863,
  "anzas": 9588,
  "anÃ¡lisis": 9396,
  "anÃ§a": 38284,
  "anÃ§as": 46525,
  "anÃŃa": 7875,
  "ap": 3375,
  "apar": 30458,
  "apariciÃ³n": 27854,
  "apo": 39351,
  "app": 33624,
  "appa": 21888,
  "apren": 22220,
  "aprendizaje": 26850,
  "apro": 12509,
  "apropi": 20277,
  "aprox": 49790,
  "aproximadamente": 28354,
  "apÃ³n": 10766,
  "aquel": 38632,
  "ar": 272,
  "ara": 604,
  "aragua": 20656,
  "aran": 2012,
  "arance": 43892,
  "aras": 7553,
  "arato": 31248,
  "arazo": 13079,
  "arc": 1430,
  "arca": 7467,
  "arcal": 28526,
  "arcas": 38258,
  "arcel": 3096,
  "arcelona": 3167,
  "arch": 20725,
  "arco": 33590,
  "arcoma": 12829,
  "arcos": 21504,
  "arction": 33218,
  "arcÃŃa": 3005,
  "ard": 3163,
  "ardi": 40052,
  "ardo": 6422,
  "ardon": 18773,
  "ardÃŃn": 16884,
  "are": 4291,
  "aredo": 51274,
  "arel": 38156,
  "arelto": 42601,
  "aremos": 19496,
  "arena": 29677,
  "ares": 835,
  "arez": 43876,
  "argo": 998,
  "ari": 509,
  "aria": 618,
  "ariable": 21845,
  "ariado": 47237,
  "arial": 10011,
  "ariales": 18587,
  "ariamente": 5013,
  "arian": 31406,
  "ariana": 23443,
  "arias": 1117,
  "ariciÃ³n": 2467,
  "aridad": 10571,
  "arie": 39314,
  "ariedad": 18768,
  "aries": 46172,
  "aril": 42880,
  "arilo": 19372,
  "aring": 44584,
  "ario": 603,
  "arios": 742,
  "ariotas": 36859,
  "ariotipo": 34657,
  "arita": 18164,
  "arium": 45712,
  "arius": 44067,
  "ariÃ¡": 20652,
  "ariÃ¡trica": 22218,
  "ariÃ±o": 50895,
  "ark": 48732,
  "arla": 5726,
  "arlas": 36414,
  "arle": 20826,
  "arlo": 3796,
  "arlos": 9593,
  "arly": 15461,
  "arm": 43396,
  "arma": 22459,
  "armac": 18553,
  "armacia": 47490,
  "arme": 10945,
  "arning": 23413,
  "arnos": 9930,
  "aro": 10815,
  "aron": 724,
  "arqu": 28532,
  "arquia": 33911,
  "arquÃŃa": 19814,
  "arra": 2924,
  "arre": 14285,
  "arri": 47478,
  "arro": 7973,
  "arrol": 766,
  "arrollo": 5497,
  "ars": 29350,
  "arse": 845,
  "art": 5718,
  "artan": 20909,
  "arte": 6055,
  "arterial": 27676,
  "arthritis": 51021,
  "artic": 22709,
  "article": 45342,
  "articular": 25592,
  "articulares": 35017,
  "arto": 3462,
  "artos": 15477,
  "artria": 19212,
  "artritis": 18146,
  "artro": 46810,
  "artrosis": 24271,
  "artÃ¡n": 21268,
  "artÃ©n": 42570,
  "ary": 6478,
  "arÃ¡": 1155,
  "arÃ¡n": 3606,
  "arÃŃa": 5297,
  "as": 273,
  "asa": 2298,
  "asaki": 40135,
  "asas": 4896,
  "asco": 38700,
  "ase": 1343,
  "asemia": 38623,
  "asen": 31725,
  "ases": 12073,
  "ash": 9081,
  "asi": 21983,
  "asia": 11821,
  "asis": 4966,
  "asistencia": 37306,
  "asma": 35747,
  "aso": 16452,
  "asoci": 37067,
  "ason": 19058,
  "asp": 27955,
  "aspir": 39943,
  "aspiraciÃ³n": 28980,
  "aspx": 48831,
  "ass": 17004,
  "associated": 36982,
  "ast": 14307,
  "asta": 781,
  "astamiento": 44190,
  "astas": 41007,
  "aste": 12611,
  "asÃŃ": 32806,
  "at": 1239,
  "ata": 18750,
  "atales": 30991,
  "atch": 31413,
  "ate": 3965,
  "aten": 42126,
  "atenciÃ³n": 40460,
  "ater": 49167,
  "atge": 49759,
  "atina": 16103,
  "ating": 26357,
  "ation": 8288,
  "atitis": 12848,
  "ativa": 16284,
  "ativas": 51316,
  "ativo": 13229,
  "ativos": 24586,
  "ato": 12577,
  "atologÃŃa": 4326,
  "atori": 28867,
  "atorio": 12349,
  "atosis": 26593,
  "atro": 2098,
  "ats": 33674,
  "att": 51860,
  "atÃ¡n": 32412,
  "atÃ³": 43813,
  "atÃŃa": 12966,
  "au": 3823,
  "audi": 38748,
  "aum": 38918,
  "aumento": 28644,
  "aunque": 11489,
  "aur": 18830,
  "auricular": 22848,
  "aus": 31692,
  "ausencia": 44946,
  "auto": 30553,
  "auton": 50669,
  "autor": 38788,
  "av": 1141,
  "aval": 38990,
  "avana": 47434,
  "ave": 7863,
  "avedra": 43895,
  "avent": 35779,
  "avera": 31878,
  "avir": 17097,
  "avirenz": 41237,
  "avor": 1896,
  "ax": 21265,
  "axaca": 36465,
  "axial": 28899,
  "ay": 928,
  "aya": 6036,
  "ayas": 22370,
  "ayer": 37640,
  "ayo": 10035,
  "ayor": 47368,
  "ayos": 21348,
  "ayuda": 30358,
  "ayuno": 26077,
  "az": 13100,
  "azol": 15843,
  "aÃ±a": 50235,
  "aÃ±ad": 16757,
  "aÃ±o": 15255,
  "aÃ±os": 14963,
  "aÃ³r": 29842,
  "aÃ³rticos": 48001,
  "aÃºn": 41615,
  "b": 69,
  "ba": 699,
  "bable": 21740,
  "bac": 12678,
  "bacco": 24147,
  "bach": 17542,
  "baci": 21262,
  "bacillus": 32048,
  "baciones": 16880,
  "baciÃ³n": 4587,
  "back": 18967,
  "bactam": 27224,
  "bacter": 12851,
  "bacteri": 8637,
  "bacteria": 45405,
  "bacterias": 17094,
  "bacterium": 19325,
  "bada": 25538,
  "bado": 3143,
  "bados": 18102,
  "bago": 44051,
  "bai": 46237,
  "baj": 697,
  "baja": 39000,
  "bajo": 15528,
  "bajos": 45896,
  "bal": 4479,
  "balamina": 41797,
  "balance": 46462,
  "balgia": 17972,
  "ball": 25404,
  "balto": 51193,
  "bamos": 9031,
  "ban": 1950,
  "bana": 7820,
  "banas": 16221,
  "banco": 37030,
  "bando": 42866,
  "bano": 9019,
  "banos": 17220,
  "bao": 15046,
  "bar": 2329,
  "bara": 21773,
  "barbital": 35087,
  "bares": 19263,
  "barse": 48043,
  "bas": 1631,
  "basal": 25244,
  "base": 29975,
  "based": 19172,
  "basilar": 49213,
  "basmin": 50607,
  "bat": 49160,
  "bata": 50516,
  "bato": 35127,
  "baum": 32300,
  "bavirina": 28446,
  "bay": 46144,
  "bb": 23714,
  "bbing": 49128,
  "be": 1584,
  "beb": 40110,
  "bec": 22635,
  "beck": 43496,
  "being": 44479,
  "bel": 7482,
  "bell": 26129,
  "bella": 27058,
  "ben": 5082,
  "bendas": 51439,
  "bene": 21232,
  "beneficio": 25527,
  "benzo": 39640,
  "ber": 1065,
  "bera": 34900,
  "bercul": 5185,
  "berculosis": 5915,
  "berg": 7217,
  "berger": 34886,
  "bern": 6305,
  "berna": 49145,
  "bernam": 15527,
  "beros": 22544,
  "berry": 50727,
  "bers": 41227,
  "bert": 7892,
  "berto": 6179,
  "berts": 27845,
  "bertura": 37561,
  "bes": 8433,
  "besartan": 50748,
  "bet": 43376,
  "beta": 27586,
  "bete": 43787,
  "betes": 6354,
  "bi": 352,
  "bia": 2491,
  "bial": 12344,
  "biales": 29426,
  "biana": 41936,
  "bianas": 47468,
  "bias": 12298,
  "bible": 30947,
  "bibles": 43194,
  "bic": 23081,
  "bica": 30155,
  "bico": 23088,
  "bicos": 48890,
  "bida": 9613,
  "bidas": 23212,
  "bidea": 47625,
  "bidity": 48673,
  "bido": 7600,
  "bidos": 15901,
  "bie": 45918,
  "bien": 31205,
  "biendo": 8398,
  "bier": 1318,
  "biera": 42042,
  "bieran": 13928,
  "bieron": 12804,
  "bierta": 18876,
  "biertas": 29029,
  "bierto": 7207,
  "biertos": 16203,
  "bies": 45464,
  "biga": 29437,
  "bil": 592,
  "bildo": 38681,
  "bile": 33261,
  "bili": 10454,
  "bilical": 11727,
  "bilidad": 816,
  "bilidade": 47367,
  "bilidades": 2242,
  "bilinÃ³geno": 14277,
  "bilirrubinemia": 42538,
  "bilis": 42982,
  "bilities": 38897,
  "bility": 8656,
  "bilizaciÃ³n": 7281,
  "bilizar": 10130,
  "billa": 29853,
  "billo": 36187,
  "bimos": 17998,
  "bin": 2130,
  "bina": 3668,
  "bio": 3733,
  "biologÃŃa": 24299,
  "bios": 6768,
  "biosis": 42318,
  "bir": 1828,
  "bira": 46740,
  "bis": 13218,
  "bismo": 22047,
  "bit": 19128,
  "bita": 15544,
  "bital": 15661,
  "bitas": 41894,
  "bitis": 22180,
  "bito": 14199,
  "bitol": 51659,
  "bitos": 48916,
  "bitÃºricos": 36139,
  "biÃ³": 2019,
  "biÃ³tica": 48022,
  "biÃ³tico": 31073,
  "biÃ³ticos": 12762,
  "bl": 480,
  "bla": 13779,
  "blaciones": 32099,
  "blaciÃ³n": 8478,
  "blado": 37454,
  "blan": 18555,
  "blanco": 46397,
  "blas": 8489,
  "blasto": 47071,
  "blastoma": 16921,
  "blastos": 17521,
  "ble": 496,
  "blece": 42529,
  "blecer": 15405,
  "bledo": 37868,
  "blema": 33777,
  "blemas": 12683,
  "bles": 962,
  "bli": 31596,
  "blia": 21101,
  "bligo": 28620,
  "blind": 39189,
  "blio": 4111,
  "blo": 4049,
  "blog": 44150,
  "blogs": 31011,
  "blogspot": 35505,
  "bloque": 13976,
  "bloqueantes": 20541,
  "bloqueo": 38931,
  "blor": 46826,
  "blos": 11249,
  "bly": 47796,
  "blÃ¡stica": 25167,
  "bn": 47775,
  "bo": 1605,
  "boa": 24023,
  "board": 41146,
  "bol": 3406,
  "bola": 13659,
  "bole": 48517,
  "boles": 11987,
  "bom": 49208,
  "bon": 11918,
  "bonucle": 42015,
  "book": 23007,
  "bor": 7669,
  "bora": 47364,
  "born": 31874,
  "borne": 51670,
  "borre": 31703,
  "bos": 7319,
  "bosa": 40923,
  "bot": 38626,
  "bott": 39333,
  "bourne": 46718,
  "box": 20157,
  "boy": 47067,
  "br": 1311,
  "bra": 2894,
  "brado": 25321,
  "brados": 19941,
  "bral": 5331,
  "brales": 12162,
  "bramicina": 44746,
  "bramiento": 39101,
  "bran": 11811,
  "brand": 45036,
  "brar": 26786,
  "bras": 7905,
  "bray": 40912,
  "brazo": 47887,
  "bre": 454,
  "break": 47315,
  "bregat": 33320,
  "bren": 49939,
  "bres": 1571,
  "bri": 28717,
  "brica": 15996,
  "bricas": 31997,
  "brid": 14617,
  "bridamiento": 32348,
  "bridge": 21439,
  "bro": 5627,
  "bron": 16967,
  "broncos": 42814,
  "bronquial": 39073,
  "bros": 11941,
  "bs": 7632,
  "bsi": 25493,
  "bsiella": 25950,
  "bu": 2931,
  "buc": 51226,
  "buen": 21377,
  "buena": 37050,
  "bueno": 34009,
  "bul": 14748,
  "bula": 13892,
  "bular": 7066,
  "bulares": 23644,
  "bulas": 42708,
  "bulo": 18818,
  "bulos": 27281,
  "bum": 11658,
  "bun": 8153,
  "bunal": 10164,
  "bunales": 22014,
  "buprofeno": 7081,
  "bur": 11194,
  "burg": 19520,
  "burgh": 38007,
  "burgo": 26374,
  "burn": 44310,
  "bury": 41700,
  "bus": 6341,
  "buses": 38977,
  "but": 41564,
  "butamina": 37772,
  "butamol": 17051,
  "by": 12265,
  "bÃ©": 20872,
  "bÃ©ola": 26348,
  "bÃ³": 24667,
  "bÃ³n": 38670,
  "bÃºs": 28335,
  "bÃŃ": 19883,
  "bÃŃa": 32234,
  "c": 70,
  "ca": 482,
  "cab": 33882,
  "caba": 20638,
  "caciÃ³n": 13236,
  "cad": 24408,
  "cada": 6769,
  "cadas": 13640,
  "cado": 2316,
  "cados": 7486,
  "cal": 1365,
  "cala": 10232,
  "calas": 32178,
  "calcemia": 18241,
  "calci": 15286,
  "calcitonina": 23344,
  "calcul": 50427,
  "cale": 14960,
  "cales": 10444,
  "cali": 37213,
  "calidad": 25059,
  "calipsis": 50811,
  "calo": 47744,
  "cam": 18175,
  "cambi": 5995,
  "cambio": 33173,
  "cambios": 50207,
  "camente": 21936,
  "camiento": 13595,
  "camos": 21335,
  "campe": 49625,
  "campo": 18382,
  "can": 1004,
  "cana": 46724,
  "cancer": 24787,
  "cando": 5800,
  "canes": 31500,
  "cano": 20781,
  "canos": 47304,
  "cante": 31276,
  "cantes": 48180,
  "cap": 9485,
  "capaces": 24438,
  "capaci": 8048,
  "capacidad": 2634,
  "cape": 46100,
  "capiÃ©": 14461,
  "caps": 18267,
  "capsular": 41200,
  "capular": 37251,
  "car": 710,
  "cara": 13150,
  "caracter": 48443,
  "caras": 32089,
  "carb": 18271,
  "carbo": 49530,
  "carbon": 27933,
  "carbonilo": 40855,
  "carbox": 48532,
  "carcin": 40850,
  "carcinoma": 11451,
  "carcinomas": 45615,
  "cardi": 3935,
  "cardia": 45248,
  "cardial": 29051,
  "cardio": 4860,
  "cardiografÃŃa": 35739,
  "cardiograma": 20538,
  "cardiopatÃŃa": 51579,
  "carditis": 12132,
  "care": 13407,
  "carga": 8956,
  "carn": 26318,
  "carnaciÃ³n": 40359,
  "caro": 26071,
  "caron": 32373,
  "caroteno": 41614,
  "carril": 26813,
  "carse": 18559,
  "cas": 936,
  "casa": 22928,
  "casi": 26965,
  "casines": 43560,
  "caso": 19106,
  "casos": 37316,
  "cast": 7269,
  "cat": 20352,
  "cate": 23219,
  "categ": 33250,
  "caten": 47166,
  "catÃ©ter": 40192,
  "cav": 21705,
  "cava": 44557,
  "caÃŃna": 9747,
  "cc": 11946,
  "cciÃ³n": 3929,
  "ce": 459,
  "ced": 12985,
  "cedente": 6983,
  "cedentes": 2663,
  "cedents": 29427,
  "cedes": 16671,
  "cedo": 21630,
  "cedora": 51928,
  "cef": 16735,
  "cefal": 7500,
  "cefalia": 15141,
  "cel": 2043,
  "cele": 17273,
  "celente": 41424,
  "celes": 35780,
  "cell": 27650,
  "cellular": 46588,
  "celo": 26311,
  "celular": 10543,
  "celulares": 23374,
  "celulosa": 49007,
  "cemia": 15501,
  "cemos": 16869,
  "cen": 1910,
  "cena": 36549,
  "cence": 40134,
  "cencia": 12526,
  "cencias": 47550,
  "ceno": 31246,
  "cens": 35105,
  "censo": 29105,
  "cent": 1377,
  "centa": 32174,
  "centaje": 24588,
  "cente": 19918,
  "centes": 15620,
  "centesis": 26283,
  "centil": 31144,
  "centimÃ©": 46145,
  "centr": 21652,
  "centraciÃ³n": 28582,
  "central": 44113,
  "centro": 30825,
  "cep": 995,
  "cepcional": 36122,
  "cepciÃ³n": 3633,
  "cephal": 42412,
  "ceps": 24043,
  "cept": 22454,
  "ception": 50472,
  "ceptiva": 39952,
  "ceptivas": 50922,
  "ceptivo": 32922,
  "ceptivos": 36474,
  "cepto": 13432,
  "ceptores": 38316,
  "ceptos": 23724,
  "cer": 631,
  "cera": 3972,
  "ceras": 7272,
  "cerca": 29038,
  "cereb": 20683,
  "cerebral": 39219,
  "ceres": 20228,
  "cern": 32958,
  "cero": 26149,
  "ceros": 48303,
  "cers": 31065,
  "certid": 12236,
  "cerv": 21641,
  "cervical": 29365,
  "cervicales": 45328,
  "cerÃŃa": 39199,
  "ces": 606,
  "cesa": 10253,
  "cesis": 45938,
  "ceso": 1032,
  "cesos": 12005,
  "cess": 17606,
  "cet": 41432,
  "ceta": 44145,
  "cetam": 35280,
  "ceton": 37106,
  "cg": 9346,
  "ch": 499,
  "cha": 1015,
  "chado": 20367,
  "chamiento": 29066,
  "chan": 32935,
  "char": 6129,
  "chas": 3533,
  "chazÃ³n": 49387,
  "che": 2085,
  "chea": 37830,
  "chel": 32903,
  "chem": 19690,
  "chemic": 43712,
  "chemical": 42191,
  "chen": 33864,
  "cher": 11590,
  "cherichia": 22058,
  "ches": 6184,
  "chester": 25358,
  "chever": 34944,
  "chez": 4663,
  "chi": 14743,
  "chia": 47349,
  "child": 45873,
  "chin": 36306,
  "cho": 1056,
  "chool": 11190,
  "chor": 39376,
  "chos": 2809,
  "cht": 35920,
  "chy": 41871,
  "ci": 266,
  "cia": 378,
  "ciaciÃ³n": 47828,
  "ciado": 30361,
  "cial": 1428,
  "ciales": 2804,
  "cialidad": 16954,
  "cialmente": 6993,
  "cian": 27213,
  "ciana": 40905,
  "ciano": 19183,
  "cianos": 41203,
  "ciar": 28201,
  "cias": 1227,
  "cibilidad": 32650,
  "cible": 16131,
  "cibles": 26543,
  "cica": 12082,
  "cicas": 37051,
  "cicl": 29819,
  "cicle": 38119,
  "ciclo": 14562,
  "ciclovir": 28364,
  "cico": 14406,
  "cicos": 37730,
  "cid": 460,
  "cida": 2955,
  "cidad": 3607,
  "cidades": 22390,
  "cidas": 4491,
  "cidio": 40362,
  "cido": 1322,
  "cidos": 2501,
  "ciedad": 38160,
  "cience": 20742,
  "ciencia": 8581,
  "ciencias": 17435,
  "ciende": 14408,
  "cienden": 30282,
  "ciendo": 3046,
  "cient": 16559,
  "cientas": 51094,
  "ciente": 2553,
  "cientemente": 11831,
  "cientes": 6068,
  "cientific": 32149,
  "cientos": 25703,
  "cientÃŃ": 24235,
  "ciera": 21454,
  "cieran": 48881,
  "cieron": 7279,
  "cierto": 46809,
  "cies": 14684,
  "cif": 23326,
  "ciferol": 48354,
  "cifes": 49312,
  "cil": 1624,
  "ciles": 7300,
  "cili": 30677,
  "cilina": 30132,
  "cilio": 42900,
  "cilla": 13511,
  "cillas": 41474,
  "ciller": 45829,
  "cillo": 30713,
  "cillos": 39378,
  "cima": 33598,
  "cimento": 29397,
  "cimiento": 1450,
  "cimientos": 5212,
  "cimos": 25695,
  "cin": 1637,
  "cina": 1156,
  "cinas": 8127,
  "cinasa": 42928,
  "cination": 38867,
  "cinco": 29406,
  "cindi": 6447,
  "cindible": 45843,
  "cine": 6574,
  "cines": 31436,
  "cinesia": 29715,
  "cinetobacter": 44231,
  "cing": 19502,
  "cino": 14434,
  "cinoma": 4916,
  "cinos": 34037,
  "cinto": 48185,
  "cio": 1080,
  "ciocho": 40389,
  "cion": 767,
  "ciona": 3141,
  "cionada": 15417,
  "cionadas": 28822,
  "cionado": 11193,
  "cionador": 34453,
  "cionados": 20786,
  "cional": 1240,
  "cionales": 3373,
  "cionalidad": 24371,
  "cionalmente": 8224,
  "cionamiento": 10564,
  "cionan": 24367,
  "cionando": 30757,
  "cionante": 22223,
  "cionantes": 44653,
  "cionar": 3042,
  "cionario": 18817,
  "cionarios": 31121,
  "cione": 44730,
  "ciones": 623,
  "cionismo": 37508,
  "cionista": 14678,
  "cionistas": 17668,
  "cions": 27693,
  "cionÃ³": 31002,
  "cios": 2115,
  "ciosa": 20248,
  "ciosas": 7206,
  "cioso": 15744,
  "ciosos": 14149,
  "cip": 692,
  "cipa": 6747,
  "cipaciÃ³n": 39143,
  "cipar": 31037,
  "ciparum": 34742,
  "cipe": 11785,
  "cipes": 32498,
  "cipios": 4473,
  "cipital": 14790,
  "cipl": 3413,
  "cipo": 47056,
  "cipro": 38920,
  "cir": 946,
  "ciru": 8407,
  "cirugÃŃa": 10050,
  "cis": 1076,
  "cisa": 30405,
  "cisiones": 43266,
  "cisiÃ³n": 15600,
  "cismo": 19330,
  "ciso": 38861,
  "cista": 27079,
  "cistas": 40759,
  "cisteÃŃna": 51306,
  "cita": 13377,
  "citabina": 28390,
  "citado": 20584,
  "citalopram": 37821,
  "citamente": 34542,
  "citas": 23672,
  "citis": 9787,
  "cito": 5828,
  "citoma": 28868,
  "citopenia": 47994,
  "citos": 7994,
  "citosis": 27887,
  "cits": 22004,
  "ciÃ©ndose": 19436,
  "ciÃ³": 2774,
  "ciÃ³n": 359,
  "ck": 5966,
  "cl": 537,
  "cla": 4637,
  "claje": 17264,
  "clar": 18323,
  "clas": 22239,
  "clase": 30925,
  "clatura": 33711,
  "clav": 48597,
  "clave": 44188,
  "clavulÃ¡nico": 25403,
  "cle": 4283,
  "cleo": 41435,
  "cler": 3977,
  "clero": 40712,
  "clerosis": 4596,
  "clerÃ³tica": 25631,
  "cles": 39045,
  "clin": 26047,
  "clina": 16716,
  "clinas": 29246,
  "clo": 3116,
  "clor": 18740,
  "cloro": 16369,
  "clorotiazida": 20728,
  "cloruro": 38039,
  "clovir": 27449,
  "clus": 2233,
  "clusion": 39322,
  "clusiones": 3749,
  "clusiÃ³n": 6874,
  "cluye": 28700,
  "clÃŃn": 15648,
  "clÃŃnica": 22056,
  "clÃŃnicas": 43699,
  "clÃŃnico": 27904,
  "clÃŃnicos": 29194,
  "cm": 10159,
  "cn": 38742,
  "co": 443,
  "coag": 21651,
  "coagulaciÃ³n": 36790,
  "coc": 7360,
  "coccal": 34554,
  "coccus": 8979,
  "coco": 11571,
  "cocos": 18551,
  "cogn": 24919,
  "coh": 2346,
  "coher": 32643,
  "cohol": 16555,
  "col": 4411,
  "cola": 38873,
  "colas": 15231,
  "coles": 6150,
  "colesterol": 12043,
  "colesterolemia": 14569,
  "coli": 23402,
  "colina": 25650,
  "colis": 47354,
  "colitiasis": 50537,
  "colitis": 41903,
  "colmo": 40314,
  "colo": 35180,
  "colon": 42994,
  "color": 12144,
  "colore": 15136,
  "colÃŃa": 41922,
  "com": 1357,
  "comas": 24640,
  "come": 26963,
  "comer": 40578,
  "comerci": 43176,
  "comercializaciÃ³n": 49015,
  "comes": 38153,
  "comicina": 17961,
  "como": 4680,
  "comp": 19265,
  "compatibilidad": 47029,
  "comple": 23884,
  "compulsivo": 32636,
  "comun": 21897,
  "comycin": 51542,
  "con": 595,
  "conazol": 21989,
  "cond": 12185,
  "condri": 15554,
  "conduc": 16603,
  "conductual": 24483,
  "cone": 33728,
  "cones": 26699,
  "conf": 33534,
  "coni": 40045,
  "conjuntivitis": 37458,
  "cono": 28542,
  "conoci": 22830,
  "conocida": 50662,
  "conocido": 41488,
  "conocimiento": 48500,
  "cons": 4193,
  "consciente": 46227,
  "consider": 51611,
  "consin": 40787,
  "consul": 22083,
  "consulta": 16587,
  "consultado": 14284,
  "consumo": 40002,
  "content": 40942,
  "contin": 14270,
  "continencia": 31650,
  "contra": 37522,
  "control": 11375,
  "controlled": 41833,
  "contusa": 51131,
  "coordin": 34951,
  "cop": 5348,
  "copa": 46339,
  "copal": 45288,
  "cope": 10544,
  "copes": 31605,
  "copia": 4143,
  "copias": 24562,
  "copic": 28080,
  "copio": 9073,
  "copios": 26636,
  "copy": 28570,
  "copÃŃa": 16793,
  "cor": 1742,
  "cord": 8234,
  "cording": 22171,
  "core": 12287,
  "corpor": 16125,
  "corpÃ³": 23874,
  "correspon": 43472,
  "cortical": 25753,
  "corticales": 50779,
  "cortis": 28318,
  "cortisona": 32502,
  "cos": 1610,
  "cosa": 28081,
  "cosas": 40690,
  "cosis": 29130,
  "coso": 36364,
  "costal": 25747,
  "cot": 24948,
  "cott": 42651,
  "cou": 44504,
  "court": 27810,
  "coz": 38598,
  "cp": 50872,
  "cr": 4086,
  "cra": 13149,
  "cran": 31935,
  "craneal": 34616,
  "crania": 38283,
  "cre": 900,
  "crea": 24516,
  "creas": 7557,
  "creatinina": 42422,
  "crecimiento": 35286,
  "credi": 19728,
  "creening": 12711,
  "creo": 46101,
  "cres": 45689,
  "cretamente": 18197,
  "cri": 784,
  "cribe": 40925,
  "cribir": 9965,
  "crimin": 30593,
  "crin": 11465,
  "crina": 49147,
  "crino": 32253,
  "crinos": 43190,
  "crip": 8493,
  "cripciones": 19963,
  "cripciÃ³n": 3752,
  "cript": 37046,
  "crisis": 43491,
  "crit": 39763,
  "crita": 23905,
  "critas": 38138,
  "crito": 3635,
  "critos": 13544,
  "cro": 14699,
  "cromatosis": 46239,
  "cron": 17132,
  "cru": 46636,
  "cruz": 49528,
  "crÃ¡": 27597,
  "crÃ³mica": 49360,
  "crÃŃtica": 45910,
  "crÃŃtico": 46095,
  "cs": 30483,
  "ct": 26128,
  "cti": 25611,
  "ction": 27326,
  "ctional": 47763,
  "cto": 5592,
  "ctomia": 43485,
  "ctomÃŃa": 16642,
  "cton": 45119,
  "ctur": 6217,
  "cu": 473,
  "cua": 32002,
  "cuadrado": 40111,
  "cuadro": 23605,
  "cual": 13120,
  "cualquier": 42441,
  "cuando": 17108,
  "cuar": 34125,
  "cuatro": 48381,
  "cub": 37840,
  "cuent": 1251,
  "cuenta": 16569,
  "cuentro": 46960,
  "cuer": 18279,
  "cuerpo": 51493,
  "cuidad": 41089,
  "cuidado": 13386,
  "cuidados": 38537,
  "cuito": 35790,
  "cul": 517,
  "cula": 3435,
  "culaciÃ³n": 17160,
  "culado": 36878,
  "cular": 1129,
  "culares": 2271,
  "culas": 6369,
  "culation": 33406,
  "culatura": 9984,
  "culitis": 16795,
  "culo": 2515,
  "culos": 3057,
  "culosos": 44721,
  "cultaciÃ³n": 11942,
  "cultivo": 10184,
  "cultivos": 13740,
  "cultura": 23039,
  "cultural": 17395,
  "culturales": 25515,
  "cum": 34582,
  "cuma": 33841,
  "cun": 36824,
  "cup": 2527,
  "cupa": 25761,
  "cupational": 28598,
  "cur": 1285,
  "cura": 12011,
  "cure": 46330,
  "curio": 14697,
  "curo": 33900,
  "curso": 4865,
  "cus": 4261,
  "cusion": 51437,
  "cusiones": 12098,
  "cusiÃ³n": 4584,
  "cuta": 30924,
  "cutÃ¡nea": 37301,
  "cutÃ¡neo": 46158,
  "cuÃ¡l": 22704,
  "cuÃ¡les": 43412,
  "cuÃ¡n": 38674,
  "cy": 6120,
  "cys": 35539,
  "cystis": 49314,
  "cÃ¡": 29523,
  "cÃ¡n": 16987,
  "cÃ¡ncer": 38314,
  "cÃ¡ntara": 41932,
  "cÃ¡r": 8768,
  "cÃ¡rdica": 47358,
  "cÃ©": 18171,
  "cÃ©falo": 37786,
  "cÃ©lulas": 33042,
  "cÃ©n": 20351,
  "cÃ©ntrica": 28758,
  "cÃ©ntrico": 41249,
  "cÃ©s": 9055,
  "cÃ³": 3122,
  "cÃ³cica": 17082,
  "cÃ³gn": 38822,
  "cÃ³mo": 10394,
  "cÃ³n": 13389,
  "cÃ³pica": 7158,
  "cÃ³picamente": 39966,
  "cÃ³picas": 21929,
  "cÃ³pico": 13119,
  "cÃ³picos": 23071,
  "cÃº": 23945,
  "cÃŃ": 37104,
  "cÃŃa": 18104,
  "cÃŃan": 27503,
  "cÃŃas": 25149,
  "cÃŃtica": 21435,
  "cÃŃtico": 26375,
  "d": 71,
  "dL": 3315,
  "da": 398,
  "dactilia": 41132,
  "dad": 429,
  "dada": 14231,
  "dadas": 9977,
  "dade": 29243,
  "dades": 798,
  "dado": 8574,
  "dador": 9245,
  "dadora": 28096,
  "dadores": 15562,
  "dados": 11306,
  "dadura": 25418,
  "daf": 34649,
  "daje": 4385,
  "dal": 2787,
  "dala": 26726,
  "dalas": 24859,
  "dale": 30949,
  "dalena": 27580,
  "dalias": 43974,
  "dall": 21902,
  "dalla": 14937,
  "dallas": 29644,
  "dalo": 27756,
  "dalos": 50682,
  "dalucÃŃa": 6781,
  "dam": 21042,
  "damente": 30290,
  "damicina": 30432,
  "damiento": 15340,
  "damos": 31977,
  "dan": 1829,
  "dando": 39897,
  "danse": 38975,
  "dap": 2452,
  "dar": 2020,
  "dard": 19554,
  "dards": 35109,
  "dares": 11095,
  "daria": 46514,
  "dario": 25200,
  "darios": 30523,
  "darona": 20293,
  "darse": 34901,
  "dary": 29825,
  "das": 702,
  "dasa": 42709,
  "dat": 47962,
  "data": 50700,
  "date": 21666,
  "dated": 46900,
  "datos": 30107,
  "day": 27752,
  "daz": 41120,
  "daÃ±o": 39455,
  "dc": 36245,
  "dd": 29845,
  "de": 260,
  "dea": 9985,
  "dear": 44764,
  "deas": 27945,
  "debe": 39177,
  "deber": 42663,
  "debido": 40984,
  "dec": 36374,
  "dece": 42867,
  "decer": 35323,
  "ded": 6074,
  "dedor": 3097,
  "dedora": 41699,
  "dedores": 11827,
  "dedura": 29069,
  "deduras": 40604,
  "def": 31842,
  "defin": 20621,
  "degenera": 12868,
  "degeneraciÃ³n": 43939,
  "degenerativas": 49027,
  "degrad": 37097,
  "deh": 24058,
  "dehÃŃdo": 32516,
  "del": 3571,
  "dela": 17751,
  "dele": 25528,
  "deleciÃ³n": 48245,
  "dell": 21913,
  "delo": 11974,
  "delos": 27135,
  "dem": 9565,
  "dema": 42487,
  "demi": 2889,
  "demia": 4379,
  "demias": 24052,
  "demic": 25260,
  "demo": 11456,
  "demos": 2111,
  "demy": 17900,
  "den": 417,
  "dena": 4745,
  "denafilo": 32982,
  "denal": 30539,
  "denas": 9493,
  "dence": 13208,
  "dencia": 1014,
  "dencial": 33231,
  "dencias": 3556,
  "dendr": 36774,
  "dendro": 50722,
  "denes": 9341,
  "denomin": 37714,
  "dens": 16350,
  "densidad": 30624,
  "dent": 8783,
  "dental": 5605,
  "dentales": 15050,
  "dente": 1260,
  "dentemente": 24042,
  "dentes": 1554,
  "dentro": 41357,
  "dents": 14236,
  "deo": 5312,
  "deos": 11355,
  "dep": 34783,
  "depen": 7051,
  "dependencia": 18922,
  "dependent": 38255,
  "dependiente": 12994,
  "dependientes": 33062,
  "depilaciÃ³n": 48277,
  "depor": 36375,
  "depres": 8213,
  "depresivo": 44390,
  "depresivos": 45123,
  "depresiÃ³n": 42818,
  "der": 556,
  "dera": 2472,
  "deraciÃ³n": 10401,
  "deramiento": 25471,
  "deran": 35758,
  "deras": 8870,
  "dere": 19474,
  "derecha": 42633,
  "derecho": 47712,
  "deres": 8512,
  "deri": 20992,
  "derivados": 35610,
  "derly": 20426,
  "derm": 34832,
  "derma": 28612,
  "derman": 51801,
  "dermia": 23851,
  "dermo": 34157,
  "dero": 5184,
  "deros": 7861,
  "ders": 7754,
  "derse": 25330,
  "dersen": 42886,
  "derson": 16509,
  "derstan": 30896,
  "derÃ¡": 8500,
  "derÃŃa": 10440,
  "derÃŃas": 30967,
  "des": 444,
  "desa": 20612,
  "desarrol": 34463,
  "desarrollo": 22741,
  "descar": 47059,
  "descenso": 49699,
  "desde": 14392,
  "dese": 42117,
  "desh": 41320,
  "desis": 29918,
  "desivir": 29339,
  "desnivel": 51099,
  "deso": 43128,
  "desonida": 28503,
  "despuÃ©s": 32370,
  "destaciÃ³n": 12168,
  "deste": 23549,
  "desviaciÃ³n": 44505,
  "det": 40436,
  "detec": 39078,
  "determin": 26800,
  "determinaciÃ³n": 44339,
  "dex": 7078,
  "dez": 2013,
  "deza": 13404,
  "dezco": 18420,
  "df": 6775,
  "dfulness": 22502,
  "di": 292,
  "dia": 1078,
  "diab": 14152,
  "diabetes": 23278,
  "diacep": 20642,
  "diacepinas": 22221,
  "diado": 37770,
  "diafrag": 33544,
  "diafragma": 45448,
  "diagn": 12902,
  "diagnostic": 45901,
  "diagnÃ³stico": 16738,
  "dial": 2035,
  "diales": 12370,
  "dialmente": 29386,
  "dialysis": 29369,
  "dian": 35412,
  "diar": 16466,
  "diario": 47623,
  "dias": 9011,
  "diast": 46176,
  "diazep": 23957,
  "dible": 26580,
  "dibular": 11789,
  "dibulares": 31291,
  "dic": 648,
  "dica": 1203,
  "dicaciÃ³n": 10323,
  "dical": 31949,
  "dicamente": 13449,
  "dicas": 3369,
  "dicciones": 26887,
  "dicciÃ³n": 23904,
  "dice": 1948,
  "dicectomÃŃa": 30548,
  "dices": 9010,
  "dicho": 44421,
  "dici": 22871,
  "dicial": 9556,
  "diciales": 13288,
  "dicidad": 25704,
  "diciembre": 41603,
  "diciones": 15765,
  "diciÃ³n": 11243,
  "dico": 997,
  "dicos": 1448,
  "diction": 51644,
  "dicto": 39285,
  "did": 11751,
  "dida": 1445,
  "didad": 5910,
  "didades": 48328,
  "didas": 4590,
  "didi": 16606,
  "didiasis": 20549,
  "dido": 1630,
  "didos": 4706,
  "die": 28427,
  "diendo": 2254,
  "diente": 1598,
  "dientes": 2785,
  "diera": 19913,
  "dieran": 32497,
  "dieron": 4959,
  "dies": 28851,
  "diet": 35990,
  "dieta": 37148,
  "dietÃ©ticas": 50510,
  "dif": 46254,
  "dific": 2296,
  "difica": 10210,
  "dificaciÃ³n": 19861,
  "dig": 25246,
  "diga": 44169,
  "digital": 50084,
  "digo": 32416,
  "dihidro": 48519,
  "dii": 34906,
  "dijo": 50490,
  "dil": 11088,
  "dila": 9667,
  "dilataciÃ³n": 50926,
  "dilitis": 21616,
  "dill": 20363,
  "dilla": 21271,
  "dillas": 35748,
  "dillera": 25651,
  "dillo": 32257,
  "dilo": 15672,
  "dilol": 38612,
  "dilos": 45277,
  "dim": 42341,
  "dimens": 11842,
  "dimensional": 14567,
  "dimensionales": 35043,
  "dimento": 10202,
  "dimetil": 51430,
  "dimiento": 3777,
  "dimientos": 15252,
  "dimo": 48224,
  "dimos": 9702,
  "din": 2713,
  "dina": 17187,
  "dinales": 49324,
  "ding": 8792,
  "dings": 25681,
  "dinÃ¡mica": 24733,
  "dinÃ¡mico": 44263,
  "dio": 844,
  "diol": 37220,
  "dios": 2372,
  "dioso": 47227,
  "dipina": 51799,
  "dipino": 15023,
  "dir": 1766,
  "dira": 41532,
  "direc": 9072,
  "direccional": 39138,
  "direcciÃ³n": 25723,
  "director": 18832,
  "directora": 29647,
  "dirig": 42695,
  "dirÃ¡": 40664,
  "dis": 1693,
  "discipl": 5153,
  "disciplinar": 33354,
  "dise": 44604,
  "dismin": 29939,
  "disminuciÃ³n": 39514,
  "dismo": 6098,
  "dison": 37880,
  "dispon": 19654,
  "dista": 19390,
  "distas": 23030,
  "diste": 47378,
  "distrofia": 37029,
  "dita": 25247,
  "ditas": 45631,
  "ditis": 22041,
  "dito": 22757,
  "ditos": 32581,
  "dity": 26239,
  "dium": 13452,
  "divers": 20133,
  "diversidad": 21908,
  "diz": 3060,
  "diza": 43377,
  "dizaciÃ³n": 19198,
  "dizaje": 4104,
  "diÃ¡": 4087,
  "diÃ¡lisis": 8770,
  "diÃ©ndose": 20344,
  "diÃ³": 2589,
  "dl": 3877,
  "dle": 27015,
  "dline": 18237,
  "dm": 37060,
  "dman": 48003,
  "dn": 49990,
  "dney": 43479,
  "dnis": 9147,
  "dnisolona": 18629,
  "dnisona": 12225,
  "do": 328,
  "doanal": 25495,
  "doba": 9433,
  "dobl": 44553,
  "doble": 48902,
  "doc": 6855,
  "doco": 36077,
  "docrin": 10662,
  "docs": 43240,
  "doctoral": 32315,
  "docum": 37057,
  "doi": 17373,
  "dol": 29027,
  "dola": 40522,
  "dole": 15826,
  "dolo": 42172,
  "dolor": 21434,
  "dom": 2625,
  "domen": 3843,
  "domet": 47105,
  "dometacina": 49399,
  "domin": 1776,
  "dominal": 15543,
  "dominales": 37214,
  "dominio": 48575,
  "domÃ©s": 41715,
  "don": 1622,
  "dona": 15680,
  "donaciÃ³n": 44342,
  "donado": 31271,
  "doncia": 7993,
  "donde": 23475,
  "dones": 18570,
  "donia": 51308,
  "donos": 10363,
  "dop": 24473,
  "dopa": 21778,
  "doppler": 40922,
  "dor": 2184,
  "dora": 18563,
  "doras": 22769,
  "dores": 17884,
  "dorf": 27216,
  "dorfinas": 37616,
  "doro": 51866,
  "dorra": 50459,
  "dos": 535,
  "dosa": 26588,
  "dose": 1768,
  "dosificaciÃ³n": 38786,
  "dosis": 9332,
  "doso": 24679,
  "doster": 42799,
  "dosterona": 26371,
  "dote": 34249,
  "dova": 46771,
  "down": 49155,
  "dox": 29464,
  "doy": 37507,
  "doya": 38791,
  "dr": 751,
  "dra": 6014,
  "dral": 36724,
  "dras": 17442,
  "dre": 30818,
  "dremos": 24532,
  "dres": 9629,
  "dri": 7201,
  "driceps": 41252,
  "drich": 36160,
  "drina": 37312,
  "dro": 1381,
  "drome": 1692,
  "dromes": 9300,
  "dromo": 44959,
  "dromos": 44971,
  "dronato": 30894,
  "dros": 17134,
  "drÃ¡": 6892,
  "drÃ¡n": 10838,
  "drÃ¡s": 28129,
  "drÃ©": 41879,
  "drÃ³nico": 35855,
  "drÃŃ": 3858,
  "drÃŃa": 8532,
  "drÃŃamos": 32305,
  "drÃŃan": 24916,
  "drÃŃguez": 4130,
  "ds": 5635,
  "dt": 20380,
  "dte": 22073,
  "du": 815,
  "duc": 532,
  "ducciÃ³n": 1574,
  "duce": 7730,
  "duced": 28563,
  "ducida": 32225,
  "ducido": 40438,
  "ducir": 1411,
  "duction": 30048,
  "ducto": 37231,
  "ductor": 23491,
  "ductores": 34682,
  "dul": 23551,
  "dula": 5761,
  "dular": 8667,
  "duoden": 29007,
  "duodenal": 37912,
  "dur": 18904,
  "dura": 10154,
  "durante": 32182,
  "duras": 6332,
  "dure": 16114,
  "dures": 36102,
  "duro": 46974,
  "dx": 18861,
  "dy": 8955,
  "dÃ¨ncia": 25197,
  "dÃ©": 25095,
  "dÃ©s": 16905,
  "dÃ³": 13366,
  "dÃ³n": 5428,
  "dÃ³nde": 51024,
  "dÃº": 33428,
  "dÃŃ": 7737,
  "dÃŃa": 1681,
  "dÃŃaca": 25173,
  "dÃŃaco": 50589,
  "dÃŃan": 14817,
  "dÃŃas": 23073,
  "dÃŃmero": 47904,
  "e": 72,
  "ea": 821,
  "eada": 36981,
  "eado": 27704,
  "eados": 47526,
  "eae": 43151,
  "eak": 50353,
  "eal": 39898,
  "eamente": 8261,
  "eamiento": 24197,
  "ean": 46139,
  "ear": 3384,
  "earch": 6908,
  "ears": 9067,
  "eas": 1710,
  "eases": 24504,
  "eau": 37291,
  "eb": 652,
  "eba": 32193,
  "eber": 28042,
  "eberg": 48893,
  "ebo": 4517,
  "ebook": 10392,
  "ebra": 15360,
  "ebras": 34773,
  "ebril": 3037,
  "ec": 324,
  "eca": 4964,
  "ecable": 30975,
  "ecal": 17945,
  "ecalis": 38099,
  "ecas": 10974,
  "ecciÃ³n": 2989,
  "ece": 1210,
  "ecedor": 33038,
  "ecen": 2248,
  "ecencia": 27410,
  "ecer": 1541,
  "ecera": 10256,
  "eces": 622,
  "ecf": 22393,
  "ech": 785,
  "echa": 1772,
  "echan": 42435,
  "echas": 8314,
  "eche": 23933,
  "echea": 48325,
  "echn": 15998,
  "echo": 1293,
  "echos": 4945,
  "eci": 34234,
  "ecida": 25953,
  "ecidas": 29184,
  "ecido": 9872,
  "ecidos": 22663,
  "eciendo": 11947,
  "eciente": 49478,
  "ecieron": 20162,
  "ecimiento": 14465,
  "eciÃ³": 12030,
  "eck": 11084,
  "eclam": 18407,
  "eclampsia": 18954,
  "ecn": 1854,
  "eco": 11024,
  "ecom": 19988,
  "econ": 6842,
  "econse": 50539,
  "econÃ³mico": 45286,
  "ecos": 18790,
  "ecoxib": 51265,
  "ecre": 3769,
  "ecretario": 35542,
  "ecrosis": 26937,
  "ectal": 28310,
  "ectasia": 37035,
  "ectasias": 19618,
  "ectina": 34409,
  "ectivo": 27286,
  "ecto": 47328,
  "ectom": 35723,
  "ectomia": 19174,
  "ectomy": 46754,
  "ectomÃŃa": 5810,
  "ectomÃŃas": 44805,
  "ector": 35954,
  "ecu": 1581,
  "ecuciÃ³n": 6576,
  "ecular": 11316,
  "ecured": 14545,
  "ecÃ¡nica": 39313,
  "ecÃ©": 21007,
  "ecÃŃa": 9057,
  "ecÃŃan": 14007,
  "ed": 1068,
  "eda": 10099,
  "edad": 1281,
  "edades": 5118,
  "edado": 46041,
  "edback": 27391,
  "ede": 7811,
  "eded": 49063,
  "edema": 14136,
  "eder": 50653,
  "edes": 18206,
  "edi": 5388,
  "edia": 17937,
  "ediciÃ³n": 50593,
  "eding": 23255,
  "edings": 34650,
  "edo": 31707,
  "edor": 6882,
  "edora": 24498,
  "edores": 7763,
  "edro": 33441,
  "eds": 24936,
  "edu": 26605,
  "educ": 13233,
  "educaciÃ³n": 20900,
  "ee": 10929,
  "eeee": 44403,
  "eer": 26150,
  "eerp": 30945,
  "ef": 2144,
  "efac": 30382,
  "efaccion": 40741,
  "efacciÃ³n": 12149,
  "efe": 4336,
  "efec": 11739,
  "efectiva": 49595,
  "efectividad": 22385,
  "efecto": 26483,
  "efes": 17469,
  "effec": 40676,
  "eficacia": 24191,
  "eficiente": 43928,
  "efore": 21436,
  "eg": 1070,
  "ega": 14695,
  "egal": 8244,
  "egalo": 26823,
  "egalovirus": 27322,
  "egas": 15756,
  "egel": 45128,
  "eger": 48305,
  "ego": 6728,
  "egos": 17753,
  "egro": 43582,
  "egun": 46140,
  "egur": 27909,
  "eguridad": 30387,
  "egy": 25795,
  "egypti": 26670,
  "eh": 34261,
  "ei": 27530,
  "eis": 26949,
  "eix": 15213,
  "ej": 11261,
  "eja": 13437,
  "ejas": 13304,
  "ejil": 37826,
  "ejo": 9986,
  "ek": 13206,
  "eks": 38395,
  "el": 404,
  "ela": 3288,
  "elamente": 22649,
  "elar": 24786,
  "elas": 8567,
  "elasco": 23812,
  "eld": 11500,
  "ele": 13266,
  "elec": 9399,
  "elecciÃ³n": 35097,
  "electro": 38006,
  "elementos": 35768,
  "eler": 35943,
  "eles": 8989,
  "eless": 49541,
  "elf": 46551,
  "eli": 29106,
  "elia": 17399,
  "elimin": 48560,
  "elin": 20008,
  "elina": 23726,
  "eline": 44749,
  "eling": 20688,
  "elings": 46888,
  "elio": 29634,
  "elis": 51520,
  "elitiasis": 28685,
  "elitis": 49080,
  "ell": 2250,
  "ella": 5248,
  "ellas": 46494,
  "elle": 6969,
  "eller": 19266,
  "ellera": 47991,
  "elles": 33969,
  "elleza": 9241,
  "elli": 19444,
  "elling": 48855,
  "ello": 4354,
  "ellos": 34868,
  "ellow": 44221,
  "ells": 47606,
  "elly": 29030,
  "ellÃ¡n": 51115,
  "elo": 8778,
  "elos": 7468,
  "elosis": 27050,
  "els": 24825,
  "elsen": 50828,
  "eltamivir": 38163,
  "elular": 23895,
  "elulares": 35991,
  "ely": 13944,
  "elÃ©c": 24069,
  "elÃ©ctrica": 41915,
  "em": 820,
  "ema": 15327,
  "emas": 19868,
  "emb": 6215,
  "embol": 21051,
  "embre": 1696,
  "ement": 7663,
  "emes": 43648,
  "emi": 22447,
  "emia": 1969,
  "emias": 10627,
  "emic": 49082,
  "emica": 34736,
  "emida": 10065,
  "emo": 13763,
  "emos": 1339,
  "emp": 540,
  "emplo": 42150,
  "empo": 8564,
  "empos": 35061,
  "empre": 1374,
  "empres": 45677,
  "emps": 35921,
  "emuls": 46363,
  "emÃ©ri": 36213,
  "en": 261,
  "ena": 1364,
  "enal": 35759,
  "enan": 49195,
  "enario": 41543,
  "enas": 4142,
  "enato": 36708,
  "enazgo": 50127,
  "enberg": 28892,
  "enc": 39508,
  "enca": 48685,
  "ence": 3507,
  "encef": 16321,
  "encefal": 15212,
  "encefalitis": 40765,
  "encefÃ¡lica": 33896,
  "ences": 11025,
  "enci": 560,
  "encia": 467,
  "enciaciÃ³n": 8658,
  "enciada": 13555,
  "enciadas": 34451,
  "enciado": 9923,
  "enciados": 18727,
  "encial": 3263,
  "enciales": 6424,
  "encialmente": 14916,
  "enciana": 9419,
  "enciano": 27743,
  "enciar": 11048,
  "encias": 760,
  "encies": 40833,
  "encing": 47671,
  "encio": 20032,
  "enciones": 49521,
  "enciÃ³": 29097,
  "enciÃ³n": 16616,
  "enco": 22274,
  "ency": 21103,
  "encÃ©falo": 40444,
  "end": 1313,
  "enda": 5341,
  "endadas": 15575,
  "endan": 27305,
  "endario": 9431,
  "endas": 7952,
  "ende": 4276,
  "enden": 6637,
  "endero": 49705,
  "endi": 11214,
  "endio": 47714,
  "endo": 608,
  "endor": 37233,
  "endos": 26724,
  "endoscopia": 44921,
  "endose": 45824,
  "endoza": 16371,
  "endÃŃa": 23909,
  "ene": 539,
  "enem": 13005,
  "enemos": 2756,
  "enen": 972,
  "ener": 578,
  "enera": 22233,
  "eneraciÃ³n": 7780,
  "eneral": 36078,
  "energ": 48031,
  "enero": 37165,
  "enes": 1596,
  "eness": 17523,
  "enez": 33115,
  "enfer": 10916,
  "enfermedad": 16969,
  "enfermedades": 34298,
  "eng": 16584,
  "enga": 49739,
  "englicol": 32403,
  "ength": 42948,
  "engu": 3019,
  "enia": 35228,
  "ening": 11784,
  "enio": 12733,
  "enj": 44175,
  "enn": 42238,
  "enne": 14853,
  "eno": 1051,
  "enocumarol": 26160,
  "enol": 38042,
  "enona": 45600,
  "enos": 2733,
  "enqui": 7107,
  "enquimatos": 7795,
  "ens": 575,
  "ensa": 2586,
  "ensayo": 42203,
  "ense": 5304,
  "ensen": 33716,
  "enses": 16201,
  "ensi": 14771,
  "ensibil": 38831,
  "ensibilidad": 7890,
  "ensibilizaciÃ³n": 28872,
  "ensible": 14910,
  "ensibles": 26827,
  "ensic": 50888,
  "ensis": 12632,
  "ensiÃ³n": 2688,
  "enso": 3015,
  "enson": 44228,
  "ensor": 15175,
  "ensores": 38446,
  "ensorial": 29278,
  "ensos": 28783,
  "enstein": 37141,
  "ensus": 50174,
  "ent": 283,
  "enta": 626,
  "entaciones": 51200,
  "entaciÃ³n": 1680,
  "entada": 9920,
  "entadas": 22864,
  "entado": 2405,
  "entados": 15350,
  "ental": 1276,
  "entales": 2568,
  "entalmente": 5649,
  "entamente": 34081,
  "entamiento": 12645,
  "entamos": 29581,
  "entan": 2228,
  "entando": 16536,
  "entanilo": 14821,
  "entar": 1525,
  "entaria": 12039,
  "entarias": 50860,
  "entario": 10380,
  "entarios": 16850,
  "entaron": 44903,
  "entarse": 43888,
  "entas": 2984,
  "ente": 336,
  "entemente": 5630,
  "enten": 7091,
  "entena": 43498,
  "enter": 6372,
  "enterales": 51532,
  "enterio": 22526,
  "enterÃŃa": 48748,
  "entes": 412,
  "entesis": 26929,
  "enthal": 39290,
  "entific": 24573,
  "entimiento": 6462,
  "entin": 36408,
  "entina": 4863,
  "entinamente": 48467,
  "entinas": 50416,
  "entino": 12920,
  "entinos": 27956,
  "entismo": 26122,
  "ento": 369,
  "entos": 543,
  "entosa": 45101,
  "entra": 39563,
  "entrada": 33174,
  "entral": 42130,
  "entras": 1721,
  "entre": 8198,
  "entren": 42301,
  "entro": 6489,
  "ents": 3215,
  "entÃ³": 17063,
  "entÃŃ": 1393,
  "envejecimiento": 29162,
  "enz": 10274,
  "enza": 13549,
  "enzima": 30659,
  "enzimas": 46893,
  "enzo": 13486,
  "enzuela": 38239,
  "eo": 1199,
  "eologÃŃa": 36944,
  "eoplÃ¡s": 23116,
  "eos": 3399,
  "ep": 1687,
  "epi": 12157,
  "epidemi": 25705,
  "epil": 24466,
  "epinefrina": 49279,
  "epitelial": 40235,
  "epiteliales": 51693,
  "equ": 24658,
  "equi": 42497,
  "equival": 47324,
  "er": 270,
  "era": 434,
  "eraciÃ³n": 12695,
  "erador": 17282,
  "erais": 49604,
  "eral": 4764,
  "erales": 8103,
  "eramente": 7611,
  "eran": 5864,
  "erapeu": 19661,
  "erapeutic": 24380,
  "erapeutics": 46362,
  "erapy": 8324,
  "eras": 2871,
  "erato": 17629,
  "eratura": 23974,
  "erci": 13447,
  "ercicis": 35477,
  "ercise": 23498,
  "erciÃ³n": 22048,
  "erdo": 12846,
  "ere": 4789,
  "eres": 19807,
  "erg": 16041,
  "eri": 35760,
  "eria": 10566,
  "erial": 30781,
  "erie": 37138,
  "erina": 33672,
  "ering": 37759,
  "erio": 15736,
  "ern": 1903,
  "erna": 42362,
  "ernas": 41880,
  "erne": 44227,
  "ernÃ¡n": 3150,
  "ernÃ¡ndez": 3224,
  "ero": 687,
  "erol": 29256,
  "eron": 1102,
  "eronÃ¡u": 40836,
  "erop": 11537,
  "eropenem": 20777,
  "eropuerto": 19290,
  "eropuertos": 41884,
  "eros": 1665,
  "erostomÃŃa": 50192,
  "erra": 5030,
  "errat": 21834,
  "errector": 33839,
  "ers": 585,
  "erse": 8547,
  "ersey": 35207,
  "erso": 49099,
  "erson": 37915,
  "ert": 24187,
  "erta": 12463,
  "erte": 7391,
  "erto": 7822,
  "ertos": 13361,
  "erv": 654,
  "erva": 17115,
  "ervaciÃ³n": 15187,
  "ervi": 2796,
  "ervo": 33543,
  "ervos": 46506,
  "ery": 14869,
  "erÃ¡": 15684,
  "erÃ³b": 38760,
  "erÃŃa": 5208,
  "erÃŃas": 21315,
  "es": 263,
  "esa": 5200,
  "esan": 28830,
  "esc": 10680,
  "escala": 39385,
  "escam": 32203,
  "escler": 47226,
  "esclerosis": 19021,
  "esco": 44406,
  "escol": 25852,
  "escolar": 25166,
  "escolares": 29279,
  "escri": 37356,
  "escucha": 44136,
  "escultura": 36874,
  "ese": 4082,
  "esemia": 40141,
  "esen": 16689,
  "eses": 27385,
  "esi": 712,
  "esia": 9690,
  "esias": 12958,
  "esio": 10104,
  "esiologÃŃa": 50995,
  "esion": 19739,
  "esional": 18899,
  "esionales": 29740,
  "esiones": 1641,
  "esis": 6254,
  "esivo": 15377,
  "esiÃ³n": 3460,
  "eso": 5083,
  "esof": 14601,
  "esofÃ¡gica": 32820,
  "esofÃ¡gico": 19921,
  "esor": 3897,
  "esos": 18137,
  "esp": 23447,
  "espacial": 42879,
  "espas": 36505,
  "espasmo": 15683,
  "especi": 9751,
  "especial": 35056,
  "especialmente": 19048,
  "especÃŃ": 31044,
  "esper": 33314,
  "espin": 32625,
  "espinal": 51175,
  "espinoso": 39985,
  "esplen": 43040,
  "esque": 30113,
  "esquel": 15396,
  "esqueleto": 38198,
  "esquelÃ©tico": 47403,
  "ess": 18190,
  "essa": 48380,
  "est": 1711,
  "esta": 3994,
  "estabilidad": 46531,
  "estable": 21735,
  "estaciones": 5299,
  "estaciÃ³n": 28727,
  "estad": 21610,
  "estado": 29949,
  "estadÃŃstica": 46766,
  "estamos": 41352,
  "estan": 35274,
  "estar": 3844,
  "estas": 28777,
  "este": 5435,
  "estenosis": 23554,
  "ester": 15990,
  "estern": 22554,
  "esternal": 31052,
  "esteroides": 34964,
  "estes": 3818,
  "estesia": 5230,
  "estesias": 18934,
  "esth": 24244,
  "esthe": 37919,
  "esthetic": 45504,
  "esti": 583,
  "estia": 30272,
  "estias": 30342,
  "estig": 749,
  "estigos": 21407,
  "estim": 10203,
  "estima": 7499,
  "estimar": 40889,
  "estimulaciÃ³n": 22163,
  "estion": 3058,
  "estiona": 19718,
  "estiones": 6666,
  "estival": 10988,
  "estiÃ³n": 1803,
  "esto": 17778,
  "estos": 35912,
  "estoy": 49567,
  "estr": 33003,
  "estra": 29545,
  "estre": 8239,
  "estres": 30576,
  "estrillo": 51749,
  "estro": 42808,
  "estruc": 6739,
  "estructur": 20043,
  "estructura": 27427,
  "estructuraciÃ³n": 28690,
  "estructuras": 36782,
  "estrÃ©s": 49588,
  "estudi": 26249,
  "estudio": 27492,
  "estudios": 44525,
  "estyle": 45648,
  "estÃ¡": 24460,
  "estÃ¡n": 33954,
  "estÃ©s": 9992,
  "estÃ©tica": 44412,
  "esÃŃa": 14686,
  "et": 1330,
  "eta": 1150,
  "etafe": 31334,
  "etal": 23939,
  "etales": 7659,
  "etamina": 21478,
  "etaminas": 39191,
  "etano": 37660,
  "etas": 4351,
  "etasona": 15525,
  "etc": 40974,
  "ete": 5087,
  "etes": 1986,
  "eth": 32563,
  "eti": 39804,
  "etil": 40292,
  "etina": 10765,
  "eting": 34698,
  "eto": 9176,
  "etonas": 14705,
  "ets": 14899,
  "ett": 29443,
  "etta": 32147,
  "ette": 26758,
  "etti": 23767,
  "etts": 17127,
  "ety": 7637,
  "etÃŃn": 12625,
  "eu": 9484,
  "euro": 26756,
  "europa": 49642,
  "eus": 22368,
  "eutical": 24316,
  "ev": 1457,
  "evaci": 34043,
  "evacizumab": 34509,
  "eval": 20735,
  "evalu": 10068,
  "evaluaciÃ³n": 22822,
  "evar": 42388,
  "evi": 32511,
  "evidad": 24459,
  "evin": 38755,
  "evitar": 49305,
  "ex": 1713,
  "excepto": 29277,
  "excl": 49353,
  "exia": 9558,
  "existe": 46345,
  "existen": 50590,
  "exiÃ³n": 21582,
  "exo": 11961,
  "expan": 50639,
  "exper": 26427,
  "expl": 25171,
  "explica": 43426,
  "exploraciÃ³n": 42278,
  "exposiciÃ³n": 46704,
  "expres": 51504,
  "exsero": 41647,
  "extensiÃ³n": 23359,
  "extra": 35014,
  "extre": 44863,
  "ey": 5290,
  "ez": 613,
  "eza": 1887,
  "ezas": 10540,
  "ezca": 8888,
  "ezcan": 10883,
  "ezco": 44988,
  "ezo": 39048,
  "ezolid": 24901,
  "ezÃ³n": 42174,
  "eÃ±a": 20664,
  "eÃ±as": 51245,
  "eÃ±o": 24176,
  "eÃ±os": 41757,
  "f": 73,
  "fa": 1626,
  "fac": 2645,
  "facciÃ³n": 47343,
  "face": 24757,
  "faces": 51812,
  "faci": 8202,
  "facial": 10406,
  "faciales": 31526,
  "facientes": 46873,
  "facto": 40206,
  "factor": 26824,
  "factores": 36861,
  "fag": 33939,
  "fagia": 10875,
  "fago": 9429,
  "fagos": 14820,
  "fal": 2497,
  "falo": 16573,
  "falta": 32175,
  "falÃ¡n": 29727,
  "falÃ¡ngica": 51733,
  "famil": 15104,
  "familia": 27336,
  "familiar": 30422,
  "familiares": 49657,
  "fan": 16932,
  "fano": 17254,
  "fanos": 27070,
  "far": 5543,
  "fari": 35316,
  "farina": 20868,
  "faringe": 39096,
  "faritis": 44698,
  "farma": 31818,
  "farmac": 18108,
  "farmacia": 32604,
  "faro": 16695,
  "faroplastia": 23815,
  "fas": 6174,
  "fascial": 29756,
  "fase": 29161,
  "fasia": 40702,
  "fasis": 12437,
  "fato": 12400,
  "favor": 12794,
  "faz": 23134,
  "fe": 3258,
  "feb": 32122,
  "febrero": 45244,
  "fec": 552,
  "fecciÃ³n": 34918,
  "fecto": 27026,
  "fectos": 32372,
  "feedback": 48664,
  "feeding": 49359,
  "fel": 30534,
  "feld": 27487,
  "fem": 27438,
  "femoral": 47039,
  "fen": 6864,
  "fena": 32032,
  "fenaco": 28351,
  "fenib": 31456,
  "fenicol": 43948,
  "fenidato": 40468,
  "fenil": 24747,
  "feno": 17817,
  "fenol": 46544,
  "fenolato": 33109,
  "fenos": 35337,
  "fentanilo": 28517,
  "feo": 37555,
  "fer": 415,
  "fera": 6537,
  "feras": 12124,
  "ference": 29729,
  "ferencia": 3436,
  "ferencial": 37638,
  "ferencias": 7491,
  "ferente": 18540,
  "ferentes": 16923,
  "ferina": 38105,
  "ferior": 27849,
  "fero": 45032,
  "ferol": 18944,
  "feron": 27399,
  "ferves": 47928,
  "ferÃ³n": 40659,
  "fes": 35141,
  "fetal": 40047,
  "fetamina": 36248,
  "fety": 18306,
  "ff": 5879,
  "ffe": 44368,
  "ffer": 32136,
  "ffin": 50566,
  "fi": 2042,
  "fia": 4241,
  "fianza": 21417,
  "fias": 47125,
  "fib": 7606,
  "fibrato": 48580,
  "fibril": 46035,
  "fibrin": 45492,
  "fibro": 19283,
  "fibrosis": 46994,
  "fic": 523,
  "fica": 1238,
  "ficaces": 42519,
  "ficacia": 15020,
  "ficaciones": 18076,
  "ficaciÃ³n": 7118,
  "ficacy": 20678,
  "ficada": 22140,
  "ficadas": 41848,
  "ficado": 15977,
  "ficados": 26039,
  "ficamente": 6520,
  "fican": 42936,
  "ficantes": 49645,
  "ficar": 13481,
  "ficas": 2392,
  "ficaz": 3997,
  "fice": 23965,
  "ficencia": 30611,
  "fici": 642,
  "ficial": 5549,
  "ficidad": 10001,
  "ficie": 48344,
  "ficiencia": 1844,
  "ficiencias": 22713,
  "ficiency": 30899,
  "ficient": 33845,
  "ficiente": 2356,
  "ficientes": 6082,
  "ficil": 17368,
  "ficile": 24225,
  "ficio": 5811,
  "ficios": 8152,
  "ficit": 5058,
  "ficits": 17848,
  "fico": 1682,
  "ficos": 1987,
  "fida": 29804,
  "fidal": 46211,
  "fiebre": 29856,
  "fied": 20365,
  "field": 17967,
  "fiere": 50581,
  "fig": 12337,
  "figo": 47241,
  "figur": 47191,
  "figura": 15571,
  "fil": 1075,
  "fila": 11568,
  "filas": 51628,
  "filaxia": 25492,
  "filaxis": 19710,
  "file": 30518,
  "files": 35498,
  "filia": 8370,
  "filina": 31562,
  "filis": 15512,
  "film": 45206,
  "filo": 12289,
  "filos": 1625,
  "fils": 28555,
  "filtraciÃ³n": 26487,
  "fin": 5599,
  "fina": 19992,
  "final": 42554,
  "finales": 41223,
  "financi": 23930,
  "fines": 43027,
  "fir": 31812,
  "firia": 42532,
  "fis": 9468,
  "fisaria": 51713,
  "fisi": 10521,
  "fisio": 48508,
  "fisiologÃŃa": 19366,
  "fisis": 18226,
  "fismo": 49804,
  "fit": 33844,
  "fitos": 31098,
  "fits": 43147,
  "fixima": 41196,
  "fl": 11493,
  "fla": 50885,
  "flaciÃ³n": 45428,
  "flama": 44001,
  "flav": 44763,
  "fle": 16235,
  "flecha": 47381,
  "fleja": 41702,
  "flexia": 45483,
  "flix": 38766,
  "flo": 48698,
  "flora": 41923,
  "floxacina": 50582,
  "floxacino": 19926,
  "flu": 12599,
  "fluor": 34315,
  "fluoro": 30223,
  "fluorome": 48220,
  "fo": 2072,
  "fobia": 12839,
  "foc": 17531,
  "focal": 27457,
  "focales": 44512,
  "foidea": 39880,
  "fol": 7088,
  "folia": 35184,
  "folio": 35933,
  "folÃŃp": 25381,
  "folÃŃpido": 45255,
  "folÃŃpidos": 34574,
  "fon": 4821,
  "fondo": 43361,
  "fono": 6868,
  "fonos": 13987,
  "fonso": 10762,
  "fonÃŃa": 38757,
  "foque": 33659,
  "for": 7347,
  "fora": 27814,
  "ford": 10007,
  "foresis": 27576,
  "foria": 32829,
  "form": 2956,
  "forma": 5769,
  "formaciones": 10450,
  "formaciÃ³n": 12821,
  "formance": 20824,
  "formas": 13686,
  "forme": 14238,
  "formes": 20281,
  "formidad": 35726,
  "formina": 11837,
  "foro": 11076,
  "foros": 38222,
  "fort": 22969,
  "fos": 6720,
  "fosf": 14640,
  "fosfa": 46433,
  "fosfamida": 24016,
  "fosfato": 25684,
  "fosfonatos": 27556,
  "fota": 39724,
  "fotaxima": 44182,
  "foter": 31590,
  "fotericina": 32199,
  "foto": 39914,
  "four": 46582,
  "fovir": 41157,
  "fox": 45920,
  "fr": 2369,
  "fra": 28421,
  "frac": 33619,
  "frag": 11430,
  "fran": 29713,
  "fre": 8917,
  "frecu": 39099,
  "frecuencia": 32117,
  "fredo": 16592,
  "free": 48191,
  "fren": 8278,
  "frenia": 9219,
  "frente": 42826,
  "frey": 47174,
  "fri": 12540,
  "frica": 7349,
  "frina": 24511,
  "fro": 5901,
  "fru": 22825,
  "frÃŃo": 46302,
  "frÃŃos": 20700,
  "fs": 20142,
  "ft": 5767,
  "ftal": 33047,
  "ftware": 8482,
  "fu": 12896,
  "fue": 35208,
  "fuegos": 17631,
  "fuente": 36626,
  "fuer": 15331,
  "fuerzo": 25293,
  "fuerzos": 47187,
  "fug": 40881,
  "fuga": 47297,
  "ful": 23142,
  "fum": 37678,
  "fumador": 20103,
  "fumadora": 44717,
  "fun": 8247,
  "funcional": 38738,
  "funciones": 49496,
  "funciÃ³n": 17911,
  "function": 38506,
  "fund": 23524,
  "fundador": 45134,
  "fundamentalmente": 51345,
  "fung": 37581,
  "fungina": 39343,
  "fur": 16903,
  "fus": 30463,
  "fusion": 45083,
  "fusiÃ³n": 10491,
  "fy": 17255,
  "fyc": 51260,
  "fÃ¡rmacos": 24301,
  "fÃ©": 7132,
  "fÃ©resis": 37227,
  "fÃ²cits": 44539,
  "fÃ³n": 51952,
  "fÃ³nica": 28336,
  "fÃŃ": 18599,
  "fÃŃa": 1522,
  "fÃŃas": 6550,
  "fÃŃlica": 32685,
  "fÃŃlico": 50105,
  "fÃŃlicos": 51965,
  "fÃŃn": 20154,
  "fÃŃs": 17850,
  "fÃŃsica": 27591,
  "fÃŃsico": 46791,
  "g": 74,
  "ga": 614,
  "gaba": 23892,
  "gabalina": 27538,
  "gaban": 46285,
  "gable": 23704,
  "gables": 40502,
  "gaciones": 35422,
  "gaciÃ³n": 4849,
  "gada": 2394,
  "gadas": 8495,
  "gadez": 50502,
  "gadic": 34374,
  "gado": 1748,
  "gador": 15324,
  "gadores": 23312,
  "gados": 5983,
  "gal": 5069,
  "galia": 50878,
  "gall": 51093,
  "galus": 33857,
  "gamiento": 18839,
  "gamma": 45051,
  "gamos": 8490,
  "gan": 694,
  "gancia": 25832,
  "ganda": 22147,
  "gando": 10223,
  "ganeso": 38905,
  "gangli": 31454,
  "ganistÃ¡n": 42539,
  "gano": 21526,
  "ganos": 22891,
  "ganta": 10031,
  "gante": 17213,
  "gantes": 14113,
  "gar": 771,
  "gara": 23521,
  "gard": 35488,
  "garia": 39555,
  "garo": 42653,
  "garon": 17330,
  "garro": 51872,
  "garse": 11483,
  "garÃ¡": 26041,
  "gas": 1607,
  "gase": 30062,
  "gastro": 50447,
  "gat": 22643,
  "gata": 44765,
  "gate": 32613,
  "gativo": 10809,
  "gaz": 34705,
  "gazine": 48530,
  "gby": 50583,
  "ge": 1763,
  "geal": 35489,
  "geci": 40046,
  "ged": 24911,
  "gel": 3098,
  "geles": 37019,
  "gelo": 40040,
  "gem": 11097,
  "gement": 16899,
  "gen": 824,
  "gena": 12921,
  "genas": 41415,
  "genasa": 26868,
  "gencia": 15670,
  "gencias": 28891,
  "gencio": 44614,
  "gene": 31717,
  "gener": 16762,
  "genera": 6617,
  "generaciÃ³n": 30052,
  "generalmente": 34289,
  "genes": 2998,
  "genesia": 30528,
  "genia": 11360,
  "genic": 38961,
  "genicidad": 23827,
  "genio": 31417,
  "genital": 28023,
  "geno": 3312,
  "genos": 7759,
  "gens": 43929,
  "gente": 19920,
  "gentes": 26471,
  "gento": 51082,
  "genÃ©tica": 25182,
  "genÃ©tico": 40780,
  "geo": 51283,
  "geos": 31782,
  "ger": 2322,
  "gers": 29237,
  "gery": 21140,
  "ges": 1458,
  "gesi": 31516,
  "gesia": 5904,
  "gesiado": 41191,
  "gesta": 3650,
  "gestas": 20388,
  "gestion": 27098,
  "gestiÃ³n": 12092,
  "gestrel": 47967,
  "get": 21585,
  "gets": 48353,
  "geusia": 32010,
  "gg": 24335,
  "gh": 30913,
  "gi": 1799,
  "gia": 1882,
  "gias": 4392,
  "gibles": 37706,
  "gibre": 26319,
  "gic": 28360,
  "gica": 7244,
  "gicas": 14886,
  "gico": 10559,
  "gicos": 15149,
  "gida": 48930,
  "gido": 32623,
  "gie": 42127,
  "gies": 27972,
  "gil": 13265,
  "gillus": 29989,
  "gilosis": 44622,
  "gimiento": 40603,
  "gin": 4779,
  "gina": 10015,
  "ginal": 16168,
  "ginec": 42272,
  "ging": 21385,
  "ginina": 33153,
  "ginosa": 37247,
  "ginoso": 29627,
  "gins": 37527,
  "gio": 2631,
  "gios": 32145,
  "giosa": 17645,
  "gir": 33418,
  "gitos": 49508,
  "gitud": 36622,
  "giÃ³": 16820,
  "gl": 2542,
  "gle": 43736,
  "glesias": 15636,
  "gli": 5792,
  "glia": 39827,
  "glic": 10103,
  "glicemia": 29676,
  "glicer": 18915,
  "glicerina": 31933,
  "glicol": 31015,
  "gliflozina": 43077,
  "glio": 16915,
  "gliptina": 27298,
  "glitazona": 48188,
  "glob": 3104,
  "globina": 3603,
  "globulina": 29040,
  "globulinemia": 46568,
  "glomer": 26067,
  "glos": 27714,
  "glu": 19734,
  "gluc": 6417,
  "glucemia": 9213,
  "gluciÃ³n": 19459,
  "glucosa": 49656,
  "gly": 36170,
  "glÃ©s": 4543,
  "gma": 9916,
  "gmail": 32575,
  "gmas": 31028,
  "gment": 23136,
  "gmentine": 33298,
  "gn": 567,
  "gna": 21468,
  "gne": 44093,
  "gner": 36904,
  "gnom": 51827,
  "gnos": 35394,
  "gnosis": 40865,
  "gnostic": 26570,
  "gnÃ³stico": 34273,
  "go": 421,
  "gob": 24873,
  "goci": 20896,
  "godepen": 25961,
  "godependencias": 31820,
  "gogÃŃa": 21836,
  "going": 43758,
  "gol": 19542,
  "gologÃŃa": 20930,
  "gon": 3475,
  "gonal": 48590,
  "gones": 48671,
  "gono": 48729,
  "gons": 36517,
  "gor": 6805,
  "gora": 49872,
  "gos": 859,
  "gosis": 25743,
  "gosto": 4900,
  "gota": 40481,
  "gote": 48367,
  "goto": 42855,
  "gotos": 41122,
  "gov": 15491,
  "govia": 26029,
  "gow": 23069,
  "goza": 9233,
  "goÃ±a": 33680,
  "gr": 744,
  "gra": 698,
  "graciadamente": 39846,
  "gracias": 27198,
  "graciÃ³n": 41842,
  "grad": 7585,
  "grada": 23331,
  "grade": 44882,
  "grado": 3274,
  "grados": 14940,
  "graf": 19754,
  "grafe": 40803,
  "grafi": 46528,
  "grafia": 15407,
  "grafo": 38803,
  "grafÃŃa": 2211,
  "grafÃŃas": 8049,
  "gram": 10664,
  "grama": 3425,
  "gramar": 50139,
  "gramas": 12312,
  "gramo": 40890,
  "gramos": 15630,
  "gran": 5793,
  "grantes": 10557,
  "graph": 47638,
  "graphic": 25989,
  "graphy": 33360,
  "gras": 22493,
  "grastim": 51261,
  "grat": 42680,
  "grave": 28045,
  "gre": 1201,
  "gree": 40738,
  "gregaciÃ³n": 49481,
  "grel": 14909,
  "grelor": 46540,
  "gren": 21780,
  "grena": 42330,
  "gres": 853,
  "gresiones": 37854,
  "gresiÃ³n": 21465,
  "greso": 1573,
  "gresos": 9693,
  "gri": 10739,
  "grim": 20718,
  "gro": 5490,
  "gros": 6461,
  "grosa": 45431,
  "ground": 29738,
  "gru": 10656,
  "grupo": 10881,
  "grupos": 15603,
  "grÃ¡": 3171,
  "grÃ¡fica": 7438,
  "grÃ¡ficamente": 37536,
  "grÃ¡ficas": 8006,
  "grÃ¡fico": 9647,
  "grÃ¡ficos": 10218,
  "grÃ©s": 18552,
  "grÃŃa": 10448,
  "gs": 12297,
  "gu": 430,
  "gua": 6284,
  "guage": 40933,
  "gual": 1759,
  "guan": 28327,
  "guar": 7897,
  "guardia": 15172,
  "guas": 20057,
  "guay": 8850,
  "guaya": 45414,
  "guayo": 41622,
  "guda": 18309,
  "gudes": 38482,
  "gudo": 26161,
  "gue": 1490,
  "gueal": 31673,
  "guen": 3880,
  "guenza": 45424,
  "guer": 17714,
  "guera": 9761,
  "gueras": 31024,
  "guero": 17303,
  "gueroa": 32779,
  "gueros": 36508,
  "guerra": 41048,
  "gues": 8087,
  "guesa": 34294,
  "guesas": 41660,
  "gueses": 43009,
  "guez": 3508,
  "gui": 795,
  "guicidas": 29465,
  "guida": 18781,
  "guido": 20313,
  "guidos": 36206,
  "guien": 4615,
  "guiendo": 38058,
  "guieron": 14594,
  "guila": 33157,
  "guimiento": 40014,
  "guimos": 44159,
  "guin": 13381,
  "guir": 2487,
  "guirre": 20791,
  "guita": 44470,
  "guito": 17451,
  "guiÃ³": 32035,
  "gula": 37519,
  "gulo": 8905,
  "gulos": 26563,
  "gun": 591,
  "guna": 15940,
  "gunas": 19944,
  "gunos": 28559,
  "gunya": 25443,
  "guo": 25488,
  "guos": 42332,
  "gur": 1171,
  "gura": 2477,
  "gure": 23206,
  "gures": 34263,
  "gurg": 33717,
  "gurgitaciÃ³n": 38009,
  "guridad": 1845,
  "guro": 10276,
  "guros": 6947,
  "gus": 11241,
  "gut": 32409,
  "guÃ¡": 45936,
  "guÃ©": 19111,
  "guÃ©s": 45591,
  "guÃŃa": 31330,
  "guÃŃn": 3309,
  "gy": 11702,
  "gÃ¡is": 33408,
  "gÃ¡ndose": 48661,
  "gÃ¡strico": 43686,
  "gÃ©n": 2860,
  "gÃ©nero": 40812,
  "gÃ©nesis": 12979,
  "gÃ©nica": 12580,
  "gÃ©nicas": 20877,
  "gÃ©nico": 11849,
  "gÃ©nicos": 13121,
  "gÃ©s": 6828,
  "gÃ³": 6213,
  "gÃ³g": 11133,
  "gÃ³n": 23914,
  "gÃºn": 887,
  "gÃ¼": 7707,
  "gÃ¼edad": 14083,
  "gÃ¼enza": 17864,
  "gÃŃa": 1005,
  "gÃŃas": 10247,
  "h": 75,
  "ha": 1110,
  "hab": 19078,
  "habi": 14670,
  "habil": 3723,
  "habilitaciÃ³n": 4446,
  "haca": 48862,
  "hace": 28199,
  "hacer": 12773,
  "hael": 15155,
  "hai": 42097,
  "hal": 9861,
  "haler": 35308,
  "halo": 44320,
  "ham": 7873,
  "han": 8556,
  "hance": 47442,
  "hans": 36739,
  "har": 14394,
  "hara": 25574,
  "hard": 30666,
  "hart": 51246,
  "has": 17284,
  "hasta": 13954,
  "hat": 4655,
  "hats": 28687,
  "haus": 10250,
  "hav": 48920,
  "havi": 14046,
  "havio": 30359,
  "haw": 46425,
  "hay": 15370,
  "he": 655,
  "hea": 36643,
  "head": 34354,
  "health": 30200,
  "hecimento": 42461,
  "hed": 19118,
  "heim": 22486,
  "heimer": 4553,
  "hel": 15387,
  "hem": 33495,
  "hema": 26858,
  "hemat": 46580,
  "hemo": 15532,
  "hemoglobina": 21872,
  "hemor": 35638,
  "hemos": 45331,
  "hen": 14460,
  "hens": 32033,
  "hensive": 40317,
  "hep": 49945,
  "hepa": 28196,
  "hepatitis": 33256,
  "hepÃ¡tica": 26086,
  "hepÃ¡tico": 49909,
  "her": 2439,
  "here": 11804,
  "herencia": 33334,
  "hes": 31583,
  "heter": 26812,
  "hetero": 49546,
  "hex": 21713,
  "hexidina": 29320,
  "hey": 49782,
  "hg": 30196,
  "hh": 23325,
  "hi": 1994,
  "hib": 8133,
  "hibi": 5672,
  "hibiciÃ³n": 14739,
  "hibir": 12639,
  "hibiÃ³": 41467,
  "hid": 3547,
  "hidra": 5010,
  "hidrataciÃ³n": 26088,
  "hidratado": 47172,
  "hidrato": 26416,
  "hidro": 8788,
  "hidroclorotiazida": 46262,
  "hidrogenasa": 29883,
  "hidrosis": 32383,
  "hidroxi": 27787,
  "hijo": 34790,
  "hil": 29250,
  "hile": 24128,
  "hiliar": 49778,
  "him": 50393,
  "hima": 39010,
  "himoto": 50934,
  "hin": 27343,
  "hio": 51227,
  "hip": 11049,
  "hiper": 8965,
  "hipers": 49101,
  "hipertens": 13158,
  "hipertensiÃ³n": 36849,
  "hipo": 15177,
  "hips": 34933,
  "hire": 37070,
  "his": 13541,
  "hisp": 50705,
  "hist": 30091,
  "hista": 16565,
  "histo": 21134,
  "historia": 33858,
  "hit": 21393,
  "hite": 19386,
  "hitney": 30154,
  "hl": 16459,
  "hm": 39374,
  "hman": 40213,
  "hn": 4984,
  "ho": 2061,
  "hog": 49016,
  "hol": 21052,
  "hold": 41430,
  "hom": 24524,
  "hombre": 49421,
  "home": 47697,
  "hon": 18507,
  "honda": 35827,
  "hoo": 36767,
  "hood": 21000,
  "hop": 30336,
  "hor": 6455,
  "hora": 13911,
  "horabuena": 18214,
  "horas": 23321,
  "horm": 28525,
  "hormona": 47818,
  "hos": 12532,
  "hospital": 9382,
  "hospitalaria": 16730,
  "hospitalarias": 32835,
  "hospitalario": 24839,
  "hospitalarios": 45002,
  "hot": 29541,
  "hotmail": 37900,
  "hou": 35837,
  "house": 40402,
  "hout": 18605,
  "how": 43518,
  "hoy": 23305,
  "hr": 12358,
  "hringer": 37147,
  "hrs": 45583,
  "hs": 26721,
  "ht": 4718,
  "htm": 20092,
  "html": 15845,
  "hts": 49462,
  "htt": 28038,
  "http": 30462,
  "hu": 8425,
  "hua": 18682,
  "huahua": 39545,
  "huana": 18103,
  "hue": 21058,
  "hum": 17886,
  "human": 43015,
  "humeral": 42268,
  "hy": 12054,
  "hydro": 48287,
  "hyth": 47424,
  "hÃŃ": 16148,
  "hÃŃa": 20366,
  "hÃŃdr": 32926,
  "hÃŃdrico": 43145,
  "i": 76,
  "ia": 365,
  "iability": 38582,
  "iable": 36581,
  "iaca": 16934,
  "iaciÃ³n": 9178,
  "iada": 8899,
  "iadas": 15107,
  "iado": 3408,
  "iados": 8387,
  "iae": 37230,
  "iaje": 51347,
  "ial": 1867,
  "iales": 10893,
  "ialis": 40337,
  "iamente": 14228,
  "iamos": 37195,
  "ian": 4960,
  "iana": 7093,
  "ianas": 19637,
  "iang": 37588,
  "iano": 7472,
  "ianos": 13884,
  "ianza": 4214,
  "ianzas": 26444,
  "iao": 49589,
  "iar": 1469,
  "iares": 2313,
  "ias": 917,
  "iasis": 7475,
  "iasta": 49422,
  "iation": 35019,
  "iatric": 30268,
  "iatrÃŃa": 15281,
  "iaÃ§Ã£o": 39634,
  "ib": 940,
  "iba": 30515,
  "iber": 15265,
  "ibil": 24978,
  "ibilidad": 1958,
  "ible": 1380,
  "iblemente": 12998,
  "ibles": 2508,
  "ibo": 39476,
  "ibol": 36539,
  "ibro": 33484,
  "ibu": 37142,
  "ibus": 46815,
  "ic": 302,
  "ica": 389,
  "icaciones": 14718,
  "icaciÃ³n": 1427,
  "icado": 34121,
  "ical": 1527,
  "icales": 5481,
  "ically": 45680,
  "icamente": 1690,
  "ican": 40777,
  "icana": 17133,
  "icano": 43499,
  "icans": 29391,
  "icante": 10978,
  "icar": 1944,
  "icarb": 15450,
  "icarbonato": 16618,
  "icardia": 7055,
  "icardio": 50043,
  "icas": 643,
  "icciones": 37052,
  "icciÃ³n": 18219,
  "ice": 2851,
  "icela": 14341,
  "icemos": 42385,
  "icen": 8947,
  "iceps": 29253,
  "ices": 5731,
  "ich": 2862,
  "icha": 30573,
  "ichas": 47305,
  "iche": 38440,
  "ichi": 42049,
  "ichia": 21456,
  "ichos": 41881,
  "ici": 410,
  "icia": 2150,
  "iciado": 33800,
  "icial": 16056,
  "iciales": 33665,
  "ician": 30264,
  "icians": 24555,
  "iciar": 25686,
  "icias": 15824,
  "iciclina": 34413,
  "icida": 21412,
  "icidad": 3068,
  "icidades": 33300,
  "icidas": 21059,
  "icidio": 26469,
  "icidios": 35772,
  "icie": 32991,
  "iciembre": 17737,
  "icil": 24281,
  "icilina": 7433,
  "icilinas": 32155,
  "icillin": 36936,
  "icin": 32870,
  "icina": 5624,
  "icio": 991,
  "icion": 6759,
  "icional": 12099,
  "iciones": 3213,
  "icions": 46910,
  "icios": 1309,
  "iciosa": 27402,
  "icioso": 21132,
  "icip": 3503,
  "icipios": 11509,
  "icismo": 28454,
  "icista": 49957,
  "icity": 27428,
  "iciÃ³": 23877,
  "iciÃ³n": 1196,
  "ick": 7196,
  "icke": 48780,
  "icks": 51610,
  "ico": 440,
  "icobacter": 20350,
  "icocele": 40924,
  "icol": 26886,
  "icola": 29170,
  "icon": 23218,
  "iconazol": 33762,
  "icoplan": 26187,
  "icoplanina": 26896,
  "icor": 30598,
  "icordia": 49379,
  "icos": 597,
  "icosis": 13788,
  "icosocial": 30592,
  "icoterapia": 33158,
  "ics": 8692,
  "ictus": 46213,
  "icul": 15754,
  "icula": 24553,
  "icular": 4118,
  "iculares": 14182,
  "iculas": 47002,
  "iculitis": 36072,
  "iculo": 19518,
  "icultura": 8809,
  "icum": 34637,
  "icus": 33679,
  "icz": 42950,
  "icÃ¡r": 11535,
  "icÃ¡rdica": 27368,
  "icÃ¡rdico": 15663,
  "icÃ©": 37941,
  "icÃ³n": 37603,
  "icÃŃlico": 18511,
  "id": 311,
  "ida": 451,
  "idable": 51495,
  "idaciÃ³n": 7003,
  "idad": 377,
  "idada": 22608,
  "idadas": 32576,
  "idade": 8615,
  "idades": 668,
  "idado": 7523,
  "idados": 6712,
  "idae": 19427,
  "idal": 7453,
  "idales": 30301,
  "idalgo": 19133,
  "idamente": 4875,
  "idan": 20005,
  "idance": 48932,
  "idando": 44596,
  "idante": 35339,
  "idantes": 38675,
  "idar": 13145,
  "idas": 1181,
  "idasa": 16853,
  "idato": 35624,
  "idazol": 13718,
  "idazolam": 28604,
  "ide": 923,
  "idea": 7881,
  "ideas": 16991,
  "idectomÃŃa": 25370,
  "idel": 7320,
  "idelidad": 24183,
  "idelines": 15725,
  "idemia": 29674,
  "iden": 2643,
  "idencia": 17322,
  "identa": 7120,
  "idente": 2128,
  "identes": 33286,
  "ideo": 4817,
  "ideos": 9786,
  "ider": 10995,
  "idera": 31833,
  "iderazgo": 49230,
  "idero": 50355,
  "ides": 2107,
  "idez": 4907,
  "idge": 34028,
  "idi": 7744,
  "idin": 23663,
  "idina": 9833,
  "idinas": 50443,
  "idis": 41654,
  "idismo": 8287,
  "iditis": 26586,
  "idity": 32076,
  "idney": 16017,
  "ido": 472,
  "idogrel": 16929,
  "idol": 22476,
  "idomida": 25220,
  "idona": 15748,
  "idor": 5241,
  "idora": 25436,
  "idores": 3992,
  "idorm": 46389,
  "idos": 736,
  "idosis": 13251,
  "idovudina": 42840,
  "idra": 35749,
  "idro": 22535,
  "ids": 16700,
  "idurÃŃa": 22387,
  "idÃ³n": 20178,
  "ie": 569,
  "iebre": 2204,
  "ied": 10934,
  "iedad": 2438,
  "iedades": 33613,
  "ief": 41767,
  "iega": 4317,
  "iego": 18304,
  "iegue": 25194,
  "iel": 5768,
  "ielo": 12063,
  "iemia": 15650,
  "iemias": 40667,
  "ien": 1160,
  "ience": 17172,
  "iencia": 9612,
  "iencias": 33997,
  "ienda": 2753,
  "iendan": 8218,
  "iendas": 10693,
  "iende": 7829,
  "ienden": 14222,
  "iendo": 1758,
  "iene": 5024,
  "ienes": 14785,
  "iense": 19927,
  "iente": 3010,
  "ientes": 3848,
  "ier": 774,
  "iera": 16547,
  "ieran": 12459,
  "ieras": 45545,
  "iere": 1389,
  "ieren": 3795,
  "ieres": 17854,
  "ieri": 51415,
  "ierno": 27750,
  "iero": 10961,
  "ieron": 3510,
  "ieros": 20752,
  "ierra": 6458,
  "ierro": 14804,
  "ierÃŃa": 9197,
  "ies": 1825,
  "iese": 47594,
  "iesta": 26873,
  "iestas": 47240,
  "iesto": 41001,
  "ieta": 28648,
  "iete": 31001,
  "iev": 48182,
  "ieve": 12853,
  "ieves": 44286,
  "ieza": 5000,
  "if": 787,
  "ifa": 50033,
  "ife": 9552,
  "ifen": 44559,
  "ifeno": 22699,
  "ifer": 30081,
  "ifera": 22637,
  "iff": 36084,
  "iffer": 51645,
  "ifi": 14115,
  "ific": 1191,
  "ifica": 1320,
  "ificaciones": 27381,
  "ificaciÃ³n": 2278,
  "ificada": 18628,
  "ificadas": 40668,
  "ificado": 12166,
  "ificados": 16074,
  "ifican": 47516,
  "ificante": 30887,
  "ificar": 6867,
  "ification": 21833,
  "ifico": 32959,
  "ified": 34376,
  "ifique": 29591,
  "iflo": 29971,
  "iflor": 43273,
  "iflora": 48883,
  "iflozina": 31576,
  "ifo": 50832,
  "ifolia": 44542,
  "iforme": 22775,
  "iformes": 27809,
  "iforn": 9333,
  "ifornia": 9411,
  "ift": 29599,
  "ify": 51102,
  "ig": 513,
  "iga": 4400,
  "igan": 13818,
  "igas": 28636,
  "ige": 22880,
  "igen": 8030,
  "igencia": 15538,
  "igeno": 10803,
  "igente": 45369,
  "iger": 27625,
  "igh": 14571,
  "ight": 8700,
  "ighting": 46113,
  "ightingale": 51566,
  "ights": 36691,
  "igilancia": 10403,
  "igma": 47153,
  "ign": 3078,
  "igna": 5578,
  "ignas": 41263,
  "igne": 25730,
  "igned": 47825,
  "igno": 48718,
  "igo": 8554,
  "igos": 51737,
  "igra": 36283,
  "igu": 12799,
  "igual": 8559,
  "iguar": 17997,
  "igudes": 27170,
  "igue": 5307,
  "igur": 6067,
  "ii": 7888,
  "iii": 33129,
  "ij": 11589,
  "ija": 23400,
  "ije": 46615,
  "ijing": 47793,
  "ijo": 41319,
  "ijÃ³n": 30651,
  "ik": 9171,
  "ika": 13173,
  "iki": 15859,
  "iko": 46605,
  "ikun": 24429,
  "ikungunya": 25867,
  "il": 393,
  "ila": 2752,
  "ilable": 21674,
  "ilaciÃ³n": 4477,
  "ilada": 25544,
  "iladel": 14985,
  "iladelfia": 32361,
  "iladelphia": 18963,
  "ilado": 42005,
  "ilan": 26136,
  "ilancia": 4856,
  "ilandia": 36267,
  "ilar": 2891,
  "ilares": 16084,
  "ilas": 19610,
  "ilateral": 12737,
  "ilaterales": 42558,
  "ilates": 21451,
  "ilato": 36448,
  "ild": 5379,
  "ile": 3007,
  "ilead": 50818,
  "iled": 30456,
  "iler": 34583,
  "ilera": 28043,
  "iles": 6771,
  "iley": 28775,
  "ili": 14949,
  "ilia": 40531,
  "ilidad": 10439,
  "ilin": 46026,
  "ilina": 42588,
  "ilio": 22603,
  "ilios": 31467,
  "ilips": 40058,
  "ilis": 45329,
  "ilitros": 46548,
  "ill": 2260,
  "illa": 2557,
  "illado": 20239,
  "illan": 19753,
  "illance": 27572,
  "illar": 25243,
  "illas": 5425,
  "ille": 18339,
  "iller": 9143,
  "illerato": 21742,
  "illi": 31696,
  "illo": 3597,
  "illos": 8508,
  "ills": 33362,
  "illus": 28508,
  "illy": 18960,
  "illÃ³n": 47371,
  "ilo": 4414,
  "ilon": 38893,
  "ilos": 44665,
  "ils": 29846,
  "ilure": 18260,
  "ilvania": 37382,
  "ily": 19999,
  "ilÃ¡n": 45723,
  "im": 542,
  "ima": 2306,
  "imagen": 18038,
  "imal": 27490,
  "imamente": 13782,
  "iman": 29578,
  "imar": 35810,
  "imas": 5150,
  "imato": 34791,
  "imb": 36061,
  "ime": 8604,
  "imed": 47401,
  "imen": 5936,
  "iment": 24282,
  "imentaciÃ³n": 47329,
  "imental": 16085,
  "imento": 44100,
  "imer": 3751,
  "imes": 47387,
  "imi": 4592,
  "imia": 20639,
  "imiento": 2266,
  "imientos": 5650,
  "imilar": 44414,
  "imilares": 25678,
  "imili": 50747,
  "imin": 2521,
  "imina": 10727,
  "imismo": 3302,
  "immer": 48216,
  "immun": 42732,
  "imnas": 13050,
  "imo": 2124,
  "imon": 41985,
  "imos": 3251,
  "imp": 6873,
  "impan": 37608,
  "imped": 48908,
  "implan": 23954,
  "implante": 48189,
  "impor": 28439,
  "importante": 43604,
  "impres": 28142,
  "ims": 49715,
  "imumab": 35367,
  "imus": 14126,
  "imÃ¡tico": 47872,
  "imÃ©": 12591,
  "imÃ©nez": 46159,
  "in": 281,
  "ina": 477,
  "inaciÃ³n": 15251,
  "inada": 23471,
  "inadas": 35626,
  "inado": 11718,
  "inados": 17402,
  "inaje": 51773,
  "inal": 2253,
  "inales": 11512,
  "inamiento": 33715,
  "inan": 45039,
  "inando": 44707,
  "inar": 2779,
  "inares": 22835,
  "inaria": 12288,
  "inarias": 28116,
  "inariedad": 47784,
  "inario": 10230,
  "inarios": 17438,
  "inary": 26964,
  "inas": 1317,
  "inasa": 20969,
  "inasas": 46565,
  "inastÃŃa": 30841,
  "inato": 48343,
  "inavir": 32385,
  "inc": 9047,
  "inch": 30591,
  "inci": 4657,
  "incidencia": 44511,
  "incl": 9196,
  "incluida": 43651,
  "incluido": 43853,
  "incluidos": 39324,
  "incluso": 27748,
  "incluye": 43696,
  "incluyendo": 18704,
  "incre": 44902,
  "incron": 30693,
  "incu": 18161,
  "incÃ³n": 35546,
  "ind": 7629,
  "inda": 24871,
  "indd": 16910,
  "index": 11205,
  "indi": 24519,
  "indic": 5594,
  "indica": 27732,
  "individual": 49079,
  "indo": 12439,
  "indows": 18278,
  "induced": 32731,
  "industri": 47877,
  "industria": 25640,
  "ine": 1435,
  "inea": 21374,
  "ineal": 20171,
  "inec": 4150,
  "ined": 27983,
  "inefrina": 30900,
  "inela": 23719,
  "inemia": 12764,
  "inen": 47699,
  "ineos": 45724,
  "iner": 13424,
  "inero": 40158,
  "ines": 5265,
  "inesia": 34175,
  "iness": 23821,
  "inester": 34467,
  "inesterasa": 42474,
  "inete": 17085,
  "inetes": 40350,
  "ineuro": 30217,
  "ineuropatÃŃa": 36316,
  "inf": 1369,
  "infa": 36369,
  "infantil": 35737,
  "infarto": 31175,
  "infec": 6673,
  "infecciones": 35683,
  "infecciosa": 50421,
  "infecciÃ³n": 11342,
  "infectados": 47334,
  "inferior": 35116,
  "infl": 50017,
  "inflama": 7076,
  "inflamaciÃ³n": 32261,
  "inflamatorios": 38517,
  "influen": 51189,
  "info": 29968,
  "infocitos": 2615,
  "inform": 19836,
  "informa": 49035,
  "informaciÃ³n": 41194,
  "informe": 42164,
  "informÃ¡tica": 39425,
  "ing": 783,
  "inga": 13527,
  "ingas": 28013,
  "inge": 7710,
  "ingen": 25206,
  "ingenierÃŃa": 37461,
  "ingeo": 39656,
  "inger": 12854,
  "ingesta": 30935,
  "ingitis": 8831,
  "ingo": 10191,
  "ingos": 23798,
  "ingres": 15066,
  "ingreso": 45290,
  "ingrÃ©s": 31354,
  "ings": 12156,
  "ington": 9794,
  "ingu": 27488,
  "ingual": 29283,
  "ingun": 2844,
  "ingÃºn": 2878,
  "ingÃ¼": 11370,
  "ingÃ¼ÃŃstica": 41981,
  "inhib": 42744,
  "ini": 9846,
  "inia": 43658,
  "inici": 45398,
  "inicio": 32369,
  "inida": 32316,
  "inidad": 12272,
  "inilla": 41642,
  "ining": 16006,
  "inio": 13290,
  "initis": 26270,
  "inizaciÃ³n": 48619,
  "injer": 25547,
  "injerto": 35525,
  "injertos": 44986,
  "ink": 22318,
  "inmun": 6713,
  "inmune": 48884,
  "inmuno": 44916,
  "ino": 1045,
  "inoa": 45416,
  "inoc": 47057,
  "inoides": 34483,
  "inois": 36161,
  "inol": 47748,
  "inopatÃŃa": 50035,
  "inoplastia": 14489,
  "inopril": 41920,
  "inos": 3193,
  "inosa": 13435,
  "inosis": 39961,
  "inosos": 31736,
  "inotec": 50176,
  "ins": 4210,
  "insa": 21338,
  "inseng": 43837,
  "inska": 50527,
  "inski": 39486,
  "inst": 21914,
  "instein": 25183,
  "institu": 29011,
  "institucional": 45359,
  "insu": 26909,
  "insuficiencia": 42291,
  "insulina": 51578,
  "int": 8216,
  "inta": 11836,
  "inte": 29680,
  "integr": 44911,
  "integraciÃ³n": 48999,
  "intel": 45906,
  "inten": 14301,
  "intena": 48427,
  "intendo": 32656,
  "intens": 28722,
  "intensa": 50845,
  "inter": 5841,
  "interpre": 42682,
  "interrump": 31124,
  "intersti": 44374,
  "intervalo": 31105,
  "intervenciÃ³n": 41620,
  "intes": 40962,
  "intestin": 6569,
  "intestinal": 36008,
  "into": 20343,
  "intom": 28554,
  "intra": 41616,
  "ints": 28422,
  "inum": 42456,
  "inus": 35540,
  "invas": 35457,
  "investig": 31491,
  "inz": 36428,
  "inÃ³": 39525,
  "inÃ³geno": 13722,
  "io": 384,
  "iocentesis": 35439,
  "iol": 29482,
  "iological": 51127,
  "iology": 35433,
  "iologÃŃa": 11543,
  "ioma": 31439,
  "ion": 1385,
  "iona": 6093,
  "ionado": 23699,
  "ional": 3422,
  "ionales": 8069,
  "ionalmente": 37121,
  "ione": 34847,
  "ionella": 30009,
  "iones": 885,
  "ionista": 24788,
  "ionistas": 23911,
  "ions": 13733,
  "ior": 1176,
  "iores": 3095,
  "iorrafia": 48184,
  "ios": 1029,
  "iosa": 10879,
  "iosarcoma": 40199,
  "iosas": 11940,
  "iosis": 12783,
  "iositis": 41843,
  "ioso": 7622,
  "iosos": 11040,
  "ioximetrÃŃa": 31302,
  "ip": 2915,
  "ipe": 12328,
  "ipiÃ©": 30128,
  "ipiÃ©lago": 31390,
  "ipo": 21031,
  "ipolar": 40805,
  "ips": 41531,
  "ipse": 47306,
  "ipÃº": 39667,
  "ipÃºzcoa": 47488,
  "ique": 10037,
  "iquen": 25539,
  "iques": 39646,
  "ir": 420,
  "ira": 4523,
  "iras": 15010,
  "ird": 28699,
  "ire": 2841,
  "ired": 48869,
  "iremos": 29247,
  "ires": 8620,
  "iri": 50775,
  "iris": 49794,
  "irm": 1927,
  "irma": 3366,
  "irman": 8963,
  "iro": 5786,
  "iros": 22422,
  "irri": 38589,
  "irru": 4408,
  "irrub": 37607,
  "irrubina": 4545,
  "irrubinemia": 40552,
  "irs": 20772,
  "irsch": 33282,
  "irse": 5899,
  "iru": 29171,
  "irÃ¡": 7262,
  "irÃ¡mi": 19664,
  "irÃ£o": 50830,
  "is": 310,
  "isa": 7406,
  "isakis": 50782,
  "isal": 45708,
  "isas": 43245,
  "isation": 41400,
  "isc": 32065,
  "iscal": 32726,
  "isco": 11560,
  "iscos": 23089,
  "ise": 7762,
  "ised": 26473,
  "iser": 31183,
  "ises": 26361,
  "ish": 7430,
  "ished": 24333,
  "ishing": 38247,
  "ishman": 24475,
  "ishmania": 40283,
  "isi": 5242,
  "isiera": 11021,
  "isimo": 28180,
  "isio": 20848,
  "ision": 32146,
  "isiones": 21894,
  "isis": 957,
  "isiÃ³n": 3337,
  "isky": 47467,
  "isl": 2616,
  "isla": 10067,
  "islaciÃ³n": 50765,
  "ism": 12962,
  "ismo": 684,
  "ismos": 2523,
  "isms": 25112,
  "iso": 1955,
  "isol": 40497,
  "ison": 11577,
  "ispo": 26170,
  "iss": 12245,
  "issa": 34866,
  "isser": 33249,
  "isseria": 36771,
  "isson": 45729,
  "ist": 993,
  "ista": 1109,
  "istad": 15368,
  "istades": 28812,
  "istag": 19824,
  "istal": 8170,
  "istan": 9062,
  "istance": 17201,
  "istant": 36462,
  "istas": 1576,
  "istaxis": 27553,
  "iste": 674,
  "isted": 45040,
  "istem": 30643,
  "istema": 13975,
  "istemas": 16753,
  "isten": 908,
  "istencia": 1442,
  "istencial": 16165,
  "istenciales": 44340,
  "istencias": 13935,
  "istent": 35259,
  "istente": 3196,
  "istentes": 3574,
  "ister": 19327,
  "istes": 9866,
  "isti": 2932,
  "istian": 23191,
  "istic": 28373,
  "istica": 39905,
  "isticas": 26010,
  "istics": 20016,
  "istida": 23556,
  "istido": 9892,
  "istiendo": 19795,
  "istieron": 36109,
  "istimos": 47751,
  "istina": 24006,
  "istir": 4549,
  "istiÃ³": 13525,
  "isto": 8651,
  "istoc": 35153,
  "istol": 31013,
  "istolia": 29460,
  "istre": 24174,
  "istro": 28173,
  "ists": 20603,
  "istÃ¡n": 18852,
  "istÃ©mica": 43753,
  "istÃªncia": 41396,
  "istÃ³": 26822,
  "istÃ³teles": 37890,
  "istÃŃa": 9888,
  "istÃŃan": 16097,
  "isÃ³": 24906,
  "it": 401,
  "ita": 1020,
  "itaciones": 27099,
  "itaciÃ³n": 3063,
  "itada": 18631,
  "itadas": 32952,
  "itado": 6115,
  "itados": 21227,
  "ital": 2529,
  "itales": 5326,
  "itamina": 47832,
  "itamos": 23533,
  "itan": 3581,
  "itana": 18251,
  "itando": 6297,
  "itano": 31040,
  "itante": 10136,
  "itantes": 19338,
  "itar": 1247,
  "itares": 12661,
  "itari": 23797,
  "itaria": 2743,
  "itariamente": 15563,
  "itarias": 6609,
  "itario": 2221,
  "itarios": 4742,
  "itarismo": 40355,
  "itaron": 49651,
  "itarse": 39702,
  "itarÃ¡": 40532,
  "itas": 2911,
  "itat": 6963,
  "itation": 26923,
  "itative": 33802,
  "itch": 21662,
  "ite": 2526,
  "iten": 23969,
  "itenci": 17549,
  "iter": 11641,
  "ites": 7498,
  "ith": 2243,
  "ithas": 51255,
  "ither": 51010,
  "iti": 6592,
  "itia": 22962,
  "itial": 37544,
  "itiasis": 17852,
  "itiative": 41110,
  "itica": 8929,
  "itidina": 40694,
  "itidis": 39470,
  "ities": 13010,
  "itin": 26410,
  "itina": 23925,
  "iting": 45141,
  "itinib": 32597,
  "ition": 24632,
  "itis": 1889,
  "itismo": 41484,
  "itiva": 21223,
  "itivamente": 39100,
  "itivas": 35556,
  "itivo": 15492,
  "itivos": 24674,
  "itmo": 10367,
  "itmos": 18999,
  "ito": 1632,
  "itol": 23388,
  "itologÃŃa": 23148,
  "itor": 3689,
  "itora": 51020,
  "itores": 11346,
  "itorio": 51055,
  "itos": 2215,
  "itosis": 23011,
  "itoÃŃna": 27640,
  "itra": 11832,
  "itrauma": 29899,
  "itri": 28533,
  "itritos": 12171,
  "itro": 3537,
  "itromicina": 9315,
  "its": 12022,
  "itt": 27364,
  "itu": 41307,
  "itud": 8262,
  "itudes": 48289,
  "ity": 2275,
  "itz": 10671,
  "itza": 14362,
  "itzaciÃ³": 29518,
  "itzada": 40373,
  "itzar": 35441,
  "itzem": 42631,
  "itzo": 50993,
  "itÃ©": 4359,
  "itÃ©s": 18026,
  "itÃ³": 23771,
  "itÃŃ": 25679,
  "iu": 20879,
  "ium": 10427,
  "ius": 21340,
  "iv": 432,
  "iva": 1530,
  "ivaca": 24148,
  "ivacaÃŃna": 29612,
  "ivado": 11166,
  "ival": 11898,
  "ivalente": 30811,
  "ivamente": 5065,
  "ivan": 33071,
  "ivar": 18834,
  "ivas": 3875,
  "ive": 4443,
  "ived": 21496,
  "iveira": 34044,
  "ivel": 880,
  "iven": 32223,
  "iver": 8653,
  "ivers": 911,
  "iversario": 12553,
  "ivery": 37756,
  "ives": 16402,
  "ividad": 8915,
  "iving": 19482,
  "ivir": 18558,
  "ivo": 1797,
  "ivolumab": 36367,
  "ivos": 2585,
  "ivotril": 50623,
  "iw": 27233,
  "iwÃ¡n": 46659,
  "ix": 4375,
  "ixa": 14000,
  "ixo": 33536,
  "iz": 374,
  "iza": 2765,
  "izaba": 37662,
  "izable": 37290,
  "izables": 50940,
  "izacion": 18018,
  "izaciones": 9224,
  "izaciÃ³n": 1136,
  "izada": 4182,
  "izadas": 9193,
  "izado": 3261,
  "izador": 14794,
  "izadora": 38938,
  "izadores": 21699,
  "izados": 5235,
  "izamos": 30004,
  "izan": 8004,
  "izando": 12693,
  "izante": 14631,
  "izantes": 13688,
  "izar": 3064,
  "izaron": 20585,
  "izarse": 17543,
  "izarÃ¡": 37885,
  "izas": 18895,
  "ization": 13464,
  "izca": 23600,
  "ize": 22936,
  "ized": 12333,
  "izer": 20243,
  "izo": 2718,
  "izofrenia": 35655,
  "izon": 8742,
  "izoph": 29438,
  "izophren": 29696,
  "izophrenia": 32306,
  "izos": 21067,
  "izquier": 36842,
  "izquierda": 45246,
  "izumab": 18066,
  "izÃ¡ndose": 49244,
  "izÃ³": 12495,
  "iÃ¡": 12690,
  "iÃ¡n": 19293,
  "iÃ§Ã£o": 49832,
  "iÃ©n": 11935,
  "iÃ©ndose": 12536,
  "iÃ©nico": 24813,
  "iÃ³": 2223,
  "iÃ³n": 445,
  "iÃ³nica": 47203,
  "j": 77,
  "ja": 1043,
  "jaba": 25627,
  "jaban": 37137,
  "jaciÃ³n": 6799,
  "jada": 9640,
  "jadas": 17771,
  "jado": 6181,
  "jados": 12674,
  "jal": 11666,
  "jala": 16649,
  "jales": 37836,
  "jalÃ¡": 17104,
  "jama": 47111,
  "jamiento": 13438,
  "jamientos": 36365,
  "jamos": 21624,
  "jan": 4251,
  "jana": 25845,
  "jando": 15610,
  "jano": 12361,
  "janos": 18071,
  "jante": 42091,
  "jar": 3111,
  "jara": 35966,
  "jaron": 25396,
  "jarse": 19098,
  "jarÃ¡": 47622,
  "jas": 2026,
  "jate": 35320,
  "je": 640,
  "jec": 7976,
  "jecimiento": 4599,
  "ject": 17843,
  "jection": 42074,
  "jective": 22224,
  "jects": 23352,
  "jed": 24934,
  "jeda": 36073,
  "jedrez": 27906,
  "jeje": 44409,
  "jen": 24294,
  "jeo": 47167,
  "jer": 659,
  "jera": 7944,
  "jeran": 45488,
  "jeras": 14178,
  "jerci": 41586,
  "jero": 5028,
  "jeron": 6717,
  "jeros": 7779,
  "jerÃŃa": 7111,
  "jerÃŃas": 36731,
  "jes": 5583,
  "jeta": 36700,
  "jetas": 51203,
  "jetivo": 29079,
  "jetivos": 38410,
  "jeto": 38402,
  "jetos": 25754,
  "ji": 23656,
  "jidad": 8223,
  "jido": 45542,
  "jiga": 29280,
  "jillo": 28108,
  "jimo": 48394,
  "jo": 706,
  "jol": 22531,
  "joles": 42018,
  "jon": 49451,
  "jones": 46941,
  "jor": 28721,
  "jos": 1272,
  "josa": 38471,
  "joso": 45505,
  "jote": 42054,
  "ju": 2997,
  "juana": 45595,
  "jun": 12488,
  "junio": 36634,
  "junta": 31425,
  "juntivitis": 28729,
  "junto": 13316,
  "jury": 24668,
  "jus": 2816,
  "juvenecimiento": 37134,
  "juvenil": 34455,
  "jÃ¡ndose": 46843,
  "jÃ³": 13297,
  "jÃ³n": 18718,
  "jÃ¶": 29385,
  "k": 78,
  "ka": 4654,
  "kacina": 33186,
  "kai": 49148,
  "kaia": 25939,
  "kal": 21883,
  "kan": 32329,
  "kar": 25002,
  "kas": 34220,
  "ke": 2883,
  "ked": 26406,
  "kel": 19270,
  "kele": 35384,
  "keletal": 41747,
  "keley": 43944,
  "kely": 51300,
  "ken": 17727,
  "ker": 6266,
  "kers": 17925,
  "kert": 31419,
  "kes": 16922,
  "kespe": 49765,
  "kespeare": 50170,
  "ket": 27024,
  "keting": 10962,
  "keto": 14251,
  "ketoprofeno": 14757,
  "key": 20622,
  "kg": 5669,
  "kh": 37085,
  "ki": 5053,
  "kia": 38376,
  "kide": 26659,
  "kidetza": 26862,
  "kin": 3637,
  "kine": 38307,
  "king": 7268,
  "kinra": 41560,
  "kins": 14872,
  "kinson": 6432,
  "kinumab": 44186,
  "kir": 47571,
  "kis": 23410,
  "km": 43309,
  "kman": 41641,
  "ko": 6375,
  "kos": 44064,
  "kov": 23695,
  "kra": 49896,
  "ks": 3717,
  "ku": 24215,
  "kus": 45105,
  "ky": 8122,
  "l": 79,
  "la": 413,
  "lab": 12179,
  "labor": 35227,
  "labora": 26933,
  "labrada": 35088,
  "lac": 14879,
  "lace": 13921,
  "laces": 30182,
  "lacional": 45496,
  "laciÃ³n": 15073,
  "lacta": 38050,
  "lad": 31912,
  "lada": 9110,
  "ladas": 24066,
  "lado": 6006,
  "lados": 18154,
  "lae": 29203,
  "lafa": 29805,
  "lafaxina": 30545,
  "lag": 42043,
  "laga": 9105,
  "lago": 10985,
  "lagos": 22702,
  "lah": 50847,
  "laje": 25110,
  "lam": 934,
  "lama": 5949,
  "lamaciÃ³n": 18993,
  "lamada": 28463,
  "lamar": 51662,
  "lamento": 7949,
  "lamiento": 48544,
  "lamos": 19621,
  "lamy": 29706,
  "lan": 644,
  "lana": 16334,
  "lanas": 48734,
  "land": 6356,
  "landa": 23384,
  "landes": 37343,
  "landia": 18194,
  "lando": 5360,
  "lands": 40726,
  "landÃ©s": 40632,
  "lanes": 49003,
  "lano": 9235,
  "lanos": 18462,
  "lante": 3237,
  "lantes": 12067,
  "lao": 43261,
  "lar": 1044,
  "lara": 17785,
  "lard": 50965,
  "lares": 13200,
  "largina": 39030,
  "lary": 39225,
  "las": 737,
  "lasa": 12903,
  "lash": 25395,
  "lat": 44822,
  "lata": 40758,
  "lateral": 34584,
  "laterra": 11887,
  "latino": 50108,
  "lation": 37985,
  "lato": 26354,
  "latos": 36186,
  "lauc": 9410,
  "laucoma": 9744,
  "lav": 13529,
  "lava": 29439,
  "lave": 48836,
  "lavicular": 30689,
  "lax": 36521,
  "laxis": 42108,
  "lay": 21302,
  "laz": 1519,
  "laza": 17384,
  "lazamiento": 26865,
  "lazan": 3910,
  "lazar": 20067,
  "lazo": 37695,
  "ld": 9174,
  "le": 346,
  "lea": 19643,
  "lear": 51591,
  "lebitis": 39509,
  "lec": 1578,
  "leca": 40614,
  "lecainida": 46675,
  "led": 9941,
  "ledge": 19440,
  "lee": 48453,
  "leep": 23725,
  "leg": 28219,
  "legal": 51496,
  "lege": 12719,
  "lein": 49157,
  "lem": 49675,
  "len": 9001,
  "lence": 51980,
  "leo": 6793,
  "leon": 34653,
  "leos": 38352,
  "lepsia": 7981,
  "ler": 3305,
  "lera": 38864,
  "lerÃŃa": 22872,
  "les": 978,
  "lesa": 42218,
  "lesia": 8267,
  "lesiones": 49612,
  "less": 35078,
  "let": 10530,
  "leta": 33867,
  "letas": 43870,
  "lete": 27252,
  "letes": 30280,
  "letin": 49850,
  "leto": 12874,
  "letos": 27979,
  "leu": 20827,
  "leve": 49649,
  "lex": 12725,
  "lexane": 35524,
  "lexia": 32313,
  "lexiÃ³n": 34916,
  "ley": 7348,
  "lez": 3654,
  "lga": 10922,
  "lgies": 47225,
  "li": 840,
  "lia": 4687,
  "liano": 22998,
  "liar": 41276,
  "liber": 40769,
  "libro": 49144,
  "lic": 752,
  "lica": 3178,
  "licamente": 51367,
  "lice": 20459,
  "licer": 46987,
  "lices": 37405,
  "lich": 32168,
  "lici": 42128,
  "liciÃ³n": 48935,
  "lick": 42158,
  "lico": 28061,
  "licÃ©ridos": 12059,
  "lid": 38431,
  "lido": 39221,
  "lie": 25540,
  "lies": 48904,
  "lig": 4987,
  "light": 37503,
  "ligo": 34744,
  "like": 32674,
  "lim": 34029,
  "limi": 48651,
  "limp": 27694,
  "lin": 6610,
  "lina": 6177,
  "line": 5491,
  "linf": 48139,
  "ling": 14145,
  "lio": 2732,
  "lion": 46028,
  "lios": 43730,
  "lip": 17950,
  "lipemia": 28314,
  "lipidemia": 37045,
  "lipo": 48677,
  "lips": 43989,
  "lique": 18938,
  "liquen": 26419,
  "lis": 21482,
  "list": 43637,
  "lista": 38733,
  "lita": 6658,
  "litaxel": 26739,
  "lite": 11752,
  "litis": 19915,
  "lito": 28220,
  "litos": 17612,
  "litus": 6484,
  "lium": 51083,
  "lix": 14773,
  "liximab": 30236,
  "liz": 10882,
  "lizumab": 18978,
  "ll": 4721,
  "lla": 3172,
  "llam": 21515,
  "llamente": 24979,
  "llas": 7285,
  "lle": 5174,
  "ller": 30903,
  "llevar": 29916,
  "llin": 33011,
  "llo": 19525,
  "llos": 49738,
  "llum": 34328,
  "llus": 22781,
  "lm": 30208,
  "lo": 385,
  "loa": 50005,
  "lob": 1549,
  "loba": 18554,
  "lobacter": 38928,
  "lobar": 48555,
  "lobul": 40474,
  "loc": 26735,
  "loca": 40429,
  "locaciÃ³n": 26993,
  "lock": 37907,
  "locu": 24678,
  "lodipino": 17365,
  "lofenaco": 48497,
  "log": 19498,
  "logan": 47578,
  "logia": 18097,
  "logical": 40878,
  "logo": 7102,
  "logos": 14665,
  "logy": 19851,
  "logÃŃa": 3553,
  "loide": 13682,
  "loides": 49504,
  "lon": 25725,
  "lones": 28094,
  "lop": 6157,
  "lopidogrel": 17341,
  "lopurinol": 39396,
  "lopÃŃa": 35713,
  "loque": 48017,
  "lor": 5353,
  "lora": 30450,
  "loro": 12815,
  "los": 681,
  "losa": 14271,
  "losas": 34054,
  "loso": 12101,
  "losos": 22023,
  "lot": 25986,
  "lotinib": 47820,
  "lotis": 34638,
  "lov": 42942,
  "lova": 40159,
  "lovaquia": 45049,
  "low": 7711,
  "lox": 8746,
  "loxaci": 9211,
  "loxacilina": 51760,
  "loxacina": 30194,
  "loxacino": 11418,
  "loy": 21789,
  "loyd": 46822,
  "lpm": 7620,
  "ls": 12257,
  "lu": 1092,
  "lub": 10587,
  "luc": 1646,
  "luen": 20227,
  "luencia": 17496,
  "luente": 47229,
  "luentes": 33662,
  "lujo": 10208,
  "luk": 38127,
  "lukast": 40311,
  "lum": 17975,
  "luorescencia": 41566,
  "lus": 9900,
  "lution": 49574,
  "lux": 28802,
  "lx": 20160,
  "ly": 3173,
  "lying": 24107,
  "lymp": 42714,
  "lyn": 35791,
  "lÃ¡n": 13203,
  "lÃ¨rg": 29857,
  "lÃ¨rgies": 32888,
  "lÃ©": 28658,
  "lÃ©tico": 30249,
  "lÃ³": 25098,
  "lÃ³n": 12947,
  "lÃŃ": 8763,
  "lÃŃn": 6918,
  "lÃŃndr": 24995,
  "lÃŃnea": 50360,
  "lÃŃnica": 30578,
  "lÃŃnico": 19897,
  "lÃŃnicos": 48725,
  "m": 80,
  "mEq": 47960,
  "mL": 10356,
  "ma": 372,
  "mab": 22529,
  "mac": 943,
  "macia": 3797,
  "macias": 8727,
  "maculada": 29654,
  "mad": 4557,
  "mada": 26165,
  "mado": 14281,
  "madol": 14373,
  "mados": 28909,
  "madre": 27811,
  "madrid": 48484,
  "madura": 9654,
  "maduras": 11147,
  "mael": 41673,
  "magem": 20714,
  "magn": 16122,
  "mago": 6493,
  "mail": 8243,
  "mal": 7150,
  "mala": 15425,
  "male": 42067,
  "males": 23125,
  "mall": 21720,
  "malo": 46373,
  "mam": 28411,
  "mamente": 23499,
  "man": 782,
  "mana": 1770,
  "manal": 44273,
  "manas": 20586,
  "manda": 47873,
  "mandibular": 38804,
  "mando": 50347,
  "manes": 14976,
  "mangi": 24056,
  "mania": 6898,
  "mann": 9463,
  "mano": 11554,
  "manos": 14218,
  "mans": 27086,
  "mante": 17109,
  "mantes": 22646,
  "mantina": 44131,
  "manual": 45303,
  "manuel": 42080,
  "mar": 2945,
  "mara": 35390,
  "marc": 14262,
  "marca": 16998,
  "mark": 42549,
  "mart": 18673,
  "martph": 25010,
  "mary": 38519,
  "marzo": 48455,
  "marÃŃa": 29584,
  "mas": 651,
  "masa": 38810,
  "masas": 31751,
  "mascar": 20079,
  "mat": 1705,
  "mate": 24808,
  "material": 42518,
  "matic": 14467,
  "matina": 35313,
  "mation": 43533,
  "matitis": 9730,
  "mato": 2868,
  "matocrito": 4909,
  "matologÃŃa": 3911,
  "matory": 29881,
  "matos": 4397,
  "matosa": 44254,
  "matosis": 16663,
  "matoso": 44591,
  "matÃŃes": 4692,
  "max": 17139,
  "may": 14471,
  "mayo": 38143,
  "mayor": 19766,
  "mayores": 48981,
  "mazol": 49303,
  "mb": 538,
  "mba": 44130,
  "mbar": 42537,
  "mber": 20722,
  "mberg": 45383,
  "mbi": 2137,
  "mbic": 37697,
  "mbicort": 39436,
  "mbito": 31074,
  "mbo": 12672,
  "mbran": 50277,
  "mbre": 20053,
  "mbres": 37223,
  "mbrolizumab": 37389,
  "mburgo": 38694,
  "mc": 39619,
  "mcg": 19841,
  "mdesivir": 30134,
  "me": 436,
  "mea": 25905,
  "meable": 34449,
  "mec": 19803,
  "med": 11127,
  "meda": 45451,
  "medad": 12847,
  "medades": 23184,
  "mede": 38353,
  "medetomidina": 42963,
  "medi": 5913,
  "media": 2781,
  "mediana": 38644,
  "mediante": 35307,
  "medic": 16817,
  "medicaciÃ³n": 32631,
  "medicamento": 51547,
  "medicamentos": 35904,
  "medicina": 17029,
  "medicos": 50985,
  "medida": 47895,
  "medio": 3419,
  "medios": 7592,
  "medo": 47215,
  "medular": 40471,
  "meinto": 41465,
  "mej": 7357,
  "mejo": 31773,
  "mejor": 17750,
  "mel": 13469,
  "mela": 47869,
  "melo": 16957,
  "mem": 50276,
  "memb": 27725,
  "membrana": 43038,
  "memor": 31100,
  "men": 3011,
  "mena": 47653,
  "mend": 22640,
  "menda": 19164,
  "mendamente": 36745,
  "mendations": 26975,
  "mended": 45015,
  "menes": 7651,
  "meno": 12445,
  "menopa": 42375,
  "menopausia": 47917,
  "menopÃ¡us": 16650,
  "menopÃ¡usica": 45552,
  "menopÃ¡usicas": 20409,
  "menor": 23829,
  "menores": 42871,
  "menorrea": 34373,
  "menos": 20893,
  "mens": 4793,
  "menstr": 34236,
  "menstrual": 37270,
  "ment": 1091,
  "menta": 6162,
  "mentaciÃ³n": 5064,
  "mental": 11347,
  "mentales": 29244,
  "mentar": 33099,
  "mentaria": 32236,
  "mentarias": 34954,
  "mentation": 22248,
  "mente": 489,
  "mented": 47090,
  "mentia": 45262,
  "mento": 1397,
  "mentos": 3162,
  "ments": 16335,
  "meo": 27107,
  "mer": 564,
  "mera": 4884,
  "meras": 5373,
  "merg": 3909,
  "mergen": 15917,
  "meria": 20381,
  "meric": 3636,
  "merica": 14596,
  "mero": 1294,
  "meros": 4041,
  "mers": 39377,
  "merÃŃa": 1897,
  "mes": 3667,
  "mesa": 50094,
  "meses": 42256,
  "mesis": 31293,
  "met": 20247,
  "meta": 28330,
  "metab": 28029,
  "metil": 12668,
  "metop": 42217,
  "metria": 35614,
  "metro": 3931,
  "metropÃŃa": 31003,
  "metros": 3485,
  "metrÃŃa": 7084,
  "metrÃŃas": 24252,
  "mex": 29703,
  "mez": 5532,
  "meÃ±o": 30940,
  "mg": 1931,
  "mi": 355,
  "mia": 1088,
  "mial": 35186,
  "mialgia": 9290,
  "mialgias": 29366,
  "mias": 5188,
  "mible": 31566,
  "mic": 4324,
  "mica": 1575,
  "micamente": 30660,
  "micas": 4707,
  "micina": 8852,
  "mico": 2227,
  "micos": 3364,
  "micro": 19219,
  "microb": 33859,
  "microbi": 8880,
  "mid": 22300,
  "mida": 15483,
  "midales": 50671,
  "midis": 41328,
  "mido": 37323,
  "midos": 44011,
  "midt": 40168,
  "mien": 27987,
  "miendo": 22881,
  "mienta": 31888,
  "miento": 448,
  "mientos": 954,
  "mies": 44248,
  "migo": 9695,
  "migran": 42644,
  "mil": 1852,
  "mila": 41824,
  "milar": 18386,
  "milares": 4026,
  "miles": 39258,
  "mill": 4871,
  "milla": 46705,
  "min": 512,
  "mina": 1756,
  "minaciÃ³n": 4602,
  "minal": 14494,
  "minales": 20152,
  "minar": 10746,
  "minares": 17219,
  "minary": 49928,
  "minas": 5781,
  "mination": 43901,
  "mine": 42444,
  "minente": 15634,
  "miner": 45994,
  "ming": 14574,
  "mingham": 24591,
  "minis": 1073,
  "ministro": 50525,
  "mino": 3049,
  "minos": 5180,
  "mio": 2358,
  "mioc": 46812,
  "mios": 6707,
  "mioterapia": 28025,
  "mir": 2613,
  "mira": 23493,
  "mirante": 43815,
  "mis": 1409,
  "misa": 33758,
  "misibles": 34425,
  "misiones": 28288,
  "misiÃ³n": 3073,
  "mismo": 46422,
  "miso": 4092,
  "misos": 14795,
  "mission": 21925,
  "mistas": 29736,
  "mit": 29658,
  "mita": 24841,
  "mite": 3876,
  "mites": 6698,
  "mith": 12031,
  "mitir": 24185,
  "mitis": 27739,
  "mito": 44459,
  "mitte": 21326,
  "mittee": 22722,
  "mix": 50107,
  "miz": 50501,
  "mizaciÃ³n": 20721,
  "mizol": 9585,
  "ml": 4364,
  "mm": 4844,
  "mmHg": 9921,
  "mmol": 39352,
  "mmy": 38702,
  "mn": 14736,
  "mo": 409,
  "mod": 27754,
  "modal": 30525,
  "modelo": 41817,
  "moder": 17602,
  "moderada": 28965,
  "moderado": 48642,
  "modium": 32235,
  "moide": 21085,
  "mol": 2584,
  "molar": 45388,
  "mology": 51056,
  "mon": 1287,
  "mona": 28189,
  "monar": 9869,
  "mond": 26853,
  "monella": 20999,
  "mones": 48342,
  "monial": 26111,
  "moniales": 35333,
  "monio": 6059,
  "monios": 15103,
  "monitor": 43160,
  "monos": 49052,
  "mons": 19218,
  "mont": 40454,
  "monte": 29726,
  "mor": 1567,
  "moral": 23370,
  "morales": 42140,
  "more": 21827,
  "morf": 29135,
  "moro": 49702,
  "morph": 38012,
  "mortalidad": 11257,
  "mos": 468,
  "mosa": 30439,
  "mosis": 12877,
  "moso": 46479,
  "moterol": 43423,
  "moto": 22433,
  "motor": 48226,
  "motos": 50088,
  "movil": 36867,
  "mox": 10613,
  "moxicilina": 11408,
  "mp": 368,
  "mpa": 20808,
  "mpas": 28341,
  "mper": 46515,
  "mperan": 40053,
  "mpl": 23358,
  "mple": 29077,
  "mpli": 10783,
  "mplimiento": 15666,
  "mpos": 33465,
  "mptom": 39126,
  "ms": 4240,
  "mu": 9264,
  "muc": 23604,
  "muchas": 36945,
  "mucho": 40169,
  "muchos": 43453,
  "mucosa": 33088,
  "mudez": 49583,
  "mue": 6803,
  "muerte": 37736,
  "muestra": 45778,
  "mueve": 45744,
  "mujer": 27768,
  "mujeres": 44515,
  "mul": 18998,
  "mullo": 21152,
  "mulo": 25397,
  "mulos": 36088,
  "mun": 1382,
  "mund": 41906,
  "mundo": 28537,
  "munica": 23958,
  "munication": 34890,
  "munications": 44660,
  "munity": 15270,
  "mural": 34914,
  "muro": 29865,
  "mus": 6893,
  "muscular": 11549,
  "musculares": 21024,
  "mutaciÃ³n": 42492,
  "muy": 12969,
  "mx": 23056,
  "my": 18199,
  "mÃ¡": 1395,
  "mÃ¡genes": 3892,
  "mÃ¡n": 8009,
  "mÃ¡s": 829,
  "mÃ¡tica": 3501,
  "mÃ¡ticamente": 19363,
  "mÃ¡ticas": 5479,
  "mÃ¡tico": 5931,
  "mÃ¡ticos": 7136,
  "mÃ¡x": 36446,
  "mÃ¡ximo": 34655,
  "mÃ©": 12300,
  "mÃ©dico": 36881,
  "mÃ©dicos": 36853,
  "mÃ©tica": 25994,
  "mÃ©todo": 50785,
  "mÃ³": 22075,
  "mÃ³n": 14521,
  "mÃ³r": 39995,
  "mÃŃ": 42972,
  "mÃŃn": 9276,
  "mÃŃnico": 28754,
  "mÃŃnicos": 16828,
  "n": 81,
  "na": 581,
  "nab": 10790,
  "nabis": 39990,
  "nacional": 40197,
  "nada": 35981,
  "nado": 12559,
  "nae": 30612,
  "naire": 19251,
  "nal": 3948,
  "naldo": 45508,
  "nals": 39915,
  "nan": 26837,
  "nar": 8082,
  "nas": 2535,
  "nat": 39047,
  "natal": 25769,
  "natremia": 46455,
  "natural": 45806,
  "nau": 38710,
  "naud": 33022,
  "naval": 36875,
  "nc": 21957,
  "ncbi": 36009,
  "ncer": 39384,
  "ncia": 6670,
  "nd": 33227,
  "ndice": 51909,
  "ne": 1054,
  "nea": 2510,
  "neas": 19613,
  "nec": 22756,
  "neces": 25308,
  "ned": 36585,
  "nee": 43581,
  "nega": 19093,
  "neica": 18098,
  "neico": 25805,
  "neider": 45089,
  "nel": 21781,
  "nell": 21741,
  "nen": 44820,
  "neo": 10480,
  "ner": 4436,
  "nera": 11441,
  "neros": 36772,
  "ners": 43910,
  "nes": 2820,
  "nesia": 19960,
  "nesis": 10979,
  "nesota": 33045,
  "ness": 9590,
  "nesto": 20147,
  "net": 3402,
  "nete": 32249,
  "nett": 32966,
  "neu": 40067,
  "neur": 49304,
  "neuro": 32762,
  "ney": 8340,
  "ng": 16849,
  "ni": 2301,
  "nia": 6466,
  "nic": 26025,
  "nica": 12814,
  "nicamente": 31333,
  "nicas": 47827,
  "niciÃ³n": 22746,
  "nico": 20149,
  "nicos": 28630,
  "nidad": 12164,
  "nie": 32580,
  "nier": 36799,
  "nifer": 40596,
  "nih": 30283,
  "nii": 42967,
  "nik": 36226,
  "ning": 10424,
  "nio": 51953,
  "niques": 48526,
  "nis": 7236,
  "nitus": 41829,
  "nivel": 20867,
  "niveles": 47611,
  "niz": 48014,
  "niÃ±o": 37550,
  "niÃ±os": 44681,
  "nlm": 34412,
  "nm": 38892,
  "no": 689,
  "noche": 45236,
  "nombre": 42486,
  "non": 22017,
  "nor": 31678,
  "norm": 25162,
  "normal": 18906,
  "normalmente": 46924,
  "nos": 987,
  "nosci": 31322,
  "nosis": 20551,
  "noso": 24804,
  "nosos": 48370,
  "not": 50006,
  "nout": 17202,
  "nov": 3469,
  "nova": 21560,
  "now": 13532,
  "nown": 37667,
  "ns": 15301,
  "nt": 45787,
  "nte": 48496,
  "nto": 20483,
  "nu": 35391,
  "nuevo": 51057,
  "num": 51908,
  "numer": 51997,
  "nunca": 33853,
  "nutri": 23415,
  "nutriciÃ³n": 16330,
  "nutrition": 39006,
  "ny": 14469,
  "nÃ©": 10457,
  "nÃ©s": 43486,
  "nÃº": 24289,
  "nÃºmero": 28609,
  "o": 82,
  "oC": 3499,
  "oL": 45817,
  "oS": 37703,
  "ob": 15999,
  "obes": 31594,
  "obesidad": 35906,
  "obier": 2262,
  "obierno": 2484,
  "obl": 48471,
  "obs": 15935,
  "observ": 29001,
  "oc": 947,
  "ocaciÃ³n": 23896,
  "ocal": 10377,
  "occipital": 47898,
  "oce": 7987,
  "ocele": 49953,
  "ocelular": 27842,
  "ocen": 6480,
  "ocer": 11841,
  "oci": 447,
  "ocia": 4988,
  "ociaciÃ³n": 18577,
  "ocial": 8865,
  "ociales": 13127,
  "ocicl": 40348,
  "ociedad": 25021,
  "ocilizumab": 21281,
  "ocimiento": 13373,
  "ocin": 11717,
  "ocio": 20542,
  "ocito": 12434,
  "ocitopenia": 18767,
  "ocitos": 1265,
  "ocitosis": 19819,
  "ock": 6710,
  "ocom": 9551,
  "ocor": 13196,
  "ocortico": 16436,
  "ocos": 28910,
  "ocromo": 34666,
  "octubre": 42111,
  "ocu": 22508,
  "ocular": 51317,
  "ocumarol": 25134,
  "ocup": 30144,
  "ocy": 20500,
  "ocyto": 38933,
  "ocytogenes": 44189,
  "ocÃŃa": 30222,
  "ocÃŃan": 48975,
  "ocÃŃtica": 31612,
  "od": 2417,
  "odds": 49072,
  "ode": 23119,
  "oden": 10127,
  "odentales": 48538,
  "odg": 17482,
  "odgkin": 18774,
  "odin": 25258,
  "odo": 44285,
  "odoro": 44544,
  "odular": 44702,
  "ody": 23050,
  "of": 3542,
  "ofar": 11756,
  "ofens": 34231,
  "off": 16382,
  "oflebitis": 43905,
  "ofo": 21644,
  "ofos": 31448,
  "oft": 19810,
  "og": 492,
  "oga": 23113,
  "ogar": 22755,
  "ogas": 31610,
  "ogastrio": 43826,
  "oge": 48329,
  "ogen": 10436,
  "ogene": 11474,
  "ogeneidad": 15809,
  "ogenes": 24722,
  "ogenesis": 37156,
  "ogenic": 43306,
  "ogenicidad": 30922,
  "ogeno": 36784,
  "ogenÃ©tica": 41409,
  "ogle": 10684,
  "oglic": 41789,
  "oglob": 12807,
  "ogluc": 26229,
  "ogo": 32259,
  "ogra": 2375,
  "ografia": 35815,
  "ografÃŃa": 3903,
  "ografÃŃas": 16703,
  "ograma": 5924,
  "ogramas": 30988,
  "ograph": 46989,
  "ographic": 36646,
  "ography": 27440,
  "ogrÃ¡": 4805,
  "ogrÃ¡fica": 17810,
  "ogrÃ¡ficas": 22183,
  "ogrÃ¡fico": 14093,
  "ogrÃ¡ficos": 17244,
  "ogue": 35602,
  "ogÃ©n": 5434,
  "ogÃ©nesis": 19104,
  "ogÃ©nica": 29667,
  "ogÃ©nicas": 37825,
  "ogÃ©nico": 15851,
  "ogÃ©nicos": 41014,
  "ogÃŃa": 26745,
  "oide": 37787,
  "oides": 15150,
  "ojo": 37955,
  "ojos": 43938,
  "ok": 4534,
  "oke": 50512,
  "okies": 13478,
  "okine": 45930,
  "oks": 25044,
  "ol": 316,
  "ola": 1127,
  "olac": 25969,
  "olaciÃ³n": 44572,
  "olactona": 31149,
  "olan": 50721,
  "olanda": 26284,
  "olar": 2653,
  "olares": 17000,
  "olaring": 14526,
  "olarizaciÃ³n": 11434,
  "olas": 8926,
  "olate": 12229,
  "olateral": 19345,
  "olato": 18496,
  "olatos": 42752,
  "old": 9657,
  "oldid": 14681,
  "ole": 3247,
  "olec": 40630,
  "olecular": 51364,
  "oledo": 12134,
  "olencia": 8707,
  "olepsia": 41360,
  "oler": 2709,
  "olera": 9087,
  "olerancia": 22553,
  "oles": 1264,
  "olesc": 2332,
  "olescent": 14905,
  "olesterol": 17196,
  "oleta": 15224,
  "oletas": 36486,
  "oley": 41830,
  "olf": 35114,
  "olfo": 19771,
  "oli": 10715,
  "olia": 11510,
  "olib": 26665,
  "olid": 3781,
  "olin": 15597,
  "olina": 10651,
  "olio": 51770,
  "olip": 25410,
  "olipo": 42406,
  "olis": 32023,
  "olisis": 16347,
  "olismo": 10132,
  "olitis": 16862,
  "olito": 49140,
  "oll": 17113,
  "olla": 15374,
  "ollas": 38150,
  "ollo": 25478,
  "ollos": 50513,
  "olo": 1984,
  "oloca": 46446,
  "olog": 576,
  "ologa": 41242,
  "ologia": 5834,
  "ologias": 41010,
  "ologic": 19907,
  "ologica": 21838,
  "ological": 8001,
  "ologico": 21324,
  "ologicos": 41075,
  "ologie": 49851,
  "ologies": 30542,
  "ologist": 44462,
  "ologists": 43688,
  "ologo": 17845,
  "ologos": 42520,
  "ology": 4074,
  "ologÃŃ": 45780,
  "ologÃŃa": 656,
  "ologÃŃas": 2289,
  "olol": 17033,
  "olon": 33199,
  "olona": 15029,
  "olonas": 22244,
  "olor": 773,
  "olos": 4796,
  "olotil": 19374,
  "olox": 38392,
  "oloxÃŃa": 50440,
  "olpi": 42432,
  "olpidem": 43478,
  "ols": 17720,
  "olu": 1923,
  "oluble": 26788,
  "olubles": 30313,
  "olucion": 7041,
  "olucionar": 51168,
  "oluciones": 16340,
  "oluciÃ³n": 1335,
  "olum": 28362,
  "olumab": 36314,
  "olumbar": 42104,
  "olution": 27118,
  "olv": 14402,
  "olver": 4713,
  "olvid": 32045,
  "oly": 28739,
  "olÃ²": 35942,
  "olÃ³": 34884,
  "olÃ³g": 725,
  "olÃ³gi": 51612,
  "olÃ³gica": 1708,
  "olÃ³gicamente": 9018,
  "olÃ³gicas": 2522,
  "olÃ³gico": 1537,
  "olÃ³gicos": 1866,
  "olÃŃn": 39722,
  "olÃŃtica": 29111,
  "olÃŃticas": 49463,
  "olÃŃtico": 18422,
  "olÃŃticos": 20185,
  "om": 304,
  "oma": 980,
  "omagn": 32157,
  "omagnesemia": 45068,
  "omal": 5310,
  "omalacia": 41127,
  "oman": 13821,
  "omandibular": 26527,
  "omanÃŃa": 37673,
  "omar": 47613,
  "omas": 2549,
  "omastia": 29737,
  "omateriales": 37489,
  "omatis": 39732,
  "omatosis": 15268,
  "omavirus": 49664,
  "omb": 18711,
  "ombi": 32981,
  "ombia": 30797,
  "ombre": 8136,
  "ome": 1589,
  "omed": 25305,
  "omedi": 16976,
  "omedias": 33151,
  "omedicina": 19925,
  "omegal": 12233,
  "omegalia": 15216,
  "omegalias": 27930,
  "omelo": 40092,
  "omen": 6754,
  "omeprazol": 40281,
  "omer": 7516,
  "omerasa": 42690,
  "omes": 51967,
  "ometa": 24584,
  "ometab": 34880,
  "ometabÃ³lico": 51639,
  "ometria": 32019,
  "ometric": 34295,
  "ometrÃŃa": 8047,
  "ometrÃŃas": 49862,
  "omi": 23057,
  "omia": 30951,
  "omiasis": 45368,
  "omic": 18514,
  "omicina": 17896,
  "omicosis": 33273,
  "omics": 31258,
  "omida": 19938,
  "omiel": 15315,
  "omielitis": 17045,
  "omim": 46088,
  "omin": 1133,
  "omina": 9292,
  "omio": 17412,
  "omn": 7825,
  "omnia": 48162,
  "omnio": 9345,
  "omo": 4352,
  "omod": 24364,
  "omon": 33355,
  "omona": 45120,
  "omonas": 17726,
  "omor": 29946,
  "omos": 7152,
  "omotor": 39795,
  "omus": 29476,
  "omy": 18787,
  "omyces": 47645,
  "omÃ¡tica": 30165,
  "omÃ¡tico": 41916,
  "omÃ¡ticos": 48712,
  "omÃ©": 4518,
  "omÃ©dica": 10395,
  "omÃ©r": 41030,
  "omÃ©ricas": 47466,
  "omÃ©trica": 22136,
  "omÃ©tricas": 15961,
  "omÃ©trico": 21698,
  "omÃ©tricos": 17490,
  "omÃ³r": 50491,
  "omÃŃa": 3455,
  "omÃŃas": 24310,
  "on": 271,
  "ona": 609,
  "onada": 27078,
  "onadas": 38725,
  "onado": 10502,
  "onados": 16593,
  "onal": 515,
  "onald": 18072,
  "onales": 1067,
  "onalgia": 41966,
  "onan": 31117,
  "onancia": 6863,
  "onar": 7750,
  "onares": 27946,
  "onaria": 35229,
  "onario": 14414,
  "onarios": 11993,
  "onartrosis": 51712,
  "onas": 686,
  "onasterio": 32366,
  "onato": 5755,
  "onatos": 17617,
  "onatremia": 16397,
  "onavir": 18456,
  "onazepam": 43234,
  "onazol": 15791,
  "onc": 23807,
  "onces": 2813,
  "oncesto": 20405,
  "oncologÃŃa": 37116,
  "ond": 22441,
  "onda": 44321,
  "ondas": 25982,
  "onde": 49113,
  "ondo": 26306,
  "one": 2805,
  "oneal": 6584,
  "oneales": 31364,
  "onecrosis": 37470,
  "onef": 17820,
  "onefritis": 18459,
  "onega": 46849,
  "oneo": 22099,
  "onero": 47976,
  "ones": 367,
  "onesa": 15838,
  "onesas": 48237,
  "oneses": 24973,
  "onesia": 35816,
  "onesis": 26821,
  "oneta": 34059,
  "onetas": 48422,
  "oneuro": 39370,
  "oney": 34051,
  "ong": 3453,
  "onga": 39866,
  "ongaciÃ³n": 27225,
  "oni": 14003,
  "onia": 8187,
  "onias": 36127,
  "onico": 33134,
  "onida": 27205,
  "onina": 40496,
  "onio": 19443,
  "onis": 46328,
  "onismo": 46575,
  "online": 41963,
  "ono": 2376,
  "onoides": 27222,
  "onolactona": 32467,
  "onomÃŃa": 45088,
  "onor": 38672,
  "onorgestrel": 50027,
  "onos": 18046,
  "ons": 5957,
  "onse": 22466,
  "onso": 9160,
  "ont": 19737,
  "onte": 48649,
  "ontes": 48547,
  "onto": 27189,
  "ontologÃŃa": 29187,
  "onucle": 18457,
  "ony": 20064,
  "onz": 3643,
  "onÃ©s": 23239,
  "onÃŃa": 20354,
  "onÃŃas": 49336,
  "oo": 10032,
  "oooo": 27414,
  "op": 1771,
  "opa": 8437,
  "opatÃŃa": 13443,
  "opatÃŃas": 44783,
  "oper": 10921,
  "opera": 5446,
  "operabilidad": 46310,
  "operaciÃ³n": 7653,
  "operatorio": 42480,
  "oph": 17502,
  "ophy": 42099,
  "opio": 26706,
  "opla": 30881,
  "oplastia": 40602,
  "opol": 20833,
  "opolis": 47920,
  "opor": 31543,
  "oppler": 14204,
  "opram": 24866,
  "opre": 30807,
  "oprol": 14427,
  "oprolifera": 37774,
  "oprolol": 17227,
  "opros": 36251,
  "opur": 43704,
  "opurul": 47124,
  "opÃŃa": 34165,
  "or": 275,
  "ora": 628,
  "oraciÃ³": 38808,
  "oraciÃ³n": 1125,
  "orada": 24665,
  "orado": 47870,
  "orafenib": 45022,
  "orafobia": 41309,
  "oral": 1660,
  "orales": 16078,
  "oramiento": 31809,
  "orar": 3075,
  "oras": 8603,
  "orax": 10817,
  "orazepam": 15973,
  "orbi": 29293,
  "orca": 15457,
  "orcio": 18623,
  "ord": 1143,
  "ordan": 27493,
  "ordar": 24022,
  "orden": 11521,
  "ordin": 2315,
  "ordina": 21867,
  "ordon": 31207,
  "ords": 10774,
  "ore": 6996,
  "ores": 502,
  "orescencia": 28039,
  "oresis": 23591,
  "orestaciÃ³n": 47236,
  "oreste": 27969,
  "orexia": 35777,
  "orf": 12483,
  "orfina": 32667,
  "org": 5315,
  "organ": 5538,
  "organismos": 45988,
  "orge": 6716,
  "ori": 4256,
  "oria": 8272,
  "orial": 40906,
  "oriales": 16574,
  "oriano": 23834,
  "orias": 27677,
  "oriasis": 9373,
  "orina": 6675,
  "orio": 7470,
  "orios": 15204,
  "ork": 4100,
  "orks": 29092,
  "orkshop": 44447,
  "orld": 9979,
  "orm": 469,
  "orma": 1749,
  "ormaciÃ³n": 809,
  "ormal": 6283,
  "orme": 1849,
  "ormed": 23451,
  "ormente": 2479,
  "ormes": 12410,
  "ormeta": 43098,
  "ormetazepam": 45117,
  "ormo": 18985,
  "orn": 2436,
  "orno": 42506,
  "oro": 2009,
  "oroeste": 22207,
  "oros": 29640,
  "orov": 49810,
  "orr": 24448,
  "orra": 13703,
  "orragia": 16200,
  "orre": 12849,
  "orrea": 8813,
  "orrehabilitaciÃ³n": 50595,
  "orres": 14015,
  "orresistencia": 47878,
  "orrho": 51444,
  "orro": 11038,
  "orros": 29838,
  "ors": 14305,
  "ort": 4819,
  "orta": 37929,
  "orte": 2771,
  "ortun": 9614,
  "ortunadamente": 11889,
  "orum": 47986,
  "ory": 12866,
  "orÃŃa": 2827,
  "orÃŃas": 3755,
  "os": 264,
  "osa": 912,
  "osal": 31813,
  "osalud": 41377,
  "osalus": 47148,
  "osamente": 24664,
  "osas": 2934,
  "osau": 23097,
  "oscopia": 11713,
  "ose": 11158,
  "osex": 17772,
  "osfa": 4242,
  "osfatasa": 5426,
  "osfato": 13059,
  "osidad": 12403,
  "osin": 3773,
  "osina": 20651,
  "osino": 12633,
  "osinÃ³filos": 4048,
  "osio": 16338,
  "osios": 50981,
  "osis": 1350,
  "ositis": 25312,
  "osium": 38654,
  "oso": 1225,
  "osofÃŃa": 9472,
  "osos": 4659,
  "osotras": 49665,
  "osotros": 8851,
  "ospit": 792,
  "ospital": 935,
  "ospor": 21685,
  "osporinas": 27180,
  "osta": 17348,
  "osteo": 50247,
  "oster": 20362,
  "ostic": 13108,
  "ostico": 30877,
  "ostomia": 30475,
  "ostomÃŃa": 14920,
  "osu": 10328,
  "osup": 37520,
  "osÃ³": 18320,
  "ot": 14896,
  "ota": 12574,
  "otas": 23401,
  "ote": 28674,
  "oterapia": 11611,
  "oth": 26702,
  "oto": 46844,
  "otra": 51769,
  "otro": 42095,
  "otros": 44091,
  "ou": 20611,
  "ound": 43986,
  "our": 19462,
  "ource": 45903,
  "ources": 31716,
  "ous": 20123,
  "out": 41907,
  "ov": 17269,
  "ovigilancia": 31039,
  "ox": 2981,
  "oxa": 16868,
  "oxaparina": 20396,
  "oxazosina": 51833,
  "oxetina": 22112,
  "oxib": 38666,
  "oxid": 7421,
  "oxidable": 45932,
  "oxidasa": 40232,
  "oxifeno": 27448,
  "oxigen": 34150,
  "oxigenasa": 48466,
  "oxo": 49202,
  "oxona": 41630,
  "oy": 1237,
  "oya": 15898,
  "p": 83,
  "pH": 39312,
  "pa": 497,
  "pac": 34621,
  "pace": 47163,
  "paci": 890,
  "pacial": 26030,
  "pacidad": 1392,
  "pacidades": 11748,
  "paciente": 12946,
  "pacientes": 21596,
  "pacio": 15298,
  "pacional": 11762,
  "pacios": 51253,
  "paciÃ³n": 3793,
  "pad": 21733,
  "pada": 40122,
  "pado": 8712,
  "pados": 11800,
  "padre": 44499,
  "pain": 13807,
  "pal": 4843,
  "pala": 51717,
  "pales": 20108,
  "palÃº": 50409,
  "pamilo": 43793,
  "pan": 2821,
  "pancre": 30469,
  "pando": 47430,
  "pani": 31853,
  "paniCare": 34153,
  "panish": 18357,
  "pano": 26183,
  "panos": 31549,
  "panosoma": 36340,
  "pany": 21490,
  "pap": 25419,
  "par": 745,
  "para": 3687,
  "parable": 36880,
  "paracetamol": 34199,
  "paraciÃ³n": 14377,
  "parar": 45041,
  "paras": 18743,
  "paratiroidismo": 24523,
  "paraÃŃso": 39968,
  "parece": 47432,
  "parencia": 40589,
  "parenquimatos": 27019,
  "paresia": 18578,
  "pari": 32873,
  "pariciÃ³n": 13849,
  "parin": 46331,
  "parina": 9053,
  "paro": 19538,
  "paros": 8024,
  "parse": 16975,
  "part": 50110,
  "parta": 2698,
  "partamento": 3129,
  "partamentos": 13011,
  "parte": 18871,
  "parti": 28847,
  "partment": 20660,
  "parto": 12284,
  "partÃŃculas": 22062,
  "pas": 1707,
  "pasa": 21320,
  "pasmo": 12122,
  "paso": 37021,
  "pasos": 11448,
  "pass": 16624,
  "pat": 1488,
  "pata": 13629,
  "patas": 18063,
  "path": 12828,
  "pathic": 41891,
  "pathy": 22373,
  "pati": 14446,
  "patia": 14317,
  "patias": 35591,
  "patibilidad": 36826,
  "patible": 31288,
  "patient": 36663,
  "patita": 51173,
  "pato": 17610,
  "patologÃŃa": 8695,
  "patolÃ³gica": 25777,
  "patolÃ³gicas": 26668,
  "patolÃ³gico": 13774,
  "patolÃ³gicos": 16558,
  "patÃŃa": 2190,
  "patÃŃas": 5429,
  "pausia": 24392,
  "pauta": 51006,
  "paz": 16482,
  "paÃ±": 722,
  "paÃ±a": 11328,
  "pciÃ³n": 2300,
  "pdf": 9046,
  "pe": 503,
  "pea": 28295,
  "pean": 32558,
  "pear": 21538,
  "pec": 625,
  "pech": 36575,
  "pecha": 14969,
  "peci": 691,
  "pecia": 15865,
  "pecial": 27446,
  "pecies": 49677,
  "pecific": 37009,
  "pecitabina": 42446,
  "pectivo": 6734,
  "pecto": 1361,
  "pectomÃŃa": 38401,
  "pectos": 2611,
  "pecu": 27111,
  "pecÃŃ": 8096,
  "ped": 10836,
  "peda": 16521,
  "pedas": 42698,
  "pedes": 19214,
  "pedestaciÃ³n": 24492,
  "pedia": 7253,
  "pediatra": 46830,
  "pediatrÃŃa": 25843,
  "pejo": 34525,
  "pel": 12329,
  "pelo": 47127,
  "pemi": 30898,
  "pemia": 5890,
  "pemias": 48662,
  "pen": 986,
  "pendi": 17332,
  "pendicitis": 50950,
  "pendiente": 28544,
  "pendo": 24471,
  "pene": 33769,
  "penem": 21428,
  "penha": 33786,
  "penia": 5790,
  "peno": 40241,
  "pens": 3934,
  "pensa": 18378,
  "pensaciÃ³n": 8882,
  "pensar": 43200,
  "pensas": 17514,
  "pent": 23238,
  "pentina": 25770,
  "peo": 26525,
  "pep": 40327,
  "pepsia": 24447,
  "pepti": 32260,
  "peptidasa": 49829,
  "peque": 34322,
  "per": 457,
  "pera": 7417,
  "perable": 50724,
  "peraciÃ³n": 2450,
  "peras": 23406,
  "percentil": 33558,
  "percepciÃ³n": 39746,
  "perci": 18676,
  "percusiÃ³n": 33600,
  "perfun": 28059,
  "perfusiÃ³n": 24502,
  "peridol": 46700,
  "peridona": 20659,
  "perio": 18531,
  "perit": 12551,
  "peritoneal": 18847,
  "peritoneales": 43170,
  "peritoneo": 28655,
  "permia": 45454,
  "pero": 7142,
  "pers": 7166,
  "persona": 47707,
  "personal": 30086,
  "personas": 40719,
  "pert": 37284,
  "pertura": 33020,
  "pes": 2988,
  "peso": 5893,
  "peta": 24949,
  "petas": 44436,
  "pete": 30043,
  "petencia": 29290,
  "petente": 40505,
  "petentes": 42079,
  "peti": 42052,
  "peto": 38940,
  "peu": 5165,
  "pex": 27018,
  "pexia": 27816,
  "pez": 3790,
  "peÃº": 35377,
  "pg": 43645,
  "ph": 2246,
  "pha": 13144,
  "phan": 40078,
  "pharmac": 41469,
  "phen": 51454,
  "pher": 27724,
  "pheral": 41514,
  "phi": 28845,
  "phia": 18100,
  "phic": 16782,
  "phil": 18510,
  "phila": 40996,
  "philus": 26674,
  "pho": 49194,
  "phone": 50505,
  "phor": 31532,
  "phorbia": 42743,
  "phos": 37095,
  "php": 11098,
  "phy": 6790,
  "phyllum": 39381,
  "phylo": 14731,
  "phys": 35516,
  "pi": 649,
  "pia": 893,
  "piano": 25072,
  "pias": 2861,
  "pic": 16665,
  "pica": 3808,
  "pical": 18992,
  "picamente": 17060,
  "picas": 9163,
  "pico": 5003,
  "picos": 6813,
  "pid": 26885,
  "pida": 28470,
  "pide": 18964,
  "pidemia": 22002,
  "pidemias": 51499,
  "pidez": 11014,
  "pido": 26484,
  "pidos": 11321,
  "pie": 25591,
  "piel": 41380,
  "piens": 39121,
  "piente": 9642,
  "pientes": 14179,
  "pies": 34432,
  "pig": 18364,
  "pigment": 42094,
  "pigmentaciÃ³n": 26905,
  "pil": 7867,
  "pimetrÃŃa": 33855,
  "pin": 6845,
  "pina": 7578,
  "pinavir": 34775,
  "ping": 21243,
  "pino": 10151,
  "pintero": 48625,
  "pio": 27333,
  "pion": 35594,
  "pios": 2518,
  "piprazol": 43871,
  "pir": 2047,
  "pira": 1616,
  "piraciÃ³n": 4629,
  "piramato": 39868,
  "piratoria": 18376,
  "piratorio": 21631,
  "pire": 34246,
  "piri": 27557,
  "pirid": 39627,
  "pirida": 44691,
  "pirim": 48573,
  "piro": 13907,
  "pirometrÃŃa": 49869,
  "piros": 43473,
  "pirosis": 35973,
  "pis": 33272,
  "pit": 714,
  "pita": 16095,
  "pitaciones": 10043,
  "pital": 35358,
  "pitantes": 34841,
  "pite": 35487,
  "piter": 44923,
  "pithel": 41680,
  "pithelial": 50788,
  "pito": 25475,
  "pivacaÃŃna": 41261,
  "piÃ©": 11089,
  "pl": 586,
  "pla": 9739,
  "plac": 24953,
  "place": 44871,
  "placement": 44846,
  "plan": 7619,
  "plano": 34353,
  "plant": 22461,
  "plantar": 45705,
  "plantation": 24933,
  "plante": 9034,
  "plantes": 20508,
  "plaque": 44918,
  "plas": 2240,
  "plasia": 5418,
  "plasias": 10778,
  "plasma": 12928,
  "plasmosis": 26519,
  "plastia": 5221,
  "plastias": 34307,
  "plastina": 48610,
  "plasty": 39784,
  "plastÃŃa": 47851,
  "platino": 20416,
  "play": 45268,
  "ple": 1650,
  "plej": 16344,
  "plejia": 30061,
  "plejÃŃa": 25936,
  "plen": 23417,
  "pler": 9699,
  "ples": 3179,
  "plex": 35869,
  "plic": 5035,
  "plica": 9188,
  "plicaciones": 13898,
  "plicaciÃ³n": 9452,
  "plicar": 10040,
  "plication": 29682,
  "plications": 39017,
  "plicidad": 38315,
  "plied": 27341,
  "plo": 9094,
  "plom": 10959,
  "ploma": 20320,
  "plomas": 45948,
  "plos": 50220,
  "plotaciÃ³n": 37766,
  "plu": 14291,
  "plus": 40160,
  "plutense": 15049,
  "plÃ¡s": 8264,
  "plÃ¡sico": 29018,
  "plÃ¡sicos": 42813,
  "plÃ¡smico": 49970,
  "plÃ©j": 24851,
  "plÃ©jico": 49525,
  "plÃ©jicos": 35744,
  "plÃŃ": 23138,
  "pm": 2755,
  "pnea": 33783,
  "po": 449,
  "poblaciones": 45012,
  "poblaciÃ³n": 32388,
  "poca": 49402,
  "poco": 37028,
  "pod": 35562,
  "poder": 39997,
  "podos": 26065,
  "podrÃŃa": 42954,
  "pofol": 20310,
  "point": 43678,
  "pol": 6240,
  "pola": 45411,
  "polar": 11860,
  "polares": 42403,
  "pole": 32282,
  "poli": 30296,
  "polis": 23257,
  "polÃŃtica": 47355,
  "pon": 619,
  "pona": 49887,
  "pone": 11617,
  "ponemos": 45874,
  "ponen": 28560,
  "ponente": 39104,
  "ponentes": 39274,
  "poner": 12662,
  "ponerse": 34983,
  "ponible": 42283,
  "ponina": 10071,
  "poninas": 23267,
  "pool": 40066,
  "pop": 26917,
  "por": 615,
  "pores": 45052,
  "porina": 18484,
  "porosis": 7723,
  "porque": 19453,
  "port": 2151,
  "porta": 46495,
  "portal": 42548,
  "porte": 2091,
  "ported": 40866,
  "portes": 30609,
  "ports": 17796,
  "portun": 2836,
  "pos": 616,
  "posa": 8884,
  "posas": 31401,
  "pose": 41599,
  "posi": 2540,
  "posible": 37265,
  "posicion": 28370,
  "posiciones": 5055,
  "posiciÃ³n": 1751,
  "posis": 31263,
  "positius": 47813,
  "positiva": 37493,
  "positivas": 35710,
  "positivo": 13798,
  "positivos": 23566,
  "positor": 46032,
  "positores": 31827,
  "positorio": 38533,
  "positorios": 42121,
  "poso": 4053,
  "post": 32548,
  "posterior": 26006,
  "pot": 19455,
  "potas": 15594,
  "potasemia": 16660,
  "pote": 42343,
  "poten": 34316,
  "potencia": 50549,
  "potentes": 46526,
  "poulos": 48799,
  "poy": 10869,
  "pp": 8350,
  "pping": 34593,
  "pr": 7113,
  "pra": 4922,
  "pramida": 19240,
  "pran": 27582,
  "prandial": 35800,
  "pratropio": 44473,
  "pray": 29167,
  "prazol": 8205,
  "prazolam": 34100,
  "pre": 2078,
  "precio": 41265,
  "prednisolona": 21182,
  "pregun": 50906,
  "pren": 5896,
  "pres": 786,
  "presencia": 48007,
  "presente": 48150,
  "presidente": 22759,
  "presina": 31111,
  "presiva": 50221,
  "presiÃ³n": 1899,
  "presores": 50090,
  "press": 26305,
  "pression": 30049,
  "previa": 21073,
  "previo": 34877,
  "previr": 38879,
  "pri": 11337,
  "prida": 51012,
  "pril": 10701,
  "prim": 11479,
  "primer": 38489,
  "primera": 26288,
  "primido": 32972,
  "primidos": 22639,
  "prin": 18582,
  "princip": 22194,
  "principalmente": 31739,
  "privada": 39339,
  "pro": 1161,
  "proBNP": 22321,
  "prob": 33630,
  "probable": 43004,
  "probablemente": 40361,
  "problemas": 42219,
  "proc": 48331,
  "proce": 37419,
  "procedimiento": 48833,
  "proces": 34433,
  "proceso": 46866,
  "produc": 12141,
  "producciÃ³n": 16218,
  "producto": 48360,
  "productos": 31055,
  "prof": 4335,
  "profeno": 5723,
  "profesional": 26939,
  "profesionales": 34669,
  "profilaxis": 31422,
  "profloxacino": 19281,
  "programa": 40652,
  "prol": 25431,
  "prome": 36207,
  "promo": 44238,
  "pron": 51609,
  "prop": 20462,
  "propi": 27781,
  "propil": 28321,
  "propileno": 51836,
  "propor": 50160,
  "pros": 23999,
  "prote": 17351,
  "protec": 16001,
  "protecciÃ³n": 21089,
  "protector": 31592,
  "protectores": 36224,
  "proteg": 44906,
  "protein": 32592,
  "proteÃŃn": 9719,
  "proteÃŃna": 15439,
  "proteÃŃnas": 15391,
  "protÃ©s": 34537,
  "protÃ©sica": 51784,
  "prox": 25123,
  "proxeno": 28149,
  "proyecto": 29967,
  "pru": 31749,
  "prudencia": 43432,
  "prueba": 32458,
  "prÃ¡ctica": 42638,
  "prÃ¡ctico": 51354,
  "prÃ³tesis": 24976,
  "ps": 1220,
  "pse": 31461,
  "psi": 17067,
  "psia": 3138,
  "psias": 10387,
  "psic": 8916,
  "psico": 36947,
  "psicologÃŃa": 36479,
  "psina": 28332,
  "psiquia": 44445,
  "psiquiatrÃŃa": 47513,
  "psiquiÃ¡": 32481,
  "psis": 7100,
  "pso": 14554,
  "pson": 25361,
  "psulas": 50222,
  "psy": 36969,
  "psych": 36570,
  "pt": 27500,
  "pta": 36396,
  "ptal": 46769,
  "pte": 48604,
  "pter": 29202,
  "pti": 2357,
  "ptiembre": 4060,
  "ptina": 24975,
  "ption": 51128,
  "ptisis": 24663,
  "pto": 5580,
  "ptoc": 37803,
  "ptococcus": 16902,
  "ptomicina": 29118,
  "ptor": 29300,
  "ptores": 51608,
  "ptos": 25603,
  "pu": 975,
  "pub": 26979,
  "publ": 12327,
  "public": 20045,
  "publica": 33905,
  "publicana": 50936,
  "pubmed": 40947,
  "pue": 12681,
  "puede": 19391,
  "pueden": 27813,
  "pues": 892,
  "puesta": 1473,
  "puestamente": 21034,
  "puestas": 3145,
  "puesto": 2486,
  "puestos": 4468,
  "pul": 7428,
  "pula": 22571,
  "pullido": 46260,
  "pulmon": 33179,
  "pulmonar": 13736,
  "pulmonares": 40520,
  "puls": 44878,
  "pun": 11105,
  "punciÃ³n": 48123,
  "punto": 36402,
  "pur": 23259,
  "pura": 14022,
  "pus": 5608,
  "put": 44423,
  "putaciÃ³n": 12670,
  "puzko": 40770,
  "puzkoa": 41875,
  "puÃ©s": 1145,
  "py": 6725,
  "pÃ¡": 41214,
  "pÃ¡g": 40198,
  "pÃ¡tica": 10248,
  "pÃ¡ticas": 25766,
  "pÃ¡tico": 13284,
  "pÃ¡ticos": 23822,
  "pÃ¡us": 16088,
  "pÃ©": 29020,
  "pÃ©lv": 34575,
  "pÃ©lvico": 50381,
  "pÃ©rdida": 36791,
  "pÃ©tica": 36420,
  "pÃ©u": 2024,
  "pÃ³": 15389,
  "pÃ³n": 31981,
  "pÃº": 35399,
  "pÃŃ": 8579,
  "pÃŃa": 11709,
  "pÃŃritu": 32479,
  "pÃŃritus": 27751,
  "q": 84,
  "qu": 379,
  "qua": 42210,
  "qual": 38854,
  "quare": 49285,
  "que": 293,
  "quea": 23171,
  "quedad": 12292,
  "quel": 1421,
  "quemia": 35437,
  "quen": 5234,
  "quena": 50173,
  "quences": 36683,
  "quency": 27064,
  "quenilo": 24961,
  "quent": 20677,
  "queo": 9841,
  "quer": 3552,
  "quera": 11184,
  "queras": 40559,
  "queratosis": 45597,
  "quero": 16253,
  "queros": 27380,
  "querÃŃa": 28402,
  "ques": 2957,
  "quesa": 47131,
  "quese": 48719,
  "questa": 15547,
  "quet": 40363,
  "queta": 16505,
  "quetado": 25932,
  "quetas": 2812,
  "quete": 24714,
  "quetes": 30229,
  "quetty": 45381,
  "quexia": 45947,
  "quez": 6937,
  "qui": 488,
  "quia": 3615,
  "quial": 13030,
  "quiales": 37403,
  "quias": 19267,
  "quiatrÃŃa": 6166,
  "quicardia": 28498,
  "quicia": 36678,
  "quid": 41133,
  "quido": 21155,
  "quidos": 34917,
  "quien": 39537,
  "quier": 739,
  "quiera": 4024,
  "quieran": 16339,
  "quiere": 2270,
  "quieren": 3884,
  "quil": 1860,
  "quila": 31432,
  "quiler": 44837,
  "quilib": 3695,
  "quilibrio": 42417,
  "quilla": 9800,
  "quillas": 36017,
  "quillo": 30702,
  "quilo": 4644,
  "quilos": 26334,
  "quimica": 48592,
  "quimioterapia": 44032,
  "quin": 7719,
  "quina": 6250,
  "quinas": 8403,
  "quinasa": 42263,
  "quine": 29502,
  "quinesia": 48821,
  "quinilo": 34829,
  "quino": 41592,
  "quinolonas": 40330,
  "quio": 15205,
  "quios": 36329,
  "quip": 11644,
  "quir": 4319,
  "quired": 37455,
  "quirÃºrg": 8826,
  "quirÃºrgica": 19945,
  "quirÃºrgicas": 31515,
  "quirÃºrgico": 21851,
  "quirÃºrgicos": 23696,
  "quirÃºrgics": 36858,
  "quis": 3091,
  "quisiciÃ³n": 36331,
  "quisitos": 34561,
  "quismo": 6696,
  "quist": 48989,
  "quista": 32569,
  "quistes": 51170,
  "quistosis": 48622,
  "quita": 24529,
  "quitec": 7871,
  "quitis": 41142,
  "quito": 10584,
  "quitos": 13597,
  "quiuria": 25576,
  "quiz": 43126,
  "quiÃ¡": 6567,
  "quiÃ©n": 35155,
  "quÃ©": 6360,
  "quÃ©mica": 38428,
  "quÃ©s": 20393,
  "quÃŃ": 1991,
  "quÃŃa": 10698,
  "quÃŃdea": 46868,
  "quÃŃdeo": 17650,
  "quÃŃmica": 8289,
  "quÃŃmicas": 35482,
  "quÃŃmico": 29547,
  "quÃŃmicos": 28500,
  "quÃŃn": 12423,
  "qx": 49132,
  "qÃ¼": 38382,
  "qÃ¼Ã¨ncia": 49660,
  "r": 85,
  "rND": 40697,
  "ra": 309,
  "raba": 35479,
  "rable": 28356,
  "rac": 1503,
  "raci": 40479,
  "raciones": 15276,
  "raciÃ³n": 8062,
  "rack": 22874,
  "rackets": 40599,
  "racy": 48294,
  "racÃ¡n": 37355,
  "rad": 3021,
  "rada": 2666,
  "radas": 7978,
  "radi": 34521,
  "radia": 28366,
  "radio": 27720,
  "rado": 3370,
  "rador": 15383,
  "radores": 32901,
  "rados": 6856,
  "radura": 46644,
  "rael": 14298,
  "rafia": 41934,
  "raft": 37371,
  "rag": 2742,
  "ragia": 5321,
  "ragias": 10389,
  "ragona": 23112,
  "ragÃ³n": 25856,
  "ral": 1468,
  "rala": 51084,
  "rales": 4830,
  "rall": 35343,
  "raltar": 47481,
  "ram": 11671,
  "rama": 27195,
  "rame": 6276,
  "ramento": 46453,
  "rameric": 42905,
  "rami": 2846,
  "ramicina": 38548,
  "ramina": 38608,
  "ramo": 50384,
  "ramos": 6904,
  "ran": 471,
  "rana": 3820,
  "rando": 12759,
  "rane": 3919,
  "raneal": 5551,
  "raneales": 13889,
  "rang": 32845,
  "range": 46423,
  "rango": 20109,
  "rano": 10863,
  "ranolol": 38432,
  "rante": 21215,
  "rantes": 8461,
  "ranz": 35814,
  "ranza": 46480,
  "rar": 2280,
  "rara": 49897,
  "raron": 30323,
  "rarse": 19936,
  "rary": 31746,
  "rarÃ¡": 43713,
  "ras": 494,
  "rasa": 33065,
  "rasco": 23363,
  "rase": 31821,
  "rasia": 45205,
  "rassa": 40987,
  "rate": 17367,
  "rato": 27009,
  "raw": 39103,
  "rax": 2973,
  "raxia": 45742,
  "raxis": 28232,
  "ray": 7513,
  "raya": 15510,
  "raza": 43953,
  "razol": 24295,
  "rd": 36386,
  "re": 287,
  "rea": 1013,
  "reacciÃ³n": 51004,
  "reak": 38063,
  "real": 19994,
  "reas": 2337,
  "reast": 14534,
  "reat": 37293,
  "reatment": 6090,
  "rec": 709,
  "recciÃ³n": 21239,
  "recen": 6138,
  "recep": 24204,
  "receptor": 42494,
  "receptores": 37512,
  "reci": 38511,
  "reco": 51590,
  "recom": 34741,
  "recomend": 45379,
  "rectal": 10722,
  "rectales": 44777,
  "rectomÃŃa": 17805,
  "rector": 25963,
  "recu": 1018,
  "recuencia": 9828,
  "recur": 39924,
  "red": 6355,
  "rededor": 3324,
  "redi": 50348,
  "reducciÃ³n": 43293,
  "ree": 14750,
  "ref": 20285,
  "refiere": 35410,
  "reg": 3850,
  "regi": 29568,
  "regional": 38470,
  "regulaciÃ³n": 22453,
  "regular": 44345,
  "reich": 38240,
  "rel": 9714,
  "rela": 15366,
  "relacion": 26159,
  "relaciones": 42440,
  "relaciÃ³n": 18788,
  "related": 21071,
  "rell": 26472,
  "remia": 49068,
  "remos": 5370,
  "ren": 713,
  "rena": 15881,
  "renal": 6687,
  "renales": 19229,
  "renalina": 13258,
  "rence": 24497,
  "rencia": 29780,
  "reno": 23364,
  "renorfina": 42393,
  "rent": 15077,
  "renta": 35842,
  "rente": 9597,
  "rentes": 33156,
  "reo": 8191,
  "reos": 16942,
  "repres": 38400,
  "rer": 6448,
  "rera": 2897,
  "reras": 6997,
  "rero": 3377,
  "reros": 18415,
  "rerÃŃa": 43827,
  "res": 330,
  "resa": 29820,
  "rese": 22245,
  "resi": 46859,
  "resia": 36018,
  "resis": 5073,
  "resistant": 34888,
  "resistencia": 48044,
  "respon": 1904,
  "respuesta": 32556,
  "ress": 44627,
  "reste": 24537,
  "ret": 42916,
  "reta": 50674,
  "retin": 41781,
  "retro": 11199,
  "retrovir": 12562,
  "retroviral": 40266,
  "reus": 12276,
  "rev": 47730,
  "revis": 51022,
  "revista": 29381,
  "rey": 17162,
  "rez": 2605,
  "reza": 33316,
  "rg": 1113,
  "rh": 48730,
  "ri": 333,
  "ria": 2189,
  "riaga": 49445,
  "riam": 30736,
  "rian": 32432,
  "rias": 6324,
  "riasis": 31071,
  "riate": 36380,
  "ric": 2048,
  "rica": 11039,
  "ricaciÃ³n": 33487,
  "rice": 43099,
  "rich": 17962,
  "rick": 36547,
  "rico": 11572,
  "ricos": 48221,
  "ricul": 25886,
  "ricula": 30034,
  "ricular": 4038,
  "riculares": 12424,
  "riculum": 36070,
  "rida": 21280,
  "ridas": 28664,
  "rido": 3757,
  "ridos": 18391,
  "rie": 20271,
  "riel": 13990,
  "riendo": 5316,
  "riente": 6536,
  "rientes": 43058,
  "rier": 45232,
  "riera": 30893,
  "rieron": 6229,
  "ries": 13547,
  "riesgo": 23323,
  "rificaciÃ³n": 42372,
  "rig": 1562,
  "right": 20266,
  "rigin": 22655,
  "ril": 1244,
  "rilaciÃ³n": 7991,
  "rilar": 51912,
  "rile": 11609,
  "riles": 12806,
  "rill": 18809,
  "rilla": 12634,
  "rillas": 24805,
  "rillo": 8144,
  "rillos": 9443,
  "rilo": 50688,
  "rim": 1572,
  "rima": 42853,
  "rime": 19609,
  "rimi": 38426,
  "rimiento": 5579,
  "rimir": 12741,
  "rimos": 21263,
  "rin": 2027,
  "rina": 12143,
  "rinas": 50274,
  "ring": 30367,
  "rino": 28190,
  "rinolaring": 15123,
  "rinolaringologÃŃa": 19492,
  "rinÃ³geno": 12700,
  "rio": 2431,
  "rios": 5537,
  "rique": 5203,
  "rir": 1879,
  "ris": 4738,
  "risa": 11867,
  "risas": 33233,
  "risk": 46683,
  "rista": 29169,
  "risto": 20492,
  "rit": 8949,
  "rita": 31860,
  "ritas": 35117,
  "ritina": 14342,
  "ritis": 7866,
  "ritish": 21551,
  "ritmia": 45035,
  "ritmias": 22719,
  "rito": 7180,
  "ritonavir": 34179,
  "ritorial": 15191,
  "ritos": 8298,
  "ritu": 8858,
  "ritus": 19885,
  "rity": 37731,
  "ritÃ¡n": 9467,
  "rium": 24170,
  "riva": 44563,
  "rix": 32939,
  "riz": 14602,
  "riÃ©ndose": 34262,
  "riÃ³": 3562,
  "riÃ³n": 17984,
  "rlae": 31916,
  "ro": 301,
  "robi": 5735,
  "roco": 51696,
  "roga": 30632,
  "rojo": 48849,
  "rol": 677,
  "rolimus": 18116,
  "rolitiasis": 39885,
  "rolizumab": 36603,
  "roll": 43861,
  "rolol": 47480,
  "rolÃ³g": 3456,
  "rolÃ³gica": 16475,
  "rolÃ³gicas": 29718,
  "rolÃ³gico": 21905,
  "rolÃ³gicos": 32628,
  "rom": 40345,
  "rome": 42973,
  "romo": 19985,
  "romos": 43207,
  "ron": 1242,
  "ronef": 35773,
  "ronefrosis": 36685,
  "rones": 20452,
  "ronic": 11027,
  "rontal": 26806,
  "ronutri": 19845,
  "ronutrientes": 23465,
  "ror": 7882,
  "rores": 31227,
  "ros": 790,
  "rosa": 11091,
  "rosas": 48369,
  "rosis": 3978,
  "roso": 15941,
  "rosos": 43811,
  "ross": 13390,
  "rost": 49263,
  "row": 31029,
  "roy": 39329,
  "roÃ±o": 36996,
  "rpm": 21823,
  "rr": 28213,
  "rs": 18368,
  "ru": 518,
  "rubi": 40917,
  "rubicina": 43521,
  "ruc": 30063,
  "rue": 20994,
  "ruecos": 27637,
  "rug": 8157,
  "ruga": 36020,
  "rugada": 15249,
  "rugas": 9371,
  "rum": 16906,
  "rump": 6464,
  "rup": 5997,
  "rupciÃ³n": 8225,
  "rupo": 3318,
  "rupos": 51660,
  "rupto": 36920,
  "rus": 6968,
  "ruz": 5782,
  "ry": 6099,
  "rÃ¡": 2853,
  "rÃ¡fico": 25079,
  "rÃ¡n": 5643,
  "rÃ¡p": 51981,
  "rÃ¡s": 22521,
  "rÃ¡ul": 32176,
  "rÃ©": 13442,
  "rÃ©s": 32878,
  "rÃ³": 3982,
  "rÃ³n": 8779,
  "rÃ³nimo": 44363,
  "rÃ³tesis": 13638,
  "rÃŃ": 15447,
  "rÃŃa": 5128,
  "rÃŃan": 15509,
  "rÃŃcul": 32349,
  "rÃŃcula": 14859,
  "rÃŃculo": 7380,
  "rÃŃculos": 24568,
  "rÃŃculum": 33537,
  "rÃŃquez": 34256,
  "rÃŃt": 14870,
  "s": 86,
  "sAg": 42281,
  "sa": 1679,
  "sab": 28159,
  "sabilidad": 18574,
  "sable": 14335,
  "sables": 36387,
  "sah": 31666,
  "sahariana": 36535,
  "sal": 4280,
  "sales": 48097,
  "salud": 11387,
  "salva": 29710,
  "salvo": 35980,
  "san": 5346,
  "sancio": 9759,
  "sangre": 45810,
  "sanitaria": 47981,
  "sanitario": 47790,
  "sar": 6991,
  "sartan": 45745,
  "sartÃ¡n": 33963,
  "sas": 7731,
  "sat": 45979,
  "say": 48973,
  "sc": 26462,
  "scales": 30173,
  "scalesuntuaciÃ³": 37904,
  "scar": 22985,
  "sch": 38249,
  "sche": 46753,
  "sci": 37413,
  "scielo": 45719,
  "score": 48067,
  "se": 442,
  "sea": 17591,
  "seas": 30638,
  "sec": 18662,
  "secre": 50016,
  "sectional": 38800,
  "sed": 14880,
  "see": 44519,
  "seg": 14740,
  "seguir": 41038,
  "segun": 32732,
  "seguridad": 42410,
  "segÃºn": 17807,
  "sejo": 47541,
  "sel": 28883,
  "sele": 39691,
  "selec": 51058,
  "selo": 19340,
  "sem": 25977,
  "semana": 26175,
  "semos": 28748,
  "sen": 7198,
  "senal": 25964,
  "sens": 39556,
  "sensibilidad": 10631,
  "sent": 21884,
  "sential": 35354,
  "seo": 36128,
  "ser": 9403,
  "sero": 33658,
  "serv": 26015,
  "servicios": 48495,
  "serÃ¡": 51025,
  "ses": 4763,
  "sess": 10073,
  "sessment": 12579,
  "set": 19038,
  "severa": 44183,
  "sevier": 17651,
  "sex": 20286,
  "sexo": 50137,
  "sey": 29806,
  "seÃ±": 3474,
  "sh": 17938,
  "si": 2284,
  "sia": 39412,
  "sible": 17095,
  "sic": 48931,
  "sica": 32097,
  "sida": 30026,
  "sider": 29743,
  "siempre": 24169,
  "siendo": 47806,
  "sier": 43676,
  "sig": 25056,
  "sign": 42694,
  "sil": 39677,
  "sim": 48222,
  "similar": 37972,
  "sin": 6933,
  "sina": 40088,
  "sing": 31789,
  "sinki": 35521,
  "sion": 6119,
  "siona": 27310,
  "sionais": 34998,
  "sional": 14010,
  "siones": 24381,
  "sions": 39013,
  "sis": 19507,
  "sistema": 37380,
  "site": 39870,
  "sitis": 39524,
  "sito": 11691,
  "sive": 21433,
  "siÃ³": 39971,
  "siÃ³n": 5712,
  "sk": 42528,
  "ski": 35876,
  "sky": 30028,
  "sld": 49556,
  "smo": 19361,
  "so": 905,
  "soas": 26289,
  "sobre": 13826,
  "soc": 37716,
  "soch": 34083,
  "sochinf": 36180,
  "socia": 4812,
  "social": 28348,
  "sociated": 10190,
  "sociation": 8140,
  "sol": 27482,
  "solo": 24687,
  "son": 2304,
  "sona": 46170,
  "sonalizaciÃ³n": 44509,
  "sons": 49468,
  "soprazol": 48534,
  "sor": 6756,
  "sos": 1663,
  "soy": 48608,
  "sp": 32342,
  "specific": 49048,
  "ss": 17362,
  "sson": 44970,
  "st": 9596,
  "sta": 17881,
  "stas": 37072,
  "ste": 24234,
  "stein": 27330,
  "ster": 22428,
  "steÃŃna": 35548,
  "sti": 28714,
  "stico": 41733,
  "stru": 23683,
  "su": 3838,
  "sub": 19541,
  "sue": 17709,
  "sues": 29869,
  "sul": 18174,
  "sulf": 40980,
  "sulfon": 45643,
  "sum": 37092,
  "sup": 35953,
  "super": 23008,
  "superior": 49500,
  "sur": 37505,
  "sure": 18791,
  "sus": 15539,
  "sy": 37671,
  "sÃ£o": 38308,
  "sÃ©nico": 32222,
  "sÃ³lo": 25477,
  "sÃŃ": 23273,
  "sÃŃn": 16376,
  "sÃŃndrome": 22421,
  "sÃŃntomas": 45893,
  "t": 87,
  "ta": 307,
  "tab": 1737,
  "taba": 7787,
  "tabaco": 32266,
  "taban": 7909,
  "tabani": 34772,
  "tabase": 27766,
  "tabilidad": 9415,
  "tabina": 21208,
  "tabla": 12018,
  "table": 2426,
  "tables": 7533,
  "tabria": 10116,
  "tac": 1370,
  "taca": 48236,
  "tach": 36854,
  "taci": 32152,
  "tacion": 11685,
  "tacional": 27616,
  "taciones": 2209,
  "taciÃ³": 18440,
  "taciÃ³n": 791,
  "tacto": 44797,
  "tad": 1433,
  "tada": 1529,
  "tadas": 2321,
  "tades": 27005,
  "tadina": 27898,
  "tado": 733,
  "tadona": 23324,
  "tador": 5244,
  "tadora": 8499,
  "tadoras": 16474,
  "tadores": 5774,
  "tados": 682,
  "tadura": 16585,
  "taduras": 42070,
  "tag": 11848,
  "tage": 40757,
  "tagland": 24439,
  "tago": 23550,
  "tagon": 4315,
  "tagonistas": 36811,
  "tah": 43016,
  "tain": 12956,
  "tainment": 50596,
  "taje": 11132,
  "tajes": 44272,
  "take": 22469,
  "tal": 554,
  "tala": 32493,
  "tale": 39854,
  "tales": 2131,
  "talgia": 15494,
  "talia": 8059,
  "talidad": 2218,
  "talla": 6404,
  "talm": 5498,
  "talo": 38234,
  "talopram": 29196,
  "talos": 35357,
  "tam": 11828,
  "tama": 51264,
  "tamante": 45976,
  "tambi": 15032,
  "tambiÃ©n": 15591,
  "tamen": 17230,
  "tament": 18402,
  "tamente": 1326,
  "tamento": 24854,
  "tami": 31637,
  "tamida": 40071,
  "tamiento": 1872,
  "tamientos": 7562,
  "tamin": 29229,
  "tamina": 13874,
  "taminaciÃ³n": 32747,
  "tamivir": 38040,
  "tamo": 21627,
  "tamol": 15385,
  "tamos": 4451,
  "tan": 580,
  "tana": 11236,
  "tanas": 41655,
  "tanasia": 26053,
  "tance": 19721,
  "tancia": 1334,
  "tancias": 2801,
  "tander": 14974,
  "tando": 2364,
  "tane": 25840,
  "tanea": 21880,
  "taneas": 38836,
  "taneo": 16659,
  "taneous": 21343,
  "taner": 31922,
  "tanercept": 41052,
  "tanes": 43922,
  "tang": 25525,
  "tani": 45865,
  "tania": 44237,
  "tano": 9186,
  "tanol": 18112,
  "tanos": 13445,
  "tant": 11108,
  "tante": 831,
  "tantes": 1459,
  "tanto": 19114,
  "tants": 43728,
  "tanzas": 19016,
  "tapenem": 34271,
  "tar": 493,
  "tara": 6837,
  "tard": 35258,
  "tardo": 51184,
  "tares": 31858,
  "tari": 39037,
  "taria": 3343,
  "tariado": 25776,
  "tarias": 8209,
  "tario": 3265,
  "tarios": 4719,
  "tarismo": 15612,
  "tarlo": 20719,
  "tarnos": 38775,
  "taro": 36000,
  "taron": 3371,
  "tarra": 42508,
  "tarsal": 46772,
  "tarse": 3209,
  "tarte": 49246,
  "tary": 18925,
  "tarÃ¡": 6383,
  "tarÃ¡n": 20758,
  "tarÃŃa": 4489,
  "tas": 486,
  "tasa": 4462,
  "tase": 22819,
  "tasi": 47366,
  "tasia": 10909,
  "tasias": 15254,
  "tasio": 3561,
  "tasis": 5708,
  "tasona": 38718,
  "tat": 10720,
  "tata": 4833,
  "tate": 24324,
  "tatina": 32568,
  "tation": 10820,
  "tativa": 8906,
  "tativamente": 47515,
  "tativas": 7197,
  "tative": 38113,
  "tativo": 11736,
  "tativos": 18375,
  "tato": 12049,
  "tats": 28752,
  "taur": 4767,
  "tava": 28698,
  "tavirus": 38648,
  "tavo": 9172,
  "taxel": 30279,
  "taxis": 44784,
  "tay": 43500,
  "taz": 32657,
  "taza": 43461,
  "tazapina": 37778,
  "tazidi": 39076,
  "tazidima": 41580,
  "tazo": 26467,
  "tazobactam": 39580,
  "tazona": 42139,
  "taÃ±a": 16478,
  "taÃ±as": 20812,
  "taÃ±o": 25954,
  "tbol": 5717,
  "tc": 37086,
  "tch": 22479,
  "td": 33828,
  "te": 312,
  "tea": 11431,
  "teada": 50135,
  "teado": 31109,
  "tear": 25916,
  "teas": 43878,
  "tec": 984,
  "teca": 7621,
  "tecal": 35458,
  "tecas": 15140,
  "tecciÃ³n": 6783,
  "tecen": 47043,
  "tech": 23047,
  "tecn": 9929,
  "tecnia": 43415,
  "tecnologÃŃa": 14517,
  "tecol": 25996,
  "tectom": 44631,
  "tectomia": 36429,
  "tectomÃŃa": 10322,
  "ted": 1538,
  "tedes": 10611,
  "tedra": 13355,
  "teg": 1243,
  "tega": 12926,
  "tegr": 6544,
  "tegra": 13189,
  "tegraciÃ³n": 25264,
  "tegravir": 46709,
  "tegro": 33552,
  "tegui": 34258,
  "tein": 7164,
  "tel": 2148,
  "tela": 10823,
  "telar": 25634,
  "tele": 26157,
  "telec": 14518,
  "telerÃŃa": 17918,
  "teles": 11409,
  "teli": 6287,
  "telial": 10462,
  "teliales": 11744,
  "telio": 10004,
  "telioma": 32854,
  "tell": 31563,
  "tella": 14767,
  "tello": 43622,
  "telo": 23890,
  "tely": 32061,
  "tem": 14583,
  "tema": 27131,
  "temesis": 50349,
  "temia": 26135,
  "temos": 25227,
  "temp": 11407,
  "temporada": 50962,
  "temporal": 25476,
  "tems": 28299,
  "ten": 405,
  "tena": 18870,
  "tenas": 33328,
  "tencia": 7566,
  "tencias": 19781,
  "tenciÃ³n": 949,
  "tendin": 43127,
  "tenemos": 41643,
  "tener": 1420,
  "tenerse": 32712,
  "tengo": 39363,
  "tenia": 8904,
  "tenible": 43378,
  "tenido": 40711,
  "tenimiento": 51302,
  "teno": 19323,
  "tenoides": 38310,
  "tenos": 25582,
  "tenosis": 5837,
  "tens": 1039,
  "tensa": 19864,
  "tense": 13822,
  "tensina": 14435,
  "tension": 17179,
  "tensiones": 41600,
  "tensive": 49744,
  "tensiÃ³n": 1982,
  "tenso": 15800,
  "tent": 4785,
  "tente": 5463,
  "tentes": 10291,
  "tential": 23788,
  "tento": 39920,
  "tentorial": 48284,
  "teo": 3306,
  "teor": 43422,
  "teos": 7369,
  "tepec": 51431,
  "ter": 345,
  "tera": 1112,
  "teral": 2252,
  "terales": 5222,
  "teralmente": 36898,
  "terapeu": 8309,
  "terapeuta": 23690,
  "terapeutas": 28571,
  "terapia": 1570,
  "terapias": 25862,
  "terapÃ©u": 12469,
  "terapÃ©utica": 31189,
  "terapÃ©uticas": 42961,
  "terapÃ©utico": 21486,
  "terapÃ©uticos": 36463,
  "teras": 8175,
  "terdam": 50689,
  "terectomÃŃa": 18047,
  "tered": 34061,
  "teres": 11845,
  "teri": 587,
  "teria": 4452,
  "terial": 1453,
  "teriales": 16629,
  "terias": 34337,
  "tericia": 7751,
  "terida": 44012,
  "teridad": 45487,
  "tering": 36438,
  "terio": 2193,
  "terior": 1179,
  "teriora": 37310,
  "teriores": 3051,
  "teriormente": 2573,
  "terioro": 18734,
  "terios": 2560,
  "teritis": 40956,
  "teriza": 47845,
  "term": 19081,
  "termia": 14379,
  "termica": 38456,
  "termin": 1271,
  "terminal": 33797,
  "tern": 6318,
  "terna": 9036,
  "ternal": 24188,
  "ternas": 24699,
  "ternidad": 16016,
  "terno": 13077,
  "ternos": 35761,
  "tero": 2168,
  "teroide": 39094,
  "teroides": 8797,
  "terol": 3459,
  "terona": 8259,
  "teros": 5934,
  "terosex": 27335,
  "terra": 10957,
  "terres": 31053,
  "territorial": 20931,
  "terror": 45442,
  "terrÃ¡n": 7812,
  "ters": 8970,
  "tery": 25041,
  "terÃ¡p": 14484,
  "terÃ¡pica": 29254,
  "terÃ¡pico": 25870,
  "terÃ¡picos": 35204,
  "terÃłpia": 35018,
  "terÃŃa": 7655,
  "terÃŃas": 16808,
  "tes": 423,
  "tese": 31476,
  "tesis": 2502,
  "test": 14363,
  "testin": 2285,
  "teto": 40170,
  "tetra": 28132,
  "tetricia": 10426,
  "teur": 25113,
  "tex": 11020,
  "texto": 27718,
  "tez": 13937,
  "teza": 14506,
  "teÃŃn": 1523,
  "teÃŃna": 18724,
  "th": 983,
  "tha": 16767,
  "thal": 20577,
  "than": 23319,
  "the": 12036,
  "thel": 17986,
  "thema": 50561,
  "ther": 5581,
  "thera": 44451,
  "therapy": 17613,
  "therine": 43563,
  "thers": 23762,
  "thes": 30926,
  "thesda": 50642,
  "thesis": 33350,
  "thia": 50833,
  "thing": 42845,
  "thma": 28259,
  "tho": 15787,
  "thod": 9942,
  "thon": 39601,
  "thor": 41160,
  "though": 29660,
  "thritis": 23107,
  "thro": 16381,
  "throp": 30007,
  "ths": 17106,
  "thur": 31452,
  "thus": 26683,
  "thy": 18712,
  "thyro": 44817,
  "ti": 286,
  "tia": 1985,
  "tiago": 5206,
  "tial": 24040,
  "tiana": 30074,
  "tiano": 50547,
  "tiapina": 22650,
  "tias": 20159,
  "tiasis": 31785,
  "tiaz": 14492,
  "tiazem": 33597,
  "tiazida": 19762,
  "tibial": 41204,
  "tibiales": 47935,
  "tibilidad": 8673,
  "tible": 4044,
  "tibles": 5732,
  "tic": 364,
  "tica": 547,
  "tical": 5452,
  "ticales": 16343,
  "tically": 39973,
  "ticamente": 2660,
  "ticar": 35508,
  "ticaria": 14415,
  "ticas": 810,
  "ticasona": 42734,
  "tice": 11971,
  "ticen": 26984,
  "ticer": 36231,
  "ticercosis": 43936,
  "tices": 21826,
  "tici": 29093,
  "ticia": 4651,
  "ticias": 6767,
  "ticidad": 10714,
  "ticio": 46329,
  "ticismo": 23967,
  "ticiÃ³n": 5247,
  "tick": 48250,
  "tico": 565,
  "ticoag": 5361,
  "ticoides": 45321,
  "ticomim": 51592,
  "ticos": 850,
  "tics": 7161,
  "ticu": 49573,
  "ticuatro": 51735,
  "ticuer": 16051,
  "ticuerpo": 39882,
  "ticuerpos": 19113,
  "ticular": 2421,
  "ticulares": 8986,
  "ticularmente": 42101,
  "ticum": 40064,
  "ticus": 38792,
  "tid": 6931,
  "tida": 3810,
  "tidad": 13743,
  "tidades": 24409,
  "tidamente": 34025,
  "tidas": 5740,
  "tide": 24449,
  "tidez": 42819,
  "tidi": 6244,
  "tidina": 21907,
  "tiditis": 34567,
  "tido": 1777,
  "tidor": 45980,
  "tidora": 32655,
  "tidores": 33279,
  "tidos": 3231,
  "tidosis": 50535,
  "tie": 43435,
  "tiembre": 40280,
  "tiempo": 20690,
  "tiempos": 49258,
  "tiende": 7160,
  "tiendo": 5031,
  "tiene": 1907,
  "tienen": 3646,
  "tienes": 46415,
  "tier": 25685,
  "tiera": 40504,
  "tieron": 7959,
  "ties": 9214,
  "tifi": 12299,
  "tific": 1182,
  "tifica": 11000,
  "tificaciÃ³n": 5022,
  "tificada": 28564,
  "tificado": 7290,
  "tificados": 31525,
  "tificar": 7096,
  "tification": 38280,
  "tificia": 22114,
  "tify": 46253,
  "tig": 21777,
  "tiga": 6560,
  "tigar": 20296,
  "tigma": 22405,
  "tigmatismo": 27321,
  "tigmina": 39494,
  "tigo": 7436,
  "tigos": 33031,
  "tii": 43714,
  "til": 584,
  "tila": 24472,
  "tilaciÃ³n": 25992,
  "tilde": 35944,
  "tile": 33574,
  "tilenglicol": 50471,
  "tileno": 26624,
  "tiles": 7184,
  "tilidad": 4923,
  "tilina": 29123,
  "till": 20135,
  "tilla": 3710,
  "tillado": 31862,
  "tillas": 6746,
  "tillo": 7126,
  "tillos": 28923,
  "tilo": 12890,
  "tim": 4801,
  "tima": 4695,
  "timamente": 20628,
  "timar": 31560,
  "timas": 7106,
  "time": 32765,
  "timi": 6978,
  "timia": 34053,
  "timiento": 39413,
  "timo": 7911,
  "timore": 33912,
  "timos": 9280,
  "tin": 571,
  "tina": 1841,
  "tinaciÃ³n": 46881,
  "tinal": 33879,
  "tinamente": 25984,
  "tinas": 7350,
  "tine": 20118,
  "tinencia": 6597,
  "tines": 19426,
  "ting": 3238,
  "tington": 29538,
  "tini": 37521,
  "tinib": 12892,
  "tinina": 3379,
  "tino": 2983,
  "tinopatÃŃa": 41576,
  "tinos": 19228,
  "tio": 2840,
  "tion": 955,
  "tional": 3505,
  "tiones": 49423,
  "tionina": 42436,
  "tions": 3199,
  "tiop": 26577,
  "tioprina": 31690,
  "tios": 7042,
  "tious": 25510,
  "tipo": 5092,
  "tipos": 7743,
  "tique": 22604,
  "tiques": 37737,
  "tir": 822,
  "tira": 19243,
  "tiracetam": 36840,
  "tires": 36453,
  "tiri": 24583,
  "tirizina": 35040,
  "tiro": 4996,
  "tiroidismo": 8447,
  "tirox": 22707,
  "tiroxina": 30287,
  "tirpaciÃ³n": 47168,
  "tirÃ¡": 17632,
  "tis": 673,
  "tisfac": 15422,
  "tisfacciÃ³n": 19373,
  "tisfec": 35137,
  "tisis": 23168,
  "tism": 35992,
  "tismo": 3041,
  "tismos": 10873,
  "tista": 4652,
  "tistas": 5506,
  "tit": 22793,
  "tita": 40371,
  "titas": 29641,
  "titis": 2528,
  "tito": 9014,
  "titos": 44448,
  "titu": 779,
  "tituciÃ³n": 17409,
  "titud": 3825,
  "titude": 49199,
  "titudes": 7045,
  "tiu": 12374,
  "tium": 27234,
  "tius": 20838,
  "tiv": 366,
  "tiva": 637,
  "tivaciÃ³n": 13132,
  "tival": 7885,
  "tivales": 23584,
  "tivamente": 1870,
  "tivar": 25082,
  "tivas": 1031,
  "tive": 3067,
  "tively": 22688,
  "tiveness": 21331,
  "tives": 16627,
  "tividad": 1917,
  "tividade": 46942,
  "tividades": 9461,
  "tivismo": 28824,
  "tivista": 34363,
  "tivitis": 14318,
  "tivity": 17488,
  "tivo": 561,
  "tivos": 765,
  "tiz": 3323,
  "tiza": 8503,
  "tizaciones": 37658,
  "tizaciÃ³n": 8563,
  "tizada": 14398,
  "tizadas": 35609,
  "tizado": 11043,
  "tizados": 19714,
  "tizan": 45285,
  "tizante": 28919,
  "tizantes": 42993,
  "tizar": 4702,
  "tizÃ³": 46870,
  "tiÃ©ndose": 15279,
  "tiÃ³": 3691,
  "tiÃ³n": 16566,
  "tl": 35501,
  "tle": 14227,
  "tm": 44987,
  "tman": 33010,
  "tmann": 39571,
  "tment": 5320,
  "tn": 10307,
  "tnam": 29156,
  "tners": 39802,
  "to": 325,
  "tobacter": 42672,
  "toc": 2877,
  "tocina": 28566,
  "tock": 23795,
  "toclo": 19412,
  "toclopramida": 19601,
  "tod": 4121,
  "toda": 33989,
  "todas": 40062,
  "todo": 6026,
  "todos": 7083,
  "todÃ³n": 40597,
  "tografÃŃa": 26898,
  "tol": 5095,
  "tole": 26145,
  "toles": 20566,
  "tologia": 48545,
  "tology": 48731,
  "tologÃŃa": 4564,
  "tolÃ³gica": 45007,
  "tom": 679,
  "toma": 2990,
  "tomas": 1258,
  "tomat": 48501,
  "tomatic": 40351,
  "tomatologÃŃa": 47897,
  "tome": 14287,
  "tomegal": 30115,
  "tomegalia": 30709,
  "tomegalovirus": 30415,
  "tometr": 39043,
  "tometrÃŃa": 26805,
  "tomia": 8998,
  "tomicina": 25831,
  "tomidina": 39249,
  "tomiositis": 50813,
  "tomizados": 30284,
  "tomo": 14013,
  "tomografÃŃa": 39086,
  "tomos": 36007,
  "tomy": 15918,
  "tomÃ¡tica": 45530,
  "tomÃ¡tico": 47910,
  "tomÃŃa": 2267,
  "tomÃŃas": 17152,
  "ton": 1315,
  "tona": 15870,
  "tonas": 31584,
  "tonces": 10045,
  "tone": 15788,
  "tones": 5249,
  "toneur": 51536,
  "tonia": 30768,
  "tonin": 32782,
  "tonina": 8853,
  "tonio": 36138,
  "tono": 36379,
  "tonos": 20565,
  "tonÃŃa": 14618,
  "top": 3473,
  "topenia": 30524,
  "topera": 6753,
  "topia": 41166,
  "topic": 49405,
  "topo": 33043,
  "topos": 29858,
  "toprazol": 26293,
  "topril": 36769,
  "toprolol": 50463,
  "topÃŃa": 45122,
  "tor": 395,
  "tora": 2181,
  "toral": 9299,
  "torales": 20643,
  "toras": 8600,
  "torax": 30339,
  "torce": 25975,
  "tore": 29411,
  "tores": 830,
  "tori": 5576,
  "toria": 1019,
  "torial": 3746,
  "toriales": 13009,
  "toriamente": 12231,
  "torias": 2599,
  "toriedad": 31405,
  "tories": 38846,
  "torio": 1192,
  "torios": 2290,
  "toris": 31729,
  "torn": 15633,
  "torno": 9243,
  "tornos": 19681,
  "toro": 37397,
  "torre": 33309,
  "torrique": 36150,
  "tors": 9860,
  "torsiones": 47373,
  "torvastatina": 16607,
  "tory": 7335,
  "torÃ¡ci": 13126,
  "torÃ¡cica": 28815,
  "torÃ¡cico": 17504,
  "torÃŃa": 12977,
  "tos": 375,
  "tosa": 6545,
  "tosas": 24410,
  "toscopia": 20699,
  "toscopio": 44460,
  "tosis": 5251,
  "toso": 18488,
  "tosos": 32284,
  "tosterona": 13515,
  "total": 24803,
  "town": 46661,
  "tox": 4773,
  "toxi": 32807,
  "toxic": 28943,
  "toxicaciÃ³n": 9252,
  "toxicar": 48897,
  "toxicidad": 15209,
  "toxina": 26767,
  "toxinas": 31338,
  "tr": 356,
  "tra": 466,
  "trabaj": 33467,
  "trabajo": 36418,
  "trac": 9877,
  "tracciÃ³n": 17748,
  "traci": 18928,
  "traciones": 10167,
  "traciÃ³n": 3155,
  "tract": 37007,
  "trad": 28448,
  "trada": 8337,
  "tradas": 29749,
  "tradiol": 46607,
  "trado": 2075,
  "trador": 38637,
  "tradores": 48769,
  "trados": 6552,
  "traje": 20884,
  "trajes": 42060,
  "tral": 3124,
  "trales": 14407,
  "tralgia": 24027,
  "tralgias": 24860,
  "tralina": 28272,
  "trall": 40542,
  "tramos": 20424,
  "tran": 1919,
  "trand": 49482,
  "trando": 26027,
  "trang": 40250,
  "trans": 6412,
  "transfer": 19096,
  "transferasa": 23682,
  "trante": 19853,
  "trantes": 47228,
  "traque": 18022,
  "traqueal": 20696,
  "trar": 7085,
  "traron": 31557,
  "trarse": 29577,
  "tras": 738,
  "trase": 49959,
  "traso": 24799,
  "trason": 37471,
  "trasplante": 22107,
  "trastorno": 46216,
  "trastornos": 50335,
  "tratamiento": 15965,
  "trate": 46741,
  "trateg": 7927,
  "tration": 51701,
  "trato": 7063,
  "tratos": 25633,
  "traum": 16933,
  "trauma": 30798,
  "tre": 1024,
  "trea": 46908,
  "treal": 36695,
  "tream": 48867,
  "trectomÃŃa": 38396,
  "trel": 43288,
  "tremia": 13668,
  "tren": 11657,
  "treng": 34753,
  "trength": 38569,
  "treo": 10653,
  "trepo": 46308,
  "tres": 6340,
  "tress": 14913,
  "tretino": 48126,
  "trex": 27579,
  "trexate": 45956,
  "trexato": 19744,
  "trexed": 50719,
  "tri": 620,
  "tria": 5529,
  "trial": 28127,
  "trias": 50921,
  "triaxona": 11742,
  "trib": 1303,
  "tribu": 18535,
  "tribuciones": 28640,
  "tribuciÃ³n": 10431,
  "tric": 2700,
  "trica": 2468,
  "tricamente": 31022,
  "tricas": 5309,
  "tricciÃ³n": 20402,
  "trices": 7056,
  "tricia": 7714,
  "tricidad": 14127,
  "tricitabina": 51101,
  "trick": 31201,
  "trico": 3090,
  "tricos": 4039,
  "trics": 16750,
  "tridium": 23903,
  "tries": 19752,
  "trigina": 43660,
  "triglicer": 30110,
  "trigliceridemia": 31882,
  "tril": 26313,
  "trillo": 38825,
  "trim": 45013,
  "trimo": 36299,
  "trimonio": 7451,
  "trimoxazol": 37412,
  "trin": 27389,
  "trina": 13253,
  "trinas": 37585,
  "tring": 10554,
  "tringe": 49276,
  "trio": 6132,
  "triol": 41783,
  "triosis": 50334,
  "trip": 19792,
  "tripsina": 45713,
  "triptilina": 35599,
  "triptÃ¡n": 47646,
  "tris": 37196,
  "tritis": 4227,
  "trito": 12014,
  "trix": 37622,
  "triz": 4159,
  "tro": 433,
  "trocan": 51772,
  "trocin": 11699,
  "trof": 12850,
  "trofe": 30772,
  "trofes": 30087,
  "trofia": 5970,
  "trofias": 31920,
  "trofÃŃs": 41538,
  "troke": 17736,
  "trol": 862,
  "trom": 11498,
  "tromb": 4823,
  "trombina": 5686,
  "tron": 6695,
  "trona": 21288,
  "trones": 6388,
  "trong": 24669,
  "tronic": 30741,
  "tronidazol": 23589,
  "tronomÃŃa": 19575,
  "trop": 4932,
  "tropina": 19598,
  "tropio": 29297,
  "tropo": 34462,
  "tropol": 17572,
  "tropolitana": 23594,
  "tropos": 44015,
  "tropÃŃa": 42756,
  "trorragia": 29791,
  "tros": 612,
  "trosa": 38969,
  "troscopia": 15750,
  "trosis": 8417,
  "troso": 38252,
  "trospec": 45330,
  "trozol": 39945,
  "tru": 6366,
  "truc": 1077,
  "trucciones": 7192,
  "trucciÃ³n": 2538,
  "tructiva": 8255,
  "tructure": 49910,
  "truida": 42630,
  "truir": 16277,
  "trum": 3225,
  "trus": 31520,
  "try": 8467,
  "trÃ¡": 30334,
  "trÃ¡fico": 38580,
  "trÃ¡n": 19082,
  "trÃ¡s": 5191,
  "trÃ©": 49400,
  "trÃ©s": 15887,
  "trÃ³": 4920,
  "trÃ³fica": 14177,
  "trÃ³ficas": 33569,
  "trÃ³fico": 24759,
  "trÃ³ficos": 46206,
  "trÃ³geno": 14822,
  "trÃ³leo": 20716,
  "trÃ³n": 2407,
  "trÃ³pica": 45196,
[...]
