{
  "!": 4,
  "!!": 2270,
  "!!!": 6866,
  "!!!!": 9619,
  "!!!!!": 30507,
  "!!!!!!!!": 30401,
  "!!!.": 42560,
  "!!.": 45426,
  "!\"": 34668,
  "!\",": 48642,
  "!\".": 45340,
  "!)": 39644,
  "!,": 18419,
  "!.": 17311,
  "\"": 5,
  "\"(": 37936,
  "\")": 12348,
  "\"),": 19837,
  "\").": 16768,
  "\",": 811,
  "\"-": 46801,
  "\".": 892,
  "\":": 14973,
  "\";": 13555,
  "\"?": 27033,
  "#": 6,
  "$": 7,
  "%": 8,
  "%(": 49937,
  "%)": 2122,
  "%),": 4067,
  "%).": 4608,
  "%);": 19982,
  "%,": 3230,
  "%-": 25906,
  "%.": 3719,
  "%:": 11589,
  "%;": 10162,
  "&": 9,
  "'": 10,
  "''": 9736,
  "''''": 37655,
  "'',": 41565,
  "')": 22724,
  "'),": 40889,
  "').": 50002,
  "',": 3275,
  "','": 18589,
  "'-": 34970,
  "'.": 5761,
  "':": 36612,
  "';": 36332,
  "'s": 5811,
  "'t": 37950,
  "(": 11,
  "(.)": 7808,
  "(>=": 31244,
  ")": 12,
  ")\"": 31960,
  ")\",": 29732,
  ")\".": 29935,
  ")(": 506,
  "))": 27622,
  ")*": 42467,
  ")**": 41473,
  "),": 606,
  ")-": 8707,
  ")-,": 43778,
  ").": 558,
  ").-": 13140,
  ").âĢĵ": 28364,
  ")/": 30745,
  "):": 1950,
  ");": 2958,
  ")?": 26089,
  ")]": 34346,
  "*": 13,
  "**": 7292,
  "***": 43628,
  "****": 35457,
  "*,": 24077,
  "+": 14,
  "+)": 38491,
  "++": 30301,
  "+,": 23223,
  "+.": 36071,
  "+/": 47735,
  "+]": 48864,
  ",": 15,
  ",\"": 21367,
  ",'": 16624,
  ",(": 25613,
  ",,": 9318,
  ",,,": 38843,
  ",,,,": 32539,
  ",.": 7725,
  ",.)": 36493,
  "-": 16,
  "-(": 12195,
  "-)": 22105,
  "-).": 42390,
  "-,": 6817,
  "--": 4324,
  "--,": 23826,
  "----": 10673,
  "--------": 18532,
  "----------------": 32357,
  "--.": 22424,
  "-.": 14684,
  "-;": 34689,
  "-[": 31859,
  ".": 17,
  ".!": 39321,
  ".\"": 5387,
  ".\",": 30192,
  ".\".": 27383,
  ".'": 26562,
  ".(": 11571,
  ".)": 3124,
  ".),": 8506,
  ".).": 7274,
  ".):": 34887,
  ".);": 44860,
  ".,": 1498,
  ".-": 2867,
  "./": 23976,
  ".:": 7769,
  ".;": 9123,
  ".?": 15923,
  ".[": 12831,
  ".]": 5171,
  ".Â¡": 24129,
  ".Â»": 20920,
  ".Â¿": 17118,
  ".âĢ¢": 43066,
  ".âĢĵ": 39011,
  "/": 18,
  "/-": 33436,
  "/.": 29782,
  "//": 2656,
  "0": 19,
  "00": 501,
  "000": 1522,
  "0000": 42243,
  "0001": 18644,
  "001": 6456,
  "002": 23178,
  "003": 25275,
  "004": 26694,
  "005": 23777,
  "006": 30963,
  "007": 32209,
  "008": 30293,
  "009": 37162,
  "01": 6281,
  "010": 47714,
  "011": 44454,
  "012": 44008,
  "013": 44182,
  "014": 47124,
  "015": 44220,
  "016": 47256,
  "02": 7927,
  "03": 8211,
  "04": 8650,
  "05": 4515,
  "06": 9089,
  "07": 7961,
  "08": 9747,
  "09": 8346,
  "1": 20,
  "10": 1329,
  "100": 6031,
  "1000": 33437,
  "101": 20210,
  "1016": 26305,
  "102": 19173,
  "103": 20760,
  "104": 19230,
  "105": 17438,
  "106": 21874,
  "107": 24089,
  "108": 10613,
  "109": 23368,
  "11": 1812,
  "110": 16779,
  "111": 24301,
  "1111": 48807,
  "112": 16516,
  "113": 26222,
  "114": 24072,
  "115": 24843,
  "116": 17588,
  "117": 26909,
  "1172": 29679,
  "118": 27580,
  "119": 25768,
  "12": 1401,
  "120": 15166,
  "121": 5207,
  "122": 25444,
  "123": 14090,
  "124": 26695,
  "1240": 33244,
  "1242": 43512,
  "125": 18831,
  "126": 24423,
  "127": 26892,
  "128": 26969,
  "129": 18775,
  "13": 1953,
  "130": 20222,
  "131": 23406,
  "132": 27189,
  "133": 28253,
  "134": 29110,
  "135": 26507,
  "136": 30489,
  "137": 28725,
  "138": 18328,
  "1388": 25127,
  "139": 27767,
  "14": 1941,
  "140": 17620,
  "141": 24026,
  "142": 16089,
  "143": 29063,
  "144": 28876,
  "145": 25273,
  "146": 20451,
  "147": 30680,
  "148": 32226,
  "149": 24167,
  "15": 1736,
  "150": 16681,
  "151": 20357,
  "152": 17210,
  "153": 26361,
  "1536": 18333,
  "154": 32338,
  "155": 21271,
  "156": 21022,
  "157": 20424,
  "158": 26458,
  "159": 26871,
  "16": 2160,
  "160": 22776,
  "1607": 27148,
  "161": 33656,
  "162": 31248,
  "163": 34995,
  "164": 35521,
  "165": 35137,
  "166": 37019,
  "167": 35777,
  "168": 36516,
  "169": 39117,
  "17": 2249,
  "170": 32106,
  "171": 34420,
  "172": 31168,
  "173": 39253,
  "174": 36832,
  "175": 37047,
  "1758": 19919,
  "176": 34672,
  "177": 38419,
  "178": 38453,
  "179": 37799,
  "18": 2248,
  "180": 23010,
  "181": 34285,
  "182": 39573,
  "183": 38395,
  "184": 37590,
  "185": 37094,
  "186": 41241,
  "187": 38624,
  "188": 42176,
  "189": 37666,
  "19": 1603,
  "190": 33072,
  "191": 29228,
  "192": 22348,
  "193": 33490,
  "194": 43582,
  "195": 37861,
  "196": 39878,
  "197": 40441,
  "1979": 48726,
  "198": 38091,
  "1980": 42691,
  "1982": 41691,
  "1983": 43211,
  "1984": 39419,
  "1985": 35532,
  "1986": 31841,
  "1987": 37449,
  "1988": 34916,
  "1989": 33111,
  "199": 5818,
  "1990": 26616,
  "1991": 29983,
  "1992": 25585,
  "1993": 26077,
  "1994": 23616,
  "1995": 21393,
  "1996": 21948,
  "1997": 20147,
  "1998": 18934,
  "1999": 16101,
  "2": 21,
  "20": 1264,
  "200": 2459,
  "2000": 14297,
  "2001": 15667,
  "2002": 12391,
  "2003": 13183,
  "2004": 13585,
  "2005": 12534,
  "2006": 11341,
  "2007": 11345,
  "2008": 11661,
  "2009": 11335,
  "201": 25054,
  "2010": 10389,
  "2011": 10983,
  "2012": 10117,
  "2013": 11432,
  "2014": 12407,
  "2015": 12151,
  "2016": 15113,
  "2017": 17412,
  "2018": 17102,
  "2019": 19528,
  "202": 28250,
  "2020": 27943,
  "203": 37273,
  "204": 35147,
  "205": 36308,
  "206": 35497,
  "207": 40362,
  "208": 38695,
  "209": 38294,
  "2094": 9560,
  "21": 3661,
  "210": 32812,
  "2108": 13954,
  "211": 40370,
  "212": 39360,
  "2123": 19127,
  "213": 43947,
  "214": 42958,
  "215": 42502,
  "216": 40515,
  "217": 47247,
  "218": 45137,
  "219": 45548,
  "22": 3320,
  "220": 33195,
  "221": 42300,
  "222": 39454,
  "223": 40145,
  "224": 38194,
  "225": 37712,
  "226": 44021,
  "227": 44437,
  "228": 45699,
  "229": 44490,
  "23": 3589,
  "230": 34596,
  "231": 45179,
  "232": 43290,
  "233": 44075,
  "234": 43442,
  "235": 43826,
  "236": 44326,
  "237": 41399,
  "238": 43193,
  "239": 43818,
  "24": 2987,
  "240": 34627,
  "241": 48875,
  "242": 46109,
  "243": 33292,
  "244": 37359,
  "245": 44807,
  "246": 46633,
  "247": 45244,
  "248": 47928,
  "249": 46900,
  "25": 2945,
  "250": 24743,
  "252": 47593,
  "253": 45065,
  "254": 45690,
  "255": 48982,
  "256": 45920,
  "258": 48929,
  "26": 3741,
  "260": 43387,
  "261": 49853,
  "262": 49970,
  "265": 46742,
  "266": 47307,
  "268": 48865,
  "27": 2373,
  "270": 45220,
  "273": 48173,
  "2733": 6841,
  "2738": 6979,
  "275": 49609,
  "276": 49789,
  "279": 49679,
  "28": 3795,
  "280": 39438,
  "281": 47323,
  "282": 48000,
  "285": 49902,
  "29": 4077,
  "290": 47583,
  "299": 49140,
  "3": 22,
  "30": 2560,
  "300": 13734,
  "301": 41508,
  "302": 42111,
  "303": 46021,
  "304": 44122,
  "305": 46350,
  "306": 47286,
  "308": 46455,
  "31": 4869,
  "310": 47111,
  "3121": 6144,
  "32": 4850,
  "320": 42680,
  "33": 3029,
  "330": 49356,
  "336": 48046,
  "34": 4365,
  "340": 48225,
  "345": 47254,
  "35": 4311,
  "350": 38923,
  "36": 3826,
  "360": 41673,
  "365": 48795,
  "37": 5260,
  "38": 3354,
  "39": 5133,
  "399": 48023,
  "4": 23,
  "40": 3524,
  "400": 15545,
  "41": 6119,
  "415": 34682,
  "42": 5834,
  "420": 49214,
  "43": 6162,
  "44": 5161,
  "45": 4720,
  "450": 22068,
  "46": 5766,
  "47": 6374,
  "48": 5708,
  "49": 6037,
  "5": 24,
  "50": 2816,
  "500": 8162,
  "51": 7903,
  "52": 8000,
  "53": 7335,
  "54": 7884,
  "55": 6731,
  "56": 5940,
  "561": 15496,
  "57": 8632,
  "58": 7346,
  "59": 8184,
  "6": 25,
  "60": 4128,
  "600": 16747,
  "61": 7909,
  "62": 8239,
  "63": 8375,
  "64": 7754,
  "65": 6351,
  "66": 7461,
  "67": 8129,
  "68": 2963,
  "69": 6429,
  "7": 26,
  "70": 3259,
  "700": 22521,
  "71": 4321,
  "72": 2848,
  "73": 5801,
  "74": 5613,
  "75": 4657,
  "750": 48906,
  "76": 3461,
  "77": 6664,
  "78": 5991,
  "79": 3948,
  "8": 27,
  "80": 4154,
  "800": 17549,
  "81": 4190,
  "82": 3936,
  "824": 42202,
  "83": 6080,
  "84": 7707,
  "85": 4050,
  "86": 3957,
  "87": 4787,
  "88": 5038,
  "89": 6957,
  "9": 28,
  "90": 5012,
  "900": 30183,
  "905": 46653,
  "91": 9451,
  "92": 8446,
  "93": 9288,
  "936": 32671,
  "94": 4986,
  "95": 4639,
  "96": 9453,
  "97": 9961,
  "98": 9650,
  "99": 7395,
  ":": 29,
  ":\"": 45019,
  ":'": 22087,
  ":(": 47715,
  ":)": 21054,
  ":.": 25900,
  "://": 2731,
  "::": 23513,
  "::::": 49861,
  ":?": 46909,
  ";": 30,
  ";)": 30575,
  "<": 31,
  "</s>": 2,
  "<mask>": 50261,
  "<pad>": 1,
  "<s>": 0,
  "<unk>": 3,
  "=": 32,
  "=\"": 36261,
  "=.": 40846,
  ">": 33,
  ">=": 25020,
  "?": 34,
  "?\"": 18359,
  "?\",": 25633,
  "?\".": 26438,
  "?)": 28022,
  "?).": 44516,
  "?,": 7478,
  "?.": 6863,
  "?:": 28895,
  "?;": 39930,
  "??": 3276,
  "???": 16038,
  "????": 8511,
  "????????": 21026,
  "?Â¿": 29956,
  "@": 35,
  "@@": 39433,
  "A": 36,
  "AA": 10912,
  "AB": 4478,
  "ABA": 22423,
  "ABIL": 49854,
  "ABLE": 22786,
  "ABLES": 46380,
  "ABOR": 49099,
  "AC": 1925,
  "ACA": 27854,
  "ACC": 43717,
  "ACCIÃĵN": 38896,
  "ACE": 8490,
  "ACH": 44522,
  "ACHE": 39942,
  "ACI": 48884,
  "ACION": 5390,
  "ACIONES": 17104,
  "ACIÃĵN": 8448,
  "ACO": 22196,
  "ACR": 39867,
  "ACS": 26039,
  "ACT": 14190,
  "ACTER": 21134,
  "ACTO": 34725,
  "ACV": 37755,
  "AD": 1376,
  "ADA": 6194,
  "ADAMENTE": 48252,
  "ADAS": 13691,
  "ADE": 20476,
  "ADH": 49606,
  "ADI": 49941,
  "ADN": 37160,
  "ADO": 5073,
  "ADOR": 10219,
  "ADORA": 41439,
  "ADORES": 22519,
  "ADOS": 7298,
  "ADS": 33536,
  "AE": 26564,
  "AEC": 29837,
  "AECC": 42663,
  "AEMPS": 29154,
  "AEP": 28013,
  "AES": 33828,
  "AF": 12488,
  "AG": 16144,
  "AHA": 43445,
  "AI": 28803,
  "AINE": 46421,
  "AJ": 44823,
  "AL": 1345,
  "ALA": 26200,
  "ALES": 6539,
  "ALIZ": 16724,
  "ALL": 36431,
  "ALMENTE": 45966,
  "ALT": 42964,
  "ALU": 28515,
  "ALUD": 41619,
  "AM": 2004,
  "AMA": 11530,
  "AME": 30490,
  "AMENTE": 13479,
  "AMIENTO": 17883,
  "AMOS": 20164,
  "AMP": 38008,
  "AN": 1418,
  "ANA": 13433,
  "ANAS": 37733,
  "ANCA": 47813,
  "ANCIA": 31240,
  "AND": 17865,
  "ANDA": 25565,
  "ANDO": 11033,
  "ANE": 34250,
  "ANG": 43651,
  "ANO": 12993,
  "ANOS": 23885,
  "ANT": 36537,
  "ANTE": 9106,
  "ANTES": 18515,
  "ANZ": 44130,
  "AP": 2660,
  "APA": 18952,
  "APAS": 41311,
  "APS": 17060,
  "AR": 1091,
  "ARA": 12881,
  "ARATO": 37924,
  "ARC": 21743,
  "ARD": 24929,
  "ARE": 33191,
  "ARES": 23139,
  "ARI": 33891,
  "ARIA": 13783,
  "ARIAS": 29164,
  "ARIO": 13282,
  "ARIOS": 15824,
  "ARM": 40863,
  "ARMA": 34124,
  "ARN": 27225,
  "ARON": 47517,
  "ARR": 19678,
  "ARROL": 31456,
  "ARS": 48333,
  "ARSE": 28437,
  "ART": 23098,
  "AS": 1130,
  "ASA": 11780,
  "ASE": 15139,
  "ASEST": 42796,
  "ASH": 35741,
  "ASO": 48938,
  "ASP": 26182,
  "AST": 18118,
  "AT": 3577,
  "ATOR": 24534,
  "ATORIO": 46101,
  "ATOS": 25009,
  "ATP": 39908,
  "ATURA": 35872,
  "AU": 3283,
  "AUC": 48433,
  "AV": 12133,
  "AZ": 32281,
  "Ab": 30876,
  "Ac": 12347,
  "Actualmente": 50112,
  "Ad": 20997,
  "Ade": 25067,
  "AdemÃ¡s": 27012,
  "Ag": 26680,
  "Agu": 45354,
  "Ahora": 27522,
  "Al": 6543,
  "Ale": 23167,
  "Alemania": 29451,
  "Alguna": 48797,
  "Alicante": 46342,
  "All": 30645,
  "Alzheimer": 49292,
  "Am": 34737,
  "Amer": 16673,
  "American": 18475,
  "An": 8422,
  "Ana": 39881,
  "Ane": 38109,
  "Anexo": 43986,
  "Ante": 40367,
  "Antes": 48099,
  "AnÃ¡lisis": 44652,
  "Ap": 38848,
  "App": 32779,
  "Ar": 9232,
  "Arch": 48547,
  "Arg": 38834,
  "Argentina": 37533,
  "As": 9388,
  "AsociaciÃ³n": 25180,
  "AsÃŃ": 37608,
  "AtenciÃ³n": 43132,
  "Au": 39398,
  "Aunque": 22503,
  "Aus": 42487,
  "Ay": 29672,
  "B": 37,
  "BA": 7947,
  "BAN": 44699,
  "BAS": 35059,
  "BB": 33845,
  "BC": 16889,
  "BD": 20464,
  "BE": 15723,
  "BER": 17712,
  "BI": 13455,
  "BIEN": 23670,
  "BIO": 35843,
  "BL": 12434,
  "BLE": 17452,
  "BLES": 27332,
  "BM": 30675,
  "BN": 13898,
  "BNP": 30920,
  "BO": 36783,
  "BOE": 45297,
  "BOL": 37310,
  "BP": 17759,
  "BR": 17817,
  "BRE": 44388,
  "BS": 16125,
  "BT": 39054,
  "Ba": 24587,
  "Bal": 45180,
  "Ban": 43504,
  "Bar": 15328,
  "Barc": 39279,
  "Barcelona": 19852,
  "Barr": 38922,
  "BarrÃ©": 41822,
  "Bas": 35006,
  "Be": 37683,
  "Ben": 47833,
  "Ber": 34882,
  "Bi": 35301,
  "Bio": 27034,
  "Bl": 43472,
  "Blan": 43571,
  "Bo": 23832,
  "Bol": 33281,
  "Br": 32412,
  "Bra": 38348,
  "Bras": 36392,
  "Brasil": 38245,
  "Bri": 46398,
  "Bro": 46839,
  "Buen": 30755,
  "Bur": 38128,
  "Bus": 39448,
  "C": 38,
  "CA": 3418,
  "CAA": 16975,
  "CAL": 32157,
  "CAM": 20478,
  "CAN": 25343,
  "CAP": 32663,
  "CAR": 21481,
  "CAS": 31652,
  "CAT": 35115,
  "CB": 45210,
  "CC": 9092,
  "CCOO": 43357,
  "CD": 8642,
  "CDC": 26345,
  "CDT": 48233,
  "CE": 7120,
  "CEL": 30809,
  "CEP": 26747,
  "CER": 16395,
  "CES": 23838,
  "CEST": 41426,
  "CF": 34411,
  "CG": 14292,
  "CH": 5807,
  "CHA": 46472,
  "CI": 972,
  "CIA": 5970,
  "CIACIÃĵN": 43228,
  "CIAL": 10954,
  "CIAS": 10823,
  "CIBER": 26801,
  "CIC": 41231,
  "CID": 25016,
  "CIDAD": 40277,
  "CIDO": 32531,
  "CIE": 36430,
  "CIII": 31572,
  "CIL": 29410,
  "CIM": 22845,
  "CIMA": 48871,
  "CIMIENTO": 35920,
  "CIN": 37651,
  "CIO": 13972,
  "CION": 2168,
  "CIONAL": 21575,
  "CIONES": 8429,
  "CIOS": 20174,
  "CIP": 16972,
  "CIR": 41202,
  "CIS": 27862,
  "CIÃĵN": 3549,
  "CK": 47372,
  "CL": 6362,
  "CLA": 32963,
  "CLUS": 15863,
  "CM": 9691,
  "CMI": 46903,
  "CN": 10191,
  "CNAE": 27056,
  "CNIO": 49146,
  "CO": 4838,
  "COC": 45950,
  "COF": 41958,
  "COM": 21122,
  "CON": 15424,
  "COO": 17037,
  "COP": 32002,
  "COR": 26114,
  "COS": 44158,
  "CP": 8639,
  "CR": 3700,
  "CRE": 30156,
  "CRIP": 49945,
  "CS": 7047,
  "CSF": 35499,
  "CSIC": 16526,
  "CT": 8895,
  "CTICA": 37036,
  "CU": 14821,
  "CUENT": 43789,
  "CULAR": 29438,
  "CV": 10980,
  "Ca": 12902,
  "Cab": 40091,
  "Cada": 31692,
  "Caixa": 42633,
  "Cal": 23042,
  "Cali": 47040,
  "Cam": 24332,
  "Cambi": 47515,
  "Can": 15136,
  "CanadÃ¡": 40245,
  "Cap": 36333,
  "Car": 12489,
  "Care": 24310,
  "Carlos": 40694,
  "Cas": 15557,
  "Ce": 47485,
  "Cent": 46567,
  "Centro": 22277,
  "Cer": 39705,
  "Ch": 12767,
  "Cha": 31283,
  "Chapter": 42614,
  "Chi": 37092,
  "Chile": 46828,
  "Ci": 22814,
  "Ciencia": 44468,
  "Cir": 34363,
  "Ciru": 46013,
  "Ciudad": 32104,
  "Cl": 26286,
  "Clin": 40768,
  "Co": 11799,
  "CoA": 43854,
  "Col": 17023,
  "Cola": 45976,
  "Colombia": 32310,
  "Com": 11310,
  "Como": 20073,
  "Comple": 49843,
  "Con": 4969,
  "Conclusiones": 27460,
  "Cono": 31013,
  "Cons": 20684,
  "Conse": 43041,
  "Consul": 24939,
  "Consultado": 28523,
  "Control": 48218,
  "Cor": 21515,
  "Cos": 33730,
  "Cr": 30126,
  "Cre": 22763,
  "Creemos": 49656,
  "Creo": 34555,
  "Cri": 49848,
  "Cruz": 42295,
  "Cs": 42472,
  "Cu": 4632,
  "Cual": 37473,
  "Cuando": 15282,
  "Cuba": 39118,
  "Cur": 38573,
  "CuÃ¡l": 12631,
  "CuÃ¡les": 15668,
  "CuÃ¡n": 18878,
  "CuÃ¡ndo": 26191,
  "CuÃ¡ntas": 40730,
  "CuÃ¡nto": 32280,
  "CuÃ¡ntos": 48351,
  "Cy": 48226,
  "CÃ¡": 40207,
  "CÃ³mo": 6243,
  "D": 39,
  "DA": 3421,
  "DAD": 17161,
  "DAH": 8864,
  "DAI": 41083,
  "DAS": 32683,
  "DC": 19549,
  "DD": 18214,
  "DE": 4578,
  "DEA": 42730,
  "DEM": 39915,
  "DEN": 17216,
  "DER": 37737,
  "DES": 36154,
  "DEZ": 40640,
  "DF": 27784,
  "DG": 25818,
  "DH": 21851,
  "DI": 9440,
  "DICION": 42857,
  "DICIONES": 44100,
  "DIO": 32873,
  "DL": 5695,
  "DM": 13795,
  "DNA": 32637,
  "DO": 4557,
  "DOS": 12338,
  "DP": 25394,
  "DR": 9233,
  "DROME": 28989,
  "DS": 14355,
  "DT": 20722,
  "Da": 23074,
  "Dan": 46874,
  "Day": 11171,
  "De": 7252,
  "Deb": 19763,
  "Debemos": 41423,
  "Dec": 48491,
  "Del": 20030,
  "Departamento": 30528,
  "Der": 30967,
  "Des": 11577,
  "Desde": 23681,
  "DespuÃ©s": 46799,
  "Di": 14393,
  "Diagn": 46488,
  "Dios": 46385,
  "Direc": 50081,
  "Dis": 20061,
  "Do": 29473,
  "Doc": 21231,
  "Doctor": 36952,
  "Don": 29285,
  "Donald": 40010,
  "Dr": 14919,
  "Dur": 31837,
  "Durante": 37616,
  "DÃ³nde": 31846,
  "DÃŃa": 25724,
  "DÃŃaz": 43144,
  "E": 40,
  "EA": 5286,
  "EAP": 46970,
  "EAS": 41157,
  "EB": 10699,
  "EC": 1791,
  "ECA": 14281,
  "ECCION": 23703,
  "ECCIÃĵN": 44819,
  "ECE": 30936,
  "ECER": 44926,
  "ECES": 23673,
  "ECG": 35764,
  "ECH": 46074,
  "ECHO": 34118,
  "ECO": 34505,
  "ECS": 44520,
  "ECT": 14378,
  "ECTO": 22613,
  "ECTOS": 42921,
  "ECU": 25796,
  "ECV": 37717,
  "ED": 2242,
  "EDA": 45230,
  "EDAD": 11819,
  "EDE": 29069,
  "EDER": 13307,
  "EDO": 31261,
  "EDOR": 46170,
  "EE": 10242,
  "EEG": 47778,
  "EEUU": 30245,
  "EF": 6911,
  "EFA": 42181,
  "EFE": 20829,
  "EG": 6693,
  "EGA": 41972,
  "EGF": 28402,
  "EH": 17805,
  "EHU": 32590,
  "EI": 23293,
  "EJO": 42153,
  "EL": 3441,
  "ELA": 25351,
  "ELL": 20732,
  "ELO": 24176,
  "EM": 1851,
  "EMA": 5652,
  "EMAIL": 7561,
  "EMAS": 21075,
  "EMB": 25487,
  "EMBRE": 46967,
  "EME": 30464,
  "EMENTE": 25815,
  "EMFE": 33378,
  "EMI": 33522,
  "EMIA": 36772,
  "EMO": 25013,
  "EMOS": 17832,
  "EMP": 37193,
  "EMPLO": 48397,
  "EMPRE": 29588,
  "EMPS": 14581,
  "EMS": 47008,
  "EN": 957,
  "ENA": 15809,
  "ENCI": 44203,
  "ENCIA": 10619,
  "ENCIAL": 41581,
  "ENCIAS": 29468,
  "ENCION": 44163,
  "ENCIÃĵN": 24494,
  "END": 11885,
  "ENDA": 38111,
  "ENDE": 21102,
  "ENDO": 32400,
  "ENE": 37388,
  "ENO": 15395,
  "ENS": 20132,
  "ENSA": 40978,
  "ENT": 1928,
  "ENTA": 12616,
  "ENTAL": 26070,
  "ENTAN": 43199,
  "ENTAR": 44630,
  "ENTE": 4247,
  "ENTES": 10220,
  "ENTO": 12765,
  "ENTOS": 17178,
  "EO": 21632,
  "EP": 3247,
  "EPA": 23442,
  "EPAC": 48168,
  "EPAR": 16054,
  "EPI": 38342,
  "EPOC": 21358,
  "EPS": 47102,
  "EPT": 28950,
  "ER": 993,
  "ERA": 10098,
  "ERAS": 46334,
  "ERC": 20842,
  "ERENCIA": 43683,
  "ERG": 28763,
  "ERGEN": 21274,
  "ERIA": 25837,
  "ERICA": 41046,
  "ERM": 6799,
  "ERMI": 18177,
  "ERN": 24117,
  "ERNES": 48394,
  "ERO": 10419,
  "EROS": 20254,
  "ERS": 14529,
  "ERT": 46204,
  "ERTE": 42074,
  "ERTURA": 49804,
  "ERÃįA": 33688,
  "ES": 980,
  "ESA": 17649,
  "ESC": 46669,
  "ESCO": 27200,
  "ESO": 14165,
  "ESP": 22983,
  "ESS": 42655,
  "EST": 13874,
  "ESTA": 43725,
  "ET": 4123,
  "ETA": 27217,
  "ETAS": 44780,
  "ETER": 49141,
  "ETES": 38748,
  "ETS": 35334,
  "EU": 34437,
  "EUROPA": 28741,
  "EV": 9142,
  "EVA": 43327,
  "EX": 14320,
  "EZ": 10562,
  "EZA": 27505,
  "Ed": 31048,
  "Edi": 40792,
  "Eds": 35580,
  "Educ": 45138,
  "Ej": 49924,
  "El": 2780,
  "Emb": 15844,
  "Embargo": 16976,
  "Emp": 32173,
  "En": 3706,
  "Enfer": 20029,
  "Enfermedad": 44943,
  "Entre": 30333,
  "Eq": 25204,
  "Er": 43431,
  "Es": 2172,
  "Esc": 25849,
  "Escuela": 42011,
  "Eso": 39649,
  "EspaÃ±a": 15492,
  "Especial": 38046,
  "Esper": 36505,
  "Esta": 15588,
  "Estados": 16178,
  "Estamos": 19587,
  "Estas": 34180,
  "Este": 11930,
  "Esto": 15018,
  "Estos": 21633,
  "Estoy": 38954,
  "Estudio": 27871,
  "EstÃ¡": 29036,
  "EstÃ¡s": 48457,
  "Euro": 21696,
  "Europa": 47149,
  "European": 33954,
  "Ev": 24596,
  "Evalu": 31057,
  "EvaluaciÃ³n": 49022,
  "Ex": 10575,
  "Existe": 29958,
  "Existen": 37709,
  "F": 41,
  "FA": 8529,
  "FAC": 47457,
  "FAM": 49043,
  "FC": 11876,
  "FDA": 23930,
  "FDG": 47458,
  "FE": 12117,
  "FEC": 30793,
  "FEDER": 33196,
  "FEN": 48523,
  "FER": 34800,
  "FES": 15414,
  "FF": 26359,
  "FG": 44883,
  "FI": 23625,
  "FICA": 34061,
  "FICI": 17004,
  "FICO": 46325,
  "FIL": 29806,
  "FIS": 45781,
  "FL": 34841,
  "FM": 25546,
  "FO": 35753,
  "FP": 42619,
  "FR": 14498,
  "FS": 48801,
  "FT": 35266,
  "FU": 43145,
  "FV": 44950,
  "FYC": 17327,
  "Fa": 49643,
  "Fac": 26939,
  "Far": 28870,
  "Fe": 24931,
  "FederaciÃ³n": 50086,
  "Fel": 44884,
  "Fer": 43731,
  "FernÃ¡ndez": 33877,
  "Fi": 10925,
  "Fig": 12598,
  "Figura": 13674,
  "Fin": 47716,
  "Fl": 36571,
  "Fo": 29911,
  "For": 38149,
  "Fran": 20433,
  "Francia": 33531,
  "Fu": 35135,
  "Fue": 44585,
  "FundaciÃ³n": 35425,
  "FÃ³rmula": 26277,
  "G": 42,
  "GA": 9805,
  "GADO": 50117,
  "GAN": 19000,
  "GAR": 32445,
  "GAS": 37926,
  "GB": 44920,
  "GC": 16410,
  "GE": 11008,
  "GEN": 9810,
  "GENO": 49829,
  "GER": 47440,
  "GES": 48326,
  "GF": 10750,
  "GFR": 26729,
  "GG": 34761,
  "GH": 31334,
  "GI": 30824,
  "GIA": 47459,
  "GL": 26741,
  "GM": 23034,
  "GN": 14268,
  "GO": 9075,
  "GON": 47797,
  "GOS": 42107,
  "GP": 35342,
  "GR": 8152,
  "GRA": 48368,
  "GRAF": 34385,
  "GRAFÃįA": 47136,
  "GRE": 34570,
  "GS": 22564,
  "GT": 13040,
  "GU": 17277,
  "GUE": 42391,
  "Ga": 34283,
  "Gal": 26578,
  "Gar": 35007,
  "GarcÃŃa": 18206,
  "Ge": 34945,
  "Gen": 35322,
  "Gener": 38674,
  "General": 49781,
  "Genes": 33829,
  "Ger": 46133,
  "Gil": 42128,
  "Global": 25158,
  "Go": 31686,
  "Gonz": 22617,
  "GonzÃ¡lez": 24307,
  "Gr": 25075,
  "Gra": 47138,
  "Gracias": 28584,
  "Gran": 22116,
  "Granada": 49576,
  "Gre": 36776,
  "Grupo": 24271,
  "Gu": 13198,
  "GutiÃ©rrez": 50193,
  "GuÃŃa": 36649,
  "GÃ³mez": 33116,
  "H": 43,
  "HA": 7789,
  "HAS": 31082,
  "HB": 12277,
  "HC": 7623,
  "HD": 15717,
  "HDL": 22226,
  "HE": 12707,
  "HER": 41414,
  "HF": 30065,
  "HH": 20208,
  "HI": 28664,
  "HID": 40025,
  "HL": 39626,
  "HO": 9018,
  "HOL": 45824,
  "HOS": 24511,
  "HP": 34813,
  "HR": 15853,
  "HS": 9704,
  "HT": 18485,
  "HTA": 22487,
  "Ha": 18607,
  "Hab": 29161,
  "Hace": 43970,
  "Han": 48327,
  "Har": 47972,
  "Has": 37902,
  "Hasta": 27463,
  "Hay": 11397,
  "Hb": 30732,
  "He": 8406,
  "Health": 10161,
  "HealthDay": 11490,
  "Heb": 14058,
  "Hebron": 15343,
  "Hemos": 21269,
  "Her": 23955,
  "HernÃ¡ndez": 29158,
  "Hg": 12632,
  "Hi": 38206,
  "Hill": 41643,
  "His": 21980,
  "HispaniCare": 34121,
  "Historia": 49325,
  "Ho": 34079,
  "Hola": 39336,
  "Hospital": 14516,
  "Hoy": 30062,
  "Hu": 38849,
  "Hy": 36870,
  "I": 44,
  "IA": 2932,
  "IACION": 49550,
  "IAL": 11988,
  "IALES": 41668,
  "IAM": 26673,
  "IAN": 47404,
  "IAS": 12610,
  "IATR": 43670,
  "IB": 3666,
  "IBA": 41914,
  "IBE": 32483,
  "IBER": 9760,
  "IBL": 30977,
  "IBLE": 24733,
  "IBLES": 50149,
  "IC": 1200,
  "ICA": 3701,
  "ICAL": 31815,
  "ICAM": 20541,
  "ICAMENTE": 29531,
  "ICAP": 44485,
  "ICAR": 44714,
  "ICAS": 12044,
  "ICC": 33702,
  "ICE": 14751,
  "ICEF": 29440,
  "ICET": 48872,
  "ICH": 36697,
  "ICI": 7212,
  "ICIDAD": 40629,
  "ICINA": 24665,
  "ICIO": 33583,
  "ICIOS": 39455,
  "ICO": 4951,
  "ICOS": 10541,
  "ICS": 29557,
  "ICY": 46992,
  "ICYUC": 47796,
  "ID": 1767,
  "IDA": 5623,
  "IDAD": 5371,
  "IDADES": 15788,
  "IDAS": 20941,
  "IDE": 25032,
  "IDES": 46084,
  "IDIB": 45096,
  "IDO": 7858,
  "IDOS": 13726,
  "IDS": 22686,
  "IE": 19132,
  "IEN": 6155,
  "IENDO": 22664,
  "IENT": 5474,
  "IENTE": 43768,
  "IENTES": 29730,
  "IENTO": 6836,
  "IENTOS": 22545,
  "IER": 8807,
  "IERE": 21712,
  "IES": 41358,
  "IF": 5463,
  "IFA": 36358,
  "IFIC": 23665,
  "IFICA": 21291,
  "IFICACION": 45656,
  "IFICACIÃĵN": 40488,
  "IG": 5015,
  "IGA": 45131,
  "IGO": 27682,
  "IH": 49171,
  "II": 1711,
  "III": 5853,
  "IIIa": 44257,
  "IK": 25769,
  "IL": 2683,
  "ILA": 39897,
  "ILACS": 45346,
  "ILAR": 49247,
  "ILI": 24371,
  "ILIDAD": 25071,
  "ILL": 12837,
  "ILLA": 26371,
  "ILLO": 30624,
  "ILO": 17548,
  "IM": 2889,
  "IMA": 17115,
  "IMC": 14548,
  "IME": 30660,
  "IMER": 44548,
  "IMIENTO": 16979,
  "IMIENTOS": 45706,
  "IMO": 30642,
  "IMOS": 48609,
  "IMP": 46120,
  "IMSS": 47865,
  "IN": 1660,
  "INA": 6725,
  "INACION": 44564,
  "INACIÃĵN": 48812,
  "INAL": 17698,
  "INALES": 39804,
  "INAR": 48197,
  "INAS": 26082,
  "INC": 43556,
  "INCH": 32257,
  "IND": 39689,
  "INE": 9476,
  "INF": 25268,
  "ING": 16742,
  "INI": 35505,
  "INO": 15634,
  "INOS": 43993,
  "INS": 40216,
  "INT": 46518,
  "IO": 3684,
  "ION": 6553,
  "IONES": 14173,
  "IOR": 12415,
  "IOS": 7831,
  "IP": 4772,
  "IPO": 15408,
  "IPOS": 35363,
  "IR": 3236,
  "IRA": 39158,
  "IRE": 32538,
  "IS": 1726,
  "ISA": 13535,
  "ISION": 47630,
  "ISIS": 25575,
  "ISIÃĵN": 37404,
  "ISMO": 21694,
  "ISO": 41671,
  "ISS": 38551,
  "IST": 10212,
  "ISTA": 16919,
  "ISTAS": 31489,
  "ISTE": 29959,
  "ISTEN": 32677,
  "ISTENCIA": 44436,
  "ISTR": 21688,
  "IT": 3697,
  "ITA": 17785,
  "ITAL": 21328,
  "ITAR": 40418,
  "ITAS": 46022,
  "ITER": 43226,
  "ITIS": 28994,
  "ITO": 21329,
  "ITOR": 32961,
  "ITOS": 28877,
  "ITS": 33588,
  "ITU": 27469,
  "ITUD": 41613,
  "IV": 3985,
  "IVA": 22416,
  "IVAL": 41092,
  "IVERS": 29078,
  "IVO": 38454,
  "IX": 7823,
  "IZ": 6019,
  "IZA": 41217,
  "IZACION": 27331,
  "IZACIÃĵN": 29312,
  "IZADO": 41109,
  "Iden": 48179,
  "Ig": 25523,
  "Ima": 40031,
  "Imp": 28792,
  "In": 4319,
  "Incl": 44929,
  "Inf": 32372,
  "Informe": 47082,
  "Ins": 17225,
  "Institu": 22061,
  "Instituto": 25639,
  "Inter": 29498,
  "Interna": 39575,
  "International": 40967,
  "Internet": 14291,
  "Investig": 33786,
  "Is": 23977,
  "Italia": 36896,
  "IÃĵN": 14337,
  "J": 45,
  "JA": 11743,
  "JAJA": 40409,
  "JAR": 34702,
  "JAS": 37849,
  "JC": 26007,
  "JD": 45224,
  "JE": 9528,
  "JER": 29693,
  "JM": 39300,
  "JO": 10080,
  "JOS": 26321,
  "JU": 48344,
  "Ja": 27727,
  "Je": 38034,
  "JimÃ©nez": 46852,
  "Jo": 17557,
  "John": 34027,
  "Johnson": 43862,
  "JosÃ©": 34851,
  "Journal": 32364,
  "Ju": 34150,
  "Juan": 33286,
  "Jun": 48552,
  "K": 46,
  "KA": 37232,
  "KE": 43400,
  "KI": 37671,
  "KIN": 37834,
  "KO": 37156,
  "Kg": 27384,
  "Kline": 42303,
  "L": 47,
  "LA": 4830,
  "LAM": 32774,
  "LAR": 40588,
  "LAS": 22278,
  "LC": 48460,
  "LCR": 45643,
  "LD": 38935,
  "LDL": 16443,
  "LE": 4800,
  "LER": 48778,
  "LES": 17119,
  "LEX": 36588,
  "LI": 37937,
  "LIC": 24549,
  "LICA": 19769,
  "LINE": 27968,
  "LL": 33930,
  "LM": 26392,
  "LO": 6839,
  "LOS": 21927,
  "LP": 18524,
  "LS": 44872,
  "LT": 30671,
  "LU": 45567,
  "LV": 21713,
  "La": 2418,
  "Las": 7460,
  "Le": 13486,
  "Les": 43446,
  "Ley": 28859,
  "LeÃ³n": 43499,
  "Li": 37696,
  "Lib": 32282,
  "Libro": 39719,
  "Lin": 45621,
  "Lle": 39170,
  "Lo": 9767,
  "Los": 5487,
  "Lu": 29252,
  "LÃ³pez": 23881,
  "M": 48,
  "MA": 3874,
  "MAE": 23571,
  "MAN": 38361,
  "MAP": 46134,
  "MAR": 36799,
  "MAS": 32009,
  "MAT": 47422,
  "MB": 27921,
  "MC": 9265,
  "MD": 33653,
  "ME": 12214,
  "MED": 22044,
  "MEN": 35522,
  "MENTE": 14562,
  "MET": 35621,
  "MF": 40150,
  "MG": 46792,
  "MH": 42792,
  "MI": 19585,
  "MIN": 14927,
  "MIR": 36227,
  "MIT": 45406,
  "ML": 35672,
  "MM": 30187,
  "MO": 8359,
  "MON": 35647,
  "MOS": 28103,
  "MP": 10325,
  "MR": 37999,
  "MS": 3707,
  "MT": 43194,
  "Ma": 11709,
  "Madrid": 13466,
  "Mal": 35360,
  "Man": 14641,
  "Manual": 48650,
  "Mar": 10977,
  "MartÃŃn": 21398,
  "MartÃŃnez": 25508,
  "Mas": 30959,
  "Material": 41866,
  "Mc": 46853,
  "Me": 8300,
  "Med": 13304,
  "Medi": 24568,
  "Medicina": 35065,
  "Meier": 39789,
  "Mej": 28348,
  "Mejor": 44053,
  "Men": 34608,
  "Mer": 34669,
  "Mi": 16948,
  "Min": 48723,
  "Mir": 47523,
  "Mis": 49601,
  "Mo": 17563,
  "Mon": 18868,
  "Mor": 20705,
  "Morales": 47533,
  "Moreno": 44944,
  "Mu": 23365,
  "Muchas": 35959,
  "Muchos": 48291,
  "Mujer": 42629,
  "Mur": 35769,
  "Murcia": 45339,
  "Mus": 47935,
  "Muy": 45092,
  "My": 33715,
  "MÃ¡": 42827,
  "MÃ¡laga": 49599,
  "MÃ¡s": 28635,
  "MÃ©": 16115,
  "MÃ©dico": 46944,
  "MÃ©todos": 50054,
  "MÃ©xico": 30259,
  "N": 49,
  "NA": 4167,
  "NAE": 15296,
  "NAS": 46464,
  "NC": 22917,
  "ND": 22898,
  "NE": 17152,
  "NET": 31766,
  "NF": 11566,
  "NG": 27796,
  "NH": 17109,
  "NI": 12109,
  "NIH": 49337,
  "NM": 18833,
  "NN": 43429,
  "NO": 12305,
  "NOS": 20894,
  "NP": 19938,
  "NR": 15454,
  "NS": 21056,
  "NT": 17113,
  "NY": 45070,
  "Na": 15614,
  "National": 43656,
  "Nature": 33887,
  "Nav": 30968,
  "Ne": 14321,
  "Neces": 31851,
  "Net": 40463,
  "Neuro": 40236,
  "New": 39997,
  "Ni": 34542,
  "No": 5228,
  "Nor": 47557,
  "Nos": 21111,
  "Nosotros": 41991,
  "Nuestra": 32562,
  "Nuestro": 23884,
  "Nuestros": 30774,
  "Nueva": 45540,
  "Nunca": 46083,
  "Nutri": 47995,
  "O": 50,
  "OA": 33955,
  "OB": 6493,
  "OBILI": 45222,
  "OC": 3038,
  "OCI": 16076,
  "OD": 4044,
  "ODE": 32910,
  "ODUC": 12578,
  "OE": 13982,
  "OF": 46758,
  "OG": 5265,
  "OGEN": 47143,
  "OGENO": 33220,
  "OGO": 43064,
  "OGR": 21825,
  "OH": 14341,
  "OL": 2312,
  "OLA": 20020,
  "OLES": 20758,
  "OLO": 38553,
  "OLOG": 10094,
  "OLOGIA": 32714,
  "OLOGÃįA": 15950,
  "OLUCIÃĵN": 41019,
  "OLÃĵG": 22484,
  "OLÃĵGICA": 43920,
  "OLÃĵGICO": 47574,
  "OM": 1810,
  "OMA": 16295,
  "OMAS": 36055,
  "OMB": 17356,
  "OMBIA": 43246,
  "OMBRE": 42880,
  "OMC": 27397,
  "OME": 19114,
  "OMED": 47528,
  "OMO": 23476,
  "OMOS": 33170,
  "OMS": 7409,
  "ON": 1042,
  "ONA": 14987,
  "ONAS": 50144,
  "ONE": 31724,
  "ONES": 26360,
  "ONG": 27542,
  "ONO": 36194,
  "ONS": 33667,
  "ONT": 34845,
  "OO": 19870,
  "OP": 4285,
  "OPA": 17189,
  "OPE": 45757,
  "OPL": 45380,
  "OPS": 20871,
  "OR": 1290,
  "ORA": 17451,
  "ORACIÃĵN": 34799,
  "ORB": 32816,
  "ORCION": 31725,
  "ORD": 28732,
  "ORE": 29123,
  "ORES": 16717,
  "ORIA": 48190,
  "ORM": 17263,
  "ORMA": 17841,
  "ORT": 40483,
  "ORTE": 26809,
  "OS": 1036,
  "OSA": 17051,
  "OSI": 10282,
  "OSO": 29515,
  "OSP": 19258,
  "OT": 11842,
  "OVA": 28538,
  "OX": 15042,
  "OY": 19597,
  "Ob": 31838,
  "Ol": 33044,
  "On": 29489,
  "Onc": 44675,
  "Or": 15830,
  "Organ": 30465,
  "OrganizaciÃ³n": 34760,
  "Os": 24028,
  "P": 51,
  "PA": 5275,
  "PAL": 41878,
  "PAN": 46854,
  "PAR": 16320,
  "PAS": 24504,
  "PAT": 49183,
  "PC": 7303,
  "PCC": 48572,
  "PCR": 18732,
  "PD": 12709,
  "PDF": 46580,
  "PE": 7112,
  "PER": 8478,
  "PET": 33468,
  "PF": 19656,
  "PG": 44495,
  "PH": 7220,
  "PI": 11586,
  "PIRA": 41797,
  "PL": 9543,
  "PLE": 28524,
  "PM": 11880,
  "PN": 16107,
  "PO": 8400,
  "PON": 36617,
  "POR": 12877,
  "POS": 27014,
  "PP": 9047,
  "PR": 5515,
  "PRE": 19475,
  "PRES": 22290,
  "PRESA": 47275,
  "PRO": 37776,
  "PS": 3468,
  "PSA": 47011,
  "PSS": 13180,
  "PT": 12163,
  "PV": 11117,
  "Pa": 14617,
  "Paci": 27896,
  "Pacientes": 36283,
  "Pal": 26829,
  "Pan": 39537,
  "Par": 18009,
  "Para": 12580,
  "Parte": 43093,
  "Pas": 37283,
  "Pe": 18180,
  "Pedia": 47607,
  "Per": 18565,
  "Pero": 17230,
  "Pers": 45733,
  "Ph": 31687,
  "Pi": 36018,
  "Plan": 26502,
  "Plus": 21864,
  "Po": 14226,
  "Pod": 40352,
  "Podemos": 39068,
  "PodrÃŃa": 44030,
  "Pol": 40915,
  "Pon": 29613,
  "Por": 6052,
  "Porque": 42894,
  "Pos": 30911,
  "Pr": 26487,
  "Pre": 15617,
  "Premio": 43500,
  "Pres": 16978,
  "Press": 31520,
  "Pri": 32721,
  "Pro": 8016,
  "Profes": 42374,
  "Programa": 29545,
  "Proyecto": 40269,
  "Ps": 20671,
  "Psic": 50243,
  "Pu": 31631,
  "Pub": 34087,
  "PubMed": 37358,
  "Publ": 44688,
  "Pue": 16799,
  "Puede": 25598,
  "Puedo": 48663,
  "PÃ©rez": 28080,
  "Q": 52,
  "QI": 46875,
  "QL": 40397,
  "QM": 24128,
  "QOL": 45873,
  "QT": 50160,
  "QU": 5969,
  "QUE": 10380,
  "QUIER": 26563,
  "QUIS": 47719,
  "QUÃī": 46305,
  "Qu": 3417,
  "Que": 15082,
  "Quer": 28473,
  "Queremos": 37715,
  "Quieres": 24097,
  "Quiero": 49930,
  "Quir": 42828,
  "QuiÃ©n": 18531,
  "QuÃ©": 4211,
  "R": 53,
  "RA": 2747,
  "RAD": 43045,
  "RAF": 20246,
  "RAL": 34776,
  "RAM": 38584,
  "RAN": 39720,
  "RAS": 16408,
  "RB": 48292,
  "RC": 6676,
  "RCP": 41302,
  "RCV": 31570,
  "RD": 35859,
  "RE": 4290,
  "REA": 32922,
  "RED": 30242,
  "REG": 39629,
  "REN": 46036,
  "RES": 12715,
  "RESPON": 48671,
  "RET": 50179,
  "REZ": 45130,
  "RF": 44624,
  "RG": 37277,
  "RH": 37835,
  "RI": 13028,
  "RIC": 34062,
  "RICA": 30104,
  "RID": 23894,
  "RIL": 47314,
  "RIS": 47050,
  "RM": 13399,
  "RN": 43720,
  "RNA": 20479,
  "RNAs": 44238,
  "RO": 7559,
  "ROM": 39031,
  "ROS": 24492,
  "ROX": 27462,
  "RP": 28433,
  "RR": 15258,
  "RS": 7455,
  "RT": 22618,
  "Ra": 24300,
  "Radio": 34418,
  "Ram": 36551,
  "Re": 6312,
  "Rec": 28991,
  "Recom": 47809,
  "Red": 14424,
  "Reg": 41093,
  "Reino": 25043,
  "Res": 13299,
  "Resultados": 23131,
  "Rev": 25931,
  "Revista": 47480,
  "Rey": 39800,
  "Ro": 12232,
  "RodrÃŃguez": 25754,
  "Rom": 34164,
  "Ros": 36852,
  "Ru": 25923,
  "Ruiz": 40950,
  "S": 54,
  "SA": 5030,
  "SAL": 25793,
  "SAM": 34992,
  "SAP": 38035,
  "SAS": 35679,
  "SC": 11917,
  "SCA": 42519,
  "SD": 17573,
  "SE": 5631,
  "SEC": 20022,
  "SED": 34556,
  "SEF": 32362,
  "SEM": 18103,
  "SEMERGEN": 49628,
  "SEMG": 49718,
  "SEN": 21624,
  "SEOM": 42076,
  "SEP": 34351,
  "SEPAR": 46558,
  "SEQ": 46471,
  "SER": 23671,
  "SES": 33308,
  "SF": 20291,
  "SG": 21234,
  "SH": 11076,
  "SI": 10701,
  "SIDA": 17017,
  "SION": 33108,
  "SIÃĵN": 35611,
  "SL": 36932,
  "SM": 10527,
  "SN": 9570,
  "SNC": 34335,
  "SNS": 17797,
  "SO": 6405,
  "SON": 17685,
  "SOS": 37492,
  "SP": 10312,
  "SR": 31622,
  "SS": 6388,
  "SSA": 48152,
  "ST": 9655,
  "STE": 42025,
  "SU": 34177,
  "SUB": 39322,
  "SV": 34805,
  "Sa": 23227,
  "Sab": 18354,
  "Sabemos": 42171,
  "Sabes": 35738,
  "SabÃŃas": 37528,
  "Sal": 17959,
  "Sala": 47232,
  "Salud": 15203,
  "Salut": 36365,
  "San": 11629,
  "Santa": 44422,
  "Santiago": 48721,
  "Sch": 28326,
  "Science": 43987,
  "Se": 5338,
  "Sem": 46723,
  "Ser": 21845,
  "Servicio": 20797,
  "SerÃ¡": 42252,
  "Sevilla": 39543,
  "Sh": 43062,
  "Si": 7930,
  "Siempre": 39001,
  "Sil": 38388,
  "Sin": 11798,
  "SinEmbargo": 18658,
  "Sistema": 44407,
  "Sm": 46356,
  "Smith": 32534,
  "SmithKline": 44171,
  "So": 22393,
  "Sobre": 46050,
  "Sociedad": 27661,
  "Sol": 33960,
  "Solo": 48988,
  "Somos": 39055,
  "Son": 19555,
  "Soy": 38478,
  "Spain": 45341,
  "Star": 41644,
  "Station": 48472,
  "Su": 13467,
  "Sue": 41889,
  "Super": 43759,
  "Supl": 41257,
  "Suppl": 31461,
  "Sur": 45734,
  "Sus": 49674,
  "SÃ¡nchez": 26611,
  "SÃ³lo": 48604,
  "SÃŃ": 35273,
  "SÃŃn": 36428,
  "SÃŃndrome": 40869,
  "T": 55,
  "TA": 1802,
  "TABLE": 32892,
  "TAC": 16128,
  "TACION": 20026,
  "TACIÃĵN": 33184,
  "TADO": 38502,
  "TAL": 20434,
  "TAM": 9025,
  "TAMENTE": 41908,
  "TAMIENTO": 13445,
  "TAMOS": 44072,
  "TAN": 16393,
  "TANTE": 37919,
  "TAR": 17587,
  "TAS": 16182,
  "TB": 24974,
  "TC": 6143,
  "TD": 48856,
  "TDAH": 30720,
  "TE": 2850,
  "TEA": 32559,
  "TEC": 20412,
  "TED": 37966,
  "TEG": 37780,
  "TEGR": 44995,
  "TEL": 24996,
  "TEN": 8721,
  "TENS": 45187,
  "TEP": 43701,
  "TER": 4687,
  "TERAP": 31973,
  "TERAPIA": 36080,
  "TERIOR": 22448,
  "TERO": 47987,
  "TES": 8603,
  "TESIS": 43828,
  "TF": 32615,
  "TG": 39746,
  "TH": 10586,
  "TI": 2182,
  "TIA": 39089,
  "TIC": 7021,
  "TICA": 23078,
  "TICAMENTE": 43309,
  "TICAS": 19091,
  "TICO": 23165,
  "TICOS": 21678,
  "TIEN": 16557,
  "TIG": 26968,
  "TIL": 10339,
  "TIM": 24906,
  "TIN": 19136,
  "TION": 21050,
  "TIR": 20296,
  "TIS": 29598,
  "TITU": 21167,
  "TIV": 4879,
  "TIVA": 18668,
  "TIVAMENTE": 49322,
  "TIVAS": 33516,
  "TIVO": 10308,
  "TIVOS": 16867,
  "TJ": 43505,
  "TL": 27591,
  "TM": 14599,
  "TML": 50230,
  "TNF": 24814,
  "TO": 2915,
  "TOC": 37893,
  "TODO": 20324,
  "TODOS": 19499,
  "TON": 30854,
  "TOP": 39482,
  "TOR": 7050,
  "TORES": 21949,
  "TORIA": 26136,
  "TOS": 8081,
  "TOX": 38513,
  "TP": 13519,
  "TR": 2187,
  "TRA": 9353,
  "TRACT": 19694,
  "TRAS": 18886,
  "TRI": 28228,
  "TRIB": 39260,
  "TRO": 10713,
  "TROS": 17229,
  "TRUC": 20505,
  "TS": 7826,
  "TT": 28168,
  "TU": 7330,
  "TURA": 19111,
  "TUS": 32986,
  "TV": 26731,
  "Ta": 29915,
  "Tabla": 11696,
  "Tal": 35376,
  "TambiÃ©n": 27654,
  "Tc": 37815,
  "Te": 12756,
  "Tecn": 47534,
  "Ten": 24246,
  "Tenemos": 26662,
  "Tener": 47345,
  "Tengo": 41923,
  "Ter": 31893,
  "Tesis": 44801,
  "Th": 31884,
  "The": 12381,
  "Ti": 27539,
  "Tiene": 30621,
  "Tienes": 37571,
  "To": 11272,
  "Toda": 42699,
  "Todo": 27361,
  "Todos": 26868,
  "Tom": 42555,
  "Torres": 40702,
  "Tra": 15912,
  "Trans": 41776,
  "Tras": 30569,
  "Tratamiento": 37130,
  "Tri": 42503,
  "Tu": 15846,
  "Tube": 23381,
  "Tur": 49602,
  "U": 56,
  "UA": 13894,
  "UAB": 49327,
  "UAL": 21527,
  "UAM": 36922,
  "UB": 9380,
  "UC": 4419,
  "UCA": 25330,
  "UCH": 37629,
  "UCI": 15701,
  "UCION": 23812,
  "UCIR": 39642,
  "UCIÃĵN": 30113,
  "UCLE": 36451,
  "UCM": 45245,
  "UD": 6208,
  "UDA": 32903,
  "UDAD": 44524,
  "UE": 2019,
  "UEL": 23389,
  "UER": 14430,
  "UERDO": 46494,
  "UES": 7990,
  "UESTA": 32583,
  "UG": 14039,
  "UI": 27721,
  "UIR": 36293,
  "UL": 2993,
  "ULA": 13973,
  "ULACION": 36093,
  "ULACIÃĵN": 50020,
  "ULAR": 10716,
  "ULARES": 45307,
  "ULAS": 19277,
  "ULO": 11905,
  "ULOS": 22071,
  "ULT": 12867,
  "UM": 5014,
  "UMA": 36844,
  "UMEN": 12098,
  "UMENTO": 49666,
  "UN": 3716,
  "UNA": 28579,
  "UNCA": 38048,
  "UND": 32179,
  "UNE": 39007,
  "UNES": 23674,
  "UP": 14367,
  "UPO": 21596,
  "UPV": 43518,
  "UR": 3720,
  "URA": 13189,
  "URAL": 33276,
  "URAS": 30585,
  "URE": 46171,
  "URG": 38668,
  "URL": 16203,
  "URO": 22595,
  "UROPA": 22336,
  "US": 3751,
  "USA": 39314,
  "USION": 46130,
  "USIÃĵN": 45292,
  "USTR": 48740,
  "UT": 10929,
  "UTICA": 39241,
  "UTICO": 48340,
  "UU": 6770,
  "UV": 24629,
  "UY": 19673,
  "UZ": 40946,
  "Un": 7632,
  "Una": 13531,
  "Unidad": 32687,
  "Univers": 16716,
  "Universidad": 20072,
  "Uno": 38761,
  "Ur": 50199,
  "Us": 36916,
  "V": 57,
  "VA": 6601,
  "VAL": 40951,
  "VAN": 48452,
  "VAR": 40769,
  "VAS": 20833,
  "VASCULAR": 49057,
  "VC": 18600,
  "VD": 16122,
  "VE": 13316,
  "VEN": 11026,
  "VENCION": 16057,
  "VER": 22449,
  "VES": 13135,
  "VH": 29348,
  "VHC": 33316,
  "VHIR": 46889,
  "VI": 4556,
  "VIA": 45237,
  "VID": 45712,
  "VIH": 19185,
  "VII": 33091,
  "VIII": 38063,
  "VIR": 34729,
  "VM": 40855,
  "VO": 16554,
  "VOS": 39110,
  "VP": 19975,
  "VPH": 27944,
  "VR": 38903,
  "VS": 19287,
  "Va": 49107,
  "Val": 14207,
  "Valencia": 33775,
  "Vamos": 44275,
  "Vene": 48247,
  "Ver": 18207,
  "Vi": 40811,
  "Vic": 48353,
  "Vie": 36066,
  "Vir": 42742,
  "Vol": 42604,
  "W": 58,
  "WA": 47248,
  "WHO": 45671,
  "WN": 45938,
  "WS": 46135,
  "We": 43348,
  "Whitney": 34424,
  "Wil": 33270,
  "X": 59,
  "XA": 25497,
  "XI": 46091,
  "XICO": 44893,
  "XX": 27774,
  "Y": 60,
  "YA": 23919,
  "YC": 15183,
  "YL": 29666,
  "YM": 36585,
  "YO": 33640,
  "YS": 30570,
  "YT": 27847,
  "Ya": 24531,
  "Yo": 15734,
  "Z": 61,
  "ZA": 15551,
  "ZAR": 49006,
  "ZO": 20247,
  "[": 62,
  "\\": 63,
  "\\,": 12336,
  "\\\\": 38330,
  "]": 64,
  "])": 22855,
  "]),": 40895,
  "]).": 32775,
  "],": 9719,
  "]-": 38272,
  "].": 3885,
  "]:": 32658,
  "];": 23499,
  "^": 65,
  "_": 66,
  "__": 2751,
  "___": 31593,
  "____": 5008,
  "________": 9033,
  "________________": 16744,
  "________________________________": 35778,
  "`": 67,
  "a": 68,
  "aa": 12772,
  "aaaa": 30857,
  "ab": 365,
  "aba": 1115,
  "abal": 17506,
  "abamos": 44959,
  "aban": 1754,
  "abaquismo": 6667,
  "abar": 21455,
  "abas": 23118,
  "abaste": 33443,
  "abdominal": 22719,
  "abdominales": 45848,
  "abe": 1164,
  "abel": 7933,
  "abell": 17046,
  "abellÃ³n": 22276,
  "abemos": 16279,
  "abetes": 1698,
  "abeth": 23427,
  "abeu": 41214,
  "abilidad": 15224,
  "ability": 28207,
  "abina": 36408,
  "abla": 5966,
  "able": 818,
  "ablemente": 6948,
  "ables": 1174,
  "ablo": 6267,
  "abo": 10863,
  "abobo": 35643,
  "abor": 1189,
  "abora": 4579,
  "aboral": 34801,
  "abos": 48692,
  "abra": 20262,
  "abras": 8326,
  "abre": 49456,
  "abria": 47906,
  "abril": 43603,
  "abs": 27508,
  "absor": 11759,
  "absorciÃ³n": 28163,
  "abu": 43520,
  "abuena": 14986,
  "abÃ¡n": 39233,
  "abÃ©tico": 27417,
  "abÃ©ticos": 21963,
  "ac": 360,
  "aca": 2036,
  "acab": 40714,
  "acal": 15346,
  "acales": 32460,
  "acan": 35976,
  "acar": 18614,
  "acas": 7229,
  "acate": 20984,
  "acces": 33065,
  "acceso": 34029,
  "acciones": 15036,
  "acciÃ³n": 8049,
  "ace": 2149,
  "acea": 15990,
  "aceae": 20638,
  "acen": 12177,
  "acep": 14971,
  "acer": 4141,
  "aces": 2827,
  "acesso": 49681,
  "aceta": 17748,
  "acetamol": 43415,
  "acetas": 44194,
  "acete": 10568,
  "acetil": 32746,
  "ach": 2469,
  "acha": 17033,
  "achas": 33486,
  "ache": 16406,
  "acher": 38122,
  "aches": 43423,
  "achi": 35130,
  "aching": 17027,
  "acho": 8672,
  "achos": 18951,
  "achus": 19431,
  "aci": 297,
  "acia": 1041,
  "aciadamente": 22625,
  "acial": 20924,
  "acias": 1458,
  "acic": 37316,
  "acida": 41260,
  "acidad": 10903,
  "acidez": 21273,
  "acido": 43981,
  "acidosis": 33692,
  "acil": 16667,
  "acilina": 39100,
  "acilo": 32722,
  "acimiento": 16453,
  "acimientos": 29227,
  "acin": 32524,
  "acina": 17369,
  "acinto": 47622,
  "acio": 5162,
  "acion": 893,
  "aciona": 7812,
  "acional": 847,
  "acionales": 2304,
  "acionalizaciÃ³n": 21904,
  "aciones": 483,
  "acios": 15189,
  "aciÃ¯": 19489,
  "aciÃ²n": 42346,
  "aciÃ³": 8946,
  "aciÃ³n": 321,
  "aciÃĥ": 7866,
  "ack": 4722,
  "acks": 42434,
  "aclar": 47693,
  "acno": 26827,
  "aco": 2156,
  "acoa": 24992,
  "acoc": 45677,
  "acol": 22206,
  "acom": 49135,
  "acon": 31495,
  "acor": 39539,
  "acos": 8843,
  "acr": 45356,
  "acri": 40710,
  "acro": 28474,
  "acruz": 19195,
  "act": 15763,
  "acta": 19996,
  "acter": 1128,
  "acteri": 2317,
  "acterium": 48659,
  "actil": 43475,
  "actilia": 48503,
  "actin": 50162,
  "activ": 9737,
  "activa": 13651,
  "activaciÃ³n": 44320,
  "activas": 18402,
  "active": 37319,
  "actividad": 8012,
  "actividades": 35564,
  "activo": 13081,
  "activos": 14521,
  "acto": 2320,
  "actona": 38558,
  "actos": 43722,
  "actual": 50246,
  "actualidad": 37516,
  "actualmente": 39156,
  "acu": 10209,
  "acum": 42987,
  "acunas": 48554,
  "acusia": 19947,
  "acy": 15007,
  "acÃ¡": 46178,
  "acÃ¡n": 27053,
  "acÃ¡r": 16034,
  "acÃ¡rido": 30926,
  "acÃ¡ridos": 22572,
  "acÃ³n": 27050,
  "acÃŃa": 43208,
  "acÃŃn": 44727,
  "ad": 279,
  "ada": 385,
  "adajo": 21590,
  "adajoz": 21653,
  "adal": 10709,
  "adamente": 1995,
  "adap": 20127,
  "adaptaciÃ³n": 36438,
  "adar": 11823,
  "adas": 534,
  "adder": 49225,
  "ade": 5376,
  "adecu": 7226,
  "ademÃ¡s": 30770,
  "aden": 20438,
  "ader": 24777,
  "adi": 8592,
  "adia": 27395,
  "adian": 35227,
  "adie": 4364,
  "adiense": 23698,
  "adienses": 39045,
  "adilla": 15234,
  "adillas": 21703,
  "adillo": 33720,
  "adimir": 45037,
  "adina": 28933,
  "ading": 29081,
  "adio": 20054,
  "adiol": 24133,
  "adir": 28878,
  "adis": 39852,
  "adismo": 38925,
  "administr": 23842,
  "administra": 33812,
  "ado": 337,
  "adolesc": 35590,
  "ador": 801,
  "adora": 2133,
  "adoras": 3560,
  "adores": 797,
  "ados": 407,
  "adr": 1513,
  "adra": 23035,
  "adrado": 20033,
  "adre": 30261,
  "adren": 29420,
  "adrenalina": 24576,
  "adrenÃ©rgicos": 44569,
  "adri": 45525,
  "adrid": 1733,
  "adro": 12119,
  "adron": 44898,
  "adrones": 28999,
  "adros": 36213,
  "adrÃ³n": 19786,
  "ads": 25461,
  "adul": 44455,
  "adura": 8524,
  "aduras": 12223,
  "adurÃŃa": 36526,
  "ady": 23416,
  "adÃ¡": 7209,
  "adÃ¡ver": 15028,
  "adÃŃa": 44554,
  "ae": 32405,
  "af": 16904,
  "afec": 23916,
  "ag": 2507,
  "aga": 26995,
  "age": 29246,
  "ager": 11567,
  "aging": 48021,
  "agon": 46031,
  "agr": 18050,
  "agre": 15355,
  "agro": 20757,
  "agu": 22489,
  "agua": 33081,
  "agÃ¼": 30213,
  "agÃ¼ey": 43861,
  "ah": 37633,
  "ahora": 24318,
  "ais": 23687,
  "aj": 469,
  "aja": 3703,
  "ajada": 18812,
  "ajadahonda": 36874,
  "ajaj": 11416,
  "ajaja": 17690,
  "ajajaja": 47337,
  "ajal": 12858,
  "ajar": 41618,
  "ajara": 16282,
  "ajardo": 26394,
  "ajas": 4862,
  "aje": 1177,
  "ajen": 30467,
  "ajes": 3082,
  "ajo": 3744,
  "ajor": 21337,
  "ajos": 12832,
  "ajus": 18677,
  "ak": 18384,
  "al": 278,
  "ala": 1551,
  "alac": 44825,
  "alan": 31328,
  "alanina": 34657,
  "alao": 44473,
  "alapril": 38112,
  "alar": 48473,
  "alas": 29860,
  "alato": 45587,
  "alb": 21368,
  "albuminuria": 30873,
  "albÃºmina": 46747,
  "alco": 29586,
  "alcohol": 41931,
  "alcoxi": 41867,
  "ald": 34518,
  "alda": 34357,
  "aldad": 48492,
  "alde": 41240,
  "aldo": 32193,
  "ale": 4288,
  "alelo": 16048,
  "aler": 49357,
  "ales": 390,
  "alez": 23851,
  "alfa": 29308,
  "alg": 38222,
  "algia": 6139,
  "algias": 34109,
  "algo": 23618,
  "algunas": 45771,
  "algunos": 35512,
  "ali": 18086,
  "alia": 16155,
  "aliciÃ³n": 29279,
  "alidad": 1125,
  "alidomida": 47816,
  "align": 44874,
  "alim": 10167,
  "alimentaciÃ³n": 20824,
  "alimentos": 44954,
  "alimumab": 33248,
  "aling": 33573,
  "alis": 18955,
  "aliz": 481,
  "aliza": 4999,
  "alizaba": 46639,
  "alizacion": 38250,
  "alizaciones": 8348,
  "alizaciÃ³n": 1574,
  "alizada": 2661,
  "alizadas": 6219,
  "alizado": 2882,
  "alizador": 26240,
  "alizadores": 43393,
  "alizados": 3791,
  "alizamos": 14933,
  "alizan": 10194,
  "alizando": 14410,
  "alizante": 38386,
  "alizantes": 39835,
  "alizar": 2759,
  "alizaron": 21538,
  "alizarse": 15962,
  "alizarÃ¡": 27517,
  "alizas": 45810,
  "alization": 26786,
  "alized": 22791,
  "alizumab": 44778,
  "alizÃ¡ndose": 41592,
  "alizÃ³": 10275,
  "all": 3300,
  "alla": 16824,
  "allas": 32224,
  "allen": 23189,
  "allero": 14189,
  "alleros": 29018,
  "alles": 32394,
  "allis": 36203,
  "allitas": 47321,
  "allo": 31567,
  "allos": 36284,
  "ally": 32804,
  "almente": 754,
  "alo": 4429,
  "aloa": 37557,
  "alobos": 39008,
  "alos": 20584,
  "alquil": 18546,
  "alquilo": 8755,
  "alrededor": 34815,
  "als": 11554,
  "alt": 45782,
  "alta": 17756,
  "alter": 33383,
  "alth": 2564,
  "alto": 26724,
  "alu": 1050,
  "alud": 9423,
  "aludismo": 23338,
  "alupe": 24450,
  "alut": 28373,
  "alve": 35047,
  "alveolar": 40273,
  "aly": 42379,
  "am": 327,
  "ama": 1359,
  "amaciÃ³n": 22809,
  "aman": 5609,
  "amanca": 9131,
  "amanga": 36956,
  "amante": 29819,
  "amar": 18221,
  "amarca": 17006,
  "amas": 13295,
  "amb": 6484,
  "amba": 32952,
  "ambi": 520,
  "ambiente": 35855,
  "ambique": 39230,
  "ambiÃ©n": 630,
  "ambl": 39232,
  "amblaje": 40971,
  "amble": 7337,
  "amblea": 8031,
  "ambleas": 38039,
  "ambos": 40064,
  "ambra": 42703,
  "ambray": 46618,
  "ambre": 8825,
  "ambres": 17425,
  "ambÃº": 47186,
  "ame": 5777,
  "amed": 47920,
  "amel": 36965,
  "amelo": 45590,
  "amelos": 41415,
  "amen": 11957,
  "ament": 38779,
  "amente": 562,
  "amento": 5440,
  "amentos": 4925,
  "amer": 3423,
  "america": 49204,
  "americana": 6451,
  "americanas": 21994,
  "americano": 9215,
  "americanos": 10038,
  "ames": 10591,
  "ametasona": 24442,
  "ametox": 44550,
  "ametoxazol": 46525,
  "ami": 854,
  "amia": 22091,
  "amicina": 21587,
  "amida": 10407,
  "amidas": 31541,
  "amiento": 961,
  "amientos": 3664,
  "amig": 30224,
  "amigdal": 38886,
  "amil": 911,
  "amilla": 28463,
  "amillo": 40043,
  "amilo": 16909,
  "amiloide": 38393,
  "amilton": 33255,
  "amin": 7493,
  "amina": 7726,
  "aminas": 14576,
  "amine": 43473,
  "aming": 31290,
  "amino": 11992,
  "amma": 9547,
  "amn": 34597,
  "amnesis": 17939,
  "amo": 5720,
  "amon": 29926,
  "amor": 10864,
  "amora": 16266,
  "amos": 757,
  "amoto": 46381,
  "amp": 5932,
  "ampicina": 23419,
  "ampiÃ³n": 13015,
  "ampl": 12469,
  "amplona": 15181,
  "ampo": 3770,
  "ampoco": 4202,
  "ampsia": 43195,
  "ams": 23594,
  "amÃ¡": 13504,
  "amÃ©rica": 7433,
  "amÃŃn": 35927,
  "an": 277,
  "ana": 657,
  "anaderÃŃa": 29136,
  "anahor": 19470,
  "anal": 8849,
  "analysis": 22464,
  "anas": 2684,
  "anato": 39708,
  "anca": 27614,
  "ance": 3939,
  "ancer": 29144,
  "ances": 38693,
  "anci": 2690,
  "ancia": 1451,
  "ancias": 9153,
  "anco": 31861,
  "ancy": 16289,
  "and": 3066,
  "anda": 6159,
  "andante": 14413,
  "ander": 14588,
  "andes": 14992,
  "andez": 21394,
  "ando": 444,
  "andos": 20741,
  "andr": 46280,
  "andra": 16913,
  "andre": 41956,
  "andro": 25564,
  "andÃ©s": 31879,
  "ane": 7095,
  "anes": 12092,
  "anfenicol": 49032,
  "ang": 4920,
  "ange": 36788,
  "angel": 25571,
  "angi": 16708,
  "angio": 14144,
  "angiotensina": 42998,
  "angitis": 35524,
  "ango": 25884,
  "angu": 38924,
  "ani": 17083,
  "ania": 33203,
  "anidad": 37133,
  "anim": 8155,
  "animaciÃ³n": 11457,
  "animidad": 25928,
  "anina": 18910,
  "anio": 39937,
  "anismo": 16816,
  "anismos": 30530,
  "ano": 783,
  "anos": 1083,
  "anosis": 28146,
  "anova": 21723,
  "ans": 5653,
  "ansas": 36942,
  "ant": 5899,
  "anta": 14786,
  "ante": 425,
  "antel": 50034,
  "anterÃŃa": 35771,
  "antes": 806,
  "anteÃ³n": 47033,
  "anti": 10371,
  "anticuerpos": 25337,
  "antil": 2599,
  "antita": 29422,
  "antitative": 40457,
  "anto": 4962,
  "antoÃŃna": 48939,
  "ants": 20131,
  "antÃŃ": 42941,
  "anual": 35486,
  "anum": 33998,
  "anz": 25493,
  "anza": 1735,
  "anzas": 8831,
  "anÃ¡lisis": 8976,
  "anÃ§a": 35555,
  "anÃ§as": 46246,
  "anÃŃa": 7232,
  "ap": 4430,
  "apar": 41902,
  "apari": 27474,
  "apariciÃ³n": 30627,
  "apo": 37418,
  "app": 28464,
  "appa": 24657,
  "apren": 21501,
  "aprendizaje": 25838,
  "apro": 12668,
  "apropi": 19142,
  "aproximadamente": 28362,
  "aquel": 34949,
  "aquÃŃ": 47558,
  "ar": 271,
  "ara": 600,
  "arago": 8268,
  "aragoza": 8479,
  "aragua": 19270,
  "aran": 1862,
  "arance": 43237,
  "aras": 3823,
  "arato": 32160,
  "arazo": 16741,
  "arc": 1276,
  "arca": 6876,
  "arcal": 26444,
  "arcas": 33989,
  "arcel": 2774,
  "arcelona": 2846,
  "arch": 19096,
  "arco": 31336,
  "arcoma": 12176,
  "arcomas": 42052,
  "arcos": 18862,
  "arction": 32556,
  "arcÃŃa": 2681,
  "ard": 2704,
  "ardi": 38020,
  "ardo": 5634,
  "ardon": 16911,
  "are": 3914,
  "aredo": 46717,
  "aremos": 17048,
  "arena": 26405,
  "ares": 945,
  "arez": 38837,
  "argo": 954,
  "ari": 369,
  "aria": 640,
  "ariado": 9792,
  "arial": 9057,
  "ariales": 17001,
  "ariamente": 4312,
  "arian": 29428,
  "ariana": 17116,
  "arias": 1048,
  "ariate": 47985,
  "aridad": 10350,
  "arie": 33421,
  "ariedad": 21651,
  "aril": 37029,
  "arilo": 19155,
  "aring": 44749,
  "ario": 580,
  "arios": 691,
  "ariotas": 34706,
  "arit": 30757,
  "arita": 16496,
  "arity": 48734,
  "arium": 42808,
  "arius": 41221,
  "ariz": 3714,
  "ariza": 39333,
  "arizaciÃ³n": 6849,
  "arizada": 9884,
  "arizadas": 25566,
  "arizado": 16369,
  "arizados": 17163,
  "arizar": 23911,
  "arizarse": 49822,
  "ariÃ±o": 46400,
  "ark": 44222,
  "arla": 4887,
  "arlas": 28891,
  "arle": 15002,
  "arlo": 3309,
  "arlos": 7667,
  "arly": 15303,
  "arm": 40012,
  "arma": 20341,
  "armac": 18088,
  "armacia": 44750,
  "arme": 9950,
  "arning": 22052,
  "arnos": 6732,
  "aro": 2192,
  "aron": 676,
  "arona": 19170,
  "aros": 39317,
  "arqu": 25956,
  "arquia": 36238,
  "arquÃŃa": 18051,
  "arra": 2714,
  "arrag": 19012,
  "arragona": 21790,
  "arre": 12210,
  "arrea": 27609,
  "arri": 46330,
  "arritmias": 48733,
  "arro": 7113,
  "arrol": 734,
  "arrollo": 5149,
  "ars": 36501,
  "arse": 843,
  "art": 5438,
  "artan": 37039,
  "arte": 5160,
  "arterial": 38137,
  "arthritis": 49631,
  "artic": 22935,
  "article": 44134,
  "articular": 26109,
  "articulares": 33935,
  "arto": 3369,
  "artos": 16129,
  "artria": 40964,
  "artritis": 17471,
  "artro": 49427,
  "artrosis": 27055,
  "artÃ¡n": 26278,
  "artÃ©n": 38575,
  "ary": 6191,
  "arÃ¡": 1129,
  "arÃ¡n": 2980,
  "arÃŃa": 4521,
  "as": 272,
  "asa": 2228,
  "asaki": 40518,
  "asal": 37515,
  "asas": 4488,
  "asco": 34946,
  "ase": 1283,
  "asemia": 37392,
  "asen": 26865,
  "ases": 11384,
  "ash": 8433,
  "asi": 19963,
  "asia": 12853,
  "asis": 10376,
  "asistencia": 35770,
  "asiÃ³n": 21745,
  "asma": 41128,
  "aso": 16493,
  "asoci": 35502,
  "ason": 20377,
  "asp": 27952,
  "aspiraciÃ³n": 39178,
  "aspx": 47648,
  "ass": 24441,
  "associated": 36525,
  "ast": 14265,
  "asta": 807,
  "astas": 37063,
  "aste": 11329,
  "aster": 47889,
  "asÃŃ": 26224,
  "at": 2809,
  "ata": 19906,
  "atch": 22185,
  "ate": 3625,
  "aten": 49525,
  "atenciÃ³n": 37738,
  "ater": 47423,
  "ath": 15232,
  "ati": 46678,
  "ating": 26212,
  "ation": 8644,
  "ato": 12815,
  "atro": 1915,
  "atÃŃa": 11706,
  "au": 3462,
  "audi": 35931,
  "aum": 37374,
  "aumento": 30807,
  "aunque": 10856,
  "aur": 21916,
  "auricular": 28375,
  "aus": 32373,
  "ausencia": 45050,
  "auto": 30871,
  "autor": 35516,
  "av": 1032,
  "ava": 17633,
  "aval": 27611,
  "avala": 48911,
  "avan": 49737,
  "avana": 43889,
  "ave": 6852,
  "avedra": 40019,
  "avent": 34451,
  "aventura": 49341,
  "avera": 29500,
  "aves": 49788,
  "avir": 17220,
  "avirenz": 41783,
  "avor": 1758,
  "avy": 49517,
  "axial": 47125,
  "ay": 905,
  "aya": 5475,
  "ayas": 20688,
  "ayo": 9323,
  "ayor": 44332,
  "ayos": 19676,
  "ayuda": 27550,
  "az": 8758,
  "azol": 15857,
  "aÃ±a": 33177,
  "aÃ±o": 16131,
  "aÃ±os": 14464,
  "aÃ³r": 38472,
  "aÃºn": 37132,
  "b": 69,
  "ba": 695,
  "bable": 25826,
  "bablemente": 16823,
  "bac": 14412,
  "bacco": 24327,
  "bach": 16063,
  "baci": 21532,
  "bacillus": 29802,
  "baciones": 16208,
  "baciÃ³n": 4347,
  "back": 17383,
  "bactam": 36741,
  "bacter": 12949,
  "bacteri": 8001,
  "bacteria": 43855,
  "bacterias": 16419,
  "bacterium": 18084,
  "bada": 29393,
  "bado": 2969,
  "bados": 17450,
  "bago": 40428,
  "baj": 666,
  "baja": 40380,
  "bajo": 4219,
  "bajos": 43319,
  "bal": 4587,
  "balance": 45520,
  "ball": 24789,
  "bamos": 8148,
  "ban": 1899,
  "bana": 7432,
  "banas": 15474,
  "banco": 35467,
  "bancos": 49916,
  "bando": 36557,
  "bano": 8273,
  "banos": 16008,
  "bao": 13856,
  "bar": 2214,
  "bara": 22920,
  "barbital": 35114,
  "bares": 24867,
  "baron": 49312,
  "bas": 1672,
  "basal": 48913,
  "base": 29324,
  "based": 18928,
  "bata": 46538,
  "bate": 49172,
  "bato": 31254,
  "baum": 30158,
  "bavirina": 28132,
  "bay": 41325,
  "bb": 22066,
  "bbing": 46675,
  "be": 1684,
  "beb": 46329,
  "bec": 22797,
  "beck": 38559,
  "bed": 27775,
  "being": 43817,
  "bel": 6739,
  "bell": 23379,
  "bella": 25990,
  "belo": 47332,
  "ben": 4828,
  "bendas": 50188,
  "bene": 20440,
  "beneficio": 25030,
  "benzo": 39227,
  "ber": 1007,
  "bera": 31711,
  "bercul": 4865,
  "berculosis": 5504,
  "berg": 7592,
  "berger": 35177,
  "bern": 5573,
  "berna": 43477,
  "bernam": 14192,
  "beros": 20122,
  "berry": 47007,
  "bers": 37233,
  "bert": 7134,
  "berto": 5339,
  "bertura": 38429,
  "bes": 9703,
  "besto": 39111,
  "bet": 45825,
  "beta": 26973,
  "bete": 38539,
  "bi": 351,
  "bia": 2339,
  "bial": 14315,
  "biales": 31401,
  "bias": 12331,
  "bible": 30851,
  "bibles": 41089,
  "bic": 36313,
  "bicina": 29861,
  "bico": 32999,
  "bida": 9172,
  "bidas": 21589,
  "bidea": 48029,
  "bidity": 48030,
  "bido": 7245,
  "bidos": 14827,
  "bie": 41599,
  "bien": 29255,
  "biendo": 7801,
  "bier": 1231,
  "biera": 37125,
  "bieran": 12822,
  "bieron": 11845,
  "bierta": 17657,
  "biertas": 26951,
  "bierto": 6382,
  "biertos": 16542,
  "bies": 42641,
  "biga": 27756,
  "bil": 599,
  "bila": 44587,
  "bildo": 35773,
  "bile": 30135,
  "bili": 10646,
  "bilical": 13992,
  "bilidad": 820,
  "bilidade": 44224,
  "bilidades": 2076,
  "bilis": 40903,
  "bilit": 3021,
  "bilita": 11934,
  "bilitar": 17388,
  "bilitation": 37219,
  "bilite": 49359,
  "bilities": 39604,
  "bility": 8968,
  "bilizaciÃ³n": 28004,
  "bilizar": 20771,
  "billa": 29457,
  "billo": 38906,
  "bimos": 16074,
  "bin": 1987,
  "bina": 7320,
  "binas": 44143,
  "bing": 43619,
  "bio": 4091,
  "biologÃŃa": 21427,
  "bios": 6237,
  "biosis": 39337,
  "bir": 1704,
  "bis": 12757,
  "bismo": 22761,
  "bit": 20533,
  "bita": 14760,
  "bital": 19371,
  "bitas": 40413,
  "bitis": 27300,
  "bito": 23257,
  "bitol": 49849,
  "bitos": 24644,
  "bium": 40338,
  "biÃ³": 1972,
  "biÃ³tica": 44152,
  "biÃ³tico": 29928,
  "biÃ³ticos": 11716,
  "bl": 480,
  "bla": 11995,
  "blaciÃ³n": 8351,
  "blan": 17298,
  "blanco": 42543,
  "blas": 8055,
  "blasto": 44026,
  "blastoma": 16147,
  "blastomas": 48951,
  "blastos": 16645,
  "ble": 512,
  "blece": 39977,
  "blecer": 14236,
  "bledo": 33791,
  "blema": 32791,
  "blemas": 13292,
  "bles": 1135,
  "bli": 28914,
  "blia": 19063,
  "bligo": 27662,
  "blind": 38814,
  "blio": 3762,
  "blo": 3805,
  "blog": 37573,
  "blogs": 27951,
  "blogspot": 32053,
  "bloque": 14215,
  "bloqueantes": 20726,
  "bloqueo": 47788,
  "blos": 10263,
  "bly": 48482,
  "blÃ¡stica": 23782,
  "bn": 48626,
  "bo": 1486,
  "boa": 21622,
  "board": 36325,
  "bol": 3218,
  "bola": 12084,
  "bole": 45492,
  "boles": 11173,
  "bon": 11047,
  "bonucle": 39295,
  "book": 22103,
  "bor": 6816,
  "bora": 25814,
  "borde": 35690,
  "born": 31083,
  "borne": 48259,
  "bos": 6996,
  "bosa": 39613,
  "bot": 34520,
  "bott": 36883,
  "bourne": 42965,
  "box": 18513,
  "boy": 38659,
  "br": 1267,
  "bra": 2782,
  "brado": 23447,
  "brados": 18368,
  "bral": 6189,
  "brales": 14162,
  "bramiento": 36704,
  "bran": 10533,
  "brand": 44771,
  "brar": 24143,
  "bras": 8095,
  "brazo": 17968,
  "brazos": 49080,
  "bre": 454,
  "break": 45168,
  "bregat": 35513,
  "bren": 45939,
  "bres": 1499,
  "bri": 26700,
  "brica": 14897,
  "bricas": 29356,
  "brid": 14322,
  "bridge": 19737,
  "bro": 5679,
  "bron": 17827,
  "broncos": 44720,
  "bronquial": 40958,
  "bros": 10257,
  "bs": 12680,
  "bsi": 29225,
  "bsiella": 29894,
  "bu": 4071,
  "buc": 50133,
  "buen": 18226,
  "buena": 34405,
  "bueno": 26949,
  "bul": 14912,
  "bula": 13490,
  "bular": 7545,
  "bulares": 23981,
  "bulas": 39280,
  "bulo": 19622,
  "bulos": 26122,
  "bum": 10518,
  "bun": 7199,
  "bunal": 9196,
  "bunales": 20272,
  "buprofeno": 17606,
  "bur": 8041,
  "burg": 23333,
  "burgh": 35293,
  "burgo": 23796,
  "burn": 41772,
  "bury": 38203,
  "bus": 5781,
  "buses": 35604,
  "but": 14078,
  "buta": 35491,
  "butamina": 39727,
  "butamol": 41502,
  "by": 11339,
  "bÃ¡r": 27366,
  "bÃ¡rica": 35086,
  "bÃ©": 20297,
  "bÃ©ola": 25696,
  "bÃ³": 22145,
  "bÃ³n": 32297,
  "bÃºs": 25942,
  "bÃŃ": 20167,
  "bÃŃa": 24690,
  "bÃŃan": 39839,
  "c": 70,
  "ca": 479,
  "cab": 32855,
  "caba": 41404,
  "caciÃ³n": 32189,
  "cad": 22944,
  "cada": 8688,
  "cadas": 22971,
  "cado": 2353,
  "cados": 8325,
  "cal": 2196,
  "cala": 41209,
  "calas": 30067,
  "calcemia": 19819,
  "calci": 23835,
  "calcul": 47285,
  "cale": 14274,
  "cales": 13320,
  "cali": 30526,
  "calidad": 23229,
  "calipsis": 39391,
  "calo": 43440,
  "cam": 16880,
  "cambi": 5590,
  "cambio": 32484,
  "cambios": 50255,
  "camente": 23614,
  "camiento": 26619,
  "camos": 23910,
  "campe": 44977,
  "can": 1001,
  "cana": 42530,
  "cancer": 23206,
  "cando": 26090,
  "canes": 28261,
  "cano": 18737,
  "canos": 41141,
  "cap": 10092,
  "capa": 50217,
  "capaces": 22529,
  "capaci": 7497,
  "capacidad": 2477,
  "cape": 43055,
  "capiÃ©": 13281,
  "capnia": 47657,
  "caps": 31667,
  "capular": 45617,
  "car": 735,
  "cara": 12181,
  "caracter": 45918,
  "caras": 28302,
  "carb": 18387,
  "carbo": 45834,
  "carbon": 25138,
  "carbonilo": 41101,
  "carcinoma": 13572,
  "carcinomas": 43592,
  "cardi": 4199,
  "cardia": 44340,
  "cardial": 28903,
  "cardio": 4942,
  "carditis": 11866,
  "care": 12506,
  "carga": 9390,
  "cari": 10474,
  "caro": 21717,
  "caros": 22806,
  "caroteno": 37710,
  "carril": 25338,
  "carse": 17135,
  "cas": 934,
  "casa": 22234,
  "casi": 24892,
  "caso": 20156,
  "casos": 34232,
  "cast": 4840,
  "cat": 20803,
  "cate": 16264,
  "categor": 31546,
  "caten": 44349,
  "catÃ©ter": 42863,
  "cav": 37867,
  "cava": 46104,
  "caÃŃna": 10163,
  "cc": 22459,
  "cciÃ³n": 3906,
  "ce": 471,
  "ced": 12570,
  "cedente": 9867,
  "cedentes": 3702,
  "cedes": 15185,
  "cedo": 19160,
  "cedora": 46745,
  "cefal": 8136,
  "cefalia": 17082,
  "cefÃ¡l": 20368,
  "cel": 1896,
  "cele": 17362,
  "celente": 39199,
  "celes": 32379,
  "cell": 27095,
  "cellular": 46328,
  "celo": 23694,
  "celular": 10113,
  "celulares": 22076,
  "celulosa": 47117,
  "cemia": 16702,
  "cemos": 14247,
  "cen": 1693,
  "cena": 34053,
  "cence": 39429,
  "cencia": 13226,
  "cencias": 45267,
  "ceno": 23861,
  "cens": 36050,
  "censo": 44469,
  "cent": 1426,
  "centa": 32144,
  "centaje": 24591,
  "cente": 23279,
  "centes": 17969,
  "centesis": 30866,
  "centr": 21257,
  "centraciÃ³n": 27631,
  "centro": 31587,
  "centros": 49712,
  "cep": 974,
  "cepcional": 36434,
  "cepciÃ³n": 3382,
  "cephal": 41996,
  "ceps": 24711,
  "cept": 22440,
  "ception": 48910,
  "ceptiva": 39470,
  "ceptivo": 32960,
  "ceptivos": 36730,
  "cepto": 12788,
  "ceptor": 31227,
  "ceptores": 23786,
  "ceptos": 22685,
  "cer": 615,
  "cera": 3856,
  "ceras": 7041,
  "cerca": 26683,
  "cereb": 19887,
  "cerebral": 38934,
  "cerebro": 48621,
  "ceres": 18707,
  "cero": 23564,
  "ceros": 43289,
  "cers": 29559,
  "certid": 11081,
  "cerv": 31672,
  "cervical": 40479,
  "cerÃŃa": 36416,
  "ces": 597,
  "cesa": 9377,
  "cesis": 41896,
  "ceso": 996,
  "cesos": 12107,
  "cess": 16567,
  "cet": 39513,
  "ceta": 12541,
  "ceton": 34889,
  "cf": 46314,
  "cg": 21089,
  "ch": 509,
  "cha": 1146,
  "chado": 22084,
  "chamiento": 36351,
  "chan": 24008,
  "char": 5915,
  "chas": 3449,
  "che": 2213,
  "chea": 34930,
  "chel": 37588,
  "chem": 19241,
  "chemic": 43091,
  "chemical": 41538,
  "chen": 32261,
  "cher": 10894,
  "cherichia": 20977,
  "ches": 6373,
  "chester": 23276,
  "chez": 4117,
  "chi": 14472,
  "chia": 46228,
  "child": 47781,
  "cho": 1178,
  "chool": 10717,
  "chor": 35151,
  "chos": 2689,
  "cht": 33331,
  "chu": 39687,
  "chy": 43605,
  "ci": 267,
  "cia": 375,
  "ciado": 29307,
  "cial": 611,
  "ciales": 2606,
  "cialmente": 37403,
  "cian": 25616,
  "ciana": 38486,
  "ciano": 18153,
  "cianos": 38002,
  "ciar": 5648,
  "cias": 1196,
  "cibilidad": 29916,
  "cible": 15174,
  "cibles": 24550,
  "cica": 12218,
  "cicas": 35898,
  "cicl": 27169,
  "cicle": 37345,
  "ciclo": 15387,
  "ciclovir": 36256,
  "cico": 17466,
  "cicos": 36386,
  "cid": 465,
  "cida": 2927,
  "cidad": 3342,
  "cidades": 21362,
  "cidamente": 48439,
  "cidas": 3105,
  "cide": 47738,
  "ciden": 1887,
  "cidencia": 19306,
  "cidental": 47895,
  "cidente": 42276,
  "cidentes": 48499,
  "cidio": 37816,
  "cido": 1300,
  "cidos": 1897,
  "ciedad": 32213,
  "cience": 19194,
  "ciencia": 12416,
  "ciencias": 15737,
  "ciende": 13639,
  "ciendo": 3318,
  "cientas": 47691,
  "ciente": 4268,
  "cientemente": 42473,
  "cientes": 16788,
  "cientos": 23102,
  "cientÃŃ": 22015,
  "ciera": 25939,
  "cieron": 9475,
  "cierto": 41080,
  "cies": 44776,
  "cil": 1521,
  "ciles": 6566,
  "cili": 24923,
  "cilio": 42952,
  "cilla": 12303,
  "cillas": 37457,
  "ciller": 41721,
  "cillo": 28893,
  "cillos": 32826,
  "cima": 30978,
  "cimento": 31146,
  "cimiento": 1399,
  "cimientos": 4842,
  "cimos": 24805,
  "cin": 1586,
  "cina": 1139,
  "cinas": 9952,
  "cinasa": 42625,
  "cination": 38246,
  "cinco": 26696,
  "cindi": 5835,
  "cindible": 42102,
  "cine": 6176,
  "cines": 25088,
  "cinesia": 32439,
  "cinetobacter": 41814,
  "cing": 18880,
  "cini": 48442,
  "cinia": 49664,
  "cino": 14254,
  "cinoma": 5219,
  "cinomas": 38686,
  "cinto": 44648,
  "cio": 962,
  "ciocho": 37073,
  "cion": 717,
  "ciona": 9923,
  "cionada": 15364,
  "cionadas": 27102,
  "cionado": 10473,
  "cionador": 30827,
  "cionados": 19571,
  "cional": 1246,
  "cionales": 3234,
  "cionalidad": 24184,
  "cionalmente": 8015,
  "cionamiento": 10193,
  "cionan": 16969,
  "cionando": 28527,
  "cionante": 46713,
  "cionar": 4990,
  "cionario": 16380,
  "cionarios": 28440,
  "cione": 43511,
  "ciones": 613,
  "cionismo": 33384,
  "cionista": 13527,
  "cionistas": 16321,
  "cionÃ³": 29982,
  "cios": 1924,
  "ciosa": 21065,
  "ciosas": 6955,
  "cioso": 14983,
  "ciosos": 14059,
  "cip": 648,
  "cipa": 6264,
  "cipaciÃ³n": 37150,
  "cipar": 29477,
  "ciparum": 32985,
  "cipe": 10942,
  "cipes": 30248,
  "cipiente": 22097,
  "cipientes": 24499,
  "cipital": 22188,
  "cipl": 3079,
  "ciples": 38368,
  "cipo": 44009,
  "cir": 886,
  "circulaciÃ³n": 31717,
  "ciru": 8599,
  "cirugÃŃa": 10272,
  "cis": 1104,
  "cisa": 31967,
  "cisiones": 39842,
  "cisiÃ³n": 9260,
  "cismo": 17140,
  "ciso": 34352,
  "cista": 24359,
  "cistas": 35355,
  "cita": 13185,
  "citabina": 31395,
  "citado": 19711,
  "citamente": 32554,
  "citas": 23181,
  "citina": 49127,
  "citis": 11569,
  "cito": 5242,
  "citoma": 29261,
  "citos": 7255,
  "citosis": 28716,
  "ciudad": 49258,
  "ciÃ©ndose": 18902,
  "ciÃ¯": 34959,
  "ciÃ³": 4138,
  "ciÃ³n": 361,
  "ciÃĥ": 15221,
  "ck": 4985,
  "cl": 525,
  "cla": 4610,
  "claje": 16803,
  "clar": 17580,
  "claro": 44738,
  "clas": 18123,
  "clase": 28607,
  "clatura": 31037,
  "clave": 39630,
  "cle": 4099,
  "cleo": 39439,
  "cler": 17019,
  "clero": 40556,
  "cleros": 4238,
  "clerosis": 4396,
  "cles": 34426,
  "clin": 26533,
  "clina": 17137,
  "clinas": 29256,
  "clo": 3153,
  "clopramida": 46577,
  "clor": 19150,
  "cloro": 22233,
  "clorotiazida": 32842,
  "cloruro": 37680,
  "clovir": 34104,
  "club": 46203,
  "clus": 1993,
  "clusiones": 3159,
  "clusiÃ³n": 6549,
  "clÃŃn": 14420,
  "clÃŃnica": 20910,
  "clÃŃnicas": 39003,
  "clÃŃnico": 28392,
  "clÃŃnicos": 24603,
  "cm": 16060,
  "cn": 43374,
  "co": 448,
  "coag": 24198,
  "coagulaciÃ³n": 39101,
  "coc": 7228,
  "coccal": 34167,
  "coccus": 8522,
  "cock": 48241,
  "coco": 12219,
  "cocos": 16232,
  "cogn": 23463,
  "coh": 2357,
  "coher": 37504,
  "cohol": 16952,
  "col": 2671,
  "cola": 38000,
  "colas": 14370,
  "cole": 44766,
  "coles": 6055,
  "colesterol": 12659,
  "colesterolemia": 15766,
  "coli": 22800,
  "colina": 24510,
  "colis": 44814,
  "colitis": 39200,
  "colmo": 35583,
  "colo": 4960,
  "color": 32432,
  "colÃŃa": 38859,
  "com": 1367,
  "come": 25521,
  "comer": 37783,
  "comerci": 41362,
  "comercializaciÃ³n": 47439,
  "comes": 36245,
  "como": 4240,
  "compa": 35082,
  "compar": 47954,
  "compatibilidad": 43872,
  "comple": 23937,
  "compu": 39582,
  "compuls": 29056,
  "compulsivo": 34644,
  "comun": 20574,
  "con": 585,
  "conazol": 22773,
  "conduc": 16430,
  "conductual": 25225,
  "cone": 37018,
  "conec": 47021,
  "cones": 38735,
  "conf": 40201,
  "coni": 33103,
  "conjun": 30153,
  "conjuntivitis": 42916,
  "cono": 18047,
  "conoci": 23853,
  "conocida": 47246,
  "conocido": 37089,
  "conocimiento": 42322,
  "cons": 5863,
  "consciente": 41835,
  "conse": 29556,
  "consider": 47835,
  "consin": 38384,
  "constric": 19721,
  "consul": 14554,
  "consulta": 28911,
  "consultado": 20266,
  "consultas": 38982,
  "consumo": 40529,
  "conten": 41994,
  "content": 40425,
  "contin": 14253,
  "contra": 16850,
  "contramos": 27667,
  "contro": 45695,
  "control": 12198,
  "controlled": 41488,
  "convuls": 48295,
  "coordin": 33520,
  "cop": 5068,
  "copa": 39949,
  "cope": 14631,
  "copes": 47536,
  "copia": 4727,
  "copias": 25370,
  "copic": 27924,
  "copio": 8534,
  "copios": 24407,
  "copul": 39616,
  "copy": 27911,
  "copÃŃa": 15315,
  "cor": 1674,
  "cord": 7829,
  "cordia": 49755,
  "cording": 22252,
  "core": 11978,
  "corpor": 25121,
  "corpora": 49391,
  "corporaciÃ³n": 32204,
  "correspon": 44804,
  "cortis": 33192,
  "cortisona": 39632,
  "cos": 1533,
  "cosa": 26986,
  "cosas": 37042,
  "cosis": 27841,
  "coso": 34035,
  "cot": 24718,
  "cott": 41262,
  "cou": 41980,
  "court": 25888,
  "couver": 48189,
  "coz": 34654,
  "cr": 4040,
  "cra": 11877,
  "cracia": 21355,
  "cran": 30631,
  "craneal": 35692,
  "crania": 35685,
  "cre": 901,
  "crea": 22012,
  "creas": 7705,
  "creatinina": 47871,
  "crecimiento": 40162,
  "credi": 18940,
  "creen": 12205,
  "creening": 13356,
  "creo": 35316,
  "cretamente": 16210,
  "cri": 799,
  "cribe": 41295,
  "cribir": 8734,
  "crimin": 27066,
  "crin": 11811,
  "crina": 44272,
  "crino": 33452,
  "crinos": 38557,
  "crip": 7832,
  "cripciones": 18734,
  "cripciÃ³n": 3495,
  "cript": 34872,
  "crisis": 45740,
  "crita": 22335,
  "critas": 35163,
  "crito": 7791,
  "critos": 12806,
  "cro": 12199,
  "cromatosis": 46493,
  "cromo": 27983,
  "cron": 17319,
  "cru": 44526,
  "cruz": 47018,
  "crÃ¡": 25005,
  "crÃ¡tica": 24376,
  "crÃ¡tico": 30965,
  "crÃŃ": 46442,
  "crÃŃtica": 44237,
  "cs": 35545,
  "ct": 17493,
  "cti": 24790,
  "ction": 14669,
  "ctional": 24508,
  "cto": 5241,
  "ctomÃŃa": 23716,
  "cton": 19296,
  "ctona": 36479,
  "ctur": 8168,
  "cu": 472,
  "cua": 28626,
  "cuadrado": 35977,
  "cuadro": 24099,
  "cual": 12165,
  "cualquier": 37037,
  "cuando": 15130,
  "cuar": 30590,
  "cuatro": 44607,
  "cub": 35161,
  "cuent": 1245,
  "cuenta": 15178,
  "cuentro": 42452,
  "cuer": 37353,
  "cuerpo": 50013,
  "cuidad": 37184,
  "cuidado": 12267,
  "cuidados": 36090,
  "cuito": 33582,
  "cul": 513,
  "cula": 3424,
  "culaciÃ³n": 16403,
  "cular": 1206,
  "culares": 2173,
  "culas": 5832,
  "culation": 31945,
  "culatura": 11726,
  "culo": 2390,
  "culos": 2835,
  "cultivo": 21625,
  "cultivos": 19632,
  "cultura": 21985,
  "cultural": 16372,
  "culturales": 23932,
  "cum": 23606,
  "cuma": 28572,
  "cun": 37530,
  "cup": 2235,
  "cupa": 5845,
  "cupar": 8834,
  "cupational": 28267,
  "cur": 1236,
  "cura": 8434,
  "cure": 26882,
  "curio": 13986,
  "curo": 10999,
  "curso": 4688,
  "cus": 4354,
  "cusiones": 11091,
  "cusiÃ³n": 4568,
  "cuta": 28641,
  "cutÃ¡nea": 8862,
  "cutÃ¡neo": 12384,
  "cuÃ¡l": 26966,
  "cuÃ¡les": 39498,
  "cuÃ¡n": 34316,
  "cy": 5947,
  "cys": 30496,
  "cystis": 40605,
  "cÃ¡": 29707,
  "cÃ¡n": 16630,
  "cÃ¡ncer": 35408,
  "cÃ¡neo": 39664,
  "cÃ¡ntara": 39745,
  "cÃ¡r": 8607,
  "cÃ¡rdica": 46193,
  "cÃ©": 16879,
  "cÃ©falo": 37170,
  "cÃ©lulas": 30729,
  "cÃ©n": 22324,
  "cÃ©ntrica": 35572,
  "cÃ©ntrico": 41146,
  "cÃ©s": 8366,
  "cÃ³": 7137,
  "cÃ³cica": 15144,
  "cÃ³cicas": 48109,
  "cÃ³gn": 34240,
  "cÃ³mo": 9281,
  "cÃ³n": 14261,
  "cÃ³p": 4641,
  "cÃ³pica": 6969,
  "cÃ³picamente": 41184,
  "cÃ³picas": 20853,
  "cÃ³pico": 12994,
  "cÃ³picos": 22493,
  "cÃº": 22872,
  "cÃŃ": 38064,
  "cÃŃa": 16870,
  "cÃŃan": 24855,
  "cÃŃas": 24493,
  "cÃŃtica": 30620,
  "d": 71,
  "dL": 13867,
  "da": 393,
  "dad": 415,
  "dada": 15568,
  "dadas": 9352,
  "dade": 29004,
  "dadera": 50235,
  "dades": 729,
  "dado": 8286,
  "dador": 8564,
  "dadora": 25614,
  "dadores": 14396,
  "dados": 10698,
  "dadura": 23815,
  "daf": 30650,
  "dafone": 47016,
  "daje": 4359,
  "dal": 2833,
  "dala": 27227,
  "dalas": 29833,
  "dale": 28848,
  "dalena": 24930,
  "dalias": 39830,
  "dam": 15294,
  "damente": 28422,
  "damicina": 35708,
  "damiento": 14948,
  "damos": 30321,
  "dan": 1886,
  "dando": 19383,
  "dap": 2285,
  "dar": 2141,
  "dard": 19181,
  "dards": 34258,
  "dares": 10245,
  "daria": 42448,
  "dario": 23069,
  "darios": 27638,
  "darse": 32757,
  "dary": 29478,
  "das": 712,
  "dasa": 48181,
  "data": 48239,
  "date": 20836,
  "dated": 46638,
  "datos": 29715,
  "day": 25430,
  "daz": 36535,
  "daÃ±o": 36053,
  "dc": 36123,
  "dd": 29085,
  "de": 260,
  "dea": 10224,
  "dear": 40398,
  "deas": 26550,
  "deb": 49184,
  "debe": 34998,
  "deber": 38001,
  "debido": 38604,
  "dec": 36837,
  "decer": 32041,
  "decir": 47460,
  "ded": 5692,
  "dedor": 2899,
  "dedora": 37075,
  "dedores": 10484,
  "dedura": 35445,
  "deduras": 38582,
  "def": 32498,
  "defin": 19193,
  "degenera": 11507,
  "degeneraciÃ³n": 39770,
  "degenerativas": 43480,
  "degrad": 33526,
  "deh": 22467,
  "dehÃŃdo": 30191,
  "del": 3958,
  "dela": 16382,
  "dele": 31232,
  "deli": 46622,
  "dell": 11036,
  "delo": 11164,
  "delos": 25347,
  "dem": 8295,
  "dema": 5706,
  "demas": 20181,
  "demi": 2812,
  "demia": 3871,
  "demias": 21889,
  "demic": 29022,
  "demo": 10170,
  "demos": 1922,
  "den": 413,
  "dena": 4386,
  "denafilo": 34333,
  "denal": 27946,
  "denas": 8797,
  "dence": 19657,
  "dencia": 1015,
  "dencial": 13539,
  "denciales": 44826,
  "dencias": 6803,
  "dendr": 36687,
  "dendro": 47923,
  "denes": 9758,
  "denitis": 43553,
  "denomin": 34047,
  "dens": 25972,
  "dent": 12021,
  "dental": 24829,
  "dentales": 42468,
  "dente": 2900,
  "dentemente": 22652,
  "dentes": 2628,
  "dentro": 39318,
  "dents": 20190,
  "deo": 4826,
  "deos": 10847,
  "dep": 33381,
  "depen": 7029,
  "dependencia": 32251,
  "dependiente": 25368,
  "dependientes": 35864,
  "depilaciÃ³n": 45209,
  "depor": 30066,
  "depres": 8252,
  "depresiÃ³n": 41678,
  "der": 544,
  "dera": 2382,
  "deraciÃ³n": 9383,
  "deramiento": 23207,
  "deran": 32288,
  "deras": 8302,
  "dere": 18805,
  "derecha": 43614,
  "derecho": 48880,
  "deres": 7508,
  "deri": 20558,
  "derivados": 35247,
  "derly": 20267,
  "derm": 34070,
  "derma": 21085,
  "dermia": 24975,
  "dermo": 32168,
  "dero": 4479,
  "deros": 7203,
  "ders": 7502,
  "derse": 22215,
  "dersen": 40722,
  "derson": 15615,
  "derstan": 30608,
  "derÃ¡": 8084,
  "derÃŃa": 10004,
  "derÃŃas": 28889,
  "des": 439,
  "desa": 18469,
  "desarrol": 31714,
  "desarrollo": 20866,
  "desde": 14742,
  "dese": 39478,
  "desh": 40313,
  "desis": 31804,
  "desl": 46490,
  "despuÃ©s": 29180,
  "deste": 21741,
  "desviaciÃ³n": 43847,
  "det": 38809,
  "dete": 50118,
  "detec": 39600,
  "determin": 24130,
  "determinaciÃ³n": 40419,
  "dex": 8588,
  "dez": 1746,
  "deza": 13078,
  "dezco": 16577,
  "df": 6682,
  "dful": 19849,
  "dfulness": 20343,
  "di": 294,
  "dia": 1092,
  "diabetes": 30766,
  "diacep": 24460,
  "diacepinas": 25312,
  "diagn": 12720,
  "diagnostic": 46837,
  "diagnÃ³stico": 16360,
  "dial": 1875,
  "diales": 13284,
  "dialysis": 29327,
  "dian": 26620,
  "diar": 18688,
  "diario": 44004,
  "dias": 7405,
  "diasis": 18037,
  "diazep": 24016,
  "dible": 24730,
  "dibular": 12874,
  "dibulares": 31867,
  "dic": 629,
  "dica": 1348,
  "dicaciÃ³n": 11414,
  "dical": 29239,
  "dicamente": 12673,
  "dicas": 3176,
  "dicciones": 25788,
  "dicciÃ³n": 22362,
  "dice": 3009,
  "dices": 8344,
  "dicho": 40051,
  "dici": 23449,
  "dicial": 8502,
  "diciales": 11831,
  "dicidad": 23992,
  "diciembre": 43882,
  "diciones": 14637,
  "diciÃ³n": 10187,
  "dico": 1017,
  "dicos": 1395,
  "dict": 49604,
  "diction": 50219,
  "dicto": 35286,
  "did": 17050,
  "dida": 1518,
  "didad": 5403,
  "didades": 43328,
  "didamente": 47497,
  "didas": 4330,
  "dido": 1589,
  "didos": 4265,
  "die": 26110,
  "diendo": 2147,
  "diente": 2259,
  "dientemente": 6177,
  "dientes": 2646,
  "diera": 18438,
  "dieran": 29824,
  "dieron": 3783,
  "dies": 28182,
  "diet": 41949,
  "dieta": 35779,
  "difi": 20587,
  "dific": 2183,
  "difica": 10420,
  "dificaciÃ³n": 18748,
  "dig": 40575,
  "digo": 33037,
  "dihidro": 49060,
  "dii": 32166,
  "dijo": 49864,
  "dil": 15703,
  "dila": 10448,
  "dilitis": 21356,
  "dill": 21293,
  "dilla": 23521,
  "dillas": 36913,
  "dillera": 25165,
  "dillo": 48627,
  "dilo": 17285,
  "dimens": 10872,
  "dimensional": 13515,
  "dimensionales": 30949,
  "dimetil": 50042,
  "dimiento": 3593,
  "dimientos": 14931,
  "dimos": 10561,
  "din": 4345,
  "dina": 23466,
  "ding": 8973,
  "dings": 25631,
  "dinÃ¡mica": 22700,
  "dinÃ¡mico": 44915,
  "dio": 907,
  "diol": 36440,
  "dios": 2524,
  "dipina": 47560,
  "dipino": 27320,
  "dir": 1937,
  "direc": 8505,
  "direcciÃ³n": 25142,
  "director": 17213,
  "directora": 27790,
  "dirig": 36296,
  "dirse": 14317,
  "dis": 1647,
  "discipl": 4637,
  "disciplinar": 30617,
  "dise": 42284,
  "disk": 48824,
  "dismin": 30555,
  "disminuciÃ³n": 40740,
  "dismo": 6279,
  "dison": 37086,
  "dispon": 18828,
  "dista": 17293,
  "distas": 20687,
  "diste": 42728,
  "distrofia": 35427,
  "dita": 20998,
  "ditas": 44527,
  "ditis": 23762,
  "dito": 20540,
  "ditos": 28625,
  "dity": 25819,
  "dium": 13460,
  "divers": 17846,
  "diversidad": 19336,
  "diz": 2965,
  "diza": 34586,
  "dizaciÃ³n": 46520,
  "dizaje": 3847,
  "diÃ¡": 3849,
  "diÃ¡lisis": 8518,
  "diÃ©ndose": 20740,
  "diÃ³": 2510,
  "dl": 6846,
  "dle": 26079,
  "dman": 46103,
  "dney": 37973,
  "dnis": 15149,
  "do": 325,
  "doba": 8496,
  "dobl": 39415,
  "doble": 48207,
  "doc": 6892,
  "doco": 48654,
  "docrin": 11539,
  "docs": 42866,
  "doctoral": 29579,
  "docum": 25983,
  "doi": 17409,
  "dol": 13370,
  "dola": 38087,
  "dole": 15172,
  "dolfo": 32944,
  "dolor": 23652,
  "dom": 3775,
  "domen": 32642,
  "domin": 2500,
  "domina": 19552,
  "dominal": 18608,
  "dominales": 41467,
  "domo": 48527,
  "domÃ©s": 38563,
  "don": 1557,
  "dona": 17005,
  "donaciÃ³n": 42324,
  "donado": 27255,
  "doncia": 7755,
  "donde": 21349,
  "dones": 19452,
  "donos": 9235,
  "dop": 27211,
  "dopa": 22356,
  "dor": 1997,
  "dora": 16629,
  "doras": 20989,
  "dores": 15016,
  "dorf": 24837,
  "dorfinas": 33844,
  "doro": 49726,
  "dorra": 46938,
  "dos": 528,
  "dosa": 33132,
  "dose": 1804,
  "dosis": 9956,
  "doso": 23997,
  "doster": 42847,
  "dosterona": 25382,
  "dote": 30198,
  "dova": 40812,
  "down": 45829,
  "dox": 34342,
  "doy": 35435,
  "doya": 35918,
  "dr": 736,
  "dra": 5522,
  "dral": 39041,
  "dras": 15782,
  "dre": 35087,
  "dremos": 22654,
  "dres": 8984,
  "dri": 6737,
  "drica": 27347,
  "driceps": 43700,
  "drich": 34009,
  "drico": 20615,
  "dricos": 45367,
  "drina": 35676,
  "drio": 46293,
  "dro": 1396,
  "drome": 1722,
  "dromes": 9107,
  "dromo": 42352,
  "dronato": 31188,
  "dros": 18219,
  "drÃ¡": 6734,
  "drÃ¡n": 10110,
  "drÃ¡s": 24515,
  "drÃ©": 37729,
  "drÃ³nico": 42822,
  "drÃŃ": 3457,
  "drÃŃa": 7919,
  "drÃŃamos": 29562,
  "drÃŃan": 22982,
  "drÃŃas": 48017,
  "drÃŃguez": 3657,
  "ds": 5485,
  "dt": 24210,
  "du": 785,
  "duc": 523,
  "ducciÃ³n": 1501,
  "duce": 7281,
  "duced": 28136,
  "ducido": 44642,
  "ducir": 1326,
  "duction": 29708,
  "ducto": 35453,
  "ductor": 22658,
  "ductores": 33204,
  "dugo": 47997,
  "dul": 24986,
  "dula": 5399,
  "duoden": 30169,
  "duodenal": 40503,
  "dur": 20290,
  "dura": 10487,
  "durante": 32419,
  "duras": 5949,
  "dure": 15421,
  "dures": 36081,
  "duro": 44543,
  "dx": 19236,
  "dy": 12665,
  "dÃ©": 23854,
  "dÃ©s": 15381,
  "dÃ³": 12110,
  "dÃ³n": 5087,
  "dÃ³nde": 45794,
  "dÃº": 30874,
  "dÃŃ": 7759,
  "dÃŃa": 1751,
  "dÃŃan": 13826,
  "dÃŃas": 23286,
  "e": 72,
  "ea": 915,
  "eada": 41136,
  "eado": 27792,
  "eados": 42184,
  "eae": 42198,
  "eal": 39924,
  "eamente": 8274,
  "eamiento": 22921,
  "ean": 46435,
  "ear": 3261,
  "earch": 6521,
  "ears": 8907,
  "eas": 1881,
  "eases": 23405,
  "eau": 35596,
  "eb": 670,
  "eba": 30844,
  "eber": 27658,
  "eberg": 45660,
  "ebo": 4129,
  "ebook": 8622,
  "ebra": 14335,
  "ebras": 33529,
  "ec": 324,
  "eca": 5039,
  "ecable": 29292,
  "ecal": 35703,
  "ecalis": 46559,
  "ecas": 10429,
  "ecciÃ³n": 3004,
  "ece": 1160,
  "ecedor": 29875,
  "ecedores": 48605,
  "ecen": 2091,
  "ecencia": 25111,
  "ecer": 1447,
  "ecera": 11223,
  "eces": 612,
  "ech": 833,
  "echa": 2898,
  "echan": 19435,
  "echas": 7631,
  "eche": 21989,
  "echea": 43859,
  "echn": 15121,
  "echo": 1222,
  "echos": 4400,
  "eci": 2811,
  "ecida": 22788,
  "ecidas": 27674,
  "ecido": 8452,
  "ecidos": 20243,
  "eciendo": 9155,
  "eciente": 42228,
  "eciera": 37582,
  "ecieron": 12458,
  "ecimiento": 13250,
  "eciÃ³": 7890,
  "eck": 10580,
  "eclam": 17334,
  "eclampsia": 17716,
  "ecn": 1688,
  "eco": 11213,
  "ecom": 19461,
  "econ": 6229,
  "economÃŃa": 46562,
  "econse": 48376,
  "econÃ³mico": 42180,
  "ecos": 17084,
  "ecoxib": 45112,
  "ecre": 3646,
  "ecretario": 41253,
  "ecrosis": 27187,
  "ectal": 28511,
  "ectasia": 37461,
  "ectasias": 29104,
  "ectina": 31990,
  "ecto": 45226,
  "ectomy": 45582,
  "ectomÃŃa": 7132,
  "ectomÃŃas": 41286,
  "ector": 37871,
  "ecu": 1512,
  "ecuciÃ³n": 6187,
  "ecular": 10453,
  "ecured": 26372,
  "ecÃ¡nica": 38716,
  "ecÃ©": 19034,
  "ecÃŃa": 8281,
  "ecÃŃan": 12885,
  "ed": 1063,
  "eda": 9877,
  "edad": 1197,
  "edades": 4649,
  "edado": 44114,
  "edback": 25036,
  "ede": 13699,
  "eded": 48643,
  "edema": 20850,
  "eder": 46620,
  "edes": 33049,
  "edi": 5234,
  "edia": 33114,
  "eding": 22962,
  "edings": 31544,
  "edo": 32040,
  "edor": 7034,
  "edora": 26979,
  "edores": 7098,
  "edro": 31514,
  "eds": 18577,
  "edu": 26795,
  "educ": 12729,
  "educa": 28021,
  "educaciÃ³n": 20534,
  "ee": 9000,
  "eeee": 40219,
  "eer": 27240,
  "eerp": 30910,
  "ef": 16866,
  "efacciÃ³n": 23585,
  "efec": 10845,
  "efectiva": 45038,
  "efectividad": 20640,
  "efecto": 24646,
  "effec": 42117,
  "eficacia": 22409,
  "eficiente": 40780,
  "efrosis": 48393,
  "eg": 35510,
  "ega": 13988,
  "egas": 19661,
  "ego": 6296,
  "egos": 16310,
  "egun": 42262,
  "eh": 32914,
  "ei": 38280,
  "eis": 29570,
  "ej": 10494,
  "eja": 13592,
  "ejas": 12437,
  "ejil": 34430,
  "ejo": 9448,
  "ejos": 23797,
  "ek": 13801,
  "el": 397,
  "ela": 2957,
  "elamente": 21637,
  "elar": 30692,
  "elas": 7688,
  "elasco": 20975,
  "eld": 10718,
  "ele": 13985,
  "elec": 11346,
  "elecciÃ³n": 31863,
  "electro": 34699,
  "electrol": 39441,
  "elementos": 33004,
  "eler": 33495,
  "eleraciÃ³n": 49062,
  "eles": 8307,
  "eless": 48315,
  "elf": 45399,
  "eli": 16529,
  "elia": 18738,
  "elin": 19895,
  "elina": 27874,
  "eline": 43631,
  "eling": 22027,
  "elings": 43901,
  "elio": 28678,
  "elis": 46803,
  "elitis": 46413,
  "ell": 2557,
  "ella": 5046,
  "ellas": 43048,
  "elle": 6132,
  "eller": 12918,
  "ellera": 41520,
  "elleria": 21502,
  "elles": 30297,
  "elleza": 8045,
  "elli": 18452,
  "elling": 49098,
  "ello": 3789,
  "ellos": 31026,
  "ellow": 40683,
  "ellows": 50254,
  "ells": 49818,
  "elly": 27172,
  "ellÃ¡n": 47431,
  "elo": 8185,
  "elos": 7118,
  "elosis": 25594,
  "els": 32769,
  "elsen": 47525,
  "eltamivir": 46068,
  "elulares": 42233,
  "ely": 13779,
  "elÃ©c": 23009,
  "elÃ©ctrica": 39974,
  "em": 875,
  "ema": 13943,
  "emas": 18073,
  "emb": 6221,
  "embol": 18510,
  "embre": 1702,
  "emen": 22309,
  "ement": 7787,
  "emes": 42906,
  "emi": 48975,
  "emia": 2241,
  "emias": 17252,
  "emida": 29130,
  "emo": 13285,
  "emocional": 49891,
  "emon": 49771,
  "emos": 1366,
  "emp": 526,
  "emplo": 40590,
  "empo": 8781,
  "empos": 31027,
  "empre": 1268,
  "empres": 42443,
  "emps": 34731,
  "emuls": 46880,
  "emÃ©ri": 37767,
  "en": 261,
  "ena": 1322,
  "enal": 50214,
  "enan": 41940,
  "enario": 38444,
  "enas": 3901,
  "enato": 30461,
  "enazgo": 45042,
  "enberg": 26774,
  "enc": 39931,
  "enca": 48038,
  "ence": 3429,
  "encefal": 16858,
  "encefalitis": 39780,
  "encefÃ¡l": 16805,
  "encefÃ¡lica": 33144,
  "ences": 10658,
  "enci": 564,
  "encia": 459,
  "enciaciÃ³n": 13080,
  "enciada": 13508,
  "enciadas": 41421,
  "enciado": 9607,
  "enciados": 18554,
  "encial": 3081,
  "enciales": 5772,
  "encialmente": 14237,
  "enciana": 8662,
  "enciano": 24652,
  "enciar": 20253,
  "encias": 805,
  "encies": 42072,
  "encio": 18695,
  "encion": 3371,
  "enciones": 42014,
  "enciÃ³": 28221,
  "enciÃ³n": 33619,
  "enco": 20146,
  "ency": 20950,
  "end": 1219,
  "enda": 4572,
  "endan": 7101,
  "endas": 7126,
  "endazol": 44510,
  "ende": 3143,
  "enden": 5210,
  "endes": 45604,
  "endi": 12952,
  "endo": 601,
  "endor": 33104,
  "endos": 25988,
  "endoscopia": 45602,
  "endoza": 14526,
  "endro": 44911,
  "ends": 48411,
  "endÃŃa": 21913,
  "ene": 536,
  "eneca": 29286,
  "enemos": 2489,
  "enen": 924,
  "ener": 573,
  "eneraciÃ³n": 7081,
  "energ": 43063,
  "enero": 43983,
  "enes": 1510,
  "eness": 17323,
  "enez": 33710,
  "enfer": 10232,
  "enfermedad": 16391,
  "enfermedades": 32065,
  "eng": 25760,
  "enga": 44090,
  "englicol": 31584,
  "enia": 34705,
  "enic": 49560,
  "enio": 13677,
  "enn": 42432,
  "enne": 18781,
  "eno": 1169,
  "enol": 43506,
  "enos": 3010,
  "ens": 582,
  "ensa": 2398,
  "ensas": 22200,
  "ensayo": 39917,
  "ense": 7231,
  "ensen": 32399,
  "enses": 14720,
  "ensibil": 25537,
  "ensibilidad": 27861,
  "ensibilizaciÃ³n": 38424,
  "ensible": 28023,
  "ensibles": 39096,
  "ensis": 12390,
  "ensiÃ³n": 2575,
  "enso": 3064,
  "enson": 43032,
  "ensor": 14326,
  "ensores": 34538,
  "ensorial": 30326,
  "ensos": 27439,
  "enstein": 34511,
  "ensus": 48908,
  "ent": 285,
  "enta": 644,
  "entaba": 49815,
  "entaciones": 45493,
  "entaciÃ³n": 1625,
  "entada": 11422,
  "entadas": 20742,
  "entado": 2642,
  "entados": 13847,
  "ental": 1213,
  "entales": 2365,
  "entalmente": 5346,
  "entamente": 11492,
  "entamiento": 11843,
  "entamos": 42345,
  "entan": 2044,
  "entando": 15169,
  "entanilo": 19745,
  "entar": 1441,
  "entaria": 10841,
  "entarias": 29446,
  "entario": 9711,
  "entarios": 15684,
  "entaron": 32228,
  "entarse": 28852,
  "entas": 2738,
  "ente": 341,
  "entemente": 1832,
  "enten": 6349,
  "entena": 45309,
  "enter": 6250,
  "enteral": 11160,
  "enterales": 49267,
  "enterio": 21324,
  "enterÃŃa": 44276,
  "entes": 406,
  "entesis": 40107,
  "enthal": 35723,
  "enti": 3543,
  "entia": 27986,
  "ential": 24155,
  "entido": 37430,
  "entific": 18166,
  "entimiento": 6677,
  "entimientos": 41769,
  "entino": 35274,
  "entir": 40781,
  "entismo": 25297,
  "entizaciÃ³n": 38946,
  "ento": 372,
  "entonces": 45280,
  "entos": 531,
  "entosa": 43299,
  "entra": 36768,
  "entrada": 35792,
  "entras": 1632,
  "entre": 7650,
  "entren": 38445,
  "entrenamiento": 49283,
  "entro": 6041,
  "ents": 3301,
  "entÃ³": 15744,
  "entÃŃ": 1261,
  "entÃŃa": 27334,
  "entÃŃn": 26254,
  "envejecimiento": 26467,
  "enz": 9554,
  "enza": 12281,
  "enzima": 28230,
  "enzimas": 45147,
  "enzo": 12393,
  "eo": 1170,
  "eologÃŃa": 33020,
  "eople": 45178,
  "eoplÃ¡s": 21751,
  "eos": 3405,
  "ep": 4411,
  "epi": 12112,
  "epidemi": 24362,
  "epil": 23593,
  "epinefrina": 47061,
  "epitelial": 39120,
  "epiteliales": 48487,
  "equ": 24683,
  "equi": 40546,
  "equival": 45149,
  "er": 270,
  "era": 430,
  "erabilidad": 10233,
  "eraciÃ³n": 16151,
  "erador": 15626,
  "erais": 44191,
  "eral": 4658,
  "erales": 7108,
  "eramente": 8695,
  "eran": 4955,
  "erapeu": 19312,
  "erapeutic": 24225,
  "erapeutics": 43695,
  "erapy": 8232,
  "eras": 2693,
  "erato": 17013,
  "eratura": 40771,
  "erba": 38065,
  "erci": 16610,
  "ercise": 23280,
  "erciÃ³n": 21136,
  "erda": 17372,
  "erdan": 34814,
  "erdo": 11964,
  "ere": 1675,
  "eren": 3359,
  "eres": 13115,
  "erg": 11691,
  "ergia": 16329,
  "ergias": 25256,
  "eri": 25107,
  "eria": 15432,
  "erie": 33287,
  "ering": 35377,
  "erio": 13891,
  "ern": 1476,
  "erna": 35797,
  "ernas": 6358,
  "erne": 41044,
  "ernes": 6603,
  "erno": 35281,
  "ernÃ¡n": 2806,
  "ernÃ¡ndez": 2881,
  "ero": 675,
  "eron": 919,
  "eronÃ¡u": 36924,
  "eros": 1313,
  "erra": 3592,
  "errat": 19446,
  "erre": 39747,
  "errector": 33661,
  "errez": 43793,
  "erro": 23730,
  "ers": 560,
  "erse": 8066,
  "ersey": 33506,
  "erso": 45527,
  "erson": 35305,
  "ert": 22167,
  "erta": 12308,
  "erte": 1562,
  "erto": 7279,
  "ertos": 11119,
  "erv": 716,
  "erva": 5007,
  "ervaciÃ³n": 13534,
  "ervatorio": 12174,
  "erve": 24220,
  "ervi": 2701,
  "ervicio": 17766,
  "ervicios": 31874,
  "ervo": 30163,
  "ervos": 42445,
  "ery": 14524,
  "erÃ¡": 16106,
  "erÃ³b": 36087,
  "erÃŃa": 6017,
  "erÃŃas": 19674,
  "es": 263,
  "esa": 4606,
  "esan": 25250,
  "esar": 22577,
  "esc": 10478,
  "escala": 24948,
  "escam": 30821,
  "escler": 39155,
  "esclerosis": 21285,
  "esco": 41427,
  "escol": 15560,
  "escri": 37350,
  "escultura": 35796,
  "ese": 3829,
  "esemia": 46026,
  "esen": 14916,
  "eses": 31557,
  "esfuerzo": 42960,
  "esi": 27872,
  "esia": 15033,
  "esio": 9832,
  "esis": 5841,
  "esiÃ³n": 5744,
  "eso": 6024,
  "esof": 15352,
  "esofÃ¡gica": 33886,
  "esofÃ¡gico": 20085,
  "esor": 9506,
  "esos": 16462,
  "esp": 25102,
  "espacial": 41869,
  "espacio": 48900,
  "espas": 19967,
  "espasmo": 25477,
  "espaÃ±": 48779,
  "espec": 11415,
  "especi": 24585,
  "especial": 11999,
  "especialmente": 17938,
  "esper": 8459,
  "espero": 49152,
  "espin": 38676,
  "espinal": 49720,
  "esplen": 49735,
  "esque": 27939,
  "esquel": 14744,
  "esqueleto": 34554,
  "esquelÃ©tico": 45134,
  "ess": 20955,
  "essa": 44033,
  "est": 2081,
  "esta": 2517,
  "estable": 25105,
  "estad": 20485,
  "estado": 30107,
  "estadÃŃstica": 42191,
  "estamento": 26117,
  "estamos": 35498,
  "estan": 11683,
  "estar": 38165,
  "estas": 10140,
  "este": 4804,
  "ester": 3386,
  "esterasa": 29812,
  "estern": 21483,
  "esternal": 44187,
  "esteroides": 34375,
  "estes": 4052,
  "estesia": 23617,
  "estesias": 28512,
  "esth": 30478,
  "esthe": 35401,
  "esthes": 47206,
  "esthesia": 44948,
  "esthetic": 42145,
  "esti": 556,
  "estia": 26370,
  "estial": 46782,
  "estias": 44887,
  "estig": 698,
  "estiga": 28776,
  "estigos": 19060,
  "estim": 9396,
  "estima": 7400,
  "estimar": 38210,
  "estimulaciÃ³n": 20756,
  "estion": 2819,
  "estiona": 18283,
  "estiones": 5981,
  "estival": 9746,
  "estiÃ³n": 1728,
  "esto": 5274,
  "estos": 28540,
  "estoy": 39162,
  "estr": 28546,
  "estra": 24650,
  "estral": 34487,
  "estre": 6149,
  "estres": 28735,
  "estro": 32017,
  "estruc": 6491,
  "estructura": 30523,
  "estructuras": 34545,
  "estrÃ©s": 46710,
  "estrÃ³genos": 48520,
  "estudi": 43266,
  "estudio": 28174,
  "estudios": 42263,
  "estÃ¡": 22513,
  "estÃ¡n": 30256,
  "estÃ©s": 9435,
  "estÃ©tica": 40137,
  "esÃŃa": 13286,
  "et": 1112,
  "eta": 1301,
  "etafe": 35624,
  "etal": 47736,
  "etales": 19290,
  "etamina": 23200,
  "etaminas": 37854,
  "etano": 35552,
  "etaria": 33000,
  "etario": 30129,
  "etarios": 47475,
  "etas": 4257,
  "etasona": 23520,
  "etc": 31829,
  "ete": 4602,
  "eter": 48614,
  "eth": 31615,
  "etil": 42160,
  "etina": 15565,
  "eting": 32813,
  "eto": 9003,
  "ets": 20481,
  "ett": 26229,
  "etta": 29040,
  "ette": 25504,
  "etti": 22748,
  "etts": 16086,
  "ety": 7192,
  "etÃ©": 39462,
  "etÃŃn": 11824,
  "eu": 9671,
  "eum": 49526,
  "euro": 25772,
  "europa": 48085,
  "eutical": 23394,
  "ev": 8416,
  "eval": 24422,
  "evalu": 13800,
  "evaluaciÃ³n": 19926,
  "evi": 30458,
  "evitar": 47645,
  "ex": 1738,
  "excepto": 28366,
  "excl": 46376,
  "exia": 10875,
  "existe": 42008,
  "existen": 44047,
  "exiÃ³n": 22288,
  "exo": 12143,
  "exper": 24203,
  "explica": 42974,
  "exposiciÃ³n": 44373,
  "expres": 47518,
  "extensiÃ³n": 42973,
  "extra": 34344,
  "extre": 48402,
  "ey": 5104,
  "ez": 570,
  "eza": 1471,
  "ezas": 5627,
  "ezca": 8180,
  "ezcan": 10034,
  "ezco": 41943,
  "ezo": 26566,
  "ezolid": 31705,
  "ezÃ³n": 37995,
  "eÃ±a": 20792,
  "eÃ±as": 43494,
  "eÃ±o": 23099,
  "eÃ±os": 39189,
  "f": 73,
  "fa": 1634,
  "fab": 39506,
  "fabe": 25991,
  "fac": 2400,
  "facciÃ³n": 11790,
  "face": 21881,
  "facebook": 48757,
  "faces": 47156,
  "faci": 8663,
  "facial": 11771,
  "faciales": 29995,
  "facto": 43046,
  "factor": 24547,
  "factores": 33537,
  "factos": 32991,
  "fagia": 12988,
  "fagitis": 32907,
  "fago": 9316,
  "fagos": 13966,
  "fal": 2929,
  "falo": 14342,
  "falta": 31498,
  "falÃ¡n": 33725,
  "famil": 14072,
  "familia": 25755,
  "familiar": 27913,
  "familiares": 45438,
  "fan": 15933,
  "fano": 16276,
  "fanos": 24289,
  "far": 5989,
  "fari": 37384,
  "farina": 20736,
  "faritis": 49023,
  "farma": 27495,
  "farmac": 16970,
  "farmacia": 28377,
  "faro": 16384,
  "faroplastia": 23938,
  "fas": 4823,
  "fascial": 30003,
  "fase": 22865,
  "fasis": 11405,
  "fato": 7874,
  "favor": 11923,
  "faz": 21615,
  "fe": 1835,
  "feb": 38887,
  "fec": 496,
  "fecciÃ³n": 9539,
  "fecto": 28388,
  "fectos": 31659,
  "fedema": 26876,
  "feedback": 44400,
  "feeding": 48183,
  "fel": 25784,
  "feld": 25794,
  "fem": 28886,
  "femoral": 46689,
  "fen": 6778,
  "fena": 39715,
  "fenaco": 34299,
  "fenib": 31549,
  "fenicol": 43672,
  "fenidato": 39464,
  "fenil": 22239,
  "feno": 9331,
  "fenol": 42946,
  "fenolato": 36865,
  "fenos": 40436,
  "feo": 33492,
  "fer": 409,
  "fera": 6160,
  "feras": 17731,
  "ference": 25200,
  "ferencia": 3191,
  "ferencial": 39211,
  "ferencias": 6980,
  "ferente": 17935,
  "ferentes": 15945,
  "ferina": 35746,
  "fero": 40919,
  "ferol": 35390,
  "feron": 38292,
  "ferÃ³n": 42013,
  "fes": 682,
  "festyle": 47446,
  "fetal": 37503,
  "fety": 17763,
  "ff": 5177,
  "ffe": 28864,
  "ffer": 18110,
  "ffi": 48583,
  "ffic": 49454,
  "fi": 913,
  "fia": 5059,
  "fianza": 19449,
  "fias": 20913,
  "fib": 10911,
  "fibr": 43715,
  "fibra": 46062,
  "fibro": 19715,
  "fibrosis": 48220,
  "fic": 514,
  "fica": 826,
  "ficaces": 39213,
  "ficacia": 13941,
  "ficaciones": 14817,
  "ficaciÃ³n": 7241,
  "ficacy": 20624,
  "ficada": 19781,
  "ficadas": 32808,
  "ficado": 15126,
  "ficados": 23367,
  "ficamente": 6103,
  "fican": 35109,
  "ficante": 41179,
  "ficantes": 41269,
  "ficar": 13196,
  "ficas": 2236,
  "fication": 46935,
  "ficaz": 3617,
  "fice": 22578,
  "ficencia": 29430,
  "fici": 636,
  "ficial": 5105,
  "ficidad": 9270,
  "ficie": 48427,
  "ficiencia": 1963,
  "ficiencias": 21255,
  "ficiency": 30577,
  "ficient": 34658,
  "ficiente": 2457,
  "ficientemente": 9286,
  "ficientes": 5583,
  "ficile": 27901,
  "ficio": 5581,
  "ficios": 7692,
  "ficit": 5153,
  "ficits": 18015,
  "fico": 1621,
  "ficos": 1834,
  "fida": 28863,
  "fiebre": 45416,
  "fied": 27492,
  "field": 16285,
  "fiere": 26621,
  "fig": 12426,
  "figo": 45696,
  "figur": 37433,
  "figura": 15129,
  "fil": 1796,
  "fila": 7121,
  "filas": 47862,
  "filaxia": 24266,
  "filaxis": 9072,
  "file": 21126,
  "files": 34365,
  "filia": 10759,
  "filina": 27668,
  "filis": 14975,
  "filling": 49460,
  "film": 40363,
  "filo": 12081,
  "filos": 11381,
  "filtraciÃ³n": 24147,
  "fin": 5558,
  "fina": 15288,
  "final": 40011,
  "finales": 37106,
  "financi": 22186,
  "fines": 39434,
  "fir": 29394,
  "fis": 8902,
  "fisi": 10174,
  "fisio": 46043,
  "fisiologÃŃa": 18312,
  "fisis": 18424,
  "fit": 18504,
  "fito": 31638,
  "fitos": 31094,
  "fits": 41916,
  "fl": 11902,
  "fla": 47289,
  "flama": 41377,
  "flav": 39946,
  "fle": 10116,
  "flecha": 46163,
  "fleja": 46698,
  "flex": 16173,
  "flexia": 45393,
  "flexiÃ³n": 48532,
  "flix": 29512,
  "flo": 10738,
  "flor": 43769,
  "flora": 32912,
  "floxaci": 13598,
  "floxacina": 32551,
  "floxacino": 17645,
  "flozina": 35105,
  "flu": 10634,
  "flujo": 35476,
  "fluor": 32729,
  "fluoro": 27450,
  "fluorome": 47840,
  "fo": 1859,
  "fobia": 13945,
  "foc": 16314,
  "focal": 32706,
  "focales": 43857,
  "foidea": 36662,
  "fol": 7235,
  "foli": 49961,
  "folia": 28801,
  "folio": 31978,
  "fols": 49381,
  "folÃŃp": 24664,
  "folÃŃpido": 44857,
  "folÃŃpidos": 32970,
  "fon": 4725,
  "fondo": 38771,
  "fono": 6931,
  "fonos": 12948,
  "fonso": 9624,
  "fonÃŃa": 22428,
  "foque": 31414,
  "for": 1605,
  "fora": 28314,
  "foras": 49585,
  "ford": 9664,
  "fore": 20828,
  "fores": 23834,
  "foresis": 26690,
  "foria": 27292,
  "form": 2503,
  "forma": 4024,
  "formaciones": 9858,
  "formaciÃ³n": 6547,
  "formance": 20380,
  "formas": 12351,
  "forme": 5001,
  "formed": 23250,
  "formes": 13949,
  "formidad": 25599,
  "formina": 16162,
  "fornia": 8549,
  "foro": 11336,
  "foros": 35410,
  "fort": 23856,
  "fortun": 41685,
  "fortunadamente": 13199,
  "fos": 5632,
  "fosf": 14586,
  "fosfa": 31017,
  "fosfamida": 24045,
  "fosfatemia": 47049,
  "fosfato": 24663,
  "fosfonatos": 25718,
  "foter": 30543,
  "fotericina": 31097,
  "foto": 36986,
  "four": 41986,
  "fovir": 43975,
  "fr": 2271,
  "fra": 20306,
  "frac": 21807,
  "frag": 13448,
  "fran": 29725,
  "frar": 37507,
  "fras": 35310,
  "fre": 6779,
  "frecu": 38603,
  "frecuencia": 29452,
  "free": 39744,
  "fren": 34367,
  "frenia": 8827,
  "frente": 41041,
  "fres": 41826,
  "fri": 11102,
  "frica": 6620,
  "frina": 23626,
  "fritis": 20206,
  "fro": 6505,
  "fron": 18251,
  "frontal": 27256,
  "fronter": 45235,
  "fru": 19695,
  "fruc": 49929,
  "frÃ¡n": 47803,
  "frÃŃo": 43176,
  "frÃŃos": 24617,
  "fs": 25216,
  "ft": 5187,
  "ftal": 33356,
  "fting": 21272,
  "fts": 43661,
  "ftware": 7710,
  "fu": 9505,
  "fue": 31604,
  "fuegos": 16730,
  "fuente": 32207,
  "fuentes": 37812,
  "fuer": 25978,
  "fuera": 47388,
  "fuerza": 48308,
  "fuerzo": 29170,
  "ful": 17986,
  "fum": 28254,
  "fun": 1792,
  "funcional": 35013,
  "funcionales": 49130,
  "funciones": 48429,
  "funciÃ³n": 19562,
  "function": 37700,
  "fund": 21953,
  "fundador": 39357,
  "fundam": 30962,
  "fundamentalmente": 48798,
  "fungina": 39934,
  "fur": 19432,
  "fus": 9680,
  "fusion": 50173,
  "fusiÃ³n": 5325,
  "fy": 41825,
  "fyc": 46207,
  "fÃ¡": 27002,
  "fÃ¡l": 10119,
  "fÃ¡rmacos": 23126,
  "fÃ©": 6597,
  "fÃ©resis": 35230,
  "fÃ³b": 47019,
  "fÃ³n": 47360,
  "fÃ³nica": 26044,
  "fÃŃ": 17390,
  "fÃŃa": 1591,
  "fÃŃas": 6285,
  "fÃŃcil": 47588,
  "fÃŃlica": 31826,
  "fÃŃlico": 46759,
  "fÃŃlicos": 47609,
  "fÃŃn": 18432,
  "fÃŃs": 22830,
  "fÃŃsica": 20571,
  "fÃŃsico": 38423,
  "fÃŃsicos": 49671,
  "g": 74,
  "ga": 626,
  "gaba": 18675,
  "gabal": 38510,
  "gabalina": 40791,
  "gaban": 40097,
  "gable": 17631,
  "gables": 36618,
  "gaciones": 15575,
  "gaciÃ³n": 3711,
  "gad": 22379,
  "gada": 2795,
  "gadas": 7048,
  "gadez": 47562,
  "gado": 1628,
  "gador": 13595,
  "gadores": 20964,
  "gados": 4781,
  "gadura": 31078,
  "gal": 3755,
  "gale": 44105,
  "gales": 16196,
  "galia": 15645,
  "gall": 39979,
  "galo": 19057,
  "galovirus": 26108,
  "galus": 33762,
  "gamiento": 17945,
  "gamma": 39695,
  "gamos": 7612,
  "gan": 672,
  "gana": 32672,
  "gancia": 22272,
  "ganda": 20202,
  "gando": 8765,
  "ganeso": 35131,
  "gangl": 44249,
  "ganistÃ¡n": 37555,
  "gano": 19087,
  "ganos": 20009,
  "ganta": 9873,
  "gante": 16601,
  "gantes": 13142,
  "gar": 749,
  "gara": 20420,
  "garan": 45753,
  "gard": 42892,
  "garia": 36912,
  "garo": 39266,
  "garon": 14103,
  "garra": 48657,
  "garse": 10727,
  "garÃ¡": 23401,
  "gas": 1420,
  "gascar": 50099,
  "gase": 27617,
  "gat": 23464,
  "gata": 41682,
  "gate": 23801,
  "gaz": 29145,
  "gazine": 39316,
  "gby": 44213,
  "ge": 1247,
  "geal": 35132,
  "geci": 39237,
  "ged": 20459,
  "gel": 2715,
  "geles": 33502,
  "gelo": 34977,
  "gem": 10948,
  "gement": 16136,
  "gen": 769,
  "gena": 11960,
  "genas": 39370,
  "genasa": 28296,
  "gencia": 14953,
  "gencias": 30708,
  "gencio": 42882,
  "gency": 18154,
  "genda": 11705,
  "gene": 30659,
  "gener": 14488,
  "genera": 6030,
  "generacional": 49573,
  "generaciÃ³n": 27475,
  "generalmente": 32309,
  "genes": 2897,
  "genesia": 32093,
  "genia": 10510,
  "genic": 37447,
  "genicidad": 28742,
  "genio": 28277,
  "genital": 27440,
  "geno": 3302,
  "genos": 7366,
  "gens": 41014,
  "gente": 16374,
  "gentes": 22541,
  "gentina": 5065,
  "gento": 46948,
  "genÃ©tica": 25169,
  "genÃ©tico": 41491,
  "geo": 47361,
  "ger": 1755,
  "gers": 22949,
  "gery": 19903,
  "ges": 1864,
  "gesia": 10967,
  "gesta": 42832,
  "gestion": 26501,
  "gestiva": 19023,
  "gestiÃ³n": 8360,
  "gestrel": 48060,
  "get": 5645,
  "gg": 23621,
  "gger": 45977,
  "gh": 17253,
  "gi": 871,
  "gia": 1559,
  "gias": 2579,
  "gible": 28372,
  "gibles": 33358,
  "gibre": 22100,
  "gic": 28715,
  "gica": 10560,
  "gicas": 31040,
  "gico": 25060,
  "gicos": 32803,
  "gida": 25773,
  "gidas": 41191,
  "gido": 16504,
  "gidos": 29108,
  "gie": 34199,
  "giendo": 12321,
  "gieron": 10372,
  "gies": 23690,
  "gil": 13812,
  "gillus": 30519,
  "gilosis": 43740,
  "gimiento": 17397,
  "gin": 3578,
  "gina": 5257,
  "ginal": 6622,
  "ginar": 47737,
  "ginec": 41196,
  "ging": 18553,
  "ginina": 30753,
  "ginosa": 17858,
  "ginoso": 32308,
  "gins": 34893,
  "gio": 1903,
  "gional": 9398,
  "gios": 5901,
  "gip": 21940,
  "gir": 25220,
  "gis": 8962,
  "gisla": 26617,
  "gistro": 45427,
  "gital": 26063,
  "gitis": 26263,
  "gitud": 36232,
  "givers": 36461,
  "giÃ³": 7480,
  "gl": 2043,
  "gla": 10261,
  "glaterra": 10838,
  "gle": 14974,
  "gles": 4668,
  "glesia": 7525,
  "glesias": 13950,
  "gli": 7201,
  "glia": 33411,
  "glic": 12139,
  "glicemia": 36707,
  "glicer": 21777,
  "glicerina": 41058,
  "glicol": 30174,
  "gliflozina": 44634,
  "glios": 9338,
  "gliptina": 39422,
  "glitazona": 46315,
  "glo": 47621,
  "glob": 6053,
  "globina": 8472,
  "globulina": 30032,
  "globulinemia": 46408,
  "glomer": 25345,
  "glos": 47852,
  "glu": 19630,
  "gluc": 7522,
  "gluce": 19373,
  "glucemia": 9601,
  "gluciÃ³n": 20712,
  "glucosa": 47672,
  "gly": 35319,
  "glÃ©s": 3998,
  "gma": 9284,
  "gmail": 31934,
  "gmas": 35060,
  "gn": 578,
  "gna": 20978,
  "gne": 45558,
  "gner": 34440,
  "gnos": 39722,
  "gnÃ¡tica": 47952,
  "go": 416,
  "goa": 49691,
  "gob": 25073,
  "goci": 21640,
  "godepen": 20859,
  "gogÃŃa": 21115,
  "going": 43713,
  "gol": 15881,
  "gom": 45453,
  "gon": 2988,
  "gonal": 48763,
  "gones": 43161,
  "gonz": 36663,
  "gonÃ©s": 28450,
  "gor": 2203,
  "gora": 38485,
  "gorit": 9974,
  "gos": 860,
  "goso": 48042,
  "gosto": 4953,
  "gota": 42653,
  "gote": 43358,
  "goto": 42665,
  "gotos": 39351,
  "gov": 15012,
  "govia": 24335,
  "gow": 29821,
  "goÃ±a": 31656,
  "gr": 750,
  "gra": 699,
  "graciadamente": 36280,
  "gracias": 20643,
  "graciÃ³n": 39113,
  "grad": 7038,
  "grada": 21519,
  "grade": 42574,
  "grado": 3919,
  "grados": 15256,
  "graf": 36674,
  "grafi": 30404,
  "grafia": 27532,
  "grafo": 36003,
  "grafÃŃa": 2589,
  "grafÃŃas": 7871,
  "gram": 9717,
  "grama": 3448,
  "gramaciÃ³n": 37759,
  "gramas": 11698,
  "gramo": 46879,
  "gramos": 15399,
  "gran": 3910,
  "grandes": 48960,
  "grantes": 6674,
  "graph": 46501,
  "graphic": 25897,
  "graphy": 32582,
  "gras": 11184,
  "grasa": 42526,
  "grave": 28569,
  "gre": 1186,
  "gree": 39896,
  "gregaciÃ³n": 47600,
  "grel": 17437,
  "gren": 18336,
  "gres": 949,
  "gresiones": 44664,
  "gresiÃ³n": 26162,
  "greso": 1898,
  "gresos": 9085,
  "gress": 31183,
  "gri": 10335,
  "grid": 49317,
  "grim": 20573,
  "gro": 4131,
  "gros": 7403,
  "grosa": 43011,
  "ground": 28030,
  "gru": 20768,
  "grupo": 10086,
  "grupos": 14870,
  "grÃ¡": 3018,
  "grÃ¡fica": 6899,
  "grÃ¡ficamente": 40774,
  "grÃ¡ficas": 7350,
  "grÃ¡fico": 9442,
  "grÃ¡ficos": 9743,
  "grÃŃa": 9387,
  "gs": 11427,
  "gth": 25934,
  "gu": 432,
  "gua": 3129,
  "guage": 39443,
  "guaje": 31661,
  "gual": 1687,
  "guan": 24029,
  "guar": 7190,
  "guardia": 13845,
  "guas": 17016,
  "guay": 8320,
  "guaya": 43376,
  "guayo": 38263,
  "gue": 1391,
  "gueal": 37913,
  "guen": 3532,
  "guenza": 41672,
  "guer": 15670,
  "guera": 9055,
  "gueras": 29311,
  "guero": 15563,
  "gueroa": 29192,
  "gueros": 33022,
  "guerra": 36742,
  "gues": 7863,
  "guesa": 31562,
  "guesas": 36873,
  "gueses": 38359,
  "guez": 3098,
  "gui": 851,
  "guicidas": 27054,
  "guida": 17488,
  "guido": 18954,
  "guidos": 33303,
  "guien": 4088,
  "guiendo": 35067,
  "guila": 29808,
  "guimiento": 19390,
  "guimos": 15887,
  "guin": 13416,
  "guinal": 20363,
  "guir": 2292,
  "guiremos": 29460,
  "guirre": 18209,
  "guita": 40181,
  "guito": 18102,
  "guiÃ³": 29876,
  "gular": 10730,
  "gulares": 25271,
  "gulo": 8618,
  "gulos": 25294,
  "gum": 5685,
  "gun": 575,
  "guna": 11293,
  "gunas": 18534,
  "guno": 23136,
  "gunos": 26624,
  "guo": 22818,
  "guos": 39531,
  "gur": 1100,
  "gura": 2327,
  "gure": 21860,
  "gures": 31628,
  "guria": 47410,
  "guridad": 1694,
  "guro": 9255,
  "guros": 21123,
  "gus": 6060,
  "guÃ¡": 44615,
  "guÃ©": 17018,
  "guÃ©s": 42479,
  "guÃŃa": 28682,
  "guÃŃn": 3288,
  "gy": 10666,
  "gypti": 24535,
  "gÃ¡is": 29650,
  "gÃ¡ndose": 42004,
  "gÃ¡s": 24177,
  "gÃ¡strico": 36789,
  "gÃ©n": 2764,
  "gÃ©nero": 37380,
  "gÃ©nesis": 11918,
  "gÃ©nica": 12536,
  "gÃ©nicas": 20105,
  "gÃ©nico": 12266,
  "gÃ©nicos": 12091,
  "gÃ©s": 6938,
  "gÃ³": 5520,
  "gÃ³g": 10648,
  "gÃ³n": 17129,
  "gÃº": 19820,
  "gÃºn": 778,
  "gÃºrate": 42210,
  "gÃºrese": 26535,
  "gÃ¼": 5704,
  "gÃ¼edad": 12625,
  "gÃ¼enza": 15735,
  "gÃ¼ey": 17190,
  "gÃŃa": 1019,
  "h": 75,
  "ha": 1147,
  "hab": 17534,
  "habi": 16011,
  "habilit": 3802,
  "habilitaciÃ³n": 4282,
  "haca": 43805,
  "hace": 31327,
  "hacer": 11974,
  "haci": 36096,
  "hada": 19364,
  "hadas": 49880,
  "hai": 39356,
  "hal": 10405,
  "halo": 44638,
  "ham": 7215,
  "han": 7957,
  "hance": 46316,
  "hans": 34894,
  "har": 14263,
  "hara": 23210,
  "hard": 29226,
  "hart": 48385,
  "has": 16204,
  "hasta": 14031,
  "hat": 4555,
  "hats": 24208,
  "haus": 9491,
  "hav": 23095,
  "havi": 13922,
  "havio": 29881,
  "haw": 44149,
  "hay": 13251,
  "he": 654,
  "hea": 38718,
  "head": 31982,
  "health": 28690,
  "hecimento": 42422,
  "hed": 18889,
  "heim": 20832,
  "heimer": 4074,
  "hel": 14985,
  "hem": 36221,
  "hema": 27276,
  "hemo": 21533,
  "hemoglobina": 38943,
  "hemor": 38522,
  "hemos": 40212,
  "hen": 13934,
  "hens": 31151,
  "hensive": 39392,
  "hepatitis": 34200,
  "hepÃ¡tica": 38907,
  "her": 2757,
  "herencia": 32258,
  "hes": 27196,
  "heter": 47975,
  "heuma": 41828,
  "hex": 24537,
  "hexidina": 35599,
  "hey": 47377,
  "hh": 21024,
  "hi": 1902,
  "hib": 7577,
  "hibi": 5288,
  "hibiciÃ³n": 13756,
  "hibir": 11602,
  "hibiÃ³": 37395,
  "hid": 3819,
  "hidra": 5414,
  "hidrataciÃ³n": 29971,
  "hidrato": 25890,
  "hidro": 9217,
  "hidrogenasa": 32072,
  "hidrosis": 30143,
  "hidroxi": 25961,
  "hijo": 37762,
  "hil": 48153,
  "hile": 23440,
  "him": 40312,
  "hima": 35325,
  "hin": 25637,
  "hio": 50259,
  "hip": 10806,
  "hiper": 9357,
  "hipertens": 14712,
  "hipertensiÃ³n": 35220,
  "hipo": 17468,
  "hips": 34318,
  "hire": 34859,
  "his": 9863,
  "hisp": 46044,
  "hist": 27697,
  "hista": 16981,
  "histo": 18670,
  "historia": 29374,
  "hit": 20098,
  "hite": 18182,
  "hitney": 27743,
  "hl": 15920,
  "hm": 41435,
  "hman": 38231,
  "hn": 4558,
  "ho": 1958,
  "hog": 44252,
  "hol": 20942,
  "hold": 39348,
  "hom": 23688,
  "hombre": 44586,
  "hombres": 49125,
  "home": 44540,
  "hon": 17175,
  "honda": 35216,
  "hoo": 35119,
  "hood": 20720,
  "hop": 27028,
  "hor": 5298,
  "hora": 13179,
  "horabuena": 15774,
  "horas": 47789,
  "horm": 27168,
  "hormona": 44553,
  "hort": 21757,
  "hos": 11584,
  "hospital": 9195,
  "hospitalaria": 16143,
  "hospitalarias": 31288,
  "hospitalario": 24513,
  "hospitalarios": 43352,
  "hot": 28559,
  "hotmail": 37079,
  "hou": 34212,
  "house": 37757,
  "hout": 18412,
  "how": 38631,
  "hoy": 24604,
  "hr": 13619,
  "hringer": 33078,
  "hs": 29159,
  "ht": 4531,
  "htm": 20107,
  "html": 15202,
  "htt": 20198,
  "http": 25432,
  "https": 42376,
  "hu": 7655,
  "hua": 16440,
  "huahua": 34241,
  "huana": 17047,
  "hue": 20879,
  "hum": 17947,
  "human": 38957,
  "hy": 11844,
  "hydro": 47146,
  "hyth": 44101,
  "hÃŃ": 14962,
  "hÃŃa": 18660,
  "hÃŃdrico": 41355,
  "i": 76,
  "ia": 403,
  "iabilidad": 9919,
  "iability": 38044,
  "iaciÃ³n": 13488,
  "iada": 10152,
  "iadas": 15374,
  "iado": 3990,
  "iados": 15361,
  "iae": 35949,
  "iagn": 23063,
  "iaje": 49387,
  "ial": 1938,
  "iales": 10504,
  "iamente": 21422,
  "iamos": 36072,
  "ian": 5180,
  "iana": 7110,
  "ianas": 20209,
  "iano": 7115,
  "ianos": 14156,
  "ianzas": 24447,
  "iar": 1627,
  "iares": 2416,
  "ias": 1140,
  "iasis": 7062,
  "iasta": 45910,
  "iation": 39416,
  "iato": 28711,
  "iatric": 29776,
  "iatrÃŃa": 14639,
  "iaÃ§Ã£o": 39442,
  "ib": 958,
  "iba": 30877,
  "ibal": 45512,
  "iber": 12711,
  "ibil": 5605,
  "ibilidad": 1951,
  "ible": 1508,
  "iblemente": 12468,
  "ibles": 2384,
  "ibo": 36791,
  "ibol": 34136,
  "ibu": 38645,
  "ibus": 44665,
  "ic": 302,
  "ica": 391,
  "icaciones": 9143,
  "icaciÃ³n": 1547,
  "icada": 32905,
  "icado": 10505,
  "icados": 42760,
  "ical": 1655,
  "icales": 5255,
  "ically": 45302,
  "icamente": 1916,
  "ican": 4362,
  "icana": 3364,
  "icanas": 12787,
  "icano": 4702,
  "icanos": 5884,
  "icans": 27260,
  "icar": 2652,
  "icarb": 16438,
  "icarbonato": 17276,
  "icardia": 8856,
  "icardias": 29642,
  "icas": 635,
  "icciones": 32685,
  "icciÃ³n": 8372,
  "ice": 2650,
  "icela": 13647,
  "icemos": 38566,
  "icen": 7698,
  "iceps": 32249,
  "ices": 5495,
  "ich": 2651,
  "icha": 6700,
  "ichael": 14177,
  "ichas": 43843,
  "iche": 34414,
  "ichi": 37342,
  "ichia": 20178,
  "ichos": 37652,
  "ici": 419,
  "icia": 2260,
  "icial": 30780,
  "iciales": 40445,
  "ician": 30312,
  "icians": 24182,
  "icias": 20555,
  "iciclina": 37022,
  "icida": 20035,
  "icidad": 2941,
  "icidades": 31180,
  "icidas": 19586,
  "icidio": 23352,
  "icidios": 30545,
  "icie": 30889,
  "iciembre": 19787,
  "icil": 4895,
  "icili": 8412,
  "icilia": 41999,
  "icilina": 10316,
  "icilinas": 35628,
  "icilio": 7236,
  "icillin": 36481,
  "icin": 34116,
  "icina": 6171,
  "icio": 1064,
  "icion": 7286,
  "icional": 14879,
  "iciones": 3693,
  "icios": 1272,
  "iciosa": 23432,
  "icioso": 17636,
  "icip": 3313,
  "icipios": 10431,
  "icis": 48279,
  "icismo": 27891,
  "icista": 45863,
  "icity": 27657,
  "iciÃ³n": 1182,
  "ick": 6412,
  "icke": 48615,
  "icks": 44639,
  "ico": 443,
  "icobacter": 19743,
  "icol": 23587,
  "icola": 27353,
  "icon": 19513,
  "icor": 30885,
  "icordia": 44561,
  "icos": 594,
  "icosis": 13071,
  "icosocial": 28024,
  "icoterapia": 29687,
  "icro": 1691,
  "icrobi": 5551,
  "ics": 8609,
  "ictus": 48764,
  "icul": 14675,
  "icula": 25901,
  "icular": 5141,
  "iculares": 15046,
  "iculas": 43133,
  "iculitis": 38683,
  "iculo": 19933,
  "icultura": 8170,
  "icum": 33620,
  "icus": 32176,
  "icz": 41352,
  "icÃ¡r": 15527,
  "icÃ©": 33693,
  "icÃŃlico": 18628,
  "id": 312,
  "ida": 452,
  "idable": 44401,
  "idaciÃ³n": 6714,
  "idad": 371,
  "idada": 18959,
  "idadas": 28233,
  "idade": 8491,
  "idades": 674,
  "idado": 7379,
  "idados": 5929,
  "idae": 18647,
  "idal": 7533,
  "idales": 30726,
  "idalgo": 17124,
  "idamente": 4544,
  "idan": 18237,
  "idance": 48016,
  "idando": 41464,
  "idante": 32525,
  "idantes": 35487,
  "idar": 11648,
  "idas": 1162,
  "idasa": 16161,
  "idato": 34941,
  "idazol": 16324,
  "idazolam": 34904,
  "ide": 948,
  "idea": 8094,
  "ideas": 17059,
  "idectomÃŃa": 34081,
  "idel": 7175,
  "idelidad": 22258,
  "idelines": 15523,
  "idemia": 31854,
  "iden": 1215,
  "idencia": 5418,
  "identa": 13661,
  "idente": 1918,
  "identes": 27977,
  "ideo": 4382,
  "ideos": 9116,
  "ider": 10375,
  "idera": 30329,
  "iderazgo": 43398,
  "ides": 2145,
  "idez": 6027,
  "idge": 31862,
  "idi": 8109,
  "idin": 24330,
  "idina": 10862,
  "idinas": 38926,
  "idio": 48965,
  "idis": 42108,
  "idismo": 9237,
  "iditis": 28665,
  "idity": 31938,
  "idney": 15760,
  "ido": 482,
  "idogrel": 20444,
  "idol": 32401,
  "idomida": 24717,
  "idona": 18918,
  "idor": 4992,
  "idora": 25209,
  "idores": 3649,
  "idorm": 42099,
  "idos": 743,
  "idosis": 13104,
  "idovudina": 41860,
  "idra": 36680,
  "ids": 17741,
  "idurÃŃa": 19188,
  "idÃ³n": 19234,
  "ie": 618,
  "iebre": 4101,
  "iebres": 38238,
  "ied": 10813,
  "iedad": 2506,
  "iedades": 30690,
  "ief": 39481,
  "iega": 35484,
  "iego": 16921,
  "iel": 5470,
  "ielo": 11162,
  "ien": 1293,
  "ience": 16841,
  "iencia": 9990,
  "iencias": 30756,
  "ienda": 2843,
  "iendan": 8480,
  "iendas": 10433,
  "iendo": 1853,
  "iene": 5222,
  "ienes": 7324,
  "iense": 18144,
  "iente": 2685,
  "ientemente": 34895,
  "ientes": 3358,
  "ients": 48461,
  "ier": 2783,
  "iera": 16475,
  "ieran": 22636,
  "iere": 34448,
  "ieres": 21508,
  "iero": 10006,
  "ieron": 5208,
  "ieros": 18618,
  "ierra": 8068,
  "ierÃŃa": 8303,
  "ies": 3117,
  "iese": 46121,
  "ieta": 29318,
  "iete": 28237,
  "ieu": 47964,
  "iev": 41601,
  "ieve": 12803,
  "ieves": 42838,
  "ieza": 4695,
  "if": 3375,
  "ife": 12925,
  "ifes": 22889,
  "iff": 43332,
  "ifi": 10979,
  "ific": 1156,
  "ifica": 1358,
  "ificaciones": 25458,
  "ificaciÃ³n": 2175,
  "ificada": 18044,
  "ificadas": 39050,
  "ificado": 11537,
  "ificados": 14694,
  "ifican": 43865,
  "ificante": 28356,
  "ificantes": 48251,
  "ificar": 6294,
  "ification": 23314,
  "ifique": 35535,
  "iflor": 41237,
  "iforme": 38969,
  "iformes": 39406,
  "ift": 34237,
  "ig": 510,
  "iga": 4237,
  "igan": 12447,
  "igas": 19415,
  "ige": 21812,
  "igen": 7520,
  "igencia": 13763,
  "igeno": 19572,
  "igente": 41148,
  "iger": 24563,
  "igh": 10573,
  "ight": 8342,
  "ighting": 42886,
  "ightingale": 48709,
  "ights": 34194,
  "igi": 49064,
  "igilancia": 10370,
  "igma": 42461,
  "ign": 2617,
  "igna": 5340,
  "ignas": 18114,
  "igne": 32510,
  "igno": 9287,
  "ignos": 9240,
  "igo": 10406,
  "igra": 26558,
  "igu": 33912,
  "igual": 7563,
  "igue": 5028,
  "igur": 5790,
  "ih": 46176,
  "ii": 7476,
  "iii": 31910,
  "ij": 10751,
  "ije": 42588,
  "ijing": 42752,
  "ijo": 49734,
  "ijÃ³n": 28137,
  "ik": 8795,
  "ika": 12149,
  "iki": 14096,
  "ikipedia": 49017,
  "ikungunya": 24888,
  "il": 408,
  "ila": 3550,
  "ilable": 21452,
  "ilaciÃ³n": 5951,
  "ilada": 23710,
  "iladel": 14567,
  "iladelfia": 29961,
  "iladelphia": 18711,
  "ilado": 43286,
  "ilan": 24005,
  "ilancia": 5023,
  "ilandia": 32773,
  "ilar": 3151,
  "ilares": 15409,
  "ilas": 24562,
  "ilateral": 15159,
  "ilates": 20214,
  "ilato": 35474,
  "ild": 5276,
  "ile": 2916,
  "ilea": 49348,
  "iled": 28385,
  "iler": 27953,
  "ilera": 25513,
  "ilers": 42186,
  "iles": 6828,
  "iley": 27759,
  "ili": 7492,
  "ilia": 39792,
  "ilidad": 9894,
  "iliencia": 24279,
  "ilina": 37134,
  "ilio": 22531,
  "ilios": 29263,
  "ilips": 35824,
  "ilis": 45941,
  "ilitros": 44493,
  "ill": 3015,
  "illa": 3132,
  "illado": 20814,
  "illan": 18861,
  "illance": 27289,
  "illar": 28355,
  "illas": 6381,
  "ille": 19059,
  "iller": 10322,
  "illerato": 20767,
  "illo": 3867,
  "illos": 8573,
  "ills": 34508,
  "illus": 28983,
  "illy": 44043,
  "illÃ³n": 48970,
  "ilo": 4540,
  "ilos": 37716,
  "ils": 28939,
  "ilure": 18116,
  "ilvania": 34519,
  "ily": 22013,
  "ilÃ¡n": 41661,
  "im": 535,
  "ima": 2206,
  "imagen": 17621,
  "imal": 16341,
  "imamente": 13216,
  "iman": 29682,
  "imar": 32886,
  "imas": 4864,
  "imato": 32043,
  "ime": 7233,
  "imed": 45613,
  "imen": 5563,
  "imeno": 48076,
  "imentaciÃ³n": 45466,
  "imental": 37163,
  "imer": 3393,
  "imes": 43403,
  "imetrÃŃa": 34866,
  "imi": 4971,
  "imia": 20155,
  "imiento": 3272,
  "imientos": 11791,
  "imilar": 18971,
  "imili": 47342,
  "imilitud": 49673,
  "imismo": 3053,
  "immun": 43714,
  "imnas": 11888,
  "imo": 2015,
  "imod": 48901,
  "imon": 37211,
  "imos": 3377,
  "imp": 6810,
  "impan": 34174,
  "imped": 44395,
  "implan": 24600,
  "implante": 49872,
  "impor": 26529,
  "importante": 40984,
  "impres": 32810,
  "imumab": 34789,
  "imus": 16241,
  "imÃ©": 22631,
  "imÃ©nez": 41113,
  "imÃ©trica": 31140,
  "imÃ³n": 49159,
  "in": 286,
  "ina": 603,
  "inaciÃ³n": 22758,
  "inada": 24924,
  "inadas": 30403,
  "inado": 11027,
  "inados": 16272,
  "inal": 2334,
  "inaldo": 48873,
  "inales": 22198,
  "inalmente": 31891,
  "inamarca": 45549,
  "inamiento": 41378,
  "inan": 41489,
  "inando": 40686,
  "inar": 2636,
  "inares": 20563,
  "inaria": 11515,
  "inarias": 21438,
  "inariedad": 45569,
  "inario": 9433,
  "inarios": 16071,
  "inary": 25909,
  "inas": 1448,
  "inasa": 19922,
  "inasas": 41702,
  "inastÃŃa": 27869,
  "inato": 43119,
  "inc": 6611,
  "inch": 27579,
  "incip": 891,
  "incl": 9251,
  "incluida": 47387,
  "incluido": 45133,
  "incluidos": 38470,
  "incluso": 25223,
  "incluyendo": 18179,
  "incones": 34146,
  "incre": 42759,
  "incron": 25650,
  "incu": 15994,
  "incÃ³n": 21048,
  "ind": 7223,
  "inda": 23615,
  "indd": 16920,
  "index": 15754,
  "indi": 22156,
  "indic": 5364,
  "indica": 26313,
  "individual": 47469,
  "indo": 11617,
  "indows": 16767,
  "induced": 32229,
  "industri": 44226,
  "industria": 22224,
  "ine": 1443,
  "inea": 19981,
  "ineal": 20429,
  "inec": 4432,
  "ined": 27650,
  "inefrina": 29399,
  "inemia": 13587,
  "inen": 45542,
  "ineos": 42490,
  "iner": 15300,
  "inero": 27779,
  "ineros": 42147,
  "inerÃŃa": 33376,
  "ines": 4746,
  "iness": 21647,
  "inete": 15764,
  "inetes": 37302,
  "ineuro": 33894,
  "inf": 2082,
  "infantil": 33511,
  "infarto": 30598,
  "infec": 17110,
  "infecciones": 42032,
  "infecciÃ³n": 21484,
  "infer": 35806,
  "inferior": 42302,
  "infl": 48412,
  "inflama": 6579,
  "inflamaciÃ³n": 31191,
  "inflamatorios": 37252,
  "influen": 49772,
  "info": 31147,
  "inform": 18558,
  "informaciÃ³n": 39238,
  "informÃ¡tica": 35964,
  "ing": 930,
  "inga": 13152,
  "ingas": 27199,
  "inge": 9522,
  "ingen": 22787,
  "ingenierÃŃa": 34957,
  "inger": 12183,
  "inges": 40687,
  "ingi": 7387,
  "ingitis": 8936,
  "ingo": 10306,
  "ingos": 25177,
  "ingres": 15967,
  "ings": 11191,
  "ington": 9111,
  "ingu": 29283,
  "ingual": 34128,
  "ingÃ¼": 10388,
  "ingÃ¼ÃŃstica": 39820,
  "inhib": 41839,
  "inho": 49074,
  "ini": 9426,
  "inia": 39407,
  "inida": 38066,
  "inidad": 11390,
  "inilla": 33867,
  "ining": 15770,
  "inio": 12585,
  "inis": 32341,
  "inista": 49581,
  "inizaciÃ³n": 39904,
  "injer": 24982,
  "injerto": 34822,
  "injertos": 43152,
  "ink": 20789,
  "inmun": 6469,
  "inmuno": 43637,
  "ino": 1067,
  "inoa": 40537,
  "inoides": 31668,
  "inois": 33834,
  "inol": 27076,
  "inoplastia": 14298,
  "inos": 2839,
  "inosa": 46281,
  "inosas": 18227,
  "inosidad": 27454,
  "inosos": 23105,
  "ins": 4045,
  "insa": 19464,
  "inseng": 39092,
  "inska": 45075,
  "inski": 39492,
  "insky": 43879,
  "inst": 21677,
  "instein": 22908,
  "institu": 27894,
  "institucional": 43285,
  "insuficiencia": 44767,
  "int": 8140,
  "inta": 10801,
  "inte": 40547,
  "integr": 42109,
  "integraciÃ³n": 44921,
  "intel": 44429,
  "inten": 19684,
  "intens": 26059,
  "inter": 6630,
  "interpre": 39567,
  "interrump": 28816,
  "intervalo": 29957,
  "intervenciÃ³n": 40999,
  "intes": 6334,
  "intestinal": 36834,
  "into": 23254,
  "intom": 7389,
  "intra": 41932,
  "ints": 27573,
  "inum": 40548,
  "inus": 41513,
  "invas": 35297,
  "investig": 29342,
  "inz": 32844,
  "inÃ¡mica": 48919,
  "inÃ¡p": 36218,
  "inÃ³": 18281,
  "io": 433,
  "ioides": 49940,
  "iol": 13308,
  "iology": 23641,
  "iologÃŃa": 10935,
  "ion": 790,
  "iona": 14864,
  "ionada": 34337,
  "ionado": 16097,
  "ionados": 34512,
  "ional": 1315,
  "ionales": 1223,
  "ionalmente": 37921,
  "ionar": 7785,
  "ionares": 29459,
  "ione": 22832,
  "ionella": 33682,
  "iones": 710,
  "ionista": 21500,
  "ionistas": 19620,
  "ions": 13724,
  "ior": 1230,
  "iores": 3407,
  "ios": 1060,
  "iosa": 9462,
  "iosas": 26058,
  "iosis": 14184,
  "iositis": 45388,
  "ioso": 12436,
  "iosos": 18794,
  "ioti": 48156,
  "ip": 4188,
  "ipe": 9626,
  "ipiÃ©": 27708,
  "ipiÃ©lago": 28811,
  "ipo": 34356,
  "ips": 34438,
  "ipse": 46139,
  "ipÃº": 37044,
  "ipÃºzcoa": 43618,
  "ique": 11042,
  "iquen": 25247,
  "iquÃ©": 46594,
  "ir": 422,
  "ira": 4612,
  "iras": 20763,
  "ird": 27809,
  "ire": 2880,
  "ired": 47879,
  "iremos": 30263,
  "ires": 8284,
  "iris": 48091,
  "irm": 1799,
  "irma": 3374,
  "irman": 8440,
  "iro": 5754,
  "iros": 20370,
  "irri": 36790,
  "irru": 15603,
  "irrub": 48662,
  "irrubina": 18083,
  "irs": 35095,
  "irse": 5506,
  "irÃ¡": 8335,
  "irÃ¡mi": 18798,
  "irÃ£o": 49866,
  "is": 311,
  "isa": 6940,
  "isal": 45191,
  "isas": 42213,
  "isation": 40198,
  "iscal": 45057,
  "isco": 11433,
  "iscos": 22377,
  "ise": 8165,
  "ised": 26440,
  "isema": 22418,
  "iser": 29733,
  "ises": 24804,
  "ish": 6941,
  "ished": 24165,
  "ishi": 47328,
  "ishing": 36615,
  "ishman": 22781,
  "ishmania": 37883,
  "isi": 4784,
  "isiera": 10050,
  "isimo": 25540,
  "isio": 33814,
  "ision": 13578,
  "isionado": 38071,
  "isiones": 12663,
  "isis": 991,
  "isiÃ³n": 3089,
  "isky": 49644,
  "isl": 2909,
  "isla": 10767,
  "ism": 12621,
  "ismo": 669,
  "ismos": 2329,
  "isms": 24972,
  "iso": 2482,
  "ison": 11409,
  "ispo": 24012,
  "iss": 12446,
  "issa": 32850,
  "isser": 31655,
  "isseria": 35181,
  "isson": 41649,
  "ist": 1021,
  "ista": 1053,
  "istad": 13960,
  "istades": 26910,
  "istag": 32536,
  "istan": 8047,
  "istance": 16729,
  "istant": 23081,
  "istas": 1485,
  "istaxis": 42122,
  "iste": 660,
  "isted": 43680,
  "istem": 28798,
  "istema": 3420,
  "istemas": 9504,
  "isten": 878,
  "istencia": 1435,
  "istencial": 49264,
  "istencias": 46727,
  "istent": 38824,
  "istente": 3333,
  "istentemente": 40688,
  "istentes": 3327,
  "ister": 23554,
  "istes": 10222,
  "isti": 2778,
  "istian": 20087,
  "istic": 28980,
  "istica": 46860,
  "isticas": 36405,
  "istics": 19826,
  "istida": 23498,
  "istido": 9076,
  "istiendo": 26049,
  "istieron": 33053,
  "istimos": 48404,
  "istir": 4280,
  "istiÃ³": 12189,
  "isto": 14878,
  "istol": 19450,
  "istolia": 33818,
  "ists": 21036,
  "istÃ¡n": 17147,
  "istÃ©mica": 40814,
  "istÃªncia": 41182,
  "istÃ³": 13793,
  "istÃ³bal": 20895,
  "istÃŃa": 9182,
  "istÃŃan": 14956,
  "it": 398,
  "ita": 1018,
  "itaciÃ³n": 8659,
  "itado": 15983,
  "ital": 2484,
  "itales": 5391,
  "itamina": 46417,
  "itamos": 21606,
  "itan": 3367,
  "itando": 32568,
  "itante": 49865,
  "itar": 1175,
  "itares": 35328,
  "itari": 22302,
  "itaria": 2581,
  "itariamente": 14422,
  "itarias": 6121,
  "itario": 2039,
  "itarios": 4333,
  "itarismo": 36890,
  "itas": 2744,
  "itat": 7224,
  "itative": 33908,
  "itch": 19802,
  "ite": 2593,
  "iten": 29575,
  "itenci": 16583,
  "iter": 11082,
  "ites": 6942,
  "ith": 2250,
  "ithas": 46899,
  "iti": 8076,
  "itia": 22190,
  "itial": 37360,
  "itiasis": 27176,
  "itiative": 38690,
  "ities": 12795,
  "ition": 25306,
  "itis": 2266,
  "itismo": 38874,
  "itiva": 19487,
  "itivamente": 33519,
  "itivas": 32591,
  "itivo": 15212,
  "itivos": 23298,
  "ito": 1581,
  "itol": 23123,
  "itologÃŃa": 24710,
  "itor": 3635,
  "itora": 47233,
  "itores": 11225,
  "itorio": 49215,
  "itos": 2112,
  "itosis": 21486,
  "itour": 28614,
  "itoÃŃna": 27703,
  "itra": 13305,
  "itrauma": 31680,
  "itro": 4159,
  "itromicina": 29353,
  "its": 11786,
  "itt": 28015,
  "itu": 49559,
  "itud": 8460,
  "ity": 2261,
  "itz": 15855,
  "itÃ©": 4125,
  "itÃ©s": 16875,
  "itÃ³": 42950,
  "itÃŃ": 24321,
  "iu": 33357,
  "ium": 10780,
  "ius": 23330,
  "iv": 434,
  "iva": 1645,
  "ivaca": 29321,
  "ivacaÃŃna": 34857,
  "ival": 11501,
  "ivalente": 29695,
  "ivamente": 4846,
  "ivan": 34111,
  "ivar": 38995,
  "ivas": 4477,
  "ive": 4753,
  "ived": 21505,
  "iveira": 33040,
  "ivel": 897,
  "iven": 33398,
  "iver": 8728,
  "ivers": 856,
  "iversario": 11031,
  "ivery": 37505,
  "ives": 16821,
  "ividad": 8922,
  "iving": 18881,
  "ivir": 28866,
  "ivo": 1939,
  "ivol": 35267,
  "ivolumab": 37642,
  "ivos": 2595,
  "iw": 25286,
  "iwÃ¡n": 42753,
  "ix": 6234,
  "ixa": 14239,
  "iy": 44758,
  "iz": 380,
  "iza": 2729,
  "izaba": 35582,
  "izable": 39301,
  "izacion": 28057,
  "izaciones": 9333,
  "izaciÃ³n": 1190,
  "izada": 5291,
  "izadas": 9795,
  "izado": 3521,
  "izador": 14107,
  "izadora": 37866,
  "izadores": 20457,
  "izados": 5572,
  "izales": 46067,
  "izamos": 28840,
  "izan": 7541,
  "izando": 12053,
  "izante": 13013,
  "izantes": 12660,
  "izar": 3027,
  "izaron": 19237,
  "izarro": 49819,
  "izarse": 17866,
  "izarÃ¡": 36947,
  "izas": 17064,
  "ization": 13708,
  "izca": 21235,
  "ize": 21476,
  "ized": 12535,
  "izer": 18375,
  "izo": 2547,
  "izofrenia": 40027,
  "izon": 8200,
  "izoph": 29167,
  "izophrenia": 31947,
  "izos": 18081,
  "izquier": 41557,
  "izquierda": 48325,
  "izumab": 16518,
  "izÃ¡ndose": 50033,
  "izÃ³": 12234,
  "iÃ¡": 11959,
  "iÃ¡n": 17395,
  "iÃ§Ã£o": 43519,
  "iÃ©": 46272,
  "iÃ©n": 9530,
  "iÃ©ndose": 14336,
  "iÃ³": 2532,
  "iÃ³n": 442,
  "iÃ³nica": 45694,
  "iÃĥ": 26115,
  "j": 77,
  "ja": 1026,
  "jaciÃ³n": 42917,
  "jada": 11121,
  "jadas": 17031,
  "jado": 5785,
  "jados": 13147,
  "jal": 10422,
  "jala": 15266,
  "jales": 35926,
  "jalÃ¡": 15194,
  "jama": 45020,
  "jamiento": 47338,
  "jamos": 30339,
  "jan": 3827,
  "jana": 25746,
  "jando": 14383,
  "jano": 11592,
  "janos": 16738,
  "jante": 39210,
  "jar": 2937,
  "jara": 37728,
  "jaro": 34615,
  "jaron": 33931,
  "jaros": 26862,
  "jarse": 18448,
  "jas": 1911,
  "jate": 30985,
  "je": 627,
  "jec": 8143,
  "jecimiento": 4218,
  "ject": 17299,
  "jection": 41511,
  "jective": 22192,
  "jectives": 46392,
  "jects": 23203,
  "jed": 23627,
  "jeda": 31182,
  "jedrez": 26357,
  "jeje": 19493,
  "jen": 34188,
  "jer": 649,
  "jera": 7488,
  "jeran": 41568,
  "jeras": 12813,
  "jerci": 39884,
  "jercicio": 49813,
  "jero": 4585,
  "jeron": 6181,
  "jeros": 7077,
  "jerÃŃa": 6449,
  "jerÃŃas": 33145,
  "jes": 5299,
  "jeta": 33963,
  "jetas": 47412,
  "jetivo": 26691,
  "jetivos": 34852,
  "jeto": 36131,
  "jetos": 24380,
  "ji": 19784,
  "jidad": 7530,
  "jillo": 24890,
  "jimo": 44233,
  "jo": 705,
  "jol": 20172,
  "joles": 38853,
  "jon": 43934,
  "jona": 50040,
  "jones": 48171,
  "jos": 1208,
  "josa": 35714,
  "joso": 43385,
  "jote": 36421,
  "ju": 2807,
  "juana": 39638,
  "juegos": 42421,
  "jun": 12774,
  "junio": 42104,
  "junta": 18611,
  "junto": 9342,
  "juntos": 33050,
  "jury": 24282,
  "jus": 2922,
  "juvenecimiento": 35070,
  "juvenil": 32831,
  "jÃ¡n": 46489,
  "jÃ³": 12600,
  "jÃ³n": 18054,
  "jÃ¶": 28346,
  "k": 78,
  "ka": 4009,
  "kacina": 45657,
  "kage": 42426,
  "kai": 45108,
  "kaia": 24945,
  "kal": 22538,
  "kan": 31077,
  "kar": 23683,
  "kas": 32801,
  "kawa": 50187,
  "ke": 2836,
  "ked": 25065,
  "kel": 18852,
  "kele": 35809,
  "keletal": 43125,
  "keley": 40898,
  "ken": 16394,
  "ker": 5798,
  "kers": 16928,
  "kert": 29814,
  "kes": 15848,
  "kespe": 44598,
  "kespeare": 44993,
  "ket": 15351,
  "keting": 9551,
  "kets": 32116,
  "key": 19069,
  "kg": 6578,
  "kh": 34733,
  "ki": 4474,
  "kia": 34389,
  "kide": 25648,
  "kidetza": 25839,
  "kin": 3534,
  "king": 6829,
  "kins": 14185,
  "kinson": 6109,
  "kinumab": 43341,
  "kir": 45592,
  "kira": 46504,
  "kis": 21437,
  "km": 43749,
  "kman": 41924,
  "ko": 5837,
  "kob": 49715,
  "kon": 47905,
  "kos": 41259,
  "kov": 20239,
  "kra": 44999,
  "ks": 3570,
  "ku": 21597,
  "kus": 40526,
  "ky": 7454,
  "l": 79,
  "la": 417,
  "lab": 16392,
  "laba": 36545,
  "labora": 40720,
  "labrada": 37116,
  "lac": 11639,
  "lace": 12828,
  "laces": 27646,
  "lach": 49978,
  "laciÃ³n": 4750,
  "lacta": 36945,
  "lada": 14416,
  "ladas": 22850,
  "lado": 5736,
  "lados": 16811,
  "lae": 28986,
  "lafa": 42173,
  "lafaxina": 43689,
  "lag": 40086,
  "laga": 8467,
  "lago": 10313,
  "lagos": 20804,
  "lah": 46179,
  "laje": 23543,
  "lam": 914,
  "lama": 5611,
  "lamaciÃ³n": 19456,
  "lamar": 47271,
  "lamento": 7365,
  "lamida": 49077,
  "lamiento": 43418,
  "lamos": 15623,
  "lamy": 28563,
  "lan": 639,
  "lana": 15093,
  "lanas": 43699,
  "land": 5988,
  "landa": 21117,
  "landes": 33186,
  "landesa": 50016,
  "landia": 16562,
  "lando": 10415,
  "lands": 37819,
  "landÃ©s": 36943,
  "lanes": 44740,
  "lano": 8230,
  "lanos": 16083,
  "lante": 3114,
  "lantes": 11157,
  "lanzapina": 35623,
  "lao": 39697,
  "lar": 816,
  "lara": 16425,
  "lard": 47346,
  "lares": 5739,
  "larse": 17744,
  "lary": 37606,
  "las": 722,
  "lasa": 46626,
  "lase": 41516,
  "lash": 23021,
  "lata": 33021,
  "late": 46345,
  "lateral": 38786,
  "latino": 49063,
  "lation": 36220,
  "lational": 47856,
  "lato": 24465,
  "latos": 33387,
  "lauc": 9386,
  "laucoma": 9738,
  "lav": 15690,
  "lava": 26820,
  "lavicular": 45894,
  "laxis": 41827,
  "lay": 19771,
  "laz": 1909,
  "laza": 17075,
  "lazamiento": 24486,
  "lazar": 18425,
  "lazo": 35279,
  "ld": 8641,
  "le": 345,
  "lea": 21907,
  "lear": 46358,
  "lebitis": 45398,
  "lec": 1544,
  "led": 9809,
  "ledge": 18995,
  "lee": 44909,
  "leep": 22984,
  "leg": 44240,
  "legal": 47936,
  "lege": 11837,
  "legi": 48537,
  "lego": 15390,
  "lein": 47003,
  "lemente": 23302,
  "len": 7015,
  "lence": 48667,
  "leo": 6341,
  "leon": 35600,
  "leos": 37564,
  "lepsia": 7729,
  "ler": 2017,
  "leras": 25876,
  "lero": 28335,
  "lerÃŃa": 9794,
  "les": 761,
  "lesa": 47169,
  "less": 32958,
  "let": 10026,
  "leta": 15109,
  "letas": 10799,
  "lete": 26116,
  "letes": 29082,
  "letin": 48477,
  "letismo": 24787,
  "leto": 13181,
  "letos": 25914,
  "leu": 19766,
  "leuc": 48135,
  "lex": 16084,
  "lexia": 30392,
  "lexiÃ³n": 33646,
  "ley": 6865,
  "lez": 3243,
  "lga": 9994,
  "li": 838,
  "lia": 25873,
  "liam": 10223,
  "liber": 37886,
  "lic": 737,
  "lica": 2618,
  "licamente": 47741,
  "licante": 10531,
  "lice": 17070,
  "licer": 44324,
  "lices": 34529,
  "lich": 30387,
  "liciÃ³n": 45876,
  "lick": 35507,
  "lico": 28093,
  "licÃ©r": 10930,
  "licÃ©ridos": 11088,
  "lid": 38835,
  "lido": 37146,
  "lie": 23536,
  "lier": 32203,
  "life": 47250,
  "lig": 4460,
  "light": 34766,
  "ligo": 35631,
  "like": 32096,
  "lim": 27416,
  "limi": 49967,
  "limp": 25427,
  "lin": 6522,
  "lina": 25046,
  "line": 4508,
  "linf": 43839,
  "ling": 13396,
  "lio": 26569,
  "lip": 22080,
  "lipo": 47259,
  "lips": 42092,
  "lique": 18126,
  "liquen": 24862,
  "lis": 21046,
  "lisis": 37772,
  "list": 37460,
  "lista": 26056,
  "lita": 6026,
  "litaxel": 27834,
  "litazona": 33796,
  "lite": 10772,
  "litis": 19642,
  "lito": 26664,
  "litos": 16586,
  "litus": 6338,
  "lium": 48401,
  "lix": 13134,
  "liximab": 30044,
  "liz": 49313,
  "ll": 3166,
  "lla": 2450,
  "llam": 26785,
  "llamente": 22227,
  "llas": 3633,
  "lle": 4652,
  "ller": 28071,
  "llevar": 27192,
  "llez": 26581,
  "llin": 32458,
  "llo": 4232,
  "llos": 11722,
  "llum": 34213,
  "llus": 19984,
  "lm": 29605,
  "lo": 384,
  "lob": 1959,
  "loba": 41890,
  "lobacter": 37484,
  "lobal": 9852,
  "loc": 19072,
  "locaciÃ³n": 31450,
  "lock": 33591,
  "locu": 22713,
  "log": 7945,
  "logan": 43476,
  "logia": 32316,
  "logical": 39440,
  "logo": 6414,
  "logos": 13332,
  "logy": 18472,
  "logÃŃa": 4276,
  "loide": 12857,
  "loj": 39733,
  "lon": 3422,
  "lones": 24316,
  "lop": 6711,
  "lopidogrel": 20918,
  "lopÃŃa": 47104,
  "lor": 2821,
  "lora": 42589,
  "lorca": 16312,
  "lori": 15229,
  "loro": 27115,
  "los": 652,
  "losa": 19338,
  "loso": 16781,
  "losos": 24685,
  "lot": 26034,
  "lotinib": 46387,
  "lov": 36819,
  "lova": 37434,
  "lovaquia": 41589,
  "low": 7663,
  "loween": 42348,
  "loy": 20518,
  "loyd": 42528,
  "ls": 9864,
  "lson": 32453,
  "lu": 1106,
  "lub": 9525,
  "luc": 20921,
  "luen": 20903,
  "luencia": 17219,
  "lujo": 12216,
  "luk": 47194,
  "lulas": 41078,
  "lum": 21865,
  "luorescencia": 38790,
  "lus": 16945,
  "lution": 48356,
  "lux": 31607,
  "luz": 47986,
  "ly": 2696,
  "lying": 22262,
  "lymp": 40417,
  "lyn": 27950,
  "lÃ¡n": 11499,
  "lÃ©": 25682,
  "lÃ©tico": 26168,
  "lÃ³": 22752,
  "lÃ³n": 11510,
  "lÃŃ": 8106,
  "lÃŃn": 8024,
  "lÃŃnica": 30517,
  "lÃŃnico": 19339,
  "m": 80,
  "mL": 17363,
  "ma": 376,
  "mac": 904,
  "macia": 3415,
  "macias": 7656,
  "maculada": 28000,
  "macÃŃa": 47965,
  "mad": 4671,
  "mada": 23430,
  "mado": 16364,
  "madol": 28411,
  "mados": 27318,
  "madre": 28774,
  "madrid": 47610,
  "madura": 9176,
  "maduras": 10292,
  "mael": 36665,
  "magem": 20785,
  "magn": 14834,
  "mago": 6113,
  "mail": 7776,
  "mal": 6944,
  "mala": 14283,
  "males": 23244,
  "mall": 21986,
  "malo": 42959,
  "mam": 32585,
  "mamente": 22790,
  "man": 831,
  "mana": 6179,
  "manas": 13615,
  "manchas": 48509,
  "manda": 46147,
  "mando": 44338,
  "manente": 18365,
  "manes": 14154,
  "mani": 49219,
  "mania": 6170,
  "mann": 9181,
  "mano": 6439,
  "manos": 6516,
  "mans": 43682,
  "mante": 13946,
  "mantes": 28241,
  "mantina": 43034,
  "manuel": 37329,
  "mar": 2771,
  "mara": 31773,
  "marc": 12904,
  "marca": 15366,
  "mari": 45026,
  "mark": 39554,
  "mart": 16416,
  "martph": 22031,
  "mary": 37451,
  "marÃŃa": 26526,
  "mas": 641,
  "masa": 39427,
  "masas": 29822,
  "mascar": 19078,
  "master": 50044,
  "mat": 36784,
  "mate": 22036,
  "material": 39965,
  "mation": 43117,
  "mato": 5675,
  "matologÃŃa": 7918,
  "matory": 29467,
  "matosis": 22894,
  "max": 20636,
  "may": 14398,
  "mayo": 43173,
  "mayor": 18885,
  "mayores": 46183,
  "mb": 561,
  "mbar": 48678,
  "mber": 24058,
  "mberg": 45942,
  "mbi": 1999,
  "mbito": 28303,
  "mbo": 27969,
  "mbran": 45281,
  "mbre": 20888,
  "mbres": 36130,
  "mbrolizumab": 40232,
  "mburgo": 35089,
  "me": 438,
  "mea": 27619,
  "mec": 21565,
  "med": 9713,
  "meda": 42532,
  "medad": 12901,
  "medades": 22399,
  "medi": 5664,
  "media": 2675,
  "mediana": 36246,
  "mediante": 33800,
  "medic": 16251,
  "medicaciÃ³n": 34901,
  "medicamento": 50113,
  "medicamentos": 35940,
  "medicina": 15677,
  "medicos": 48750,
  "medio": 3187,
  "medios": 6898,
  "medo": 43887,
  "medular": 41460,
  "mej": 6813,
  "mejo": 31049,
  "mejor": 16088,
  "mejorar": 47614,
  "mel": 13522,
  "melo": 16357,
  "memb": 27504,
  "membrana": 41443,
  "memor": 27085,
  "men": 2754,
  "mend": 20834,
  "menda": 18223,
  "mendamente": 33528,
  "mendations": 26553,
  "mended": 44643,
  "mendo": 31812,
  "menes": 29456,
  "meno": 11896,
  "menopa": 43335,
  "menopausia": 44955,
  "menopÃ¡us": 15632,
  "menopÃ¡usica": 43815,
  "menopÃ¡usicas": 18822,
  "menor": 22919,
  "menores": 40046,
  "menorrea": 43904,
  "menos": 18682,
  "mens": 4406,
  "menstr": 33151,
  "menstrual": 35913,
  "ment": 1117,
  "menta": 5857,
  "mentaciÃ³n": 4678,
  "mental": 9875,
  "mentales": 23810,
  "mentar": 31223,
  "mentaria": 16983,
  "mentation": 22251,
  "mente": 477,
  "mented": 46609,
  "mento": 1417,
  "mentos": 3054,
  "ments": 16505,
  "meo": 27966,
  "mer": 546,
  "mera": 4541,
  "meras": 16990,
  "merce": 48249,
  "merg": 3687,
  "mergen": 36721,
  "meria": 28417,
  "mero": 1255,
  "meros": 6094,
  "mers": 37818,
  "merÃŃa": 1779,
  "mes": 4262,
  "mesa": 46613,
  "meses": 44319,
  "mesis": 44394,
  "met": 24389,
  "meta": 28126,
  "metab": 30676,
  "metas": 46346,
  "metil": 12840,
  "metop": 42837,
  "metro": 4041,
  "metropÃŃa": 30552,
  "metros": 3285,
  "metrÃŃa": 9816,
  "metrÃŃas": 36591,
  "mework": 39234,
  "mex": 24112,
  "mez": 4932,
  "mg": 8954,
  "mi": 355,
  "mia": 1271,
  "mial": 42805,
  "mialgia": 7219,
  "miante": 28865,
  "miantes": 23485,
  "mias": 5635,
  "mible": 32031,
  "mic": 15280,
  "mica": 10160,
  "micas": 20676,
  "micina": 14231,
  "mico": 11591,
  "micos": 14670,
  "micro": 28560,
  "mid": 22022,
  "mida": 28658,
  "midales": 49413,
  "midt": 38515,
  "mie": 49344,
  "mien": 27531,
  "miendo": 22828,
  "mienta": 28427,
  "miento": 455,
  "mientos": 923,
  "miga": 36462,
  "migo": 8304,
  "migos": 12943,
  "migran": 42314,
  "mil": 6032,
  "mila": 45911,
  "milar": 2119,
  "miles": 35813,
  "mili": 12763,
  "miliano": 34211,
  "mill": 19985,
  "min": 492,
  "mina": 1923,
  "minaciÃ³n": 4023,
  "minal": 32696,
  "minar": 9783,
  "minas": 5163,
  "mine": 36410,
  "minente": 15859,
  "miner": 40782,
  "ming": 13573,
  "mingham": 23310,
  "minis": 1120,
  "ministas": 46882,
  "ministr": 1333,
  "ministra": 3814,
  "ministraciÃ³n": 49869,
  "ministro": 46714,
  "mino": 5070,
  "minof": 42809,
  "minos": 36180,
  "mio": 2322,
  "mios": 5987,
  "mioterapia": 27459,
  "miotrÃ³fica": 29582,
  "mir": 2452,
  "mira": 22291,
  "mirante": 39943,
  "mis": 1361,
  "misa": 32438,
  "misible": 42287,
  "misibles": 32122,
  "misiones": 26104,
  "misiÃ³n": 2931,
  "miso": 3862,
  "misos": 13645,
  "mission": 21602,
  "mistas": 26967,
  "mistry": 45411,
  "mit": 43474,
  "mita": 17505,
  "mite": 3833,
  "mites": 6339,
  "mith": 11369,
  "mitir": 22650,
  "mitis": 30124,
  "mito": 43315,
  "mitte": 20935,
  "mittee": 22115,
  "mix": 46971,
  "mizol": 38729,
  "ml": 5541,
  "mm": 8680,
  "mmHg": 37382,
  "mmy": 34955,
  "mn": 15759,
  "mo": 411,
  "moc": 46712,
  "mod": 26570,
  "modal": 33253,
  "modelo": 38813,
  "moder": 22138,
  "moderada": 44903,
  "modium": 30411,
  "moide": 28672,
  "mol": 5290,
  "molar": 50134,
  "mology": 48885,
  "mon": 1425,
  "monar": 10276,
  "mond": 25182,
  "monella": 19723,
  "mones": 45987,
  "monial": 24375,
  "moniales": 32489,
  "monio": 5543,
  "monios": 13203,
  "monitor": 40753,
  "monos": 43652,
  "mons": 18112,
  "mont": 36841,
  "monte": 27000,
  "mor": 1529,
  "mora": 17350,
  "moral": 21663,
  "morales": 32872,
  "more": 20422,
  "morf": 28818,
  "moros": 49739,
  "morph": 38802,
  "mortalidad": 10059,
  "mortem": 48806,
  "mos": 450,
  "mosa": 28623,
  "mosis": 15629,
  "moso": 40414,
  "moto": 41680,
  "movil": 41474,
  "mp": 364,
  "mpa": 15727,
  "mpas": 16546,
  "mpe": 39707,
  "mpl": 22622,
  "mple": 35024,
  "mpli": 10605,
  "mplimiento": 15905,
  "mpos": 31900,
  "ms": 4194,
  "msterdam": 49758,
  "mu": 10287,
  "muchas": 31367,
  "mucho": 35626,
  "muchos": 37610,
  "mudez": 47229,
  "muerte": 35634,
  "mueve": 42097,
  "mujer": 27304,
  "mujeres": 40832,
  "mul": 24728,
  "mun": 1324,
  "mund": 39056,
  "mundo": 25601,
  "munica": 22197,
  "munity": 14921,
  "mural": 38150,
  "mus": 7043,
  "muscular": 11561,
  "musculares": 19522,
  "mutaciÃ³n": 46885,
  "muy": 11603,
  "mx": 22789,
  "my": 19412,
  "mÃ¡": 1390,
  "mÃ¡genes": 3799,
  "mÃ¡n": 7901,
  "mÃ¡s": 789,
  "mÃ¡tica": 3330,
  "mÃ¡ticamente": 17936,
  "mÃ¡ticas": 5097,
  "mÃ¡tico": 6009,
  "mÃ¡ticos": 7149,
  "mÃ¡x": 38007,
  "mÃ¡ximo": 43782,
  "mÃ©": 12113,
  "mÃ©dico": 34612,
  "mÃ©dicos": 34021,
  "mÃ©tica": 23709,
  "mÃ©tico": 45199,
  "mÃ©ticos": 47918,
  "mÃ©todo": 46579,
  "mÃ³": 22306,
  "mÃ³lisis": 29075,
  "mÃ³n": 14314,
  "mÃ³r": 40495,
  "mÃ³s": 13877,
  "mÃŃ": 39696,
  "mÃŃn": 9032,
  "mÃŃnico": 28779,
  "mÃŃnicos": 16301,
  "n": 81,
  "na": 628,
  "nab": 10918,
  "nabis": 46787,
  "nacional": 41677,
  "nacionales": 49950,
  "naciÃ³n": 28160,
  "nada": 26565,
  "nado": 13385,
  "nae": 28634,
  "naire": 18352,
  "nal": 3864,
  "naldo": 41724,
  "nals": 36941,
  "nam": 25208,
  "nan": 25006,
  "nar": 20517,
  "nas": 3481,
  "nat": 36594,
  "natal": 25122,
  "natural": 42873,
  "nau": 35055,
  "naud": 34190,
  "navaca": 47077,
  "naval": 32237,
  "nc": 21263,
  "ncbi": 35308,
  "ncer": 31426,
  "ncia": 9581,
  "nd": 33493,
  "ndice": 46199,
  "ne": 1392,
  "nea": 4712,
  "neas": 19042,
  "nec": 21342,
  "neces": 23392,
  "ned": 22666,
  "nedy": 31216,
  "nee": 42247,
  "nega": 17056,
  "neider": 43036,
  "nel": 20641,
  "nell": 20874,
  "nen": 45749,
  "neo": 25529,
  "neos": 26692,
  "ner": 4126,
  "neros": 32398,
  "ners": 39706,
  "nes": 3878,
  "nesia": 28984,
  "nesis": 17375,
  "nesota": 30819,
  "ness": 9001,
  "net": 10606,
  "nett": 31816,
  "neu": 37126,
  "neumo": 31689,
  "neur": 45530,
  "neuro": 31678,
  "ney": 7653,
  "ng": 17361,
  "ni": 2138,
  "nia": 5027,
  "nias": 17972,
  "nic": 21796,
  "nica": 13494,
  "nicamente": 31948,
  "nicas": 31532,
  "niciÃ³n": 20630,
  "nico": 17571,
  "nicos": 24659,
  "nidad": 11247,
  "nie": 28448,
  "nier": 36367,
  "nifer": 36539,
  "nih": 29434,
  "nii": 40924,
  "nik": 34016,
  "nin": 31335,
  "ning": 9870,
  "nio": 24046,
  "nir": 35795,
  "nis": 10277,
  "nitina": 29178,
  "nitus": 39066,
  "nivel": 21782,
  "niz": 43602,
  "niÃ±os": 41476,
  "nlm": 33700,
  "nm": 36800,
  "no": 692,
  "nombre": 39414,
  "non": 20515,
  "nor": 28896,
  "norm": 14319,
  "normal": 20578,
  "normalmente": 44358,
  "nos": 947,
  "nosa": 45647,
  "nosci": 29287,
  "nosis": 19601,
  "noso": 23871,
  "nosos": 43167,
  "not": 47976,
  "nout": 15999,
  "nov": 3125,
  "nova": 19226,
  "now": 13031,
  "nown": 37328,
  "ns": 15377,
  "nto": 19914,
  "nu": 38411,
  "nuestro": 47779,
  "nuevo": 46817,
  "num": 47834,
  "numer": 49749,
  "nunca": 30439,
  "nutri": 22171,
  "nutriciÃ³n": 15552,
  "nutrition": 38338,
  "ny": 12856,
  "nÃ©": 9937,
  "nÃ©s": 36382,
  "nÃº": 23577,
  "nÃºmero": 26943,
  "o": 82,
  "oC": 13681,
  "oL": 48154,
  "ob": 8257,
  "obes": 31412,
  "obesidad": 34674,
  "obier": 1998,
  "obierno": 2191,
  "obl": 34330,
  "obs": 17365,
  "observ": 28138,
  "observador": 44656,
  "obste": 50152,
  "oc": 848,
  "oca": 26253,
  "ocaciÃ³n": 27749,
  "ocal": 10447,
  "ocar": 24793,
  "ocas": 37534,
  "ocel": 24762,
  "ocelular": 29199,
  "ocen": 5946,
  "och": 40166,
  "oci": 529,
  "ocia": 5232,
  "ociaciÃ³n": 17808,
  "ocial": 8402,
  "ociales": 12201,
  "ocicl": 44886,
  "ociedad": 23470,
  "ocimiento": 12403,
  "ocin": 11270,
  "ocina": 35029,
  "ocio": 23236,
  "ocitaria": 34476,
  "ocitario": 46514,
  "ocito": 12517,
  "ocitopenia": 18408,
  "ocitos": 4259,
  "ocitosis": 19370,
  "ock": 6378,
  "ocol": 46094,
  "ocom": 9061,
  "ocor": 11665,
  "ocr": 48158,
  "ocro": 24385,
  "ocromo": 33622,
  "octubre": 48510,
  "ocumarol": 38780,
  "ocup": 24558,
  "ocupaciÃ³n": 45619,
  "ocy": 20162,
  "ocyto": 33413,
  "ocytogenes": 41877,
  "ocÃ³": 34896,
  "ocÃŃa": 27499,
  "ocÃŃan": 44628,
  "ocÃŃclico": 35726,
  "ocÃŃtica": 30984,
  "od": 1932,
  "odarona": 28638,
  "odds": 44988,
  "ode": 22734,
  "oden": 8310,
  "odg": 16661,
  "odgkin": 17905,
  "odin": 23296,
  "odina": 44610,
  "odo": 29376,
  "odor": 28589,
  "odoro": 37730,
  "ody": 12750,
  "of": 3815,
  "ofar": 15709,
  "ofens": 30788,
  "off": 15854,
  "ofo": 20103,
  "ofos": 24858,
  "oft": 17415,
  "ofÃ³n": 49791,
  "og": 495,
  "oga": 21903,
  "ogar": 21280,
  "oge": 46210,
  "ogen": 10526,
  "ogene": 11044,
  "ogeneidad": 14646,
  "ogenes": 24411,
  "ogenesis": 36999,
  "ogenic": 44976,
  "ogenicidad": 30640,
  "ogenÃ©tica": 39456,
  "ogle": 9264,
  "oglic": 39758,
  "oglob": 12683,
  "ogluc": 26328,
  "ogo": 37124,
  "ogr": 49261,
  "ogra": 2363,
  "ografia": 39396,
  "ografÃŃa": 3527,
  "ografÃŃas": 15083,
  "ograma": 7066,
  "ogramas": 29329,
  "ograph": 46262,
  "ographic": 34779,
  "ography": 26889,
  "ogrÃ¡": 4444,
  "ogrÃ¡fica": 16988,
  "ogrÃ¡ficas": 21756,
  "ogrÃ¡fico": 12764,
  "ogrÃ¡ficos": 16330,
  "ogue": 33242,
  "ogÃ¡s": 29377,
  "ogÃ©n": 5292,
  "ogÃ©nesis": 17899,
  "ogÃ©nica": 28996,
  "ogÃ©nicas": 35905,
  "ogÃ©nico": 16093,
  "ogÃ©nicos": 37372,
  "ogÃŃa": 26032,
  "oide": 44427,
  "oides": 14854,
  "ojo": 35485,
  "ojos": 42928,
  "ok": 4098,
  "oke": 46477,
  "okie": 47185,
  "okies": 12275,
  "okine": 44492,
  "oks": 23060,
  "ol": 320,
  "ola": 1062,
  "olaciÃ³n": 41556,
  "olan": 47406,
  "olanda": 23359,
  "olar": 3228,
  "olares": 29447,
  "olaridad": 41885,
  "olaring": 14384,
  "olas": 8102,
  "olate": 11060,
  "olateral": 24468,
  "olato": 18975,
  "olatos": 41270,
  "old": 8656,
  "oldid": 27350,
  "ole": 2961,
  "olec": 33748,
  "olecular": 42572,
  "oledo": 11285,
  "oleico": 49301,
  "olencia": 9339,
  "olepsia": 38608,
  "oler": 3667,
  "olera": 39657,
  "olerancia": 32233,
  "oles": 1212,
  "olesc": 2201,
  "olescent": 14824,
  "olesterol": 22177,
  "oleta": 13916,
  "oletas": 33265,
  "oley": 47036,
  "olf": 39975,
  "oli": 13925,
  "olia": 27971,
  "olib": 22007,
  "olibro": 42260,
  "olid": 5449,
  "olimus": 45166,
  "olin": 15412,
  "olina": 10132,
  "olinio": 36961,
  "olip": 28698,
  "olipo": 43706,
  "olis": 17871,
  "olisis": 20904,
  "olismo": 10457,
  "olitis": 20426,
  "olito": 48802,
  "oll": 22357,
  "olla": 11543,
  "ollas": 14767,
  "ollo": 30217,
  "ollos": 46680,
  "olo": 1996,
  "oloc": 46623,
  "oloca": 49393,
  "olog": 589,
  "ologa": 46920,
  "ologia": 8853,
  "ologic": 19859,
  "ologica": 35259,
  "ological": 7862,
  "ologico": 42821,
  "ologie": 50072,
  "ologies": 31834,
  "ologist": 48112,
  "ologists": 44162,
  "ologo": 19331,
  "ologos": 49868,
  "ology": 3887,
  "ologÃĥ": 48923,
  "ologÃŃ": 47782,
  "ologÃŃa": 667,
  "ologÃŃas": 2124,
  "olol": 22366,
  "olona": 20775,
  "olonas": 22861,
  "olor": 27452,
  "olos": 7384,
  "olox": 37140,
  "oloxÃŃa": 49282,
  "ols": 23425,
  "olu": 2002,
  "oluble": 25411,
  "olubles": 28707,
  "olucion": 4013,
  "oluciones": 15481,
  "oluciÃ³n": 1606,
  "olution": 25525,
  "olv": 13386,
  "olver": 4340,
  "olvid": 28171,
  "oly": 28219,
  "olÃ©culas": 41679,
  "olÃ³": 36185,
  "olÃ³g": 731,
  "olÃ³gica": 1705,
  "olÃ³gicamente": 9035,
  "olÃ³gicas": 2361,
  "olÃ³gico": 1542,
  "olÃ³gicos": 1869,
  "olÃŃn": 38339,
  "olÃŃtica": 31525,
  "olÃŃtico": 20408,
  "olÃŃticos": 28785,
  "om": 305,
  "oma": 1011,
  "omagn": 32864,
  "omal": 5722,
  "omalacia": 46010,
  "oman": 13036,
  "omandibular": 25219,
  "omanÃŃa": 36933,
  "omar": 46911,
  "omas": 2375,
  "omastia": 30219,
  "omateriales": 31535,
  "omatis": 37300,
  "omatosis": 28042,
  "omavirus": 48793,
  "omb": 26210,
  "omba": 47177,
  "ombar": 44760,
  "ombi": 26928,
  "ombia": 28144,
  "ombr": 36695,
  "ombre": 8424,
  "ome": 1617,
  "omed": 24057,
  "omedi": 15345,
  "omedicina": 17669,
  "omegalia": 22444,
  "omelo": 35727,
  "omen": 6487,
  "omenaje": 45853,
  "omer": 7516,
  "omerasa": 38671,
  "omet": 43721,
  "ometa": 30023,
  "ometab": 43230,
  "ometri": 9069,
  "ometric": 34152,
  "ometrÃŃa": 9114,
  "omi": 21854,
  "omia": 31975,
  "omiasis": 42120,
  "omic": 18683,
  "omicina": 23225,
  "omicosis": 31252,
  "omics": 28601,
  "omida": 19760,
  "omiel": 15022,
  "omielitis": 16728,
  "omim": 44905,
  "omin": 1260,
  "omina": 8964,
  "omio": 16481,
  "omios": 39538,
  "omn": 7988,
  "omnio": 9521,
  "omo": 4455,
  "omod": 23127,
  "omon": 31396,
  "omonas": 17727,
  "omor": 29423,
  "omos": 6653,
  "omotor": 40490,
  "omus": 35648,
  "omy": 17973,
  "omyces": 44308,
  "omÃ©": 4097,
  "omÃ©dica": 9168,
  "omÃ©r": 40129,
  "omÃ©trica": 21187,
  "omÃ©tricas": 14543,
  "omÃ©trico": 20753,
  "omÃ©tricos": 16389,
  "omÃ³r": 48524,
  "omÃŃa": 3216,
  "omÃŃas": 22157,
  "on": 273,
  "ona": 812,
  "onado": 49259,
  "onal": 505,
  "onald": 15980,
  "onales": 4252,
  "onancia": 6291,
  "onaria": 34913,
  "onario": 26950,
  "onarios": 11522,
  "onas": 1713,
  "onate": 48996,
  "onato": 5638,
  "onatos": 16541,
  "onavir": 23578,
  "onazol": 19152,
  "onc": 22742,
  "onces": 2742,
  "oncesto": 18388,
  "oncologÃŃa": 35444,
  "ond": 23147,
  "onda": 45659,
  "ondas": 23718,
  "onde": 49128,
  "ondo": 23745,
  "one": 3121,
  "oneal": 8876,
  "oneales": 37744,
  "onecrosis": 36578,
  "onefritis": 21386,
  "onega": 44668,
  "oneidad": 27502,
  "oneo": 27544,
  "onero": 50161,
  "ones": 367,
  "onesa": 14249,
  "oneses": 22168,
  "onesia": 32806,
  "oneta": 43391,
  "oneuro": 42112,
  "oney": 32091,
  "ong": 5167,
  "onga": 37245,
  "ongaciÃ³n": 41177,
  "ongo": 47126,
  "oni": 13777,
  "onia": 7564,
  "onial": 47724,
  "onico": 42399,
  "onida": 45568,
  "onina": 46177,
  "onio": 19902,
  "onis": 49579,
  "onismo": 47302,
  "online": 40847,
  "ono": 2290,
  "onoides": 24297,
  "onol": 41395,
  "onolactona": 44710,
  "onomÃŃa": 42961,
  "onor": 37970,
  "onorgestrel": 50039,
  "onos": 20714,
  "ons": 7560,
  "onse": 21243,
  "onte": 50136,
  "ontes": 49528,
  "onto": 25057,
  "ontologÃŃa": 26715,
  "onucle": 21411,
  "ony": 18094,
  "onz": 3240,
  "onÃ©s": 46780,
  "onÃŃa": 17970,
  "oo": 9461,
  "oooo": 26046,
  "op": 1773,
  "opa": 7811,
  "opatÃŃa": 16466,
  "opatÃŃas": 42651,
  "oper": 11511,
  "opera": 5037,
  "operabilidad": 42268,
  "operaciÃ³n": 7183,
  "operatorio": 38711,
  "oph": 16835,
  "ophila": 47148,
  "ophy": 40499,
  "opio": 25482,
  "opla": 30665,
  "opol": 23678,
  "opolis": 46404,
  "opor": 28510,
  "oppler": 15000,
  "opram": 39866,
  "opre": 29248,
  "oprolifera": 41097,
  "opros": 48794,
  "opÃŃa": 31554,
  "or": 275,
  "ora": 598,
  "oraciÃ³n": 7920,
  "orada": 29943,
  "orafenib": 44713,
  "oral": 1741,
  "orales": 31430,
  "orama": 46568,
  "orar": 10383,
  "oras": 7697,
  "orax": 42864,
  "orazÃ³n": 2872,
  "orbi": 33273,
  "orcio": 13061,
  "ord": 1082,
  "ordan": 24736,
  "ordar": 21951,
  "orden": 10669,
  "ordi": 11546,
  "ordin": 2165,
  "ordina": 20709,
  "ordon": 28528,
  "ords": 10452,
  "ore": 9292,
  "ores": 487,
  "orescencia": 26875,
  "orestaciÃ³n": 44331,
  "oreste": 25720,
  "orexia": 36097,
  "orf": 11737,
  "orfina": 32392,
  "org": 5085,
  "organ": 5102,
  "organismos": 43827,
  "organizaciÃ³n": 49613,
  "orge": 5885,
  "ori": 6273,
  "oria": 9771,
  "oriales": 16246,
  "oriano": 24361,
  "orias": 26895,
  "oriasis": 8908,
  "orio": 10610,
  "orios": 13752,
  "ork": 3855,
  "orks": 26791,
  "orkshop": 40767,
  "orld": 9346,
  "orm": 486,
  "orma": 2166,
  "ormaciÃ³n": 780,
  "ormal": 37872,
  "orme": 2533,
  "ormes": 16671,
  "orn": 2504,
  "oro": 3442,
  "oroeste": 20565,
  "oros": 13302,
  "orr": 24075,
  "orra": 10064,
  "orragia": 25593,
  "orre": 13435,
  "orrea": 13838,
  "orrehabilitaciÃ³n": 47188,
  "orres": 13054,
  "orresistencia": 40164,
  "orrho": 49810,
  "orro": 13182,
  "orros": 27560,
  "ors": 13870,
  "ort": 13463,
  "orte": 2572,
  "orum": 44904,
  "ory": 14757,
  "orÃŃa": 4164,
  "orÃŃas": 9253,
  "os": 264,
  "osa": 1013,
  "osal": 29509,
  "osalud": 38426,
  "osalus": 45547,
  "osamente": 21545,
  "osas": 3201,
  "osau": 19958,
  "ose": 9561,
  "osex": 16486,
  "osidad": 13503,
  "osina": 21753,
  "osinas": 49091,
  "osio": 15467,
  "osios": 47678,
  "osis": 1681,
  "ositis": 26171,
  "osium": 35805,
  "oso": 1354,
  "osofÃŃa": 8552,
  "osomas": 47164,
  "osos": 4273,
  "osotras": 45082,
  "osotros": 7736,
  "ospit": 779,
  "ospital": 909,
  "ospor": 24197,
  "osporinas": 27831,
  "osteo": 48369,
  "oster": 23655,
  "ostic": 13732,
  "ostomÃŃa": 32018,
  "osu": 10153,
  "osup": 46165,
  "osÃ©": 31042,
  "osÃ³": 16810,
  "ot": 14128,
  "ota": 10045,
  "otas": 16223,
  "ote": 25376,
  "oterapia": 11185,
  "oth": 23978,
  "oto": 43578,
  "otra": 45093,
  "otro": 39021,
  "otros": 41293,
  "ou": 17929,
  "ound": 35844,
  "our": 19356,
  "ource": 45789,
  "ources": 31214,
  "ous": 19999,
  "out": 38258,
  "ov": 12476,
  "ovigilancia": 20259,
  "ox": 3314,
  "oxa": 32501,
  "oxaparina": 42600,
  "oxetina": 27641,
  "oxi": 48453,
  "oxib": 37969,
  "oxid": 6255,
  "oxidable": 41116,
  "oxidasa": 39184,
  "oxigen": 35667,
  "oxigenasa": 45960,
  "oxo": 48877,
  "oxona": 44863,
  "oy": 1221,
  "oya": 14091,
  "oz": 40190,
  "p": 83,
  "pa": 491,
  "pac": 32874,
  "pace": 41074,
  "pacho": 45874,
  "paci": 883,
  "pacial": 22993,
  "pacidad": 1327,
  "paciente": 13854,
  "pacientes": 20057,
  "pacio": 14014,
  "pacionales": 25750,
  "paciÃ³n": 9269,
  "pad": 22193,
  "pada": 39755,
  "pado": 8682,
  "pados": 11477,
  "padre": 47176,
  "pago": 49186,
  "pain": 12992,
  "pal": 4629,
  "pala": 39680,
  "pales": 19147,
  "palÃº": 48637,
  "pan": 2813,
  "pancre": 32604,
  "pando": 40916,
  "pani": 31155,
  "paniCare": 34060,
  "panish": 17525,
  "pano": 24817,
  "panos": 29573,
  "panosoma": 33929,
  "pap": 30759,
  "par": 745,
  "para": 3404,
  "parable": 32926,
  "parables": 49548,
  "paraciÃ³n": 14497,
  "parar": 42963,
  "paras": 17384,
  "paratiroidismo": 25799,
  "parato": 15179,
  "paraÃŃso": 38430,
  "parece": 37510,
  "parencia": 36825,
  "paresia": 29673,
  "pari": 11139,
  "parina": 12428,
  "paro": 20495,
  "paros": 7618,
  "parse": 38740,
  "part": 48979,
  "parta": 2570,
  "partamento": 2968,
  "partamentos": 12283,
  "parte": 19229,
  "parti": 29697,
  "partment": 20338,
  "parto": 11575,
  "partÃŃculas": 19100,
  "pas": 1671,
  "pasa": 24144,
  "paso": 33967,
  "pasos": 13567,
  "pass": 17924,
  "pat": 1782,
  "pata": 12747,
  "patas": 16626,
  "path": 18429,
  "pathic": 41119,
  "pathy": 22229,
  "pati": 23261,
  "patia": 29475,
  "patient": 36236,
  "patita": 49447,
  "patitis": 13798,
  "pato": 15410,
  "patologÃŃa": 8525,
  "patolÃ³gica": 25635,
  "patolÃ³gicas": 23743,
  "patolÃ³gico": 12760,
  "patolÃ³gicos": 15123,
  "patÃŃa": 2576,
  "patÃŃas": 6087,
  "pausia": 24104,
  "paz": 15594,
  "paÃ±": 689,
  "paÃ±a": 10548,
  "pciÃ³n": 2131,
  "pdf": 9177,
  "pe": 494,
  "pea": 26256,
  "pean": 29675,
  "pear": 19689,
  "pec": 633,
  "pech": 35823,
  "pecha": 44754,
  "peci": 6209,
  "pecia": 14979,
  "pecial": 3787,
  "pecies": 49051,
  "pecific": 36565,
  "pectivo": 5770,
  "pecto": 1440,
  "pectos": 2389,
  "pecu": 25976,
  "ped": 10392,
  "peda": 15711,
  "pedas": 40094,
  "pedes": 16532,
  "pedia": 7045,
  "pediatra": 44830,
  "pediatrÃŃa": 28431,
  "pefaci": 43218,
  "pefacientes": 45557,
  "pel": 10777,
  "pelo": 43447,
  "pemia": 19289,
  "pen": 994,
  "penas": 29969,
  "pendi": 18453,
  "pendo": 23171,
  "pene": 16571,
  "penem": 21516,
  "penha": 30712,
  "penia": 7814,
  "peno": 36215,
  "pens": 4344,
  "pensa": 16856,
  "pensaciÃ³n": 45662,
  "pensar": 44327,
  "pentina": 34588,
  "peo": 24927,
  "pep": 45409,
  "pepsia": 27432,
  "pepti": 37436,
  "peque": 33623,
  "per": 457,
  "pera": 3559,
  "perable": 47504,
  "peraciÃ³n": 2309,
  "peras": 21216,
  "percepciÃ³n": 36285,
  "perci": 17049,
  "perfusiÃ³n": 27907,
  "peridona": 27498,
  "perio": 17242,
  "perit": 14690,
  "peritoneal": 20718,
  "peritoneo": 35586,
  "permia": 45256,
  "pero": 5425,
  "pers": 9125,
  "person": 17239,
  "persona": 45538,
  "personal": 17737,
  "personales": 19311,
  "personas": 38204,
  "pert": 35160,
  "pertar": 47549,
  "pertura": 36918,
  "pes": 2868,
  "peso": 5405,
  "peta": 24509,
  "petas": 40169,
  "pete": 25307,
  "petencia": 31011,
  "peti": 41138,
  "peto": 38037,
  "peu": 15378,
  "pex": 30767,
  "pexia": 27773,
  "pez": 3414,
  "pg": 42605,
  "ph": 2230,
  "pha": 12539,
  "phan": 39169,
  "pharmac": 39552,
  "phen": 50253,
  "pher": 26230,
  "pheral": 40017,
  "phi": 25478,
  "phia": 17829,
  "phic": 16442,
  "phil": 17886,
  "phila": 41605,
  "philus": 25246,
  "pho": 47470,
  "phone": 45928,
  "phor": 30020,
  "phos": 36484,
  "php": 15538,
  "phy": 7156,
  "phyllum": 39204,
  "phylo": 14022,
  "phys": 34202,
  "pi": 707,
  "pia": 935,
  "piano": 28238,
  "pias": 2666,
  "pic": 16446,
  "pica": 8590,
  "pical": 18025,
  "pico": 15403,
  "pid": 24517,
  "pida": 35190,
  "pide": 21555,
  "pidemia": 21060,
  "pidemias": 45954,
  "pidez": 10093,
  "pido": 28442,
  "pidos": 10596,
  "pie": 26959,
  "piel": 38999,
  "piens": 35666,
  "pies": 33732,
  "pig": 18100,
  "pigment": 43537,
  "pigmentaciÃ³n": 25985,
  "pil": 7441,
  "pin": 6029,
  "pina": 10621,
  "ping": 22388,
  "pino": 15922,
  "pio": 24619,
  "pion": 37438,
  "pios": 3756,
  "pir": 2164,
  "pira": 2024,
  "piraciÃ³n": 4779,
  "piramato": 45648,
  "piratoria": 19498,
  "piratorio": 24688,
  "pire": 32759,
  "piri": 24816,
  "pirid": 49773,
  "pirim": 47924,
  "pirina": 40638,
  "piro": 14575,
  "piros": 39806,
  "pirosis": 33412,
  "pis": 28817,
  "pista": 38521,
  "pit": 723,
  "pita": 17000,
  "pitaciones": 20110,
  "pital": 36132,
  "pite": 36009,
  "piter": 40131,
  "pithel": 41662,
  "pito": 28288,
  "piÃ©": 10215,
  "pl": 602,
  "pla": 9798,
  "plac": 24749,
  "place": 42462,
  "placement": 44039,
  "plan": 8007,
  "plano": 37185,
  "plant": 22427,
  "plantados": 49508,
  "plantation": 24605,
  "plante": 9062,
  "plantes": 18643,
  "plaque": 44351,
  "plas": 2348,
  "plasia": 5873,
  "plasias": 10197,
  "plasma": 12944,
  "plasmosis": 25383,
  "plastia": 5353,
  "plastias": 32425,
  "plasty": 38826,
  "plastÃŃa": 44392,
  "platino": 22397,
  "play": 39078,
  "ple": 1652,
  "plej": 17165,
  "plejia": 34485,
  "plejÃŃa": 25099,
  "plen": 26213,
  "pler": 11277,
  "ples": 3321,
  "plex": 43917,
  "plic": 5127,
  "plica": 8385,
  "plicaciones": 14210,
  "plicaciÃ³n": 9401,
  "plicado": 16500,
  "plicar": 9122,
  "plication": 29589,
  "plications": 38102,
  "plicÃ³": 44070,
  "plied": 27009,
  "plo": 11340,
  "plom": 10553,
  "ploma": 19073,
  "plomas": 42962,
  "plor": 42738,
  "ploraciÃ³n": 44430,
  "plos": 48608,
  "plotaciÃ³n": 37218,
  "plu": 12622,
  "plus": 39951,
  "plÃ¡s": 8207,
  "plÃ¡sico": 31624,
  "plÃ¡sicos": 44583,
  "plÃ¡smico": 47792,
  "plÃ©j": 25135,
  "plÃ©jicos": 32670,
  "plÃŃ": 32125,
  "pm": 17528,
  "pnea": 26674,
  "po": 445,
  "pobl": 30751,
  "poblaciones": 42091,
  "poblaciÃ³n": 30733,
  "poca": 44837,
  "poco": 35618,
  "pod": 24019,
  "podcast": 36586,
  "poder": 34772,
  "podos": 24223,
  "podrÃŃa": 39249,
  "pofol": 32037,
  "point": 40920,
  "pol": 4554,
  "pola": 40834,
  "polar": 11052,
  "polares": 38669,
  "pole": 28539,
  "poli": 28395,
  "polis": 29978,
  "polit": 16422,
  "politana": 20902,
  "politano": 41617,
  "polÃŃtica": 37916,
  "pon": 617,
  "pona": 18468,
  "ponatremia": 24114,
  "pone": 11105,
  "ponemos": 43832,
  "ponen": 16293,
  "ponente": 29514,
  "ponentes": 19284,
  "poner": 11882,
  "ponerse": 32891,
  "pones": 35655,
  "poniendo": 47316,
  "pool": 34184,
  "pop": 22021,
  "por": 609,
  "pora": 7144,
  "poraciÃ³n": 16564,
  "pores": 39871,
  "porina": 18816,
  "porosis": 7411,
  "porque": 15860,
  "port": 2035,
  "porta": 45991,
  "portador": 48255,
  "portal": 44962,
  "porte": 2003,
  "ported": 39883,
  "portes": 35526,
  "ports": 16458,
  "portun": 2603,
  "pos": 622,
  "posa": 8999,
  "posas": 28853,
  "pose": 40330,
  "posi": 2426,
  "posicion": 41711,
  "posiciones": 6506,
  "posiciÃ³n": 1768,
  "posis": 34533,
  "positiva": 38919,
  "positivas": 32747,
  "positivo": 13825,
  "positivos": 22445,
  "positor": 42482,
  "positores": 28919,
  "poso": 5656,
  "post": 36020,
  "posterior": 31226,
  "pot": 18326,
  "potas": 22838,
  "potasemia": 25222,
  "pote": 38385,
  "poten": 30357,
  "potencia": 45552,
  "potentes": 41681,
  "poulos": 44626,
  "poy": 13000,
  "poye": 27342,
  "poyesis": 48261,
  "poyetina": 28446,
  "pp": 7744,
  "pper": 37599,
  "pping": 36340,
  "pr": 6045,
  "pra": 6789,
  "pramida": 46161,
  "pran": 29193,
  "prandial": 38400,
  "pray": 27825,
  "prazol": 15515,
  "pre": 2108,
  "preci": 36422,
  "precio": 38441,
  "prednis": 33799,
  "prednisolona": 39004,
  "pregun": 44667,
  "pren": 3324,
  "prenorfina": 41927,
  "pres": 792,
  "presencia": 46425,
  "presente": 46974,
  "presidente": 21420,
  "presina": 31598,
  "presiÃ³n": 1836,
  "presores": 49175,
  "press": 24218,
  "pression": 29379,
  "previr": 37581,
  "pri": 10949,
  "pril": 20765,
  "prim": 12966,
  "primer": 38255,
  "primera": 38422,
  "primido": 39016,
  "primidos": 22228,
  "princip": 20207,
  "principalmente": 30053,
  "pris": 40128,
  "privada": 35670,
  "pro": 1241,
  "proBNP": 39088,
  "probablemente": 49838,
  "problemas": 41582,
  "proc": 42684,
  "proce": 37301,
  "procedimiento": 49294,
  "proces": 30483,
  "proceso": 44986,
  "produ": 34589,
  "produc": 11312,
  "producciÃ³n": 15103,
  "producto": 44155,
  "productos": 29043,
  "profeno": 15469,
  "profes": 15298,
  "profesional": 24658,
  "profesionales": 31887,
  "profilaxis": 31617,
  "programa": 38078,
  "prol": 33707,
  "proma": 47347,
  "prome": 33655,
  "promo": 40170,
  "prop": 20421,
  "propi": 26975,
  "propil": 27418,
  "propileno": 48422,
  "propor": 47115,
  "pros": 26349,
  "prote": 6417,
  "protec": 14703,
  "protecciÃ³n": 19410,
  "protector": 28213,
  "protectores": 32508,
  "protein": 32246,
  "proteÃŃna": 14825,
  "proteÃŃnas": 14143,
  "proto": 46936,
  "protÃ©s": 34010,
  "prox": 36116,
  "proxeno": 42070,
  "proyecto": 27103,
  "pru": 29785,
  "prudencia": 40084,
  "prueba": 29274,
  "prÃ¡ctica": 39838,
  "prÃ¡ctico": 48468,
  "prÃ³": 21415,
  "prÃ³tesis": 24258,
  "ps": 1238,
  "pse": 39822,
  "pseud": 27142,
  "pseudÃ³nimo": 28973,
  "psi": 17248,
  "psia": 3258,
  "psias": 10743,
  "psic": 8439,
  "psico": 35245,
  "psicologÃŃa": 33517,
  "psina": 28199,
  "psiquiatrÃŃa": 45682,
  "psiquiÃ¡": 30092,
  "psis": 6917,
  "pso": 14359,
  "pson": 26490,
  "psulas": 42839,
  "psy": 37346,
  "psych": 35860,
  "pt": 29662,
  "pta": 33608,
  "pter": 29038,
  "pti": 2302,
  "ptidos": 14118,
  "ptiembre": 3978,
  "ptima": 38663,
  "ptimo": 41132,
  "ptina": 34165,
  "ption": 49894,
  "ptis": 28729,
  "ptisis": 32222,
  "pto": 5521,
  "ptococcus": 15840,
  "ptom": 27519,
  "ptomicina": 32397,
  "ptor": 30335,
  "ptores": 49722,
  "ptos": 22499,
  "pu": 937,
  "pub": 26905,
  "publ": 15649,
  "publica": 47066,
  "pubmed": 40435,
  "pue": 11644,
  "puede": 17876,
  "pueden": 25941,
  "puer": 12939,
  "puerto": 17504,
  "puertos": 36813,
  "pues": 864,
  "puesta": 1446,
  "puestamente": 18960,
  "puestas": 2888,
  "puesto": 2286,
  "puestos": 4113,
  "pul": 6069,
  "pullido": 43893,
  "pulmon": 34393,
  "pulmonar": 14106,
  "pulmonares": 42845,
  "puls": 19180,
  "pun": 9817,
  "punciÃ³n": 49382,
  "punto": 33982,
  "pur": 20471,
  "pura": 13107,
  "pus": 5327,
  "puso": 28600,
  "put": 43242,
  "puzko": 37502,
  "puzkoa": 38425,
  "puÃ©s": 1087,
  "py": 6533,
  "pÃ¡": 34169,
  "pÃ¡g": 37779,
  "pÃ¡tica": 11092,
  "pÃ¡ticas": 26151,
  "pÃ¡tico": 13242,
  "pÃ¡ticos": 22155,
  "pÃ¡us": 15128,
  "pÃ©": 11120,
  "pÃ©dico": 47947,
  "pÃ©lv": 45211,
  "pÃ©ptido": 49764,
  "pÃ©ptidos": 48245,
  "pÃ©rdida": 38746,
  "pÃ©tica": 42556,
  "pÃ©u": 1905,
  "pÃ³": 14536,
  "pÃ³n": 7980,
  "pÃºblica": 6192,
  "pÃŃ": 38945,
  "pÃŃa": 11562,
  "q": 84,
  "qu": 381,
  "qua": 35693,
  "qual": 34578,
  "que": 291,
  "quea": 21932,
  "queal": 17364,
  "queda": 45951,
  "quedad": 11933,
  "quel": 1325,
  "quemia": 8775,
  "quen": 5017,
  "quena": 47749,
  "quences": 36497,
  "quency": 27044,
  "quenilo": 25055,
  "quent": 21821,
  "queo": 11484,
  "queos": 22043,
  "quer": 3831,
  "quera": 10851,
  "queras": 36297,
  "queratosis": 45858,
  "quero": 14970,
  "queros": 23473,
  "querÃŃa": 26465,
  "ques": 3093,
  "quesa": 42492,
  "quese": 45156,
  "questa": 15308,
  "quet": 36939,
  "queta": 19592,
  "quetas": 23061,
  "quete": 24162,
  "quetes": 45962,
  "quetty": 39265,
  "quexia": 46724,
  "quez": 6117,
  "queÃ±o": 50041,
  "qui": 497,
  "quia": 3917,
  "quial": 14590,
  "quiales": 42514,
  "quias": 22960,
  "quiatrÃŃa": 6831,
  "quicardia": 38158,
  "quicia": 32467,
  "quid": 40093,
  "quidez": 49262,
  "quido": 24382,
  "quidos": 32324,
  "quien": 33497,
  "quier": 813,
  "quiera": 3732,
  "quiere": 2150,
  "quil": 1797,
  "quila": 48754,
  "quilib": 3383,
  "quilibrio": 40878,
  "quilla": 8566,
  "quillas": 32866,
  "quillo": 27700,
  "quilo": 5022,
  "quilos": 25258,
  "quim": 50183,
  "quima": 15799,
  "quimioterapia": 42368,
  "quin": 7470,
  "quina": 12592,
  "quinas": 13758,
  "quinasa": 40040,
  "quines": 39355,
  "quinilo": 34881,
  "quino": 39467,
  "quinolonas": 38852,
  "quio": 16877,
  "quios": 37425,
  "quir": 4379,
  "quired": 37099,
  "quirÃºrg": 10083,
  "quirÃºrgica": 19407,
  "quirÃºrgicas": 30173,
  "quirÃºrgico": 21744,
  "quirÃºrgicos": 33885,
  "quis": 2955,
  "quisiciÃ³n": 33124,
  "quisitos": 33399,
  "quismo": 6269,
  "quist": 45940,
  "quista": 28068,
  "quita": 22023,
  "quitec": 7372,
  "quiterapia": 32095,
  "quitis": 43252,
  "quito": 9682,
  "quitos": 12413,
  "quiz": 37387,
  "quiÃ¡": 6397,
  "quiÃ©n": 30429,
  "quÃ©": 5616,
  "quÃ©mica": 41090,
  "quÃ©s": 18563,
  "quÃŃ": 2318,
  "quÃŃa": 9772,
  "quÃŃdea": 45083,
  "quÃŃdeas": 48389,
  "quÃŃdeo": 16608,
  "quÃŃm": 5131,
  "quÃŃmica": 11638,
  "quÃŃmicas": 32211,
  "quÃŃmico": 26884,
  "quÃŃmicos": 25615,
  "quÃŃn": 11146,
  "r": 85,
  "rND": 40709,
  "ra": 310,
  "raba": 36231,
  "rable": 25984,
  "rac": 1558,
  "raciones": 14220,
  "raciÃ³n": 7601,
  "rack": 29537,
  "racy": 46915,
  "racÃ¡n": 33445,
  "rad": 4453,
  "rada": 2687,
  "radas": 7277,
  "radi": 37190,
  "radio": 24432,
  "rado": 3950,
  "rador": 13636,
  "radores": 30223,
  "rados": 6305,
  "radura": 45741,
  "rael": 12435,
  "raft": 30494,
  "rag": 4998,
  "ragia": 35656,
  "ragones": 33826,
  "ragonesa": 38541,
  "ragÃ³n": 8585,
  "ral": 1536,
  "rales": 4574,
  "rall": 32937,
  "raltar": 42781,
  "ram": 14508,
  "rama": 34551,
  "ramento": 38537,
  "ramer": 36136,
  "rami": 2571,
  "ramina": 39507,
  "ramo": 48227,
  "ramos": 6318,
  "ran": 461,
  "rana": 3571,
  "rando": 11533,
  "rane": 5383,
  "raneal": 9183,
  "raneales": 17663,
  "range": 42380,
  "rango": 18899,
  "rano": 9726,
  "ranolol": 41804,
  "rans": 33403,
  "rante": 19759,
  "rantes": 13931,
  "ranz": 32689,
  "ranza": 41911,
  "rar": 2118,
  "rara": 46257,
  "raron": 27344,
  "rarse": 18459,
  "rary": 29113,
  "rarÃ¡": 39485,
  "ras": 490,
  "rasa": 46402,
  "rase": 30551,
  "rasia": 44482,
  "rassa": 40282,
  "rate": 15653,
  "raw": 38208,
  "rax": 5904,
  "raxis": 25927,
  "ray": 18808,
  "raza": 39656,
  "rd": 36590,
  "re": 287,
  "rea": 1233,
  "reak": 34553,
  "real": 18300,
  "reas": 2314,
  "reast": 14440,
  "reat": 38637,
  "reatment": 6165,
  "rec": 709,
  "recciÃ³n": 21464,
  "recen": 5614,
  "receptor": 45213,
  "reci": 39324,
  "reco": 49723,
  "recom": 33083,
  "recomend": 43564,
  "recor": 44910,
  "rectal": 10305,
  "rectales": 42139,
  "recto": 45313,
  "rectomÃŃa": 19682,
  "rector": 24905,
  "recu": 989,
  "recuencia": 9916,
  "recur": 37954,
  "red": 7509,
  "rededor": 3141,
  "redi": 39496,
  "reducciÃ³n": 41747,
  "ree": 14881,
  "reg": 4346,
  "regis": 45663,
  "rego": 40562,
  "regulaciÃ³n": 20937,
  "reich": 38586,
  "rel": 10395,
  "rela": 15037,
  "relacion": 24846,
  "relaciones": 40081,
  "relaciÃ³n": 17810,
  "related": 21040,
  "rell": 25907,
  "rellano": 46868,
  "remia": 47679,
  "remo": 20322,
  "remos": 4638,
  "ren": 703,
  "rena": 15219,
  "renaje": 38679,
  "renal": 7600,
  "renales": 24007,
  "renalina": 13652,
  "rence": 23696,
  "renia": 8065,
  "reno": 22646,
  "rent": 14952,
  "renta": 33321,
  "rente": 9109,
  "rentes": 46256,
  "reo": 8253,
  "reos": 19635,
  "repres": 35630,
  "rer": 5712,
  "rera": 2691,
  "reras": 6360,
  "rero": 3365,
  "reros": 16659,
  "rerÃŃa": 41971,
  "res": 331,
  "resa": 28150,
  "rese": 21345,
  "resia": 37015,
  "resis": 11625,
  "resistant": 34780,
  "resistencia": 46386,
  "respon": 1893,
  "respuesta": 31107,
  "ress": 47315,
  "reste": 22716,
  "resÃŃa": 45644,
  "ret": 40896,
  "reta": 45212,
  "retin": 45238,
  "retro": 10681,
  "retrovir": 11862,
  "retroviral": 40805,
  "reus": 11970,
  "revista": 28075,
  "rey": 14539,
  "rez": 2299,
  "reza": 30664,
  "rg": 1481,
  "rh": 47516,
  "ri": 334,
  "ria": 2654,
  "riaga": 41918,
  "riam": 28081,
  "rian": 28931,
  "rias": 5347,
  "riasis": 31408,
  "riate": 36112,
  "ric": 2088,
  "rica": 12719,
  "ricaciÃ³n": 32676,
  "ricas": 45978,
  "rice": 38528,
  "rich": 16736,
  "rick": 34347,
  "rico": 12016,
  "ricos": 42398,
  "ricul": 26552,
  "ricular": 4743,
  "riculares": 12687,
  "riculum": 33673,
  "rida": 16723,
  "ridas": 26241,
  "rido": 3512,
  "ridos": 16812,
  "rie": 11646,
  "ried": 30303,
  "rief": 38053,
  "riel": 12360,
  "riendo": 5211,
  "riente": 28189,
  "rientes": 40422,
  "rier": 42606,
  "riera": 29070,
  "rieron": 5646,
  "ries": 13509,
  "riesgo": 22183,
  "rificaciÃ³n": 35605,
  "rig": 1680,
  "right": 18891,
  "rigor": 35957,
  "ril": 1587,
  "rilaciÃ³n": 8558,
  "rile": 10145,
  "riles": 13254,
  "rill": 17467,
  "rilla": 12289,
  "rillas": 23188,
  "rillo": 7177,
  "rillos": 10198,
  "rilo": 39580,
  "rim": 1877,
  "rima": 41168,
  "rime": 19208,
  "rimen": 48947,
  "rimi": 34862,
  "rimiendo": 49110,
  "rimiento": 5006,
  "rimir": 12111,
  "rimos": 18187,
  "rin": 2440,
  "rina": 13397,
  "ring": 30622,
  "rino": 28976,
  "rinolaring": 14532,
  "rinolaringologÃŃa": 18924,
  "rint": 49011,
  "rio": 2521,
  "rion": 47100,
  "riones": 38427,
  "rios": 5053,
  "rique": 4577,
  "rir": 1750,
  "ris": 3144,
  "risa": 10932,
  "risas": 29886,
  "risk": 45851,
  "rista": 26123,
  "ristal": 33351,
  "ristas": 50135,
  "ristina": 38842,
  "risto": 17623,
  "rit": 11357,
  "rita": 29105,
  "ritas": 29669,
  "ritina": 30917,
  "ritis": 8019,
  "ritish": 19946,
  "ritmia": 48324,
  "ritmias": 23196,
  "rito": 7498,
  "ritorial": 13697,
  "ritos": 14478,
  "rity": 40655,
  "ritÃ¡n": 8381,
  "rium": 24849,
  "rive": 42005,
  "rix": 30935,
  "riz": 12781,
  "riÃ©ndose": 31871,
  "riÃ³": 3397,
  "riÃ³n": 16753,
  "rlae": 31955,
  "ro": 301,
  "roco": 47798,
  "roga": 40353,
  "roides": 18000,
  "rojo": 44922,
  "rol": 661,
  "roli": 19174,
  "rolifera": 24570,
  "rolimus": 21086,
  "rolitiasis": 49546,
  "rolizumab": 39959,
  "roll": 40202,
  "rologÃŃa": 10342,
  "rolol": 40534,
  "rolÃ³g": 3813,
  "rolÃ³gica": 17347,
  "rolÃ³gicas": 27811,
  "rolÃ³gico": 27226,
  "rolÃ³gicos": 33032,
  "rom": 4246,
  "rome": 41112,
  "ron": 1654,
  "ronefrosis": 49984,
  "rones": 18681,
  "ronic": 10972,
  "ronutri": 18243,
  "ronutrientes": 21517,
  "roquÃŃ": 42098,
  "ror": 6436,
  "rores": 25822,
  "ros": 788,
  "rosa": 12272,
  "rosas": 44001,
  "rosis": 3994,
  "roso": 15380,
  "rosos": 39773,
  "ross": 12903,
  "rost": 40517,
  "roup": 8784,
  "row": 30633,
  "roy": 35825,
  "roÃ±o": 34950,
  "rr": 27079,
  "rs": 24745,
  "ru": 508,
  "rubicina": 42381,
  "ruc": 40636,
  "rue": 19655,
  "ruecos": 26452,
  "rug": 8030,
  "ruga": 35901,
  "rugas": 8350,
  "rum": 16070,
  "rump": 5961,
  "rup": 4764,
  "rupciÃ³n": 7355,
  "rupo": 3031,
  "rupos": 10304,
  "rus": 8173,
  "rutia": 48644,
  "ruz": 5173,
  "ry": 5696,
  "rÃ¡": 2665,
  "rÃ¡fico": 24064,
  "rÃ¡n": 4944,
  "rÃ¡p": 49108,
  "rÃ¡s": 19696,
  "rÃ¡ul": 30804,
  "rÃ©": 12851,
  "rÃ©s": 43998,
  "rÃ³": 4317,
  "rÃ³n": 9355,
  "rÃŃ": 13680,
  "rÃŃa": 4661,
  "rÃŃamos": 46735,
  "rÃŃan": 14114,
  "rÃŃcula": 50103,
  "rÃŃculo": 7716,
  "rÃŃculos": 24191,
  "rÃŃquez": 30865,
  "rÃŃt": 19577,
  "s": 86,
  "sAg": 45516,
  "sa": 1727,
  "sab": 27352,
  "sabilidad": 17232,
  "sable": 13951,
  "sables": 33036,
  "sah": 29124,
  "sahariana": 33406,
  "sal": 4705,
  "sales": 28439,
  "salicÃŃlico": 23640,
  "salud": 10057,
  "saludos": 49124,
  "salva": 41695,
  "salvo": 35506,
  "san": 5036,
  "sancio": 9223,
  "sanitaria": 44968,
  "sanitario": 45433,
  "sanitarios": 49163,
  "sar": 7700,
  "sartÃ¡n": 43151,
  "sas": 7116,
  "satis": 49805,
  "sc": 50014,
  "scar": 19154,
  "sch": 19523,
  "sche": 42531,
  "sci": 35729,
  "scielo": 45439,
  "score": 49090,
  "se": 435,
  "sea": 16555,
  "sec": 18717,
  "secre": 25202,
  "sectional": 38464,
  "sed": 14842,
  "see": 41137,
  "seg": 32167,
  "seguir": 46892,
  "segun": 33060,
  "seguridad": 38548,
  "segÃºn": 18912,
  "sel": 17661,
  "sele": 36601,
  "selec": 49031,
  "selo": 17900,
  "sem": 27423,
  "semFYC": 49133,
  "semana": 28880,
  "semos": 28496,
  "sen": 6433,
  "senal": 23809,
  "sens": 7900,
  "sensibilidad": 10002,
  "sensible": 43547,
  "seo": 33738,
  "ser": 8561,
  "sero": 40496,
  "servicios": 48954,
  "serÃ¡": 43221,
  "ses": 4465,
  "sess": 9887,
  "sessment": 12314,
  "set": 18168,
  "seud": 15585,
  "seudo": 30277,
  "sevier": 17283,
  "sex": 18641,
  "sexo": 47020,
  "sey": 27880,
  "seÃ±": 3223,
  "sh": 15548,
  "si": 3292,
  "sia": 36415,
  "sible": 21839,
  "sic": 44408,
  "sica": 27377,
  "sida": 27786,
  "sider": 27918,
  "siempre": 21105,
  "siendo": 45593,
  "sier": 37684,
  "sig": 37265,
  "sign": 39665,
  "sil": 34467,
  "sim": 43454,
  "similar": 50102,
  "sin": 7024,
  "sina": 34286,
  "sing": 30547,
  "sinki": 33362,
  "sino": 43883,
  "sion": 5691,
  "sionais": 35041,
  "sional": 14199,
  "siones": 23634,
  "sions": 41862,
  "sis": 18055,
  "sistema": 32454,
  "sive": 20979,
  "siÃ³n": 5458,
  "sk": 33288,
  "ski": 22466,
  "sky": 18985,
  "sler": 49527,
  "smo": 18263,
  "so": 940,
  "soas": 32661,
  "sobre": 13151,
  "soch": 35597,
  "sochinf": 36169,
  "socia": 5178,
  "social": 26416,
  "sociated": 10131,
  "sociation": 7793,
  "sol": 25864,
  "solo": 21993,
  "som": 38869,
  "somos": 47097,
  "son": 2132,
  "sons": 49332,
  "sor": 6474,
  "sos": 1607,
  "soy": 39278,
  "sp": 31086,
  "specific": 48354,
  "ss": 16461,
  "sson": 43047,
  "ssss": 49974,
  "st": 9311,
  "sta": 10994,
  "stan": 38675,
  "stas": 33589,
  "ste": 5378,
  "stedes": 45795,
  "stein": 18669,
  "ster": 20183,
  "steÃŃna": 27298,
  "sti": 31388,
  "sticas": 48462,
  "stico": 31362,
  "stru": 20346,
  "su": 5315,
  "sub": 20613,
  "sue": 17358,
  "sues": 29714,
  "sul": 12826,
  "sulf": 40174,
  "sulfon": 45476,
  "sum": 36466,
  "sun": 47702,
  "sup": 41278,
  "super": 22337,
  "sur": 32035,
  "sus": 15674,
  "sy": 34795,
  "sÃ£o": 42043,
  "sÃ©nico": 29301,
  "sÃ³": 33494,
  "sÃ³lo": 23370,
  "sÃŃ": 21537,
  "sÃŃn": 16349,
  "sÃŃndrome": 22225,
  "sÃŃntomas": 45626,
  "t": 87,
  "ta": 308,
  "tab": 1662,
  "taba": 6990,
  "tabaco": 28578,
  "taban": 7234,
  "tabani": 32954,
  "tabase": 27238,
  "tabilidad": 9591,
  "tabina": 24830,
  "tabla": 11825,
  "table": 2734,
  "tables": 7173,
  "tabria": 9415,
  "tac": 1407,
  "tach": 33951,
  "taci": 38207,
  "tacion": 20586,
  "tacional": 23070,
  "taciones": 1723,
  "taciÃ³n": 859,
  "tad": 1466,
  "tada": 1618,
  "tadas": 2169,
  "tades": 25840,
  "tadina": 34984,
  "tado": 758,
  "tadona": 28329,
  "tador": 5791,
  "tadora": 9958,
  "tadoras": 15694,
  "tadores": 5527,
  "tados": 659,
  "tadura": 15261,
  "taduras": 37589,
  "tag": 11770,
  "tage": 37147,
  "tagland": 23049,
  "tago": 24027,
  "tagon": 3882,
  "tagonistas": 36172,
  "tah": 37676,
  "tain": 13153,
  "tainment": 46906,
  "taje": 10843,
  "tajes": 48028,
  "take": 22450,
  "tal": 555,
  "tala": 29548,
  "tale": 31688,
  "tales": 2466,
  "talgia": 26792,
  "talia": 7205,
  "talidad": 2041,
  "taliz": 12779,
  "talizas": 17671,
  "talla": 5751,
  "talm": 5740,
  "talo": 33121,
  "talopram": 42624,
  "talos": 32262,
  "tam": 17768,
  "tama": 48006,
  "tambi": 13773,
  "tambiÃ©n": 14351,
  "tamen": 15578,
  "tamente": 1277,
  "tami": 37224,
  "tamida": 41909,
  "tamiento": 1866,
  "tamientos": 15886,
  "tamin": 28145,
  "tamina": 13765,
  "taminaciÃ³n": 30955,
  "tamivir": 45809,
  "tamo": 18602,
  "tamos": 4443,
  "tan": 571,
  "tana": 10089,
  "tanas": 36337,
  "tanasia": 23307,
  "tance": 46597,
  "tancia": 1278,
  "tancias": 2613,
  "tander": 13939,
  "tando": 2200,
  "tane": 30715,
  "tanea": 40711,
  "taneo": 19003,
  "taneous": 21171,
  "taner": 29770,
  "tanercept": 38983,
  "tanes": 41884,
  "tang": 43664,
  "tani": 49994,
  "tania": 42745,
  "tano": 8533,
  "tanol": 17761,
  "tanos": 12333,
  "tant": 33805,
  "tante": 802,
  "tantes": 1456,
  "tanto": 17713,
  "tanzas": 18213,
  "tar": 516,
  "tara": 7094,
  "tard": 38074,
  "tardo": 49136,
  "tares": 29490,
  "tari": 26430,
  "taria": 3568,
  "tarias": 8703,
  "tario": 3335,
  "tarios": 4617,
  "tarismo": 14010,
  "tarlo": 17898,
  "tarnos": 24463,
  "taro": 33340,
  "taron": 3099,
  "tarra": 37612,
  "tarse": 3184,
  "tarte": 25048,
  "tary": 18045,
  "tarÃ¡": 6228,
  "tarÃ¡n": 17509,
  "tarÃŃa": 4039,
  "tas": 489,
  "tasa": 10012,
  "tasas": 49545,
  "tase": 21861,
  "tasia": 15095,
  "tasias": 24775,
  "tasio": 8679,
  "tasis": 5536,
  "tat": 13571,
  "tata": 4792,
  "tate": 23094,
  "tatina": 30302,
  "tation": 10443,
  "tations": 36880,
  "tativa": 10496,
  "tativas": 6555,
  "tativo": 13716,
  "tativos": 35673,
  "tato": 19366,
  "tats": 32597,
  "taur": 4436,
  "tavirus": 39901,
  "tavo": 7984,
  "taxel": 36418,
  "taxima": 45629,
  "taxis": 41978,
  "tay": 40480,
  "taz": 39349,
  "taza": 37870,
  "tazidi": 48237,
  "tazo": 34039,
  "taÃ±a": 15353,
  "taÃ±as": 19349,
  "taÃ±o": 23269,
  "tbol": 5122,
  "tch": 17045,
  "td": 32904,
  "te": 309,
  "tea": 13058,
  "teado": 29857,
  "tear": 26886,
  "teas": 43232,
  "tec": 977,
  "teca": 6982,
  "tecas": 13955,
  "tecciÃ³n": 6562,
  "tecen": 46975,
  "tech": 20309,
  "tecn": 8760,
  "tecnia": 39802,
  "tecnologÃŃa": 12882,
  "tecol": 25136,
  "tectomÃŃa": 11656,
  "ted": 1515,
  "tedra": 12349,
  "tedras": 49331,
  "tega": 11927,
  "tegr": 6000,
  "tegra": 12843,
  "tegraciÃ³n": 23817,
  "tegravir": 49540,
  "tegro": 34900,
  "tegui": 31354,
  "tein": 10149,
  "tej": 45790,
  "tel": 2204,
  "tela": 9960,
  "telar": 25808,
  "tele": 25298,
  "telec": 23723,
  "telerÃŃa": 17208,
  "teles": 10318,
  "teli": 6404,
  "telial": 10543,
  "teliales": 12654,
  "telio": 10013,
  "telioma": 33921,
  "tell": 29912,
  "tella": 14375,
  "tello": 41172,
  "telo": 21164,
  "tely": 32194,
  "tem": 6696,
  "tema": 13495,
  "tematic": 17554,
  "temia": 26703,
  "temos": 22649,
  "temp": 11290,
  "tempor": 20817,
  "temporada": 46722,
  "temporal": 29680,
  "tems": 7448,
  "ten": 401,
  "tena": 15276,
  "tenas": 32699,
  "tencia": 7855,
  "tencias": 18689,
  "tenciÃ³n": 917,
  "tendo": 24616,
  "tene": 39854,
  "tenegro": 50130,
  "tenemos": 44079,
  "tener": 1388,
  "tenerse": 31059,
  "tengo": 35228,
  "tenia": 14522,
  "tenible": 38970,
  "teno": 18782,
  "tenoides": 38011,
  "tenos": 27599,
  "tenosis": 7158,
  "tens": 1099,
  "tense": 12121,
  "tensina": 13852,
  "tension": 19880,
  "tensiones": 37967,
  "tensive": 49065,
  "tensiÃ³n": 2078,
  "tenso": 27651,
  "tent": 6039,
  "tenta": 9395,
  "tente": 5743,
  "tentes": 9555,
  "tento": 37643,
  "tentri": 50064,
  "teo": 3360,
  "teor": 40721,
  "teos": 6953,
  "tepec": 46318,
  "ter": 348,
  "tera": 1109,
  "teral": 3652,
  "terales": 8153,
  "teralmente": 44541,
  "terape": 7746,
  "terapeuta": 22970,
  "terapeutas": 26319,
  "terapia": 1676,
  "terapias": 23908,
  "terapÃ©u": 11868,
  "terapÃ©utica": 29639,
  "terapÃ©uticas": 40510,
  "terapÃ©utico": 20462,
  "terapÃ©uticos": 34983,
  "teras": 7368,
  "terdam": 46570,
  "terectomÃŃa": 21025,
  "tered": 33962,
  "teres": 13274,
  "teri": 607,
  "teria": 4642,
  "terial": 1525,
  "teriales": 14016,
  "terias": 40506,
  "tericia": 17765,
  "teridad": 40167,
  "tering": 34526,
  "terio": 2008,
  "terior": 1080,
  "teriora": 34336,
  "teriores": 3076,
  "teriormente": 7079,
  "terioro": 31479,
  "terios": 2428,
  "teritis": 45571,
  "term": 18935,
  "termia": 14741,
  "termin": 1176,
  "terminal": 33261,
  "tern": 5602,
  "terna": 8919,
  "ternal": 23050,
  "ternamente": 44717,
  "ternas": 28981,
  "ternet": 13352,
  "ternidad": 15114,
  "terno": 13240,
  "ternos": 36469,
  "tero": 2222,
  "teroide": 35871,
  "teroides": 8544,
  "terol": 8487,
  "terona": 7898,
  "teros": 5496,
  "terosex": 25886,
  "terra": 9869,
  "terres": 23819,
  "territorial": 18268,
  "terror": 38282,
  "terrÃ¡n": 6932,
  "ters": 8405,
  "tery": 24715,
  "terÃ¡p": 14348,
  "terÃ¡pica": 29010,
  "terÃ¡pico": 26595,
  "terÃ¡picos": 32410,
  "terÃŃa": 6807,
  "terÃŃas": 15278,
  "tes": 426,
  "tese": 30007,
  "tesis": 2498,
  "test": 14816,
  "tete": 31152,
  "teto": 37317,
  "tetra": 39862,
  "teur": 22689,
  "tex": 10643,
  "text": 49193,
  "texto": 26489,
  "tez": 12676,
  "teza": 13501,
  "teÃŃna": 34088,
  "th": 982,
  "tha": 14785,
  "thal": 20506,
  "than": 21470,
  "the": 9939,
  "thel": 22878,
  "thema": 31824,
  "ther": 5372,
  "thera": 42714,
  "therapy": 17355,
  "therine": 39484,
  "thers": 22899,
  "thes": 21705,
  "thesda": 47107,
  "thesis": 32836,
  "thing": 40891,
  "thma": 26761,
  "tho": 15102,
  "thod": 9889,
  "thon": 36305,
  "thor": 38889,
  "though": 29634,
  "thritis": 21816,
  "thro": 16441,
  "throp": 29665,
  "ths": 21032,
  "thus": 26388,
  "thy": 12571,
  "thyro": 44932,
  "ti": 281,
  "tia": 2051,
  "tiago": 4726,
  "tiagu": 50236,
  "tial": 14606,
  "tiana": 28260,
  "tias": 18385,
  "tiasis": 49784,
  "tiaz": 20764,
  "tiazem": 44464,
  "tiazida": 31524,
  "tibilidad": 8403,
  "tible": 4918,
  "tibles": 6366,
  "tic": 363,
  "tica": 565,
  "tical": 5450,
  "ticales": 16697,
  "ticamente": 2682,
  "ticano": 37723,
  "ticar": 31166,
  "ticaria": 14227,
  "ticas": 794,
  "ticasona": 50185,
  "tice": 10992,
  "ticen": 24357,
  "ticer": 35519,
  "ticercosis": 42603,
  "tices": 21031,
  "tici": 26142,
  "ticia": 4062,
  "ticias": 5771,
  "ticidad": 9173,
  "ticio": 42494,
  "ticismo": 21727,
  "ticiÃ³n": 5948,
  "tick": 44481,
  "tico": 574,
  "ticoag": 6606,
  "ticoides": 7678,
  "ticomim": 50139,
  "ticos": 828,
  "tics": 6949,
  "ticu": 45609,
  "ticuatro": 47421,
  "ticuer": 15866,
  "ticuerpo": 39207,
  "ticuerpos": 18763,
  "ticular": 2367,
  "ticulares": 9005,
  "ticularmente": 39303,
  "ticum": 37605,
  "ticus": 38511,
  "ticut": 47855,
  "tid": 6432,
  "tida": 3704,
  "tidad": 1602,
  "tidades": 5548,
  "tidamente": 32545,
  "tidas": 5467,
  "tide": 28697,
  "tidez": 46027,
  "tidi": 5698,
  "tidina": 22285,
  "tidis": 34493,
  "tiditis": 34452,
  "tido": 1171,
  "tidor": 45152,
  "tidora": 30383,
  "tidores": 30418,
  "tidos": 2830,
  "tidosis": 49039,
  "tie": 41198,
  "tiembre": 47151,
  "tiempo": 19217,
  "tiempos": 44662,
  "tiende": 6958,
  "tiendo": 4548,
  "tiene": 2067,
  "tienen": 3378,
  "tienes": 39063,
  "tier": 20738,
  "tiera": 39022,
  "tieron": 7100,
  "tierra": 48155,
  "ties": 13116,
  "tif": 13575,
  "tifi": 8725,
  "tific": 1127,
  "tifica": 6509,
  "tificaciÃ³n": 4679,
  "tificada": 26551,
  "tificado": 6838,
  "tificados": 29368,
  "tificar": 6542,
  "tification": 34106,
  "tificia": 21308,
  "tifique": 48260,
  "tify": 45422,
  "tig": 28576,
  "tiga": 5980,
  "tigar": 18228,
  "tigma": 22120,
  "tigmatismo": 27159,
  "tigmina": 41316,
  "tigo": 7006,
  "tigos": 32129,
  "tii": 41540,
  "til": 559,
  "tila": 13947,
  "tilaciÃ³n": 6021,
  "tilde": 37953,
  "tile": 27323,
  "tilenglicol": 40261,
  "tileno": 25367,
  "tiles": 6352,
  "tilidad": 4774,
  "tilina": 30428,
  "till": 19557,
  "tilla": 3464,
  "tillado": 29099,
  "tillas": 6244,
  "tillo": 6489,
  "tillos": 26306,
  "tilo": 12575,
  "tilos": 47219,
  "tim": 4006,
  "tima": 5052,
  "timamente": 19268,
  "timar": 27787,
  "timas": 6485,
  "time": 31431,
  "timi": 6692,
  "timia": 39229,
  "timiento": 29520,
  "timo": 9611,
  "timore": 31780,
  "timos": 8624,
  "tin": 522,
  "tina": 1408,
  "tinaciÃ³n": 41005,
  "tinal": 3677,
  "tinales": 7336,
  "tinamente": 20410,
  "tinas": 6651,
  "tine": 14668,
  "tinela": 21295,
  "tinencia": 6740,
  "tiner": 22047,
  "tines": 18248,
  "ting": 2918,
  "tington": 28210,
  "tini": 31457,
  "tinib": 11762,
  "tinina": 9134,
  "tino": 2117,
  "tinos": 10330,
  "tio": 2708,
  "tion": 927,
  "tional": 3338,
  "tiones": 45828,
  "tionina": 39236,
  "tions": 3095,
  "tiop": 27117,
  "tioprina": 33338,
  "tios": 6587,
  "tious": 24672,
  "tipo": 5321,
  "tipos": 7124,
  "tique": 3651,
  "tir": 748,
  "tira": 10740,
  "tiras": 20909,
  "tire": 47592,
  "tires": 34609,
  "tiro": 6046,
  "tiroidismo": 9419,
  "tiroxina": 42221,
  "tirse": 23951,
  "tirÃ¡": 15956,
  "tis": 686,
  "tism": 33687,
  "tismo": 3108,
  "tismos": 10831,
  "tista": 4124,
  "tistas": 4685,
  "tiste": 47705,
  "tistical": 22486,
  "tistics": 32461,
  "tit": 21201,
  "tita": 8010,
  "titas": 27057,
  "titis": 2632,
  "tito": 9299,
  "titos": 36417,
  "titu": 756,
  "tituciÃ³n": 16897,
  "titud": 3486,
  "titude": 48281,
  "titudes": 6534,
  "tituido": 35061,
  "tituir": 40015,
  "tium": 27733,
  "tiv": 366,
  "tiva": 650,
  "tivaciÃ³n": 17665,
  "tival": 7916,
  "tivales": 21746,
  "tivamente": 1759,
  "tivar": 19992,
  "tivas": 1004,
  "tive": 2973,
  "tively": 22757,
  "tiveness": 21209,
  "tives": 17709,
  "tividad": 2069,
  "tividade": 46750,
  "tividades": 26331,
  "tivismo": 27224,
  "tivista": 33264,
  "tivitis": 15555,
  "tivity": 23608,
  "tivo": 567,
  "tivos": 764,
  "tiz": 2975,
  "tiza": 7711,
  "tizaciones": 32250,
  "tizaciÃ³n": 7464,
  "tizada": 13253,
  "tizadas": 28293,
  "tizado": 10103,
  "tizados": 17774,
  "tizan": 25584,
  "tizando": 39132,
  "tizante": 28867,
  "tizantes": 39935,
  "tizar": 4230,
  "tizo": 48534,
  "tizÃ³": 31156,
  "tiÃ©ndose": 14122,
  "tiÃ©rrez": 49092,
  "tiÃ³": 3399,
  "tiÃ³n": 15392,
  "tl": 34431,
  "tle": 16365,
  "tman": 28753,
  "tmann": 36587,
  "tment": 5343,
  "tn": 10040,
  "tnam": 26834,
  "tners": 37340,
  "to": 326,
  "tobacter": 40399,
  "toc": 48475,
  "tock": 22783,
  "tod": 3694,
  "toda": 30322,
  "todas": 35251,
  "todavÃŃa": 48265,
  "todo": 7802,
  "todos": 15465,
  "todÃ³n": 36705,
  "tografÃŃa": 25666,
  "toid": 47579,
  "toide": 9413,
  "toidea": 41029,
  "toides": 45801,
  "tol": 5615,
  "tole": 26011,
  "toles": 22035,
  "tolog": 27731,
  "tologia": 28610,
  "tologo": 39801,
  "tology": 21690,
  "tologÃŃa": 1383,
  "tolÃ³gica": 8463,
  "tolÃ³gicas": 11642,
  "tolÃ³gico": 12568,
  "tolÃ³gicos": 13715,
  "tom": 751,
  "toma": 3503,
  "tomas": 8788,
  "tomat": 30696,
  "tomatic": 40595,
  "tomatologÃŃa": 6780,
  "tome": 10118,
  "tomegalia": 37399,
  "tometr": 35831,
  "tometrÃŃa": 33530,
  "tomia": 21353,
  "tomiositis": 49263,
  "tomizados": 36681,
  "tomo": 13215,
  "tomografÃŃa": 36763,
  "tomos": 34909,
  "tomy": 15722,
  "tomÃŃa": 2678,
  "tomÃŃas": 16291,
  "ton": 1266,
  "tona": 33862,
  "tonces": 9198,
  "tone": 15778,
  "tones": 4783,
  "toneur": 49687,
  "tonia": 34125,
  "tonin": 31021,
  "tonina": 9138,
  "tonio": 35527,
  "tono": 45064,
  "tonÃŃa": 14608,
  "top": 8289,
  "topÃŃa": 40757,
  "tor": 389,
  "tora": 2068,
  "torado": 48630,
  "toral": 8896,
  "torales": 18866,
  "toras": 8009,
  "torce": 23870,
  "tore": 26382,
  "tores": 786,
  "tori": 5460,
  "toria": 1035,
  "torial": 3545,
  "toriales": 11879,
  "toriamente": 12986,
  "torias": 2458,
  "toriedad": 28913,
  "tories": 37072,
  "torio": 1207,
  "torios": 2244,
  "toris": 34151,
  "torn": 14152,
  "torno": 8851,
  "tornos": 20625,
  "toro": 33260,
  "torre": 22882,
  "torrique": 33432,
  "tors": 9657,
  "torsiones": 44207,
  "tory": 7129,
  "torÃ¡ci": 29794,
  "torÃ¡cica": 33130,
  "torÃ¡cico": 34969,
  "torÃŃa": 12243,
  "tos": 378,
  "tosa": 6284,
  "tosas": 21190,
  "toscopia": 34921,
  "toscopio": 39764,
  "tosis": 5170,
  "toso": 10950,
  "tosos": 24705,
  "tosterona": 12809,
  "total": 25366,
  "town": 42835,
  "tox": 4028,
  "toxi": 28547,
  "toxic": 49408,
  "toxicidad": 14698,
  "toxina": 25189,
  "toxinas": 28915,
  "tr": 356,
  "tra": 464,
  "trabaj": 33251,
  "trabajo": 34602,
  "trac": 9361,
  "tracciones": 34465,
  "tracciÃ³n": 17798,
  "traci": 19074,
  "traciones": 14545,
  "traciÃ³n": 5336,
  "tract": 35155,
  "tractores": 36928,
  "trad": 25279,
  "trada": 11596,
  "tradas": 32601,
  "trado": 8444,
  "trados": 13923,
  "traje": 19182,
  "trajes": 39645,
  "tral": 3431,
  "trales": 13024,
  "tralidad": 50104,
  "tralina": 44475,
  "trall": 39195,
  "tramos": 38446,
  "tran": 1845,
  "trand": 46158,
  "trando": 27118,
  "trans": 6246,
  "transfer": 20734,
  "transferasa": 27257,
  "trante": 19795,
  "trantes": 33890,
  "traqueal": 23500,
  "trar": 8287,
  "traron": 31767,
  "trarse": 31196,
  "tras": 728,
  "traso": 43531,
  "trasplante": 21842,
  "trastorno": 47042,
  "tratamiento": 15949,
  "trate": 7049,
  "trategia": 49552,
  "tration": 42795,
  "trato": 6602,
  "tratos": 24999,
  "traum": 18065,
  "trauma": 30349,
  "tre": 1006,
  "trea": 27086,
  "tream": 46575,
  "trel": 42990,
  "tremia": 20298,
  "tren": 11278,
  "trength": 37942,
  "treo": 10283,
  "trepo": 41232,
  "tres": 6343,
  "tress": 14769,
  "tretino": 46682,
  "trex": 35261,
  "trexato": 19329,
  "tri": 621,
  "tria": 8666,
  "trial": 30482,
  "triaxona": 33420,
  "trib": 1263,
  "tribu": 18022,
  "tribuciones": 27559,
  "tribuciÃ³n": 11059,
  "tribuir": 48070,
  "tric": 2720,
  "trica": 2587,
  "tricamente": 35606,
  "tricas": 5244,
  "trices": 6619,
  "trich": 42712,
  "tricia": 7180,
  "tricidad": 13678,
  "trick": 28815,
  "trico": 3205,
  "tricos": 4144,
  "trics": 16463,
  "tridium": 25687,
  "tries": 19888,
  "triglicer": 32468,
  "trigliceridemia": 34435,
  "tril": 49230,
  "trillo": 46320,
  "trimo": 41212,
  "trimonio": 6909,
  "trimoxazol": 44300,
  "trin": 33995,
  "trina": 12848,
  "trinas": 33377,
  "trio": 22482,
  "triol": 41445,
  "trip": 21283,
  "tripsina": 45726,
  "triptilina": 38017,
  "tris": 35622,
  "tritis": 4260,
  "trito": 10939,
  "trix": 32625,
  "triz": 4017,
  "tro": 440,
  "trocin": 10888,
  "trof": 43251,
  "trofia": 6775,
  "trofias": 33185,
  "troke": 17352,
  "trol": 4065,
  "trom": 26732,
  "tromb": 11897,
  "tromicina": 29670,
  "tron": 6632,
  "trona": 33926,
  "trones": 5686,
  "trong": 24735,
  "tronic": 29843,
  "tronidazol": 29416,
  "tronomÃŃa": 17030,
  "trop": 5293,
  "tropina": 19891,
  "tropio": 42338,
  "tropo": 33101,
  "tropÃŃa": 40382,
  "tros": 605,
  "trosa": 38293,
  "troscopia": 19416,
  "trosis": 9192,
  "troso": 36420,
  "trospec": 42727,
  "tru": 6066,
  "truc": 1055,
  "trucciones": 6922,
  "trucciÃ³n": 2479,
  "tructiva": 8376,
  "tructure": 48212,
  "truida": 41855,
  "truir": 14954,
  "trum": 3049,
  "trus": 29907,
  "try": 8054,
  "trÃ¡": 26728,
  "trÃ¡fico": 32236,
  "trÃ¡n": 17687,
  "trÃ¡s": 4646,
  "trÃ©": 42607,
  "trÃ©s": 15441,
  "trÃ³": 5644,
  "trÃ³fica": 14899,
  "trÃ³ficas": 37466,
  "trÃ³fico": 32887,
  "trÃ³ficos": 41342,
  "trÃ³geno": 14000,
  "trÃ³leo": 18290,
  "trÃ³n": 2403,
  "trÃ³nica": 49437,
  "trÃ³p": 14390,
  "trÃ³pica": 42725,
  "trÃ³pico": 33293,
  "trÃ³picos": 30309,
  "trÃ³podos": 40028,
  "trÃ¶": 39368,
  "trÃ¶m": 41013,
  "trÃŃa": 2243,
  "trÃŃas": 18252,
  "ts": 1555,
  "tsch": 40305,
  "tson": 21837,
  "tsu": 21277,
  "tt": 2083,
  "tta": 19861,
  "tte": 11116,
  "tted": 31267,
  "tten": 50090,
  "tter": 14280,
  "tti": 15509,
  "tting": 34751,
  "ttle": 24871,
  "tto": 18727,
  "tton": 45875,
  "tty": 22189,
  "tu": 343,
  "tua": 10679,
  "tuaciones": 20361,
  "tuaciÃ³n": 10138,
  "tual": 1892,
  "tuales": 3760,
  "tualidad": 16640,
  "tualizaciÃ³n": 26504,
  "tualmente": 3138,
  "tuando": 28687,
  "tuar": 14697,
  "tuario": 22972,
  "tuarios": 48506,
  "tubaciÃ³n": 34439,
  "tube": 16040,
  "tuber": 22657,
  "tubre": 3501,
  "tud": 1837,
  "tudes": 6372,
  "tudi": 532,
  "tudio": 15450,
  "tudios": 25591,
  "tudy": 4676,
  "tul": 7626,
  "tula": 11805,
  "tulas": 17123,
  "tulia": 24186,
  "tulo": 49908,
  "tum": 7360,
  "tumb": 7174,
  "tumbre": 15597,
  "tumor": 38871,
  "tun": 6335,
  "tuna": 17990,
  "tunadamente": 10905,
  "tuo": 37016,
  "tuosa": 20066,
  "tuosas": 37093,
  "tuoso": 16771,
  "tuosos": 29120,
  "tur": 929,
  "tura": 767,
  "turaciÃ³n": 8243,
  "turada": 25364,
  "turadas": 21144,
  "turado": 21873,
  "turados": 18539,
  "tural": 1535,
  "turales": 2763,
  "turalmente": 28652,
  "turan": 34842,
  "turar": 25439,
  "turas": 1709,
  "ture": 5385,
  "tures": 16375,
  "turi": 16710,
  "turia": 17540,
  "turias": 8978,
  "turidad": 27623,
  "turismo": 42875,
  "turista": 43929,
  "turo": 2597,
  "turos": 6857,
  "turÃŃ": 31446,
  "tus": 2333,
  "tussis": 39926,
  "tuvieron": 7622,
  "tuvo": 4500,
  "tuximab": 20387,
  "tuzumab": 22803,
  "tv": 43822,
  "twitter": 26612,
  "ty": 3997,
  "tyle": 24221,
  "type": 24677,
  "types": 38743,
  "tz": 7889,
  "tza": 19347,
  "tzer": 35642,
  "tÃ¡": 2372,
  "tÃ¡bamos": 48959,
  "tÃ¡ce": 28868,
  "tÃ¡culo": 43413,
  "tÃ¡is": 42336,
  "tÃ¡l": 7854,
  "tÃ¡lamo": 21278,
  "tÃ¡logo": 14303,
  "tÃ¡menes": 46793,
  "tÃ¡mico": 47301,
  "tÃ¡n": 1537,
  "tÃ¡namo": 24836,
  "tÃ¡nd": 17873,
  "tÃ¡ndola": 50082,
  "tÃ¡ndole": 40332,
  "tÃ¡ndolo": 40029,
  "tÃ¡ndonos": 49519,
  "tÃ¡ndose": 11942,
  "tÃ¡nea": 3902,
  "tÃ¡neamente": 9637,
  "tÃ¡neas": 17483,
  "tÃ¡neo": 8288,
  "tÃ¡neos": 18393,
  "tÃ¡nica": 33966,
  "tÃ¡nico": 35423,
  "tÃ¡r": 20945,
  "tÃ¡s": 4015,
  "tÃ¡sico": 38099,
  "tÃ¡stasis": 6933,
  "tÃ¡stro": 22728,
  "tÃ¡tica": 23408,
  "tÃ¡ticas": 47221,
  "tÃ¡tico": 27146,
  "tÃ¡ticos": 26401,
  "tÃ©": 2611,
  "tÃ©cn": 23676,
  "tÃ©cnica": 33239,
  "tÃ©cnicas": 48566,
  "tÃ©cnico": 45124,
  "tÃ©cnicos": 47793,
  "tÃ©g": 6971,
  "tÃ©is": 41529,
  "tÃ©lite": 20969,
  "tÃ©n": 17262,
  "tÃ©rico": 50091,
  "tÃ©rmino": 24459,
  "tÃ©s": 9165,
  "tÃ©ter": 5869,
  "tÃ©tica": 7756,
  "tÃ©ticas": 31752,
  "tÃ©tico": 31363,
  "tÃ³": 1288,
  "tÃ³fano": 31491,
  "tÃ³l": 14394,
  "tÃ³lica": 7675,
  "tÃ³lico": 21979,
  "tÃ³licos": 28583,
  "tÃ³loga": 25947,
  "tÃ³logo": 8332,
  "tÃ³logos": 10112,
  "tÃ³n": 2556,
  "tÃ³nica": 20411,
  "tÃ³nicas": 26204,
  "tÃ³nico": 24697,
  "tÃ³nicos": 31569,
  "tÃ³p": 27119,
  "tÃ³pica": 14764,
  "tÃ³picas": 45710,
  "tÃ³pico": 21563,
  "tÃ³picos": 40586,
  "tÃ³rax": 16912,
  "tÃ³rica": 34557,
  "tÃ³x": 15806,
  "tÃ³xica": 36747,
  "tÃ³xicas": 47202,
  "tÃ³xico": 31497,
  "tÃ³xicos": 22710,
  "tÃº": 12009,
  "tÃºa": 4643,
  "tÃºan": 6621,
  "tÃºe": 39136,
  "tÃºen": 49875,
  "tÃĥ": 44759,
  "tÃŃ": 2513,
  "tÃŃa": 5814,
  "tÃŃan": 19840,
  "tÃŃas": 10369,
  "tÃŃcolis": 46884,
  "tÃŃcul": 1380,
  "tÃŃcula": 20461,
  "tÃŃculas": 6658,
  "tÃŃculo": 8764,
  "tÃŃculos": 13799,
  "tÃŃdica": 49203,
  "tÃŃdico": 42151,
  "tÃŃes": 22974,
  "tÃŃlico": 44912,
  "tÃŃn": 2364,
  "tÃŃp": 11025,
  "tÃŃpica": 19067,
  "tÃŃpico": 46686,
  "u": 88,
  "ua": 6230,
  "uaciÃ³n": 20839,
  "uada": 13413,
  "uadas": 33769,
  "uado": 17041,
  "uados": 23057,
  "uaga": 40939,
  "ual": 1052,
  "uales": 2514,
  "ualidad": 11583,
  "ualmente": 5927,
  "uan": 18246,
  "uar": 15187,
  "uario": 35791,
  "uas": 29799,
  "uato": 36224,
  "ub": 4127,
  "uba": 49863,
  "uber": 45000,
  "uble": 25101,
  "ubr": 33924,
  "uc": 386,
  "uca": 9463,
  "ucal": 17551,
  "ucalip": 37657,
  "ucar": 11034,
  "ucas": 37052,
  "ucci": 39809,
  "ucciÃ³n": 8934,
  "uce": 6368,
  "uces": 13191,
  "uch": 608,
  "ucha": 9648,
  "uchar": 46760,
  "uchas": 16184,
  "uche": 25848,
  "ucher": 38960,
  "uches": 46546,
  "uchi": 30571,
  "ucho": 14605,
  "uchos": 23717,
  "uci": 14036,
  "ucidad": 24276,
  "uciones": 7532,
  "uciÃ³n": 902,
  "uck": 21253,
  "ucker": 45290,
  "ucle": 4103,
  "uclear": 18236,
  "ucleares": 29094,
  "uco": 12311,
  "ucos": 16145,
  "ucosa": 24071,
  "ucristo": 29162,
  "ucÃŃa": 5351,
  "ud": 499,
  "uda": 1387,
  "udad": 1507,
  "udades": 6550,
  "udado": 19457,
  "udados": 38730,
  "udal": 16121,
  "udar": 11320,
  "udas": 4156,
  "ude": 7248,
  "uden": 12045,
  "udes": 35075,
  "udi": 19511,
  "udina": 19556,
  "uding": 28415,
  "udo": 2723,
  "udor": 50023,
  "udos": 12635,
  "udul": 42721,
  "udÃŃ": 24042,
  "ue": 284,
  "ueba": 8539,
  "ueban": 33224,
  "uebas": 16809,
  "uebe": 27404,
  "ueble": 26140,
  "uebles": 12169,
  "ueces": 49386,
  "ueducto": 46092,
  "uega": 18380,
  "uego": 1682,
  "uegos": 6403,
  "uel": 1005,
  "uela": 2048,
  "uelas": 4505,
  "uelen": 18039,
  "uello": 4293,
  "uelo": 5245,
  "uelos": 10398,
  "uelta": 19066,
  "ueltas": 36661,
  "uelto": 20469,
  "ueltos": 30268,
  "uelva": 17427,
  "uelve": 14818,
  "uelven": 28105,
  "uen": 908,
  "uena": 11361,
  "uer": 595,
  "uera": 19882,
  "ueras": 38787,
  "uerdo": 21261,
  "uero": 25712,
  "uerra": 3758,
  "uerta": 25413,
  "uertas": 40223,
  "uerte": 14045,
  "uerto": 27685,
  "uerzo": 17359,
  "ues": 436,
  "uesa": 42522,
  "ueso": 48040,
  "uesta": 3734,
  "uestas": 42904,
  "uestion": 12079,
  "uestionario": 19163,
  "uesto": 18410,
  "uestra": 3612,
  "uestras": 13896,
  "uestro": 5092,
  "uestros": 7946,
  "ueta": 21395,
  "ueto": 27294,
  "uev": 684,
  "ueva": 9048,
  "uevan": 25871,
  "uevara": 23064,
  "uevas": 16388,
  "ueve": 4737,
  "ueven": 12869,
  "ueves": 7672,
  "uevo": 24251,
  "uevos": 34057,
  "uey": 35660,
  "uez": 22389,
  "uf": 16654,
  "uficiencia": 11931,
  "ufra": 48550,
  "ug": 5488,
  "uga": 19990,
  "ugas": 47257,
  "ugh": 8601,
  "ught": 49932,
  "uginosa": 21373,
  "ui": 26586,
  "uida": 11073,
  "uidad": 29367,
  "uidas": 18551,
  "uido": 3605,
  "uidos": 11541,
  "uimos": 26047,
  "uir": 1506,
  "uis": 47661,
  "ujo": 27608,
  "uk": 13313,
  "ul": 330,
  "ula": 1111,
  "ulacion": 38863,
  "ulaciones": 4946,
  "ulaciÃ³n": 1573,
  "ulada": 7421,
  "uladas": 27219,
  "ulado": 5166,
  "ulador": 20531,
  "uladora": 39560,
  "uladoras": 49951,
  "uladores": 21906,
  "ulados": 12953,
  "ulan": 18196,
  "ulando": 30559,
  "ulante": 30991,
  "ulantes": 30942,
  "ular": 679,
  "ulares": 2001,
  "ulario": 19755,
  "ulas": 1155,
  "ulata": 43243,
  "ulation": 9250,
  "ulcor": 20697,
  "uld": 11598,
  "ule": 14747,
  "ules": 28959,
  "ulf": 28930,
  "uli": 22343,
  "ulin": 22433,
  "ulina": 9628,
  "ulinas": 18894,
  "ulinemia": 29188,
  "ulio": 3336,
  "ulipas": 43170,
  "ulis": 43912,
  "ulitis": 10379,
  "ull": 9170,
  "ulla": 28393,
  "ullivan": 43059,
  "ullo": 33414,
  "ulo": 1444,
  "ulocitosis": 49965,
  "uloma": 47973,
  "ulonefritis": 31791,
  "ulopatÃŃa": 22540,
  "ulopatÃŃas": 31200,
  "uloplastia": 47261,
  "ulos": 2251,
  "ulosa": 16212,
  "ulosas": 38705,
  "uloso": 31390,
  "ulosos": 49806,
  "uloxetina": 47196,
  "uls": 2509,
  "ulsa": 37010,
  "ulsiÃ³n": 21019,
  "ult": 15820,
  "ulta": 1415,
  "ultad": 2608,
  "ultades": 3765,
  "ultados": 18823,
  "ultura": 5258,
  "ulty": 49093,
  "ulÃ³": 26859,
  "um": 428,
  "uma": 2245,
  "umab": 6364,
  "uman": 11971,
  "umann": 47814,
  "umar": 16843,
  "umarol": 36656,
  "umas": 20414,
  "umatologÃŃa": 8621,
  "umbre": 9533,
  "umbres": 12097,
  "ume": 6511,
  "umen": 2351,
  "umento": 8457,
  "umer": 10506,
  "umi": 7340,
  "umiendo": 48699,
  "umin": 7523,
  "umina": 29365,
  "uminal": 42720,
  "uminar": 42130,
  "uminis": 33222,
  "uminuria": 23538,
  "umir": 4277,
  "umo": 1500,
  "umologÃŃa": 13390,
  "umon": 4857,
  "umonia": 12108,
  "umonÃŃa": 24163,
  "umos": 13718,
  "ump": 20376,
  "umption": 24073,
  "un": 289,
  "una": 3107,
  "unaciÃ³n": 21151,
  "unal": 32076,
  "unar": 20974,
  "unas": 7760,
  "unca": 2695,
  "unci": 3173,
  "uncia": 8072,
  "uncias": 20891,
  "unciones": 19252,
  "unciÃ³n": 11601,
  "und": 1126,
  "unda": 11097,
  "undaciÃ³n": 12824,
  "undamente": 14633,
  "undation": 18013,
  "under": 48039,
  "unders": 24794,
  "undi": 35772,
  "unding": 44764,
  "undo": 22237,
  "unds": 33793,
  "une": 21808,
  "unes": 19376,
  "ung": 7501,
  "ungun": 22955,
  "ungunya": 23342,
  "uni": 31187,
  "unia": 49358,
  "unicaciones": 23611,
  "unicaciÃ³n": 44440,
  "unidad": 16311,
  "unidades": 30391,
  "uniden": 5524,
  "unidense": 27470,
  "univers": 25989,
  "universitario": 46815,
  "unning": 29574,
  "uno": 5907,
  "unos": 17256,
  "unque": 1030,
  "uns": 28917,
  "unt": 11943,
  "unta": 2716,
  "untades": 33227,
  "untamiento": 8890,
  "untamientos": 24747,
  "untariado": 35712,
  "unto": 1029,
  "untos": 6921,
  "untura": 21330,
  "unya": 12722,
  "uo": 13019,
  "uos": 8643,
  "up": 4166,
  "uper": 39741,
  "uplo": 38722,
  "uppl": 26849,
  "ups": 18249,
  "ur": 396,
  "ura": 1800,
  "uracilo": 43698,
  "uraciÃ³n": 9933,
  "urada": 30199,
  "urado": 22191,
  "urados": 45255,
  "ural": 4158,
  "urales": 9534,
  "urano": 50140,
  "urar": 18705,
  "uras": 2717,
  "urce": 28338,
  "urces": 49429,
  "ure": 4004,
  "urea": 30215,
  "ureas": 44711,
  "ures": 19863,
  "uresis": 19017,
  "ureteral": 43798,
  "uretral": 40335,
  "urette": 45010,
  "urez": 14007,
  "urg": 11387,
  "urgia": 48240,
  "urgo": 20598,
  "uri": 8441,
  "uria": 6699,
  "uric": 31116,
  "uricemia": 34103,
  "urina": 32814,
  "uring": 38677,
  "urinol": 43269,
  "uris": 8687,
  "urisma": 36531,
  "urnal": 5303,
  "urne": 32094,
  "uro": 874,
  "uron": 33936,
  "uros": 2692,
  "urosemida": 33199,
  "urosis": 38003,
  "urs": 7879,
  "urse": 20366,
  "urses": 22505,
  "ursing": 12264,
  "urt": 14429,
  "urto": 37828,
  "uru": 47893,
  "urus": 30974,
  "ury": 15902,
  "urÃ³": 45073,
  "urÃ³nico": 45193,
  "urÃŃ": 49157,
  "urÃŃa": 14234,
  "us": 368,
  "usa": 6793,
  "usal": 10731,
  "usas": 13208,
  "use": 6673,
  "user": 45504,
  "ush": 17804,
  "ushing": 31302,
  "usia": 5279,
  "usieron": 18029,
  "usion": 27481,
  "usiones": 15397,
  "usitis": 18712,
  "usiÃ³n": 1294,
  "usk": 17296,
  "uso": 1299,
  "usos": 17526,
  "usp": 19631,
  "uspÃŃ": 37832,
  "uss": 13442,
  "usse": 32731,
  "ust": 36814,
  "usta": 36917,
  "uste": 42890,
  "uster": 19797,
  "usto": 13591,
  "uston": 30606,
  "ustri": 2612,
  "ustria": 9418,
  "ustry": 50094,
  "ut": 1825,
  "uta": 4402,
  "utas": 4733,
  "utbol": 37296,
  "utch": 38175,
  "ute": 36657,
  "uter": 10554,
  "uterino": 31516,
  "uth": 12612,
  "utica": 44159,
  "util": 12995,
  "utilidad": 45658,
  "utilizaciÃ³n": 48549,
  "uto": 13978,
  "utom": 50057,
  "utor": 34127,
  "utos": 28809,
  "utr": 9362,
  "utri": 1412,
  "utriciÃ³n": 4189,
  "uts": 29985,
  "uty": 40601,
  "utz": 27494,
  "uu": 28135,
  "uve": 39957,
  "ux": 10247,
  "uy": 781,
  "uya": 10566,
  "uyan": 14677,
  "uye": 2202,
  "uyen": 3537,
  "uyendo": 5426,
  "uyente": 15939,
  "uyentes": 13059,
  "uyeron": 8313,
  "uyo": 19496,
  "uyÃ©ndose": 48230,
  "uyÃ³": 5875,
  "uz": 19569,
  "uza": 23411,
  "uÃ±a": 5783,
  "v": 89,
  "va": 1414,
  "vac": 16950,
  "vaca": 30581,
  "vaci": 33533,
  "vaciones": 36199,
  "vacizumab": 36650,
  "vaciÃ³n": 9263,
  "vad": 47234,
  "vada": 11167,
  "vadas": 36533,
  "vado": 6636,
  "vador": 8654,
  "vados": 18911,
  "vagin": 38915,
  "vaginal": 25998,
  "vailable": 23054,
  "vajal": 38728,
  "val": 1349,
  "valdo": 45301,
  "valencia": 27072,
  "valente": 19391,
  "valentes": 39252,
  "valo": 18260,
  "valor": 16772,
  "valoraciÃ³n": 40375,
  "valores": 41761,
  "valos": 37955,
  "vamos": 23153,
  "van": 1090,
  "vana": 40665,
  "vancia": 48077,
  "vania": 24502,
  "vant": 39635,
  "vante": 8931,
  "vantes": 22060,
  "var": 2383,
  "vard": 14371,
  "varez": 7051,
  "vari": 16368,
  "varo": 12026,
  "varox": 41656,
  "varrÃŃa": 47155,
  "vartis": 17233,
  "vas": 1371,
  "vasc": 47464,
  "vascul": 10588,
  "vascular": 5175,
  "vasculares": 10084,
  "vascularizaciÃ³n": 38241,
  "vasta": 13930,
  "vastatina": 15105,
  "vate": 45689,
  "vato": 32612,
  "ve": 662,
  "vea": 28113,
  "vec": 34958,
  "vech": 43115,
  "ved": 11179,
  "veda": 19362,
  "vedo": 26926,
  "vedra": 26633,
  "veillance": 27487,
  "veis": 26846,
  "vejecimiento": 16345,
  "vel": 2170,
  "vela": 17284,
  "veland": 41236,
  "velas": 38597,
  "vell": 44146,
  "velo": 19949,
  "velop": 9446,
  "velopment": 12252,
  "vement": 21725,
  "vemos": 16026,
  "ven": 624,
  "vena": 13236,
  "venci": 2891,
  "vencion": 10122,
  "venciones": 3477,
  "venciÃ³n": 1204,
  "vene": 14968,
  "venecimiento": 17328,
  "venen": 23843,
  "venes": 2657,
  "venia": 49037,
  "venida": 10975,
  "venidas": 42197,
  "venido": 24126,
  "venidos": 24856,
  "venil": 9455,
  "veniles": 22857,
  "venir": 21446,
  "veno": 31173,
  "venosa": 18804,
  "vens": 23318,
  "vent": 3843,
  "venta": 11403,
  "ventilaciÃ³n": 29895,
[...]
